#version: 0.2 - Trained by `huggingface/tokenizers`
Ġ ì
ì Ŀ
Ġ ë
í ķ
Ġ ê
ë ĭ
ì Ĺ
ìĿ ´
ëĭ ¤
ë Ĭ
Ġ í
ê ³
ëĬ Ķ
ìĹ Ĳ
ì Ħ
ì ł
ê °
ì ŀ
ìĿ Ħ
íķ ĺ
ìĿ ĺ
ì §
ë ¡
Ġì Ŀ
Ġì ŀ
íķ ľ
ê³ ł
ë¡ ľ
ë ¥
ì ĭ
¸ °
Ġì ł
ì ļ
ë ı
ì ľ
ì§ Ģ
ìĿ ¼
Ĥ ¬
ë ¦
Ī ëĭ¤
ê° Ģ
ìĿ Ģ
ì ķ
ê ²
ë ĵ
ìĦ ľ
Ġê °
ë¥ ¼
ì Ĭ
Į Ģ
Ġì ķ
Ġë °
ê ¸°
´ ë
ì Ľ
ëı Ħ
Ġê ²
ì ĸ
Ī ĺ
ë¦ ¬
ë §
ê µ
ë Ĥ
íķ ´
Ġë §
Ġì Ĺ
ìĿ ¸
ìľ ¼
Ġì ĭ
â Ģ
ìĭ ľ
ë ¶
Ġì §
ĠìĿ ´
ë ©
Ġì Ħ
ë ł
Ŀ ¼
ìŀ Ĳ
· ¸
ë ³
ìĬ ¤
ì ĥ
Ġê ³
ì Ĥ¬
ë °
Ġë ĭ
ë Ŀ¼
£ ¼
ìľ¼ ë¡ľ
ëĵ ¤
Ġìŀ Ī
Ġë Ĥ
ê² Į
ë ¬
Ġì ĺ
ëĭ Īëĭ¤
ì ĺ
ê³ ¼
Ġì Īĺ
í ĸ
Ġì Ĥ¬
ìĸ ´
ìĹĲ ìĦľ
Ġë ³
ë ŀ
í Ļ
Ġê ·¸
ìł ķ
Ġ 1
ìŀ ¥
ì ²
í ĺ
Ġë ĮĢ
ìĽ Ĳ
Ġë ¶
Ġì ľ
Ġì ĥ
Ġë ª
ëĤ ĺ
ë Ĳ
Ġ íķ
ìł ģ
¹ Ħ
ë ĮĢ
Ġê µ
ì Ļ
Ġ íķĺ
ì ¹
ļ Į
ë¶ Ģ
Ġê ¸°
ì Ĩ
ë Ł
ë į
Ġê° Ģ
Ġê² ĥ
ë ħ
ìĥ ģ
Ġë ĵ
ë© ´
ìķ Ħ
í Ĭ
ë ª
Ġì§ Ģ
ë§ Į
ìł ľ
ìļ ©
Ġ 2
í ĥ
ë ²
ìĦ ±
´ Ģ
Ġë ı
Ġ íķľ
Ġìł Ħ
Ġìķ Ħ
¡ °
íĬ ¸
Ġë ¬
Ġì ļ
ê ¸
ì £¼
¤ ĳ
Ġìĭ ľ
ìļ Ķ
íĻ Ķ
ìł Ħ
Ġì ĸ
íķĺ ëĬĶ
êµ Ń
ì Īĺ
Ġëĭ ¤
í ļĮ
ìĻ Ģ
ë³ ´
Ġ âĢ
Ġìł ľ
Ġìł ķ
. .
¯ ¸
ìĬ µ
í Ħ
Ġí Ļ
êµ ¬
Ġì Ĩ
ìĹ ¬
Ġí ĺ
ê ±
Ġìŀ Ĳ
ëĵ ľ
ëı Ļ
ìĽ Ķ
Ġë³ ´
ìĹ ħ
Ĩ µ
ì ¶
íĦ °
íķĺ ê³ł
ëħ Ħ
Ġì £¼
ê° Ħ
ë¬ ¸
ì °
ìļ °
Ĥ °
ëĭ Ī
Ġì °
íķ ł
ë ¹Ħ
ìĬµ ëĭĪëĭ¤
ìĭ ł
ĠìĿ ¸
Ġê² ½
Ġìľ Ħ
ì¹ ĺ
Ġëĵ ±
Ġìŀ Īëĭ¤
ë© °
í Ķ
ê³ Ħ
Ġë Ĳ
ĠìĿ ¼
ĠìĿ ´ë
Ġê ±
ìĨ Į
ìķ ¼
ìĿ´ ëĭ¤
ê ¹
Ġì ²
ĠëĤ ĺ
0 0
Ġì ¤ĳ
Ġì ¶
Ġëª ¨
ê³ µ
ë £
í Į
ì§ Ħ
ëŁ ¬
íĸ Īëĭ¤
ì ¡°
Ġê³ µ
ìŀ Ħ
ëĲ ĺ
íķ Ļ
Ġë ²
ì Ĥ°
Ġìĥ ģ
ĠìŀĪ ëĬĶ
Ġí ı
Ġë¶ Ģ
í ı
ëª ħ
íĸ ī
Ľ Ħ
âĢ Ļ
ķ Į
Ġë į
Ġ 3
ìŀ ħ
Ġê° ľ
ê ´Ģ
Ġê ´Ģ
Ġìķ Ĭ
Ġìĺ ¤
Ġê³ ł
ìĦ ł
ëį °
ìľ Ħ
ìĦ ¸
Ġë ¹Ħ
ìĭ Ŀ
ê¹ Į
ĠâĢ ĺ
í ŀ
Ġì Ĭ
ê± °
ì² ´
ĠìĨ Į
ë¶ Ħ
ìĺ ¤
ê ·
Ġí Į
ìŀ ¬
Ġìľ ł
Ġí Ķ
ê² ½
ë§ Ī
êµ Ĳ
ëĲ ľ
Ġì Ľ
ìļ ´
¯ ¼
ĠìĹ Ĩ
ĠìĹ ¬
ìĥ Ŀ
ĠìĿ ĺ
Ġí ĸ
í ģ
ê° ľ
µ ľ
íŀ Ī
Ġë§ Ī
ëł ¥
Ġì ¢
Ġìĥ Ŀ
Ġë ķĮ
ê¸ Ī
ì Ī
íķ ©
Ġìļ °
ìķ Ī
ëĭ ¨
ìĿ Į
Ġë Ķ
Ġë§ Į
ìĭ ¤
ë¬ ´
ì ¦
Ġì ¡°
íĥ Ģ
ĠìĦ ľ
íĺ ¸
ëł ¤
ìĹ °
ìĺ ģ
Ġì ¹
ĠìĹ °
ĠìĦ ł
ìľ ł
Ġì Ļ
ĳ ľ
Ġìĭ ł
Ġë° Ķ
Ġí Ĩµ
ë ¯¸
í Ĵ
Ġêµ ¬
Ġ íķ´
ì§Ģ ë§Į
ë Ħ
ëĭ ¹
ì ¡
ĳ Ĳ
ê ·¸
Ġêµ Ń
Ġê ¸
í Ĺ
Ġë ħ
Ġë° ľ
Ġë§ Ĳ
ëŀ ĺ
Ġë ¯¸
0 1
í ħ
Ġë° ©
ëĵ¤ ìĿ´
Ġëı Ļ
ë¬ ¼
ëŀ Į
íķĺ ìĹ¬
ĠìĦ ¸
ìĸ ĳ
âĢ Ŀ
Ġìķ Ī
ë° ©
Ġê ¹
ĠëĤ ´
í Ĩµ
ìĹ Ī
Ġìĺ ģ
ĠìĬ ¤
Ġí ĥ
Ġì µľ
Ġë¬ ¸
ë² ķ
íķľ ëĭ¤
Ġí Ĭ
ë ¯¼
íĴ Ī
ì¶ ľ
ìĹ Ń
ìĿ´ ëĿ¼
ĠëĲ ĺ
Ġëı Ħ
ĺ Ĳ
ë¡ Ŀ
ìĹĲ ê²Į
¶ Į
ìłģ ìĿ¸
¤ Ģ
í Ĩ
ìĹ Īëĭ¤
Ġë° ı
Ġ (
Ġë Ħ
ëį ĺ
ĠâĢ ľ
ê° ģ
ĠìĦ ±
Ġê ·
í İ
Â ·
Ġìĭ ¤
ì ¤ĳ
ì° ¨
ìŀ ĳ
ìĹĲ ëĬĶ
Ġì Ĥ
Ġë¶ Ħ
Ġì§ Ħ
ìĭ ¬
ëĬ ¥
ë¥ ´
ë£ Į
Ġêµ Ĳ
ì ħ
Ġë Ĩ
Ġìĺ Ī
íģ ¬
Ġë§ İ
Ġë ĺĲ
íĶ Ħ
Ġëį Ķ
Ġê± °
í ĭ
Ġ 4
ëĤ ľ
Ġì ´
ë¥ ¸
ë Ķ
ìłģ ìľ¼ë¡ľ
½ Ķ
Ġí ģ
í ĽĦ
e r
Ġíĺ Ħ
ê¹Į ì§Ģ
í ĳľ
ëĵ ł
Ġìŀ ¥
íĹ ĺ
ëł Ī
íķĺ ê²Į
i n
Ġ 5
Ġê° ķ
ĠìĤ¬ ëŀĮ
ìĨ į
Ġê° Ļ
ëĤ ´
Ġí ļĮ
Ġìĸ ´ë
.. .
ĠëĶ °
Ġì ¦
ìĪ ł
íĸ Ī
ë° ľ
íı ¬
ìĺ Ģ
Ġë ©
ìł Ĳ
ĠëĮĢ íķľ
ì² ľ
ìĸ ´ë
ë° ĺ
í Ĥ
± ħ
Ġê² °
ëª ¨
Ġê²½ ìļ°
ìķ ĺ
o n
ìŀħ ëĭĪëĭ¤
Ġìł Ģ
ì² Ń
Ġ '
Ġë¬ ´
ìļ ¸
Ġìķ Į
ĠìŀĪ ìĬµëĭĪëĭ¤
ë¶Ģ íĦ°
ê ¶Į
ĠìĽ Ĳ
ìĦ Ŀ
ë³ ¸
Ġë¶ Ī
ì ¢
Ġìŀ ¬
Ġë° Ľ
ê¸ ī
Ġ #
Ġë§ ¤
Ġìļ° ë¦¬
ê »
Ġ2 01
ë©´ ìĦľ
ĠíĬ ¹
ìķ ½
ê± ´
Ġíı ¬
Ġê³ Ħ
ëĭ ĺ
Ġíķ ł
ì ¤Ģ
íĨ ł
ë¦ °
ì ´
Ġìł ģ
Ġê¹ Ģ
ìĦ ¤
Ġì¶ Ķ
Ġíķľ ëĭ¤
ì§ ģ
ê²Į ìŀĦ
íĺ ķ
Ġëħ ¸
íĺ Ħ
Ġí İ
Ġ "
íķĺ ê¸°
Ġí ĽĦ
ĠìĦ ¤
Ġê° Ĳ
ë ¸
Ġëĭ ¨
ë° Ķ
ĠëĤ ¨
ê² ©
ĠìľĦ íķ´
ĠìĤ¬ ìļ©
Ġë° ĺ
Ġ t
Ġë Ĭ
ì ¸
Ġëĵ ¤
ëł ¨
ì§ Ī
ë§ ¤
ê° Ĳ
ĠíĶ Ħ
Ġìŀ ħ
Ġë° °
a n
Ġìŀ ĳ
´ ĳ
Ġì° ¨
ëĵ¤ ìĿĺ
Ġì¢ ĭ
Ġëĭ ¹
Ġê³ ¼
ë¡ ł
ê» ĺ
ìł Ģ
Ġíķ Ħ
ëĵ¤ ìĿĢ
Ġë ¹
íĭ °
ĠíĻ ķ
Ġ 6
ì² ĺ
ê° ķ
Ġìĸ ´
ëĶ Ķ
ìľ ¡
Ī ¬
ë² Ħ
ì¢ ħ
1 0
íĮ Į
Ġ â
Ġê²ĥ ìĿ´
Ġíķ Ļ
Ġíķĺ ëĬĶ
ëĭ¤ ëĬĶ
íĥ ľ
ë ¹
ĠìĹ Ń
ì »
Ġë¬ ¼
Ġíı ī
ê² °
Ġìļ Ķ
íķ ¨
Ġì Ī
Ġíķĺ ëĤĺ
ëł ¹
Ġíķľ êµŃ
íķ© ëĭĪëĭ¤
ë ĳĲ
ë¦ Ħ
ĠíĮ Į
ì¦ Ŀ
ê² ł
Ġ S
íķ Ń
íĻ ĺ
ì ¼
Ġë Ī
´ë ©
Ġì¶ ľ
ĠìķĦ ëĭĪ
ë¦ ½
ìĽ Į
ĠíĨµ íķ´
ê· ¼
ì Ķ
íĤ ¤
ì¹ ´
ëį Ķ
íķĺ ì§Ģ
Ġíķ ©
Ġíķ ¨
ë¦¬ ê³ł
ë£ ¨
Ġíĸ ī
íĥ Ŀ
ĠëķĮ ë¬¸
Ġë ĳĲ
Ġìĺ ¬
ĠìĥĿ ê°ģ
o r
Ġí Ŀ
Ġì° ¸
Ģ ìĿ´
Ġ 7
Ġë ¦
ì ½Ķ
ëĬĶ ëį°
e n
Ġ1 0
ìľ¼ ë©°
ë¥ ĺ
1 2
ëĭ ¬
ĠìĿ´ ìļ©
Ġì§ ģ
Ġê± ´
Ġë ¨
Ġìĥ Ī
ì¡ ±
Ġê² Į
ë³ µ
´ë ³
í Ŀ
Ġëĭ ¬
Ġì »
ĠíĶ ¼
Ġ 8
Ġë³ Ģ
Ġ C
Ġëª ©
a t
Ġì¦ Ŀ
ëħ ¸
1 1
ìł Ī
ëĭ¤ ê³ł
ëŀ ĳ
íĶ ¼
h e
ã Ģ
ë³ Ħ
Ġëª »
ëĵ ±
ìĨ ¡
Ġìļ ´
ì§ ĳ
ê² ĥ
Ġëª ħ
ëŁ ī
ĠíĻ ľ
íĮ Ĳ
ìĻ ¸
a l
ëŁ ¼
Ķ ëĭ¤
· ¨
Ġíĺ ¸
1 5
± Ħ
ë² Ī
êµ °
2 0
Ġì§Ģ ëĤľ
í ļ
ëĵ¤ ìĿĦ
ìĹĲìĦľ ëĬĶ
ëª ©
Ġ A
ĠíĻ Ķ
ĠìĹ ´
Ġë³ ¸
ëĤ ¨
ëŀ Ģ
Ġì¢ ħ
Ġí Ĺ
a r
ë¹Ħ ìĬ¤
ëĭ ´
ì¶ ķ
íĸ ¥
ì¦ Ī
´ë© ´
Ġëĭ¤ ìĭľ
Ġë ¡
Ġë¦ ¬
e s
ì¶ Ķ
Ġíķ¨ ê»ĺ
ìĿ´ íĬ¸
ê¸° ë¥¼
ìħ ĺ
Ġ 9
ìĸ µ
Ġê° Ħ
Ġì´ Ī
ë¶ ģ
¤ Ħ
Ġì§ ĳ
Ġê²ĥ ìĿ´ëĭ¤
Ġì Ĥ°
ìĭľ ê°Ħ
Ġìŀ ĺ
Ġê° ģ
Ġìł Ĳ
ĠëĶ° ëĿ¼
ì ±ħ
ĠìĻ ¸
íİ ¸
ĠíķĦ ìļĶ
ìĺĢ ëĭ¤
ë¸ Į
Ġ1 9
Ġì² ĺ
ëŁ °
ĠëĲ ľ
ìĿ´ ëĤĺ
ë° °
Ġë ģ
ã ħ
ë§ Ŀ
ĠíĻ ĺ
Ġê°Ļ ìĿĢ
ëĲĺ ëĬĶ
ë¦ ¼
Ġëį °
ëĦ ¤
ëıĦ ë¡Ŀ
Ġê²ĥ ìľ¼ë¡ľ
Ġëĭ¤ ë¥¸
3 0
Ġë ¸
ĠìĿ´ë Ł
íķĺ ëĭ¤
ĠíĶĦ ë¡ľ
ĠìĤ ´
íķ´ ìĦľ
Ġìĸ´ë ĸ
ĠëĨ Ĵ
Ġìķ ½
ë§ Ĳ
Ġê°Ģ ìŀ¥
ìł ¸
Ġë¬¸ ìłľ
Ġìłľ ê³µ
ë° ķ
Ġë° ķ
Ġìĸ ĳ
Ġìĭ ¬
2 2
Ġì² Ń
ëĿ¼ ê³ł
ĠìľĦ íķľ
íĻ ľ
Ġ1 1
ìĹĲ ëıĦ
Ġë§ ŀ
ìĺ ¨
ìĺ Ī
Ġê°Ģ ëĬ¥
ĠìĹ Ĳ
íķĺ ë©°
Ġ M
ĠíĮ Ĳ
ìĥ ī
Ġë§Į ëĵ¤
- -
ëĿ¼ ëĬĶ
ĠìĨ į
ĠìķĦ ìĿ´
Ġê²ĥ ìĿĢ
Ġìĺ ¨
ĠìŀĲ ìĭł
ìĿ´ëĿ¼ ê³ł
Ġìĭľ ìŀĳ
Ġë§İ ìĿĢ
ë ¨
ì £
Ġê°ľ ìĿ¸
ë¦¬ ëĬĶ
ê±° ëĤĺ
ê ´ĳ
1 9
Ĥ ´
Ġê·¸ ëŁ¬
íĻ ©
Ġì¹ ĺ
Ġê¸ Ī
Ġëĵ ľ
Ġíģ ¬
Ġìķ ŀ
Ġ P
Ġ s
ë ´
ĠëĺĲ ëĬĶ
ì´ Ī
Â °
ìĬ¤ íĥĢ
ĠìĨ Ĳ
ìŀ Ī
Ġë² ķ
Ġí Ĵ
ĠìĿ Į
ì§Ģ ëĬĶ
i t
ĠìĿ´ ìĥģ
Ġí ĳľ
ë ĥ
Ġíİ ¸
Ġìĭľ ê°Ħ
) ,
ī ´
ĠìĹ ħ
ĠìŀĪ ìĸ´
íİ ĺ
íķĺ ë©´
Ġê·¸ ë¦¬ê³ł
Ġë© Ķ
Ġê²ĥ ìĿĦ
ìĬ ¹
ê° Ŀ
2 9
íħ Į
Ġë° Ŀ
ŀ ĺ
ìŀĲ ê°Ģ
Ġëĭ¤ ìĸĳ
Ġì² ´
Ġëª¨ ëĵł
ĠìĦľ ë¹ĦìĬ¤
Ġì ½Ķ
Ġ T
ìķĺ ëĭ¤
Ġê´Ģ ëł¨
Ġ I
Ġë¶ ģ
1 6
Ġì° ¾
Ġë¬ ´ë
i c
Ġì ±ħ
Ġìŀ Ħ
Ġí Ī¬
ìĤ¬ ë¥¼
ë³ ĳ
ëı ħ
íĶ Į
Ġë Ŀ¼
ëŀ ľ
Ġë¯¸ êµŃ
Ġì ·¨
Ġ -
ìĬ¤ íĬ¸
Ġëĵ¤ ìĸ´
íķ´ ìķ¼
1 4
Ġê² Ģ
Ĳ ëĭ¤
ìĸ ¸
ë¦¬ ë¥¼
Ġíķĺ ê³ł
ĠìĿ´ë ²
Ġê· ľ
Ģ ë¡ľ
ì¡ Į
1 3
ĠëĶ Ķ
Ġì§Ģ ìĹŃ
ë³´ ëĭ¤
Ġ c
íļ į
Ġt he
ìľ ¨
ìŀĲ ìĿĺ
ê¸° ìĹĲ
ìĸ´ë Ĥ
o m
Ġë ĸ
ĠìĤ¬ íļĮ
Ġëı Į
1 8
ë³ Ģ
l e
ĠëķĮë¬¸ ìĹĲ
Ŀ ½
ĠìĦ¸ ê³Ħ
ëĮĢ ë¡ľ
ì» ¤
00 0
¨ ìĸ´
Ł ģ
Ġë² Ī
Ġì§Ħ íĸī
į ¼
Ġì° ½
2 5
Ġë³ µ
ł ¤
ĠëĤ ´ë
Ġì´ Ŀ
ëĲĺ ìĸ´
ì ³
ì§Ģ ê³ł
ë ģ
ë¡ľ ìļ´
2 4
Ġìĭ Ŀ
Ġ p
ĠëĤ ł
ì¸ ł
ì§Ģ ë¥¼
Ġìłķ ë³´
ë Ĩ
i on
Ġìĸ ¸
ê¸ ¸
Ġíĺ ķ
Ġê· ¼
Ġë¡ ľ
Ġíģ °
ìķ ħ
i s
Ġ1 2
Ġí ļ
ìŀĲ ëĬĶ
Ġâ ĸ
ì µľ
ìĿ´ëĿ¼ ëĬĶ
ëĦ Ī
r e
Ġí Ĩ
ì Łģ
ê² ¬
Ġíķ© ëĭĪëĭ¤
Ġ L
Ġíĥ Ģ
ĠìĦľ ìļ¸
ìł ĳ
1 7
ìĦ± ìĿĦ
ĠìĻ Ħ
ëĬ Ĳ
íĺ ĳ
ĠëĮĢ íķ´
ëłĪ ìĿ´
Ġëı ħ
ëĲľ ëĭ¤
Ġ :
Ġì ¡
Ġì¶ ©
Ġëĭ¤ìĸĳ íķľ
ë Ŀ½
Ġë Ĵ
ĠìĹĨ ëĬĶ
í Ī¬
ê¸° ëıĦ
Ġë ¯¼
Ġì ¤Ģ
ìĿ µ
ìĪ ľ
ĠëĮĢ íĳľ
Ġìłķ ëıĦ
ĠìķĬ ëĬĶ
Ġê± ¸
ĠëĬ Ĳ
íĨµ ëł¹
ìĿ´ ê³ł
ì¡ ´
Ġì§ Ī
2 8
ĠëĪ Ħ
in g
ì²ĺ ëŁ¼
ìĶ ¨
íķĻ êµĲ
Ġë ł
Ġíĸ Īëĭ¤
Ġì ±Ħ
ëĤ ł
2 3
ĠìĤ ¼
ìłķ ë³´
Ġ /
ëĵ¤ ìĹĲê²Į
Ġ2 0
ĠíļĮ ìĤ¬
ëŀ ¨
ĠëĪ Ī
Ġê ´ĳ
Ġì¹ ´
ëĵ Ŀ
íĿ ¬
2 6
ìŀ¥ ìĿĦ
Ġíĸ Ī
ë ĳ
ëĬ ĺ
ĠìĪ ľ
Ġê³ ³
2 7
íħ Ķ
íı ī
ìķ ł
Ġë² Ħ
Ġíĥ ľ
Ġì ĵ
ìľĦ ìĽĲ
ìĦ ¼
ì° °
Ġ2 00
Ġê¸° ìĪł
ìŀ¥ ìĿĢ
Ġë§İ ìĿ´
ì ½
ë Ī
Ġì¹ ľ
Ġìĭ ¶
Ġë°Ŀ íĺ
Ġëª¨ ëĳĲ
ĠíĬ ¸
Ġ a
ì° ½
Ġì¤ĳ êµŃ
Ġìł ĳ
ĠëĦ Ī
Ġê¸° ìĹħ
ë¶ Ī
ìĽ Ģ
2 1
íĮ ħ
ê·¸ ëŀ¨
ìķ ¡
ĠêµĲ ìľ¡
ĠìķĦëĭĪ ëĿ¼
2 01
ĠëĮĢ íĨµëł¹
e d
ĠìĹ° êµ¬
Ġíķĺ ì§Ģë§Į
Ġì§Ģ ìĽĲ
ê² ¨
Ġëĵ± ìĿĦ
Ġíķ Ń
Ġí ħ
Ġ B
ĠëĺĲ íķľ
ĠëĲ ł
Ġì ¤Ħ
ĠíĨ ł
ê¸° ê°Ģ
Ġì ī
ê· ľ
ê· ¹
íĻĶ ë¥¼
Ġ K
© ëĭĪëĭ¤
ĠìĤ¬ ìĹħ
ĠëĤ´ ìļ©
ëł¥ ìĿĦ
Ġê·¸ ëŁ°
ĠìĹ¬ ëŁ¬
ì§ ¸
ĠíķĺëĤĺ ëĭĺ
ĠëĦ ĺ
´ë ĮĢ
Ġí ŀĺ
ë¹ Ĺ
ª ½
ëħ Ģ
ï ¼
ìĥģ ìĿĦ
Ġê ¶Į
Ġíĺ ĳ
ëł ĩ
ĠëĦ ¤
Ġ3 0
ĠìĿ´ë² Ī
Ġìļ ©
Ġëĭ¤ ìĿĮ
Ġë°ľ ìĥĿ
ìłķ ìĿĦ
ì¹ ¨
ĠìłĦ ë¬¸
Ġê°ľ ë°ľ
ë³´ ê¸°
ĠìĤ¬ ìĭ¤
Ġì º
ĠíĶ Į
ëĲ ł
ë¥ ł
ë° Ľ
Ġìłľ íĴĪ
Ġì¢ĭ ìĿĢ
Ġë ´
ìĿ´ ëĬĶ
ĠëĴ ¤
Ġìł Ī
íħ ľ
ë¡ Ģ
Ġë°© ë²ķ
ì į
ìĬ¤íĥĢ ë¹Ĺ
ĠíĺĦ ìŀ¬
ìĹ Ĩ
ìľ¼ ë©´
Ġíļ ¨
ì² ł
Ġì¤ĳ ìļĶ
ê¸ Ģ
Ġ [
ĠíĮ ¨
a c
ìĹ Ķ
¿ Ĳ
Ġ d
Ġìļ´ ìĺģ
ë¸ Ķ
ĠìĿ´ëŁ °
Ġì² ľ
Ġê¸ ¸
Ġ o
ìĤ¬ ìĹħ
ì£¼ ìĿĺ
Ġëł Ī
ĠìķĦ ëĭ
Ġ E
Ġê¸° ìŀĲ
ê· ł
Ġëħ ¼
ì³ Ĳ
Ġëĭ ´
Ġë¨ ¹
ëĲĺ ê³ł
Ġì§Ģ ê¸Ī
ĠëĨ į
Ġ <
Ġ 0
ĠìĿ¼ ë³¸
ë ī´
Ġìķ ł
Ġíĸ ¥
Ġìłķ ë¶Ģ
ĠìĿ´ íĽĦ
Ġê´Ģ ê³Ħ
Ġ D
ìŀ¥ ìĿ´
r o
ìĿ´ ì§Ģ
ĠìŀĪ ìĿĦ
ĠìĥĪ ë¡ľìļ´
´ë į
Ġë³ ¼
Ľ Ī
Ġë§Ī ìĿĮ
ìĹĪ ìĬµëĭĪëĭ¤
ìĺ ¬
Ġê²° ê³¼
Ġ f
ë§ ī
Ġê° ĸ
íı °
Ġì ½
Ġë°Ŀíĺ Ķëĭ¤
íķĺ ë©´ìĦľ
ĠìĹĨ ëĭ¤
Ġë¸ Į
ì£ ł
Ġìĸ ¼
ë¶Ģ ìĬ¤íĥĢë¹Ĺ
e l
ĠíĹ Ī
ë² Ķ
s t
ê¹ Ģ
Ġë² ł
ĠìĿ´ ìĸ´
ê°Ģ ëĬĶ
ĠìĿ´ ìķ¼
Ġ R
ìĦ± ìĿ´
ë¦¬ ê°Ģ
Ġì» ¤
ë° ±
ëĵ¤ ê³¼
ĠíĻķ ìĿ¸
í į¼
e t
ìĦľ ëĬĶ
ĠëĤĺ íĥĢ
Ġë°Ķ ë¡ľ
ìĹ ´
ĠêµŃ ê°Ģ
Ġë° ±
ëĿ¼ ìĿ¸
ëħ Ĳ
ìĭľ ìĺ¤
.. ..
´ë³ ´
íļĮ ìĿĺ
Ġìĸ´ëĸ ¤
ìĿ´ íĦ°
ë© Ķ
Ġíı¬ íķ¨
ê¸° ëĬĶ
an d
ìĭľ ìķĦ
ëŁ ½
Ġëĵ± ìĿĺ
en t
ìĿ´ ë©°
Ġëĭ¤ìĭľ ë³´ê¸°
ìĿ ĳ
Ġìĥģ íĻ©
ĠêµŃ ëĤ´
Ġ G
ë¨ ¸
âĢ ¦
5 0
ìĦ¸ ìļĶ
ĠëĲľ ëĭ¤
ĠìŀĪ ìľ¼ë©°
ì° ©
ëŀľ ëĵľ
Ġê·¸ ëłĩ
ĠìĿ´ ë¥¼
Ġ H
Ġê·¸ ëŀĺ
ĠìĤ¬ ìĿ´
ĠíļĮ ìĽĲ
ìĿ¸ ìĿ´
Ġ ,
ìĬ¤ íħľ
Ġë ľ
Ġë³ ´ë
Ġìĺģ íĻĶ
Ġ F
Ġí ľ
ì ª½
ĠìĬ ¹
ì¸ µ
ë§ ¨
Ġë§Ĳ íĸĪëĭ¤
ë² Į
Ġì¡ ´
Ġì ¸
Ġê²Į ìŀĦ
ì ±Ħ
ĠìĽ Ķ
ĠìĦł íĥĿ
ĠíĬ¹ íŀĪ
Ġ1 6
m m
ìĤ¬ ëĬĶ
ìĤ¬ ê°Ģ
ĠìĿ¸ íĦ°
ìĸ ¼
íĻ ķ
ëĦ ·
Ġê·¸ëŁ¬ ëĤĺ
ìĿ´ ìĬ¤
ĠìĦ¤ ëªħ
ĠëĬ ĺ
Ġë¹ ł
ĠìĿ´ ìľł
ëĲ Ĳëĭ¤
ë ķĮ
Ġë¸ Ķ
Ġ b
ì¼ Ģ
ĠìĿ´ë ¯¸
ìļ ±
ìĦ¼ íĦ°
ìĸ´ ìļĶ
Ġëª¨ ìĬµ
ìŀĲ ë¥¼
ĠìŀĪ ê³ł
íĮ ¨
ĠíĶĦë¡ľ ê·¸ëŀ¨
Ġê ¼
ê³ ³
êµĲ ìľ¡
Ġì¦ Ĳ
Ġëģ Ŀ
Ġìĵ °
ë¶Ģ ë¶Ħ
ìĹĲìĦľ ëıĦ
Ġì²ĺ ìĿĮ
ë² ł
Ġê³ł ê°Ŀ
ì¡Į ëĭ¤
ìĸ´ëĤ ĺ
ĠìķĬ ê³ł
ĠëıĻ ìķĪ
ĠíķĻ ìĥĿ
Ġì £
ë¦ ´
í ĮĢ
Ġë³´ ê³ł
Ġì² «
ì¹ ľ
ìĭĿ ìĿĦ
£ Į
¾ ¸
Ġ m
ìĤ¬ ìĿĺ
Ġê·¸ ê²ĥ
ĠìĿ´ë £
ĠìĤ¬ ëŀĳ
ìĭľ ëĬĶ
íģ ¼
Ġ w
ĠíĻľ ëıĻ
o u
ìĽĲ ìĿĦ
ĠëĮĢ ìĥģ
Ġê²½ ìłľ
Ġìµľ ê³ł
Ġê¸° ë¡Ŀ
ê² Ģ
Ġ1 5
o l
ĠìŀĪ ìĹĪëĭ¤
Ġì¶ ķ
ìķ Ļ
Ġìŀ ¡
ìĹ ¼
íĬ ¹
íĥ Ħ
Ġë¶Ģ ë¶Ħ
ĠìŀĪ ìĹĪ
ĠìĿĺ ë¯¸
Ġê·¸ ëĬĶ
Ġìĸ »
ĳ ìĬ¤
Ġ in
Ġíħ Į
ë ·
íĺ ľ
a s
ëĭ µ
Ġêµ °
ĠëĲĺ ëĬĶ
3 1
Ġê³ ¨
Ġìķ ¼
ìį ¨
ëł ¸
ìŀĲ ìĿ¸
ëĦ Ĳ
Ġê±´ ê°ķ
ë¥ ´ë©´
ì Ĥ
Ġ N
Ġìµľ ê·¼
ĠìŀĪ ëıĦë¡Ŀ
ë° Ģ
ì§ ķ
´ëį °
Ġ ãĢ
ìŀĪ ëĬĶ
Ġíķ´ ëĭ¹
ë ¯
ëĥ Ĳ
Ġë¬¸ íĻĶ
¿ ł
ìĿ´ ìĹĪëĭ¤
Ġì¸ ¡
Ġë ĳ
ĠíĻ į
ê¸° ìĹħ
ĠìŀĲìĭł ìĿĺ
Ġ ã
ĠìĤ¬ ì§Ħ
Ġë³ ĳ
Ġì§ģ ìłĳ
Ġê° Ī
¬ íķľ
ê°Ģ ì§Ģ
ĠêµŃ ë¯¼
ëıĦ ë¥¼
ê° Ī
Ġìī ½
Ġë³ Ħ
ëĨ į
ë¦¬ ìķĦ
Ġêµ¬ ìĦ±
ìĭ Ń
íĺ ģ
Ġê· Ģ
Ġì°¸ ìĹ¬
í ĽĪ
ĠìķĬ ìĿĢ
Ġê¸° ëĬ¥
-- --
ìľ µ
ì£¼ ëĬĶ
ì¹ĺ ë¥¼
íķĺ ìĺĢ
ëĭĪ ê¹Į
ĠëĮĢ íķĻ
ì´ Ŀ
ëĿ¼ ìĿ´
ëĿ¼ ëıĦ
2 00
i v
ë¦¬ ìĬ¤
Ġë¬´ë £Į
i l
ĠìŀĪëĭ¤ ëĬĶ
Ġê´Ģ ë¦¬
Ġ201 8
ì¸ ¡
ĳ ìĿ´
ĠìĹ¬ ìĦ±
Ġ W
Ġê³Ħ íļį
Ġìłģ ìļ©
Ġo f
Ġí Ĥ
Ġë¨ ¸
ë³´ íĹĺ
ĠìķĪ ìłĦ
ë§ ŀ
ĠìķĮ ëł¤
ëĮĢ íķľ
Ġâ ĳ
i g
ĠìĨ ¡
ìłľ ë¡ľ
Ġë§¤ ìļ°
Ġì¦Ŀ ê°Ģ
Ġë§ ī
Ġíĺ¸ íħĶ
Ġì°¾ ìķĦ
ĠìĿ Ģ
ê¸ ´
ĠìĹĨ ìĿ´
Ġë§Įëĵ¤ ìĸ´
ĠíĻľ ìļ©
Ġìĥ ī
ìĿ¸ ìĿĺ
íĸĪ ìĬµëĭĪëĭ¤
íĸĪ ëįĺ
Ġì² ł
íħ Ĳ
ĠìĤ° ìĹħ
Ġë¶ģ íķľ
ĠìķĦëĭ Į
Ġ O
ëª °
Ġê´Ģ ìĭ¬
Ġí ĭ
ì Ĥ´
ĠìĿ¸ ê°Ħ
´ë °
ìĽĲ ìĿ´
ëŀ µ
ĠìĿ¼ ë°ĺ
ĠìĿ ĳ
Ġ1 8
at ion
ìĽĲ ìĿĺ
Ġê³¼ ìłķ
ë´ ī
Ġíİ ĺ
íķľ êµŃ
Ġëĸ ł
ĠìłĦ ì²´
Ġì¤Ģ ë¹Ħ
Ġ ...
Ġë¶Ħ ìĦĿ
ĠëįĶ ìļ±
e c
íĥ ģ
Ġê²ĥ ìŀħëĭĪëĭ¤
´ë Ŀ¼
Ġ1 00
Ġíı Ń
ĠìĥĿ ìĤ°
Ġê°Ģ ê²©
Ġ1 4
ìĭľ íĤ¤
Ġë³´ ìĹ¬
ĠíĻĺ ê²½
Ġ3 1
ĠìĿ´ëŁ ¬íķľ
íĺ ¼
Ġì¤ĳ ìĭ¬
ĠìĿ´ ë¦Ħ
Ġ |
ëį ¸
Ġê²½ íĹĺ
íķĺ ìĺĢëĭ¤
Ġê¸ Ģ
ëĳ ĳìĿ´
ìħ Ķ
ìķ Ķ
ì§Ģ ëħ¸
Ġë³ ´ë©´
ĠìĪĺ ëıĦ
Ġë² Į
ë¦ Ń
ìĤ¬ íļĮ
Ġìĸ´ë ł¤
ë¦¬ ìĹĲ
Ġê¸ ī
i d
Ġí Ħ
Ġ2 1
Ġíļ¨ ê³¼
ĠìĹ Ħ
ĠìĤ ¶
Ġìĺ¬ íķ´
» ê²Į
Ġê¸° ëĮĢ
ĠìŀĲ ëıĻ
ë£ ¹
Ġë°© ë¬¸
Ġê¸° ì¤Ģ
ĠëĤ ľ
ĩ ¼
ë§Ī íĬ¸
ìĽĲ ìĿĢ
Ġë¬¼ ë¡ł
ĠìĿ´ íķ´
Ġë°ľ íĳľ
Ġê°Ļ ìĿ´
ë¯ Ģë¡ľ
íĨ ±
ìľĦìĽĲ íļĮ
ì ·¨
ê³ ¡
ì° ¬
ë¡ ¯
Ġëª ĩ
ë§ ģ
Ġ h
ìĨ Ĳ
ì¼ ľ
ĠëĲĺ ìĸ´
í ľ
ëı Į
W h
ĠìĹ¬ íĸī
ëł¥ ìĿ´
ĠìĺĪ ìłķ
Ġìĭľ ìŀ¥
ì ī
Ġë Ł
Ġì½ ĺ
ĠëĶ° ë¥´ë©´
ë· °
íķĺ ê±°ëĤĺ
ĠíĻ ©
Ġë³´ íĹĺ
Ġë¶Ħ ìķ¼
Ġìĸ´ ëĬĲ
ĠìĨĮ ë¹Ħ
Ġëª °
ìļ ´ëį°
ê´Ģ ë¦¬
ĠëıĮ ìķĦ
ĠíķĦìļĶ íķľ
ĠëĨĴ ìĿĢ
Ġìĭľ ìĬ¤íħľ
Ġë°Ľ ìķĦ
Ġì±ħ ìŀĦ
ĠíĤ ¤
Ġê°Ģ ì§Ģ
ĠíĮĲ ë§¤
a m
ëī´ ìĬ¤
ê²ł ëĭ¤
ĠëĦĪ ë¬´
ĠíĴ į
Ġìĺģ íĸ¥
Ġ1 3
ĠìľĦ ì¹ĺ
Ġëĭ¹ ìĭľ
Ġìĸ´ëĸ »ê²Į
Ġíıī ê·ł
ìĹ ĩ
ìĹĨ ìĿ´
ë¬ ´ë
ĠìĦ¤ ì¹ĺ
Ġê³Ħ ìĨį
íķ Ħ
Ġí Ľ
ĠìĿ´ë ł
Ġê· ¹
ëı ¼
ĠìļĶ êµ¬
ë¶ĢìĬ¤íĥĢë¹Ĺ ë¶ĢìĬ¤íĥĢë¹Ĺ
ì ģ
ëĭ¤ ë©´
4 0
íķ ĳ
Ġë ¿Ĳ
ìľĦ ë¥¼
ìľ¼ ëĤĺ
Ġì¶Ķ ê°Ģ
ìŀ ¡
ĠìĤ¼ ìĦ±
k Wh
Ġëª ¸
ĠìĹ ĳìĬ¤
Ġìļ°ë¦¬ ëĬĶ
Ġ and
Ġìłķ ë§Ĳ
ë Ĥ¬
Ġê°Ģ ì¡±
¶ ģ
Ġìŀ ł
ì º
ë¬¸ íĻĶ
ìĤ¬ ìĿ´íĬ¸
Ġì¢ Ģ
ìĹ° êµ¬
ĠëķĮë¬¸ ìĿ´ëĭ¤
Ġ U
ê¸° ë¡ľ
ìĬ¤ ë¥¼
Ġìĺ¤ ëĬĺ
ĠìĻ Ģ
ĠêµŃ ìłľ
Ġâĸ ³
¶ Ģ
ëģ ¼
ìĿĺ ë¥¼
ëıĦ ê°Ģ
Ġ1 7
ãħ ĭ
Ġë§ Ľ
ëĤĺ ëĿ¼
Ġt o
Ġê´Ģ íķľ
Ġì¦ ī
ĠëĤĺ ëĬĶ
½ ĥ
ìħ ¨
Ġìº Ĳ
ë°Ķ ëĳĳìĿ´
Ġê°ľìĿ¸ ìłķë³´
ĠíķĻ êµĲ
ìĭľ ìĹĲ
Ġì¡´ ìŀ¬
ë¥´ ëĬĶ
ìĿ¸ ëį°
ìĥ Ī
ìĹ° íķ©
Ġìŀĳ íĴĪ
ëĤĺ ëĬĶ
ë² ½
ĠêµĲ ìĪĺ
ëĪ Ħ
. âĢĿ
6 0
Ġê²° ìłķ
Ġê²½ìļ° ìĹĲëĬĶ
ëĵľ ëĬĶ
Ġìĥģ íĥľ
íļĮ ë¥¼
ĠìĿ¼ ë¶Ģ
Ġë°ľ ìłĦ
Ġë¨ ¼
íķĺ ì§Ģë§Į
Ġìľł ì§Ģ
Ġë² Ķ
Ġë© ´
Ġíķĺ ë£¨
ë¦¬ íĭ°
o w
Ġíıī ê°Ģ
ĠëĨ ĵ
ĠìŀĲ ìĹ°
ĠìĹŃ ìĭľ
Ġê°Ģ ì§Ģê³ł
Ġìłķ ì±ħ
ì§Ģ ìĹŃ
íļ ¨
ë ľ
ĠëĮĢ ë¶Ģë¶Ħ
ì¹ĺ ëĬĶ
Ġì¢ĭ ìķĦ
Ġê°Ģ ìļ´ëį°
ë§Į ìĽĲ
Ġíĺ ¼
íĺ Ģ
ĠìĹŃ ìĤ¬
ĠëĬĲ ëĤ
ë¡ Ń
Ġìłľ ìŀĳ
ĠìĿ´ëł ĩ
Ġì§Ģ ìĨį
Ġ l
c om
ĠìĦ± ê³µ
ëĶĶ ìĸ´
8 0
ëĦ¤ ìļĶ
Ġê·ľ ìłķ
u n
ê¸° ê´Ģ
ìĿ´ ìĸ´
íĥ Ī
Ġë§Ī ëł¨
ì§Ģ ëıĦ
Ġê¸° ë³¸
ìĬ¤ íĨ±
k m
ĠìĦ± ìŀ¥
Ġ .
ëĭ ´ë³
ĠëĤĺ ìĺ¤
Ġì¹ ¨
´ëĮĢ ì¶ľ
ĩ ´
ĠìĤ¬ëŀĮ ìĿ´
Ġì Ķ
ëªħ ìĿĺ
ĠëĤ ®
Ġì£¼ íĥĿ
Ġë§Ĳ ìĶ
Ġë¬´ ìĹĩ
ëıĻ ìķĪ
Ġë°© ìĨ¡
êµ ´
Ġê¸° ê°Ħ
ê° Ļ
ĠìĿ ½
ìĿĢ íĸī
ìĥģ ìĿ´
ê± ¸
ê¸° ìĪł
Ġëį° ìĿ´íĦ°
o s
Ġê²ĥ ëıĦ
ĠìĬ¤ íĥĢ
u t
Ġë ķ
Ġê³µ ëıĻ
ëĭ¤ ê°Ģ
ĠìĿ¸íĦ° ëĦ·
a g
Ġíĺ ¹
íı¬ ì»¤
ĠìŀĪëĭ¤ ê³ł
ĠìĥĿ íĻľ
ìĪ Ļ
Ġë³Ģ íĻĶ
ëĭ´ë³ ´ëĮĢì¶ľ
ë¡ľ ìĦľ
Ġê°Ģ ìŀħ
i m
ìŀ¥ ìĹĲìĦľ
ìĿ´ ê°Ģ
ì§ ľ
Ġíķ µ
ĠìĿ´ ìłľ
ĠëĤ´ ê°Ģ
Ġëĵ± ìĿ´
ìłĲ ìĿĦ
e m
ĠìĪĺ ì¤Ģ
ĠíĬ¹ ë³Ħ
Ġì ħ
ìĿ¸ ìĿĦ
Ġë ¯
ìĿĮ ìĿĦ
Ġìłķ ì¹ĺ
ëĶ ©
ìĥģ ìĿĺ
ĠìĤ¬ ê±´
ë§ŀ ê³ł
ëıĦ ìĿĺ
Ġì¹ĺ ë£Į
Ġì£ ½
ë¡ľ ë¶ĢíĦ°
ìĪĺ ë¥¼
ëªħ ìĿ´
ĠìķĬ ìķĺ
ìłľ ë¥¼
Ġê·¸ ìĿĺ
ê³ ¨
ìĿ´ ëĵľ
o t
íķ ´ë
ì§Ģ ê°Ģ
ìĹĪ ëįĺ
Ġê·¸ëŀĺ ìĦľ
ĠìĹĳìĬ¤ ë§¨
) .
1 00
Ġíķĺ ì§Ģ
ìĤ ¼
ëł Į
Ġë¹Ħ êµĲ
ëĵ ¯
ìŀ¥ ìĿĺ
u r
íĬ¸ ë¥¼
ĠìŀĲ ìľł
ëıĦ ë¡ľ
Ġì¶Ķ ì§Ħ
u s
âĢ ľ
ĠìĻ ľ
íĹ Ī
Ġì¤ĳìļĶ íķľ
Ġë Ń
Ġì» ¨
Ġë ī´
ìĿ¸ ì§Ģ
ì¹ Ļ
ì¹´ ì§Ģëħ¸
ĠíĿ ¬
íķĺ ëł¤
Ġê ¿
ìłķ íķľ
ëĲĺ ì§Ģ
ê°ľ ìĽĶ
Ġìłķ ìĥģ
ĠìĿ´ëłĩ ê²Į
Ġê³µ ê°ľ
ĠëĲ ©ëĭĪëĭ¤
į ëĭĪëĭ¤
ĠíĻ Ī
ìĤ° ìĹħ
ĠëıĦ ìĭľ
Ġ =
Ġìĭľ ëĮĢ
ì¶ ©
ëį ķ
ĠìĬ¤ ë§ĪíĬ¸
Ġì¡° ê¸Ī
o d
Ġì ¼
Ġìĥģ íĴĪ
ìĦľ ìļ¸
ìłĦ ìĹĲ
ĠìķĮ ê³ł
ĠìĹŃ íķł
Ġìĭł ì²Ń
ĠìĿ´ ëĬĶ
íĶ ½
íĦ ´
ĠìĿ´ë Ĥ
Ġìķ ħ
ìĬ¤ ë¡ľ
ëĵ¤ ëıĦ
ĠëĮĢ íķ´ìĦľ
ìĿ¸ ëĭ¤
Ġëĳ ĺ
ĠìķĦ ì§ģ
ìĽĮ íģ¬
Ġìĺ¨ ëĿ¼ìĿ¸
Ġìĸ¼ ë§Ī
7 0
ê³Ħ ë¥¼
ĠìĽ ¹
ĠìĤ´ ìķĦ
ëĲ ©ëĭĪëĭ¤
ĠëĨ Ģ
ëĶĶ ìĺ¤
ë¬¼ ìĿĦ
ĠìĿ´ ìĹĲ
Ġë§ĲìĶ Ģ
Ġë¯¸ ëŀĺ
ë¨ ¼
ĠìĹ´ ë¦°
ë´ ĩ
Ġë¯ ¿
ĠìŀĪëĬĶ ëį°
Ġìĺ¤ ëĬĶ
Ġ V
ìĻ Ķ
Ġì¹ľ êµ¬
íĸĪ ê³ł
ë ĺĲ
ĠíĴ Ī
ëĬĶ ëĭ¤
ĠíĪ¬ ìŀĲ
Ġíķ´ ê²°
ì´ Į
ê°Ĳ ìĿĦ
ĠìķĬ ìĿĦ
í Ĥ¬
Ġìĺ¤ íĽĦ
ì£ Ħ
ĸ ìĹĲ
ê³ł ìĬ¤íĨ±
Ġìķ Ķ
ë§ Īëĭ¤
ì¦ ĺ
Ġëľ »
ìĽĢ ìĿĦ
Ġíĥ Ħ
Ġêµ¬ ë§¤
Ġê°ľ ìµľ
íķĺ ìĭľ
ìłķ ë¶Ģ
ĠëĶĶ ìŀĲìĿ¸
ìŀĲ ìĹĲê²Į
Ġíĳľ íĺĦ
c h
ìĻ Ķëĭ¤
Ġê³µ ê°Ħ
íı Ń
Ġë° Ģ
ê²½ ìłľ
Ġëĭ µ
Ġì£¼ ìļĶ
Ġëı Ī
ëıĻ ìĿĦ
ìĹĪ ê³ł
9 0
ĠìĤ¬ ê³ł
ĠìĿ´ ê²ĥ
ê· Ģ
ĠìłĦ êµŃ
ĠìķĮ ìķĦ
Ġìµľ ëĮĢ
ĠíĦ °
ìĿ¸ ìĿĢ
Ġê¹ ¨
a d
ìĦľ ë¥¼
´ë §
Ġìľ ¡
ìĸ´ ìĦľ
ìľ¼ë¡ľ ìį¨
ĠíĺĦ ëĮĢ
Ġê°ľ ìĦł
Ġë¹Ħ ë¡¯
Ġê²½ ìŁģ
Ġíķ´ ìĻ¸
Ġë°° ìļ°
Ĩ į
íĦ ¸
Ġë³´ íĺ¸
ĠìĹ° ê²°
Ġìŀĳ ìĿĢ
Ġ2 5
Ġíĥ Ī
Ġê±° ìĿĺ
ĠìĹħ ë¬´
ĩ Į
ĳ ¸
ĠìķĦ ëŀĺ
ìłĦ ìŀĲ
ĠìŀĲ ê¸°
ìłĦ íŀĪ
ëªħ ìĿĦ
Ġìĸ´ ë¦°
ìĸµ ìĽĲ
Ġì§Ģ ë°©
ìŀĲ ëĵ¤ìĿ´
ëĥ ¥
ĠìĿ´ìķ¼ ê¸°
ĠìŀĪ ì§Ģë§Į
ì¶ ĺ
Ġë°© ìĭĿ
Ĭ ìĿĢ
ìĬ ¬
ĠìĨĮ ê°ľ
ĵ ¨
ìĬ ¨
ìŀ¥ ìĹĲ
Ġê°Ĳ ëıħ
Ġë¦¬ ìĸ¼
Ġ n
Ġêµ¬ ì¡°
Ġì¶Ķ ì²ľ
ĠëĬ ¥
ĠìĪ Ļ
ê¸° ê°Ħ
íĿ ¥
ĠìŀĲ ì²´
ĠìĿ´ëĤ ł
% )
Ġìļ ¸
¬ ¼
Ġê¸° ì¡´
Ġìī½ ê²Į
ãħ İ
t er
íĥ ķ
Ġëª¨ ëį¸
w w
ìľ ¤
ë³ ¼
Ġ5 0
Ġëĸ ¨ìĸ´
ëĮĢ íķĻ
ìĪĺ ê°Ģ
ĠìĿ¸ ìłķ
Ġíı Ĳ
ĠíĮĲ ëĭ¨
ì§Ħ ëĭ¤
ê ´
íĤ ¨
Ġìłľ ê°Ģ
âĢ ĺ
íĭ Ģ
ìĽ ĢìĿ´
Ġíķ´ ìķ¼
ĠìĤ¬ëŀĮ ëĵ¤ìĿ´
Ġëħ¸ ëł¥
ì ¤Ħ
íĶĦ íĬ¸
Ġìŀĳ ìĹħ
Ġì§Ģ ëĤĺ
ĠìķĦ ë¦Ħ
Ķ Ķ
íķĺëĬĶ ëį°
Ġëĭ¹ ìĭł
ĠìĿĺ ë£Į
Ġë³Ģ ê²½
ìĬ¤ íģ¬
ì° ¸
ë¦¬ ì§Ģ
Ġ2 4
íı Ĳ
a y
Ġë £
ê ¾¸
Ġí ĮĢ
ĠìŀĲ ë£Į
íĴ į
a p
ìłķ ìĿ´
Ġê³Ħ ìķ½
Ġê°ķ íĻĶ
Ġë¨¼ ìłĢ
ł µ
Ġëĵ± ìĹĲ
ĠëĶ° ë¥¸
! !
Ġë°Ľ ìĿĢ
¢ °
ìĨĮ ë¥¼
Ġì§ĢëĤľ íķ´
ì¼ ĢìĿ´
ĠíĶ¼ íķ´
´ë ł
ĠìĿĮ ìķħ
® ¤
ìĻ ķ
ëŀ «
ëĲĺ ìĹĪëĭ¤
Ġëħ Ħ
Ġíģ¬ ê²Į
Ġë¦¬ìĸ¼ ë¦¬íĭ°
Ġê± ´ë
ìĿ´ ë²Ī
Ġìłķë³´ ë¥¼
t t
Ľ °
ìĭľ ìĦ¤
ê²ł ìĬµëĭĪëĭ¤
) âĢĻ
Ġê²½ ê¸°
ìłģ ìĿ´
Ġê¸° ë°ĺ
ë¹Ħ ëĵł
íħĲ ì¸ł
Ġë³´ ê¸°
íĬ¸ ìĽĮíģ¬
ë¯¸ íĦ°
Ġì» ´
Ġë§Į íģ¼
Ġê°ķ ì¡°
ĠìĿ´ë£ ¨ìĸ´
Ġíķĺ ë©´
ì¹ Ń
íļĮ ê°Ģ
ĠìĿ´ ëıĻ
Ġê²° êµŃ
/ /
ĠëĤ¨ ë¶ģ
ë ¢°
ì§Ģ ë§ī
Ġìĭľ ë¯¼
ê ¼
ì§Ģ ìĽĲ
ĠìķĬ ìĬµëĭĪëĭ¤
ê¶Į ìĿĦ
ĠìķĬ ìķĦ
Ġê³ł ëł¤
ĠìĽ Į
ĠíĻķ ëĮĢ
ìĬ¤ íĦ°
Ġëĵ ¯
íĸĪëĭ¤ ê³ł
Ġí ŀ
Ġë¹Ħ ìļ©
Ġìľ ¤
ê¸Ī ìĿĦ
Ġë§Į ëĵł
Ġìļ°ë¦¬ ê°Ģ
ì½ ĺ
ĠìķĦ ì£¼
ìĺ ¥
ëŀ Ļ
ìļ ķ
ĠìŀĪ ê²Į
í ĵ¨
Ġìĭ¤ ìĭľ
ìĶ ©
ìłĦ ìĿĦ
Ġê¿ Ī
ëĵľ ë¥¼
ĠìĦľ ë¡ľ
Ġì¡° ìĤ¬
ì ¤
Ġâĸ ²
ĠìķĦ ëĭĪëĭ¤
ĠíĿ Ĳ
Ġì²ĺ ë¦¬
ë°Ķ ìĿ¼
Ġë ĥ
Ġëħ¸ ëıĻ
ĠìłĦ ìŀĲ
íĶĦ ë¡ľ
Ġ >
ìĿ¸ ê°Ģ
Ġë¶Ģ ìĤ°
Ġê°Ĳ ìĤ¬
Ġë¸Į ëŀľëĵľ
íı¬ ì¸ł
Ġ201 6
ĠìłĦ ë§Ŀ
ĠíĴ Ģ
ìĿ´ ìĹĲ
ë¥´ ê²Į
Ġìķŀ ìľ¼ë¡ľ
e x
Ġ201 7
ë ¿Ĳ
ĠìĹ Ķ
ê°ľ ë°ľ
íĻĺ ê²½
íķ µ
ĠìĿ¸ íķ´
ĠìŀĪìĸ´ ìĦľ
Į ĵ
Ġì£¼ ë³Ģ
tt p
ë¶Ģ ë¥¼
Ģë¡ľ ë²Į
ìŀĲ ë¡ľ
ì¦ Į
ë°© ë²ķ
ëĭ¤ ìļ´
ĠìĹ¬ ê¸°
Ġíı¬ ë¹Ħëĵł
Ġê´ĳ ê³ł
c t
Ġì į
íļĮ ìĤ¬
ìł Ŀ
Ġìĥģ ëĮĢ
Ġê·ľ ëª¨
ìĿ´ ë¥¼
ìĿ´ ë¸Į
Ġëħ ¹
ĠëĲĺ ìĹĪëĭ¤
ëĭ Ŀ
ì¹ ł
ê·¸ ë£¹
Ġë ¥
ëĲ Ĳ
Ġê²½ ìĺģ
ĠìĺĪ ìĥģ
Ġëª© íĳľ
ä ¸
Ġê°Ģ ì§Ħ
ĠëĲĺ ê³ł
ê³¼ ìĿĺ
ĠíĽĦ ë³´
ĠìĿĮ ìĭĿ
ĠëĪĦ êµ¬
Ġ J
ìĦł ìĿĦ
ìłķ ìĿĢ
Ġë°Ľ ê³ł
ìłľ ê°Ģ
ì ¿ł
ê¸° ìĿĺ
Ġê·¸ëŁ° ëį°
â ĸ
Ġì£¼ ìŀ¥
ĠìķĦ ë¬´
Ġíĸī ìĤ¬
Ġìłķ ìĭł
Ġë°ľ ê²¬
c e
ì£¼ ìĨĮ
ìĽ ł
íķľëĭ¤ ëĬĶ
Ġë¬¸ìłľ ê°Ģ
Ġë²Ī ì§¸
v er
ìĿ´ íģ¬
Ġë Ľ°
ë¡ľ ëĵľ
ìĿ¼ ë¶ĢíĦ°
Ġê¸° ìĸµ
ĠìĦľë¹ĦìĬ¤ ë¥¼
Ġê¸Ī ìľµ
íĶ Ī
ĠìŀĲ ë¦¬
ĠìĿĺ íķ´
Ġ &
ĠìĻ ķ
íİĺ ìĿ´ì§Ģ
ìĻ Ħ
ĠëĤĺ ëĿ¼
ëĭĺ ìĿĺ
ìĽ ĥ
Ġê°Ļ ëĭ¤
ëł¸ ëĭ¤
ì§Ģ ëĤľ
Ġìľł ëªħ
ĠëĶ°ëĿ¼ ìĦľ
ìĬ¤ ëĬĶ
ë¬¸ ìĿĦ
íļĮ ëĬĶ
ĠíĺĦ ìĭ¤
Ġë¹ ¨
ìĿ¼ ìĿĦ
Ġê·¸ëłĩ ê²Į
Ġì¡° ìĦł
íķľëĭ¤ ê³ł
ĠìĿ¼ ìĿ´
íģ ´
Ġíİ ¼
íķ´ ì£¼
ìķĦ ìĿ´
ĠìĶ ¨
Ġíĺķ íĥľ
ë¡ľ ëĬĶ
Ġë¶Ģ ëĭ´
ìī ¬
Ġë¶ Ļ
ĠìŀĪ ìľ¼
Ġë§ ¡
ê°ľ ìĿĺ
Ġë§Į ëĤĺ
ë¦¬ ìĿĺ
ĠëĮĢìĥģ ìľ¼ë¡ľ
ìĦľ ë¹ĦìĬ¤
ã İ
ĠìĤ¬ íķŃ
ĠìľĦ íķĺìĹ¬
ĠìķĬ ìķĺëĭ¤
ĠìĬ ¬
Ġê¸ ´
ìĿ¼ ê¹Įì§Ģ
Ġê² ¨
íĹ Į
Ġìĸ´ë łµ
¤ ëĭ¤
ìĹ Ħ
Ġê±´ ì¶ķ
ĠìŀĲëıĻ ì°¨
ìĨĮ ëħĦ
ĠìķĬëĬĶ ëĭ¤
201 8
ĠíĿ Ķ
ĠìĤ¬ ìĿ´íĬ¸
Ġëĵ± ë¡Ŀ
Ġê´Ģ ê´ĳ
Ġì¶ľ ìĭľ
ê°Ģ ë¥¼
ìŀĲ ìĻĢ
ĠìĪĺ íĸī
ëŁ¬ ìļ´
Ġíķĺ ìĹ¬
ì§Ģ ìĿĺ
Ġê° ĳ
Ġíĸī ë³µ
i r
o c
ĠíĮ Ķ
ĠíķĺëĤĺëĭĺ ìĿĺ
ëĿ¼ ë§Ī
Ġê³¼ ê±°
ì§Ģ ìĹĲ
ìĦ± ê³¼
ë¥´ ê³ł
ĠìļĶ ì²Ń
: //
Ġì°¸ ìĦĿ
u l
ë¦½ ëĭĪëĭ¤
ĠìĦ Ŀ
Ġëª¨ ë°ĶìĿ¼
Ġë¶Ģ ì¡±
Ġë³´ ëĭ¤
Ġ4 0
ëĤ¬ ëĭ¤
Ġê ¾¸
ĠìľĦ íĹĺ
íĨµ ìĭł
Ġê ¶ģ
ëł ´
ĠëĮĢ íķĺìĹ¬
ĠìłĦ íĨµ
Ġìĺ¤ ìłĦ
Ġìĺ¬ ëĿ¼
ĠìĿ µ
ìĬ Ī
ìĽ ¨
ĠëĮĢ ë¹Ħ
ë¯¼ êµŃ
íĤ ¹
Ġìłģ ê·¹
ãĢ ı
ãħĭ ãħĭ
ê°Ģ ëĬ¥
ĠìľĦ ìĽĲ
íĻ į
Ġì¶© ë¶Ħ
ë¥ ´ë
Ġê¸° íĥĢ
Ġíĺ ģ
Ġê ´
ìĿ¼ ìĹĲ
ìķ Į
Ġì£¼ ë¯¼
ìķ ķ
ëĮĢ íķĻêµĲ
ĠëŁ ¬
íĺ ¹
ĠìłĢ ëĬĶ
Ġ201 5
ìĬ¤ ìĿĺ
ë¶Ģ ëĬĶ
ìĥĿ íĻľ
ëĭ¨ ì²´
ìĹ°íķ© ëī´ìĬ¤
Ġìļ°ë¦¬ ìĿĺ
Ġì ĩ¼
Ġìķ ķ
íĬ ¼
ĠìĿĺ ê²¬
Ġì ¿ł
ì ĩ
ĠíĹ ¤
ìĬ¤ ê°Ģ
ìĸ´ ë¥¼
ĠìĿ¼ ìĿĦ
ĠìĿĺ íķľ
Ġê±° ëŀĺ
Ġê°ĢëĬ¥ íķľ
ìĪĺ ìĿĺ
Ġê°Ĳ ìĨĮ
Ġëĭ¤ ë§Į
ëħĦ ìĹĲ
^ ^
Ġë§Ī ì§Ģë§ī
Ġê°ģ ê°ģ
Ġëĭ¤ ìļ´
Ġìłķ íĻķ
Ġë ŀ
Ġíľ ´
ìĹĲìĦľ ìĿĺ
ì² Ļ
ëħĦ ê°Ħ
ìķĪ ìĿĦ
íĵ¨ íĦ°
ëĵ¤ ìĹĲ
Ġìļ°ë¦¬ ëĤĺëĿ¼
ĠëĬĲëĤ Į
Ġê³µ ê¸ī
Ġìĺģíĸ¥ ìĿĦ
Ġì¡° ì§ģ
íĬ¸ ë¡ľ
Ġìłľ ì¡°
íķ ´ë³´
Ġë³´ ìĿ¸ëĭ¤
íķĻ ê³¼
Ġìĸ¸ ìłľ
Ġíĺ¹ ìĿĢ
íļĮ ëĭ´
ĠìĹĨ ìĬµëĭĪëĭ¤
Ġëª© ìłģ
ë²Ī íĺ¸
ê·¸ ëŀĺ
ìĤ¬ íķŃ
ĠìŀĪ ê¸°
ĠìŀĲ ìĦ¸
ĠìłĦ ìĹĲ
íķĺ ëıĦë¡Ŀ
Ġ2 3
Ĥ ĺ
ëĮĢ íĳľ
Ġì§Ģ ìłģ
Ġê¼ Ń
Ġê² ¬
ìĺģ ìĥģ
Ġì§ĳ ì¤ĳ
ëª »
ĠíĶĦë¡ľ ìłĿ
Ġë´ ī
ëįĶ ëĿ¼ëıĦ
ĠìĨ Ķ
ì¡° ìĿĺ
Ġìĥģ ìŀĲ
ĠìłĦ ëĭ¬
ãħ ł
Ġí į¼
Ġìĥģ ëĭ¹
ì ĵ
Ġê°Ģ ê¹Į
ë³µ ì§Ģ
íĺ Ī
ìŀĦ ìĿĦ
¸ ëĭ¤
ê±° ë¦¬
ìĸ´ëĤ ľ
ĠëĤ´ë ł¤
ìĭľìĺ¤ íĽĦ
Ġ2 8
ĠìĬ¤ ìĬ¤ë¡ľ
ìĭľ ìŀ¥
o g
ìĹ ĺ
ìĺ¤ ìłĦ
ìĿ´ íķĺ
Ġìłľ ì£¼
¾ Į
Ġ ï
ìĪĺ ëĬĶ
ìĸ´ë ³
ìĿ´ ëŀĢ
Ġ re
Ġíķĺ ë©°
ìĹħ ì²´
ë¡Ń ê²Į
e w
Ġì§Ģ ê¸ī
ê´Ģ ê³Ħ
Ġì°¸ ê°Ģ
ĠìĤ¬ëŀĮ ìĿĢ
es s
Ġê°ģ ì¢ħ
Ġëĵ £
ĠìĽ Ģ
ëıĦ ëĬĶ
ëĮĢ ì¶ľ
ìĽĶ ìĿĺ
Ġìĭľ íĸī
Ġ19 9
ìĸ´ ìķ¼
ì» ´
Ġë£ ¨
´ë Ł
ìĽĲ ìĹĲ
ĠìłĦë¬¸ ê°Ģ
Ġf or
íı ¼
a b
u m
Ġê³µ ìľł
Ġê ½ĥ
ĠìĦł ìłķ
Ġê¸ Ģë¡ľë²Į
. "
Ġêµ¬ ì¶ķ
Ġìĸ´ë ĶĶ
ĠíĨµ ìĭł
Ġìĸ¸ ë¡ł
ĠìĹ¬ëŁ¬ ë¶Ħ
Ġíĭ °
Ġì§Ģ ìłķ
Ġëĭ¨ ìĪľ
ìĽ ¨ìĸ´
Ġìļ´ ëıĻ
Ġë° ¤
Ġì£¼ ìĭĿ
ë³¸ ë¶Ģ
Ġì°¨ ëŁī
Ġê²Į ìĭľ
Ġëķ ħ
ĠëķĮ ìĹĲëĬĶ
Ġt h
íķŃ ìĿĺ
ìĿ¸ íĬ¸
ê±° ëŀĺ
ìľ¼ë¡ľ ìĦľ
ì§Ģ íĦ¸
ĠíĬ¹ ì§ķ
Ġìµľ ì´Ī
ë§Į íģ¼
ê° ĳ
ìŀĲ ëĵ¤ìĿĺ
íķĻ ìĥĿ
ìĺ¤ ëĬĶ
ĠìĦ ¬
ĠìłĦ íĻĶ
Ġê²½ ì°°
ìĹĪ ëĬĶëį°
ĠìĹħ ì²´
Ġìłľ ìĭľ
ĠìĿ¸ ëıĦ
Ġë³´ë Ĥ´
ìĿ´ ë²Ħ
ìĸ´ ëıĦ
Ġê°Ģ ì¹ĺ
ë² ¨
ê·¸ ëŁ¬
ĠìĦ¸ ìĥģ
Ġê³µ ìĹ°
ê³ ¤
âĢĻ ,
ìĹħ ìĿĦ
ê¹Į ìļĶ
ìĺģ íĻĶ
ë¹ ł
Ġ )
Ġë ĩĮ
ĠìĦł ë¬¼
Ġë³´ ëĬĶ
º ¼
ê² ¼
ĠëĤĺ ìĺ¨
ìĦ¸ ê³Ħ
Ġíķľ ë²Ī
ĠìłĦ ëŀµ
Ġì° ©
ĠëĦĺ ìĸ´
Ġëª¨ìĬµ ìĿĦ
í ĩ´
ìĬ¤ ëŁ½
Ġìļ° ìĦł
íķĺìĹ¬ ìķ¼
Ġë°Ľ ìĿĦ
ã ĥ
Ġê¸° ëĭ¤
es t
ëĮĢ ë¥¼
Ġì§ģ ìĽĲ
ìĬ¤ íĨł
Ġìĭ¤ ìłľ
Ġê·¸ ë¦¼
Ġë°Ķ ëŀĮ
íķ¨ ìĿĦ
ì¼ ĵ
ĠìłķëıĦ ë¡ľ
ĠëĤ´ìļ© ìĿĦ
ĠìłĦ ìĭľ
Ġë© Ģ
ì§Ģ ì§Ģ
Ġì° į
ĠìĤ´ íİ
i f
ëĮĢ ìĿĺ
ë³´ ê³ł
ë°© ìĨ¡
Ġê³ł ë¯¼
Ġíģ ´
ĠìĿ´ë² ¤
ìĿ´ ê¸°
ĠìĦ ¼
ë¶Ģ ê°Ģ
ĠëĦ £
ë³ ´ë
ĠìĦł ë³´
Ġì°¨ ì§Ģ
ëŀ įëĭĪëĭ¤
Ġìĺ¤ ëŀĺ
ëĬĶ ì§Ģ
ëĵľ ë¡ľ
ëĦĪ ì§Ģ
ìĦ± ìĹĲ
ĠìĦł ìĥĿ
q u
ĠëıĻ ìĭľìĹĲ
ì ¿
ìĤ¬ ìĻĢ
ìĽĲ ìĹĲìĦľ
Ġê¸° íļį
ìłĲ ìĿ´
ê²ł ëĭ¤ëĬĶ
Ġëĭ¬ ë¦¬
ìĭľìĺ¤ ìłĦ
---- ----
Ġìłľ ëĮĢë¡ľ
B S
Ġìĥģ ëĭ´
êµŃ ìĿĺ
Ġëĵ± ìŀ¥
Ġìľł ëŁ½
Ġë§Ĳ ìĿĦ
ĠëĮĢíķľ ë¯¼êµŃ
ĠI n
° ëĭ¤
ìľ¼ë¡ľ ëĬĶ
ĠìĦł ìĪĺ
Ġë§ Ŀ
Ġë¯¼ ì£¼
¬ ìĺģ
Ġìŀ Ķ
ìĭľ ê³ł
íķĺ ëĤĺ
Ġê·¸ ëĮĢë¡ľ
ìłķ ì±ħ
Ġëĵľ ëŁ¬
ê ¿
Ġê·¸ ëĥ¥
ë¹ Ī
ì ©
Ġë² Ĺ
Ġê¹ Į
Ġë¶Ħ ìľĦ
Ġëģ Į
ĠíĨµ íķľ
Ġê³¼ íķĻ
Ġìķ ¡
Ġìłķ ìĿĺ
Ġíķ´ ìĦľ
Ġìµľ ìĨĮ
ê»ĺ ìĦľ
ĠìłĦ ê¸°
Ġìĭľ ìĦ¤
Ġê°ľ ëħĲ
íŀ Į
ì» µ
ĠìĽĶ ëĵľ
Ġíķµ ìĭ¬
Ġì»´ íĵ¨íĦ°
Ġ2 7
Ġì¤ĳìĭ¬ ìľ¼ë¡ľ
íķĺ ëįĺ
Ġìĭľ íĹĺ
Ġê°ĸ ê³ł
ĠìĹ¬ ë¦Ħ
ëĵ± íķĻêµĲ
ĠìĿ´ ìłĦ
Ġìłľ íķľ
êµ¬ ë¥¼
Ġë³´ ëıĦ
Ġs t
Ġì½ĺ íħĲì¸ł
¿ ½
ìĿ´ ì§Ģë§Į
íķĺ ìĦ¸ìļĶ
ìŀ¥ ê³¼
Ġë°© íĸ¥
ë¡ľ ê·¸
Ġê¸° ê´Ģ
ëŁ¬ ìĬ¤
ë§ İ
´ë© °
ë¦ ¿
ĠìĿ´ë ¤Ħ
ĠëĦ ĵ
Ġì£¼íĥĿ ëĭ´ë³´ëĮĢì¶ľ
ĠíĹ Į
ìĦ Ń
ëĭĪ ìĬ¤
ĠãĢ İ
o p
Ġ2 6
Ġëĵ± ìľ¼ë¡ľ
ĠìĪ ¨
Ġìłľê³µ íķĺëĬĶ
ĠìĺĪìłķ ìĿ´ëĭ¤
Ġíķĺ ê¸°
ì¢ Į
Ġ201 4
Ġê±´ ìĦ¤
Ġë¬¸ìłľ ë¥¼
Ġ2 2
ĠìķĪ ìłķ
ĠL G
ê°Ģ ê°Ģ
ì¶ °
Ġì ı
ëĭ ī
íķĺ ìĭł
Ġì¡ ¸
ìŀĲ ëĵ¤ìĿĢ
Ġìĭľê°Ħ ìĿĦ
Ġ *
íķĺ ëĭ¤ê³ł
ĠìĨĮ ìŀ¬
ìĤ¬ ìĹĲ
ĠëĲ Ĳëĭ¤
Ġì²´ íĹĺ
ìĩ Ħ
ĠìĽĢ ì§ģ
Ġëı ¼
ĠìĤ¬ìļ© íķł
Ġìĭľê°Ħ ìĿ´
Ġìµľê³ł ìĿĺ
ĠìĹŃíķł ìĿĦ
Ġë¶Ģ ëª¨
ë° ĸìĹĲ
ëł¤ ê³ł
Ġê²½ìļ° ê°Ģ
ĠìķĦ ì¹¨
ĠìĦ¤ ë¦½
íĻľ ëıĻ
Ġê²Ģ ìĥī
Ġìī ¬
Ġì£¼ ëĬĶ
Ġíķľëĭ¤ ëĬĶ
Ġëª» íķľ
Ġëĭ´ ëĭ¹
ë£Į ë¥¼
ĠìľĦíķ´ ìĦľ
ĠìĤ¬ìļ© ìŀĲ
ĠíĿ ¥
ìĭľ ì¼ľ
Ġd e
ìļ° ë¦¬
íĮ Ķ
ìķĪ ìłĦ
ëŁ¼ íĶĦ
ì¼Ģ íĮħ
Ġì¤ĳ ìķĻ
Ĩ ĵ
ĠìĪĺ ìĪł
Ġíķ ´ë
ëĶ °
ëĭ ¥
ê³Ħ ìķ½
Ġìŀ¬ ë¯¸
íľ ´
ê´Ģ ìĿĦ
ĠëıĦ ìŀħ
ì§Ģ ìļĶ
ê°Ģ ê³ł
Ġìĸ ĺ
Ġê°ľ ìłķ
Ġìĸ¼ êµ´
ĠíĻķ ë³´
% ,
å ħ
ìĤ¬ ì§Ħ
Ġ2 9
Ġc on
ëľ »
Ġ g
ìĭ ±
ĠìĦ¤ ê³Ħ
íļĮ ìĹĲìĦľ
ëĵľ ìĭľ
Ġë© ĭ
Ġìĭ ¸
ìĻĢ ìĿĺ
ë¦° ëĭ¤
ð Ł
ìŀ Īëĭ¤
Ġìķ ±
Ġìŀĳ ìĦ±
ĠëĬĲ ëģ¼
ĠìĿ´ìķ¼ ê¸°ë¥¼
ĠëıĦ ìĽĢìĿ´
er s
ìłķ ìĿĺ
ê²ł ì§Ģë§Į
ëĿ¼ ìļ´
ħ ëĭĪëĭ¤
ëł ī
ìķĦ ìļĶ
ì ĩ¼
Ġë°Ľ ëĬĶ
Ġë²ķ ë¥ł
ì½ ľ
ê°Ħ ìĿĺ
Ġê°Ģ ìł¸
ì°¨ ë¥¼
ĠìĦ¤ ìłķ
Ġìĸ¼ë§Ī ëĤĺ
ìĿ´ ìħĺ
íĬ ľ
Ġì¢ Į
ĠìĿ¸ ìĭĿ
ê´Ģ ìĿĢ
Ġìŀħ ëĭĪëĭ¤
Ġíĺĳ ëł¥
ĠíĻĪ íİĺìĿ´ì§Ģ
t h
ëı Ī
Ġê·¸ ëħĢ
ìĦ± ìĿĢ
ì¹ĺ ê³ł
ìľĦ ìĹĲ
Ġíŀ Ī
ĠìĿ´ ê³³
ë¹Ħ ë¥¼
ìļ´ ëıĻ
ĠìĦł ê±°
Ġë¹ Į
ì» ¬
ĠìĪĺ ìĿµ
ĠëįĶ ë¶Ī
Ġíŀĺ ëĵ¤
ĠëĦ¤ íĬ¸ìĽĮíģ¬
ï ½
Ġê³ §
ë§Į ìĿĺ
ĠìĺĪ ìķ½
ëĪ Ī
Ġê² ©
ê³¼ íķĻ
ĠìĤ¬ ë¡Ģ
ëħ ķ
ĠìłĦ íĻĺ
ëŀ« íı¼
p p
ĠìĪĺ ì§ĳ
Ġìŀ¥ ìķł
ĠíĶĦ ëŀĳ
Ġì§Ī ë¬¸
Ġë§Į ëĵľëĬĶ
ĠìŀĲìĭł ìĿ´
ë¦¬ ì¦Ī
ĠìĿ¸ ë¥ĺ
ĠìĬ µ
íŀĪ ëł¤
ĠëĳĲ ê³ł
Ġë§ ¥
ë§Ī ìĿĦ
ĠëĶĶ ì§ĢíĦ¸
Ġìłľ ìĻ¸
ĠìĤ¬ëŀĮ ìĿĺ
Ġ X
Ġ is
Ġë¹ Ī
ĠëĤ´ë ¶Ģ
ĠëĮĢ ìĭł
Ġë§Ī ìĿĦ
Ġëľ ¨
ĠìĬ¤ë§ĪíĬ¸ íı°
Ġê² ª
Ġìĭł ë¢°
Ġëĭ¤ìĿĮ ê³¼
ì§ Ŀ
Ġëĭ¨ ê³Ħ
ĠìľĦíķ´ ìĦľëĬĶ
íķ¨ ìľ¼ë¡ľìį¨
ĠìĪľ ê°Ħ
Ġìĸ´ëł¤ ìļ´
ë¬¼ ìĿ´
íķĺê¸° ëıĦ
ì§ ±
ìĪĺ ë¡Ŀ
ĠP C
êµ¬ ìļĶ
ëĭĺ ìĿ´
ĠìĿ¸ íķľ
ĠìķĬ ëĭ¤
ìħ ľ
ì´ ī
íļĮ ìĹĲ
Ġë³´ ìľł
ì¡° ìĦł
Ġë°Ķ ëĭ¤
Ġë°Ķ íĥķ
íĮĮ íĬ¸
ĠìĻ¸ êµŃ
ìľ¼ë¡ľ ë¶ĢíĦ°
Ġê³µ ê³µ
Ġìĺģ ìĥģ
Ġê°Ļ ìĬµëĭĪëĭ¤
íĸĪ ì§Ģë§Į
ĠìĨį ìĹĲìĦľ
ë¡ľ ë´ĩ
ìĦ± ìĿĺ
ìº Ĳ
ìĬ ·
ĠìĪĺ ì¶ľ
ģ ëĭĪëĭ¤
Ġì ±
Ġë§ ģ
íĪ¬ ìŀĲ
Ġìłĳ ê·¼
ìĿ´ ìŀĲ
Ġê³µ ê²©
Ġë¶Ħ ëªħ
3 5
ĠìĽ ¨
Ġë°Ķ ëĿ¼
ĠìĬ¤ íĬ¸
e b
ë³´ ëĭ¤ëĬĶ
íĨ ¤
Ġê³µ ìĭĿ
ĠíĮ ¬
ëĤ´ ëĬĶ
Ġíĺ ľ
Ġì£ Ħ
ë§İ ìĿĢ
Ġê¸° ëħĲ
Ġìĸ´ë¦° ìĿ´
Ġì§Ģ ì§Ģ
Ġë°Ķ ëŀįëĭĪëĭ¤
Ġì´ ī
ĠìĿ´ìĥģ ìĿĺ
Ġê±´ë ¬¼
Ġë³´ ëĭĪ
Ġíķ´ ëıĦ
ĠS K
ìĹĨ ëĬĶ
íķĺ ìŀĲ
Ġê³µ ë¶Ģ
ìĭľ ë©´
ìłķ ìĹĲ
ĠìŀĲ ì£¼
ĠëķĮ ëĬĶ
ìĿ¼ ìĿ´
ĠìĿ´ë ģ
Ġìĺ¤ íŀĪëł¤
ĠìĹ¬ ìłĦíŀĪ
ê¸Ī ìľµ
Ġêµ¬ ìŀħ
Ġê°Ģ ëĬĶ
Ġëª¨ ë¥´
Ġìĥģ ìĬ¹
Ġë°Ķ ìĿ´
Ġë°ĺ ëĵľìĭľ
Ġìĭ¶ ìĿĢ
Ġëħ¸ ëŀĺ
Ġíĺķ ìĦ±
ëħĦ ë¶ĢíĦ°
Ġë¹Ħ íķ´
íĸĪ ìĿĦ
Ġì¢ħ íķ©
Ġì£¼ ëª©
Ġìļ° ìĪĺ
ĠT V
å ¤
ĠìĹ ¼
ĠìĽ ĥ
ĠíĨµ íķ©
ar t
ĠíķŃ ìĥģ
ê¸° ìĻĢ
ë³´ ëĬĶ
it y
ec t
Ġíĺģ ìĭł
ê±° ìļ´
ë¨ ¹
ëıĦ ìĭľ
ëħĦ ëĮĢ
ĠìĹĨ ìĹĪëĭ¤
ĠíķĺëĬĶ ëį°
ëĬĲ ëĥĲ
Ġì§Ģ ëıĦ
â ĳ
ìĬ ´
íļĮ ìŀ¥
Ġí ĽĪ
ĠìĤ¬ ë§Ŀ
ìĺ¤ íĽĦ
Ġê´Ģìĭ¬ ìĿĦ
Ġë¹Ħ ìĬ·
is t
ag e
ì§Ģ ë°©
ĠìĿĺ ìĽĲ
Ġì¡° ê±´
ê²ĮìŀĦ ì£¼ìĨĮ
Ġìŀħ ëł¥
T V
Ħ Ī
ìķĦ ìĦľ
ìĦ± íĻĶ
Ġíĺ Ĳ
ìĿ´ëĿ¼ ë©°
Ġâĳ ł
Ġìŀ ĥ
Ġë§Ĳ ìĿ´
Ġë§¤ ì¶ľ
ê²ĮìŀĦ ë°ĶëĳĳìĿ´
Ġíĸī ìłķ
ĠìĻ¸ ë¶Ģ
i p
â Ī
Ġê·¸ ê°Ģ
Ġê·¸ ë¦¬ìĬ¤
Ġíķĺ ëĭ¤
Ġêµ¬ ì²´
ì½Ķ ìĿ¸
ë¦¼ íĶ½
ĠíĶĦë¡ľìłĿ íĬ¸
Ġê°Ģ ìĿĦ
ë¬¼ ìĿĺ
ìĤ¬ ë¡ľ
ĠìŀĪ ëįĺ
Ġìļ ķ
ĠêµĲ íĨµ
ëłĪ ìĬ¤
ĠìĤ¬ëŀĮ ìĿĦ
ĠíļĮìĤ¬ ëĬĶ
ì£¼ íĥĿ
Ġìĭ¤ ìłľë¡ľ
ł Ģ
ìĸ´ ë¡ľ
Ġ7 0
Ġ on
ìĤ¬ ê³ł
ê²ĮìŀĦ íı¬ì»¤
ĠíķĺëĤĺ ìĿĺ
Ġëħ¼ ìĿĺ
Ġì¹ ¼
Ġìĭ¤ íĸī
ê²ĮìŀĦ ë§ŀê³ł
Ġìŀĺ ëª»
Ġì·¨ ìĹħ
a v
Ļ ëĭĪëĭ¤
íķĺê³ł ìŀĲ
ëĲĺ ìĹĪ
ĠëĲĺ ë©´
Ġìķŀ ìĦľ
ĠìķĦë¦Ħ ëĭ¤ìļ´
íķĺ ëĭ¤ëĬĶ
ê²ĮìŀĦ ê³łìĬ¤íĨ±
ĠíĶ¼ ë¶Ģ
ì¶Ķ ì²ľ
Ġëģ Ĭ
* *
ìĭ ¸
ìłĦ ë¬¸
ìŀ¬ ìĿ¸
Ġìĺģ ìĹħ
íĭ ´
ĠíĿ¬ ë§Ŀ
Ġì£¼ ìĿ¸
ê´Ģ ìĿ´
Ġë¹Ħ íĮĲ
íĴĪ ìĿĦ
Ġì¢ħ ìĿ´
A R
Ġ v
ĠìĤ¬ ë¬´
ìłģ ìĿ´ê³ł
ìķĦ ê°Ģ
ãĢ į
ìĬ¤ ì½Ķ
ê³Ħ íļį
Ġí ĳ¸
ĠìĿ¸ ìĥĿ
ê²½ ìĿĦ
ĠìĺĪ ìĪł
ĠìĿ´ë£ ¨
ìģ ľ
5 00
ë ®¤
ì° Į
Ġëį ķ
ĠìĹĨ ìĿĦ
íĶĦ ë¦¬
ëŁī ìĿĦ
ĠìĤ¬íļĮ ìłģ
ìĿĺ íļĮ
Ġì£¼ ë¬¸
ĠíĶĮ ëŀ«íı¼
ëĿ¼ ë©´
ê³¼ ëĬĶ
ìłľ ëĬĶ
ĠìĺĪ ë°©
Ġ8 0
ĠìľĦì¹ĺ íķľ
Ġíĺ Ī
ìĦ¸ ë¥¼
íĭ ±
ê°Ļ ìĿĢ
3 7
² Ħ
ê³µ ê³ł
ĠìĹĨ ê³ł
íģ Ĳ
ĠëĮĢ êµ¬
ĠìķĦ ë²Ħ
ëĭĪ ìķĦ
Ġ201 2
ìĶ¨ ëĬĶ
Ġìłľ ì¶ľ
ar d
ĠìŀĲ ê²©
ìķĺ ìĬµëĭĪëĭ¤
or e
Ġì¢ħ ë¥ĺ
ĠëıĻ ìĿ¼
Ġê¹ Ĭ
ì¶ķ ìĿĢíĸī
Ġê·¼ ê±°
ìłĦ ê±°
Ġìĺģ ìĹŃ
N S
ì§Ģ ë¡ľ
ê°Ģ ìĿĺ
ĠìĪĺ ìĥģ
ìĭł ì²Ń
ĠìĬ¤ íı¬ì¸ł
Ġì½Ķ ëĵľ
Ġh ttp
ì§± êµ¬
k r
Ġì¤ĳ ìĹĲ
Ġì´ ¬ìĺģ
Ġê´Ģê³Ħ ìŀĲëĬĶ
Ġìŀ¬ íĮĲ
ìĭľ ìĬ¤íħľ
ìĤ° ìĿĦ
B C
ª ħ
ìĿ¼ ìĿĺ
ìŀĲ ìĹĲ
êµ¬ íķĺê³ł
Ġë¹ Ľ
Ġ e
ìŀĲ ê¸°
ë¥¸ ëĭ¤
Ġì¢ħ êµĲ
Ġíĳľ ìĭľ
. (
Ġê·¸ ë£¹
ĠëĮĢ ìĿĳ
ìĨ Ķ
ĠìłĦ íĺĢ
ĠìĻ Ķ
Ġë§İ ëĭ¤
ĠìĪ ł
ãĥ »
8 8
Ġ Â·
ëıĦ ìĹĲ
Ġì° ¬
Ġë¹ ¼
Ġëĭ¬ ëĿ¼
Ġë¡ ¤
Ġëĵľ ëĿ¼ë§Ī
ë§Į ìĿĦ
Ġìĭľ ì¦Į
ê° Ķëĭ¤
ê³¼ ë¥¼
Ġìļ° ëł¤
ĠìĤ¬ìļ© íķĺëĬĶ
ëĮĢ ê°Ģ
íľ ĺ
u d
ĺ ë¦¬
Ġì Įĵ
Ġìĭľ ìłĪ
Ġê± ±
ĠíķŃ ê³µ
k e
Ġíķĺ ëĬĺ
Ġëª¨ ìĸĳ
Ġ201 3
ê²ĮìŀĦ ë·°
ê²ĮìŀĦ ì§±êµ¬
ĠìĤ¬ìĭ¤ ìĿĦ
ì ¾Į
Ġìļ° ì£¼
Ġíķ© ìĿĺ
ĠíķĦìļĶ ê°Ģ
Ġê´Ģëł¨ ëĲľ
ëĨ ĵ
ìĬ¤ ëŁ¬ìļ´
íĻĶ ëĲľ
ĠìļĶ ì¦ĺ
E R
ìŀ Ķ
íĻĶ ê°Ģ
Ġìłķ ë¦¬
ìĹ¬ íĸī
ĠìķĪ ìĹĲ
Ġì§ §
Ġíĸī ëıĻ
êµ° ìļĶ
ì§ Ĳ
Ġëª» íķĺê³ł
ä º
ìķ ŀ
ĠëĤĺ ìĿĺ
Ġëĭ¨ ì²´
Ġì¡¸ ìĹħ
ĠìĪĺ ìĹħ
ë§Į ìĿ´
ĠìĹĨ ìĸ´
ê²ĮìŀĦ ë¡ľë´ĩ
Ġ6 0
ëŁī ìĿ´
ĠíĬ¸ ëŁ¼íĶĦ
ã Ĩį
Ġë°©ë²ķ ìĿĦ
ħ Ħ
ëıĦ ìĻĢ
ĠìĿ¸ ì²ľ
ĠìĿ¼ ìĸ´ëĤĺ
al l
ĠëĤ ©
Ġê·¸ ë¦¬
ĠìĿ¼ ìłķ
ì¦Ŀ ìĿĦ
A S
a in
ê³ł ìĭľ
ìľ¼ ëĭĪ
Ġì£¼ ë¡ľ
ìĦł ê±°
ìħĺ ìĿĦ
.... ..
Ġê·¸ê²ĥ ìĿĢ
ìŀĲ ë¦¬
ĠìłĢ ìŀ¥
ĠëŃ Ĳ
ĠìĿ´ë²¤ íĬ¸
ï ¿½
ìĥģ ìĿĢ
êµ¬ ê°Ģ
íħ į
Ġìĸ¸ ê¸ī
ë§ ¹
ë° ¥
ìĸ´ ê°Ģ
ì£¼ ê³ł
ĠìĹ¬ ìŀĲ
Ġë§Į ìĹĲ
Ġíĥ ĢìĿ´
ĠìļĶ ìĨĮ
Ġëıħ ë¦½
â łĢ
ëĭ ·
Ġìĺ ·
Ġê·¸ ëıĻìķĪ
ìĤ¬ìĹħ ìŀĲ
ãħİ ãħİ
ëĲĺ ë©°
ìĿ´ëĿ¼ ë©´
ĠìłĢ ëł´
Ġê²° íĺ¼
Ġìº ł
Ġìķł íĶĮ
í Ģ
Ġë§Į ì¡±
ĠëıĻ ìĿĺ
ëħ ģ
ĠìķĦ ë§Ī
ëıĻ ìĤ°
Ġíıī íĻĶ
ë Ģ
an g
ë³ĳ ìĽĲ
íĸĪ ìľ¼ë©°
it h
ì§ ĵ
ĠìĨĮ ìľł
ĠíķĻ ìĬµ
ìĿ¼ ë³´
Ġê° Ŀ
ĠëĮĢ íĺķ
ĠìłĦ íĸĪëĭ¤
ìĭĿ ìĿ´
Ġìµľ ìłĢ
ì¤ĳ ìĹĲ
ĠëĤ¨ ìŀĲ
ì¹´ ëĵľ
ì¶Ķ ê°Ģ
Ġìµľ ì¢ħ
´ë© Ķ
ĠëĲĺ ì§Ģ
ĠíĶĦ ë¦¬
Ġëĭ¤ìļ´ ë¡ľëĵľ
ìĿ¼ ìĺ¤íĽĦ
ë© ĺ
ë² ¤
ĠìĤ¬ëŀĮ ëĵ¤ìĿĢ
o b
Ġìĭ ±
Ġê²ĥ ìĹĲ
Ġì¡° ìĦ±
ĠëĨĴ ìķĦ
3 6
Ġê¸° ì´Ī
ĠíĺĦ ìŀ¥
ì» ¨
Ġê²¨ ìļ¸
Ġê³¼ìłķ ìĹĲìĦľ
ëĤĺ ë¬´
Ġê²ĥ ìĿ´ëĿ¼ê³ł
Ġë§Ī ì¼ĢíĮħ
ĠíĬ¹ ìłķ
Ġã ģ
Ġí ĩ´
ìĭľ ê¸°
ĠìŀĪëĭ¤ ë©´
ĠìĽĲ íķĺëĬĶ
Ġê¸°ëĬ¥ ìĿĦ
ìŀĲ ë£Į
Ġê°Ģ ë¥´
Ġíķľ íİ¸
ĠëıĦ ìłĦ
ë²Ī ì§¸
Ġíļ¨ ìľ¨
¿ Į
ìķ ¤
íķĺê¸° ë¡ľ
ĠS t
Ġëĭ¬ ëŁ¬
Ġê¶ģ ê¸Ī
ëĿ¼ ë©°
ĠëŁ¬ ìĭľìķĦ
ĠìĪĺ ê°Ģ
ĠìĪĺ ìŀħ
ĠìĤ¬ ëĬĶ
ĠëĤĺ ëĪĦ
Ġìĺ ®
ìļĶ ìĿ¼
Ġê¸ į
Ġì¼ ĢìĿ´
ĠìĿ´ ìĿµ
ëĭ¨ ìĿĦ
ìĭŃ ìĭľìĺ¤
ìĿ´ ìķ¼
Ġê³ ¡
ĠëĲ Ĳ
ĠìĿ´ë Ĥ´
ìĸ´ë³ ´
íķ´ ëıĦ
ë¹ Ľ
´ë Ĳ
ĠëĤĺ ëĪ
Ġë°Ķ ëĢ
Ġíĥ Ĳ
íĸĪ ëĬĶëį°
Ġíľ ´ëĮĢ
æ ĸ
ĠëĤ Ļ
Ġìĺģ êµŃ
ëĵł ì§Ģ
ĠìĥĿê°ģ ìĿ´
Ġìłľ ê¸°
iv e
ĠìĹĦ ë§Ī
ĠíĽ Į
ìĵ °
Ġë ½
Ġë³´ ìŀ¥
Ġë³´ ìĿ´ëĬĶ
ĠìĿ¸ ìĤ¬
ê³Ħ ìĿĺ
Ġì¶ľ ìĭł
ëĭ¬ ëŁ¬
ãĢ ĭ
ìģ ĺ
ìĿ¸ ê³¼
ìļ° ëĬĶ
ë¯¸ êµŃ
ìĭ¬ ìĿĦ
Ġìĩ¼ íķĳ
o o
Ġì ª½
íĻ Ģ
ì¡° ìłľ
Ġìĥģ íĺ¸
Ġë°Ľ ìķĺëĭ¤
Ġíĸī ìľĦ
Ġë¯¼ ì¡±
ë¦¬ ë¡ľ
ë¦¬ ê¸°
ĠìķĦ ìĭľìķĦ
ë§Ī íĨł
Ġíĳľ ì¤Ģ
ĠìĦ¤ëªħ íĸĪëĭ¤
ìĭľíĤ¤ ëĬĶ
Ġê ½
or t
Ġëĵ¤ìĸ´ ê°Ģ
3 4
ì¶ ¤
Ġìĥģ ê¸°
ĠíĺĦ ì§Ģ
Ġíıī ìĸĳ
ëħĦ ìĿĦ
ë¶Ħ ìĿ´
Ġê°ĢëĬ¥ ìĦ±ìĿ´
ac k
ìŀ¥ ìķł
ì° ®
ĠíĮĮ ìķħ
Ġìĸ µ
Ġëª© ìĨĮ
ìł ł
´ë ŀĺ
ìĦ¸ ëĮĢ
ë¬´ ìĽĲ
Ġë°ĺ ìĺģ
ëģ Ķ
Ġë´ Ĳ
ĠëĶ ¸
ĠëĮĢíĨµëł¹ ìĿĢ
ĠíĶĮ ëłĪìĿ´
Ġê°Ģ ìĬ´
íİ ľ
Ġë°ĺ ë©´
ë³Ħ ë¡ľ
Ġìĭľ ì²Ń
ĠìĪĺ ëĬĶ
ìłľ ìĿĺ
Ġë¹Ħ ì¦Ī
ëįĶ ëĭĪ
ĠëĿ¼ ìĿ´
ĠíĥĢ ê³ł
Ġë°Ķíĥķ ìľ¼ë¡ľ
ĠìĿ Ħ
ëĤ Ļ
ĠíļĮìĤ¬ ìĿĺ
Ġê·ľìłķ ìĹĲ
ë¡ ¤
ìĸ´ ì§Ħ
Ġìĺ¤ íĶĪ
Ġ201 1
ĠíĻĶ ë©´
Ġê°Ħ ëĭ¨
âłĢ âłĢ
ê ¶ģ
ĠìĨĮ ìĨį
Ġë°° ê²½
at e
Ġìĺ¨ ëıĦ
Ġíĭ Ģ
ë¦¬ ìĻĢ
ìĥģ ìĹĲ
ì²´ ìĿ¸
ĠìĥĿ ëªħ
Ġ r
ìĤ¬ ëŀĮ
ĠìĤ¬ ëĿ¼
ë¶Ģ ìĿĺ
Ġë°ĺ ëĮĢ
Ġì°¸ ê³ł
´ëŁ ½
ê ½ĥ
Ġíķĺ ë©´ìĦľ
ìļ° ìĬ¤
ëĭ¨ ìĿĺ
Ġì°½ ì¡°
Į į
ëŁ Ń
ìĭł ë¬¸
ì²´ ë¥¼
Ġìľł íĺķ
Ġìĺģ ìĸ´
ĠìĦ± ëĬ¥
Ġë°ĺ ìĿĳ
ĠíĨµíķ´ ìĦľ
ĠëĮĢ ì¤ĳ
Ġì²Ń ëħĦ
ê³¼ ìłķ
Ġë² ½
Ġê³ł ìļ©
ĠëıĻ ë¬¼
íķ ´ë³
Ġê²½ìļ° ìĹĲ
Ġë¶Ī êµ¬íķĺê³ł
íĿ ¡
ĠëĮĢíĨµëł¹ ìĿ´
Ġìį ¨
ìľ¼ ë©´ìĦľ
ĠìĤ¬ ìłĦ
êµ¬ ìĿĺ
ĠìĬ Ī
ìĶ ¬
ĠìĻĦ ìĦ±
Ġâĳ ¡
í ĳ¸
ìŀĲ ëıĻ
ë§Į ìĹĲ
Ġìĭł ê³ł
ĠíĮĮ ìĿ¼
ĠíĶĦëŀĳ ìĬ¤
ëŀ Ĳëĭ¤
Ġê¸° ê³Ħ
ìķĦ ìķ¼
êµŃ ìłľ
ì¡° ìĤ¬
ëĳĲ ê³ł
ĠìĨį ìĹĲ
ĠìĿ´ íķĺ
ì¹ĺ ê°Ģ
ĠëıĦ ì°©
ĠíķĦìļĶ íķĺëĭ¤
Ġì°½ ìĹħ
Ġë¸Ķ ë¡ľê·¸
ĠíĻľëıĻ ìĿĦ
Ġë¿Ĳ ë§Į
i z
Ġë ļ
ë§ ¥
ĠìłĦ ìŁģ
ëĵ¤ ë¡ľ
ëĵľ ë¦½ëĭĪëĭ¤
ê°ľ ë¥¼
ìłĪ íķľ
Ġíĺľ íĥĿ
Ġê°Ģ ëĵĿ
ëĲĺ ë©´
ĠìĻĦ ë²½
~ ~
ī ìŀ¥
ìĦ ¯
íķĺ ìĭľëĬĶ
íĸĪëĭ¤ ëĬĶ
âĢĻ (
ë¶Ħ ìĿĦ
Ġìŀ¥ ìĨĮ
ĠìłĢ ì¶ķìĿĢíĸī
ĠêµĲ íļĮ
ĠëĤ¨ ìķĦ
ë³´ íĺ¸
ĠëĤĺ ìĦľ
Ġì²´ ê²°
ĠëĬĲ ê»
íķĻ ëħĦ
Ġê°ķ ëł¥
Ġë¶Ī íİ¸
Ġë°ĺ ë³µ
ĠëĤ´ë ħĦ
ĠëĮĢíķ´ìĦľ ëĬĶ
ê° Ĵ
Ġìķ ī
Ġê°Ģ ìłķ
Ġê³¼ ìłķìĿĦ
ê²ł ëĭ¤ê³ł
ĠìłĪ ëĮĢ
ëĺĲ íķľ
ìłģ ìĿĦ
Ġìłľ ìķĪ
ĠíĻķ ìĭ¤
Ġë¡ ¯
Ġíŀĺ ìĿĦ
Ġì¸¡ ë©´
ĠìĤ¶ ìĿĦ
ĺ ĳ
ĠìĨĮ íĶĦíĬ¸
íķľëĭ¤ ë©´
ĠìĽĲ ì¹Ļ
ê±´ ê°ķ
ì½ ©
ìĤ¬ ìĿ´
ìĥģ íĴĪ
ĠìĿĺ ìĤ¬
ĠíĨµ íķĺìĹ¬
Ġì» ¬
Ġë§ŀ ëĬĶ
ĠëĤĺíĥĢ ëĤ¬ëĭ¤
¨ ¸
Ġìł ĬìĿĢ
ìĽ ħ
Ġë¬ »
íĴ Ģ
ìĹŃ ìĿĦ
ĠëĲĺ ìĹĪ
Ġë§¤ ìĿ¼
ìĺĪ ìĪł
ĠíĶĦë¡ľê·¸ëŀ¨ ìĿĦ
Ġë§Ī ì°¬
Ġì¶ľ ìĹ°
Ġë¥ ¼
ê²½ ìĺģ
ì¤Ģ ëĭ¤
Ġë³Ģ íĺ¸
Ġì²Ń ìĨĮëħĦ
Ġê²ĥ ì²ĺëŁ¼
ĠìľĦ ë°ĺ
íĨ ¡
Ġìłģ ìĿ´
Ġì¢ĭ ëĭ¤
Ġp ro
ĠìłľíĴĪ ìĿĦ
Ġë¡¯ ëį°
ë¶ Ļ
ëŁ ´
ìĭĿ íĴĪ
ê²½ ê¸°
on g
Ġëĭ¹ ìĹ°
ww w
0 9
Ġ Y
Ġìĺ¤ ë¥¸
ĠìłĢ ëħģ
Ġë¦ ´
Ġíİ¸ ìĿĺ
Ġa s
ìĿ´ ë©´
ĠëĤĺ ë¬´
Ġë¬´ë ĮĢ
Ġë§ĪìĿĮ ìĿĦ
P S
ã ģ
ì§Ģ ìĻĢ
Ġìĺ Ĩ
Ġëĭ¤ ë¥´
ì¤ĳ ìķĻ
Ġìŀ¥ ëĤľ
ĠíķĦ ìĪĺ
Ģ ëĭ¤
ĠëĮĢ ì¶ľ
Ġíķĺ ê²Į
ĠìŀĲ ëħĢ
Ġíķ´ ìĦĿ
ãĥ» ãĥ»
ìĭľ ëĮĢ
Ġìłľ ê±°
ĠëĤĺ ìĻĢ
ìĦ¸ íĬ¸
ĠìĹĦ ì²Ń
ê¸° ì¤Ģ
ìĺĢ ìĬµëĭĪëĭ¤
ìķĺ ëįĺ
Ġê¸Ī ìķ¡
Ġë§Īì°¬ ê°Ģì§Ģ
¯ ¤
ĠìĿ´ ìĤ¬
ë° į
Ġê·¸ ëĵ¤ìĿĢ
ìłľ íĴĪ
Ġìŀ¥ ê¸°
ĠI T
ig h
ëª ¬
Ġì¤ĳ ìĿ¸
Ġìľł íĨµ
Ġê±° ì³Ĳ
ê°Ĳ ìĿ´
ĠìĹĲ ëĦĪì§Ģ
Ġë©Ķ ìĭľ
) '
Ġëģ ¼
ĠëĤĺìĺ¤ ëĬĶ
3 9
Ġâ Ĺ
Ġíİ¸ ìķĪ
íĺĳ íļĮ
ê³ł ê¸°
´ë ł¤
ì²´ ìĿĺ
ĠìĥĿê°ģ ìĿĦ
ëıħ êµĲ
4 5
ĠìĪĺ ë§İìĿĢ
Ġë³´ ìĪĺ
ìĭ¤ ìĿĦ
ë¦Ń íĦ°
Ġì§Ģ ì¼ľ
íķĻ ìłģ
Ġë°ľ íĸī
ëłĪìĿ´ ëĵľ
Ġì¸¡ ìłķ
Ġã Ĩį
íķ´ ë¥¼
Ġë¶Ģ ìłķ
ìļ´ ëĵľ
ĠìĿĺ íķĺìĹ¬
ĠìĦľ ë²Ħ
Ġë¯¸ ë¦¬
ĠëĪĪ ìĹĲ
ĠíķĺëĤĺëĭĺ ìĿ´
Ġë´ Ħ
Ġê³Ħíļį ìĿ´ëĭ¤
ìĿ¸ ìľ¼ë¡ľ
ë¶Ħ ìĹĲ
ì§Ī ìĿĦ
Ġë³¸ ê²©
Ġê°ľìĿ¸ ìĤ¬ìĹħìŀĲ
íĶĮ ëłĪìĿ´
ĠìĿ´ìľł ëĬĶ
3 8
íķĺ ìĭ¤
Ġê° Ĵ
Ġìŀ¥ ë©´
ĠíķľêµŃ ìĿĺ
ê´ ´
. âĢľ
ìĿ¸ ëĵ¤ìĿ´
ìŀ¥ ìľ¼ë¡ľ
ê³µ ìĤ¬
ëĭ¹ íķľ
ĠëĬ ¦
Ġ å
ĠìłĦ ë°ĺ
ë²ķ ìĿĦ
ìħ Ģ
Ġì§Ģê¸Ī ê¹Įì§Ģ
ë°Ģ ë¦¬
Ġíķľëĭ¤ ê³ł
ê²© ìĿĦ
Ġë Ŀ
ê¸° ê³ł
ĠìĿ´ ìĻĢ
ĠëĮĢ ìłĦ
in e
ë¹ Ļ
. )
ë¡ ±
ê°ľ ìłķ
Ġìĭ¤ íĹĺ
Ġë©Ķ ëī´
Ġw ith
ìħĶ ìĦľ
ì¶Ķê°Ģ ëĮĢì¶ľ
ëĭ Į
ìĸ´ ëĵ¤
Ġê·¸ ëķĮ
ê·ľ ëª¨
ĠãĢ Ĭ
Ġì¶©ë¶Ħ íŀĪ
´ë©Ķ ëĿ¼
Ġ ~
Ġìĭľ ë¦¬ì¦Ī
ìĽĶ ìĹĲ
ĠìĨĮ íĨµ
ì£ ½
Ġëıħ ìĿ¼
ìĹĲ ìĦł
Ġì§Ħ ì¶ľ
ĠìĿ´ëģ Į
ĠëĬĲê» ´
ëĭ¤ ë¥¸
Ġì§ ķ
ëĮĢ ëĬĶ
Ġê¸°ìĪł ìĿĦ
ĠìĪĺ ìļĶ
êµŃ ê°Ģ
Ġê´Ģ ìĦ¸
ë°ĺ ëıĦ
Ġë¦¬ ëįĶ
ĠìĻĦ ìłĦ
ĠãĢ Į
5 5
Ġëĭ¤ ê°Ģ
ĠëĤĺ ê°Ģ
ê¶Į ìĿĺ
ĠíĻķ ìŀ¥
ĠíĮ¨ íĤ¤
Ġë¸Ķ ëŀĻ
íĬ¹ íŀĪ
Ġê²ĥ ê³¼
Ġëĭ¤ ëĭĪ
Ġë³´ íĨµ
ĠìĨĮ ìĦ¤
ĠT he
c o
Ġì ¤
ìłķ ëıĦ
ĠìĹ¬ ê¸°ìĹĲ
Ġë§Ī ì¹ĺ
ìķ½ ìĿĦ
Ġê²°ê³¼ ë¥¼
ë¦¬ ê·¸
ĠëĮĢ ì²´
ĠìķĪ ëĤ´
Ġë¬¸ ìĿĺ
ĠìĿ´ë¦Ħ ìĿĦ
ê³Ħ ê°Ģ
ëĲĺ ë©´ìĦľ
Ġê· ł
ĠëĮĢíĳľ ëĬĶ
ĠíĸĪ ìĬµëĭĪëĭ¤
âĪ ¼
Ġëĭ Ī
ĠìĪĺ ë°ĸìĹĲ
Ġê·¸ ëĵ¤ìĿĺ
ĠìĿ¼ ëĭ¨
ëªħ ìľ¼ë¡ľ
ìľĦ ë¡ľ
Ġíĥ ĳ
ê±´ ìĿĦ
ĠëĬ Ķ
ë¨¸ ëĭĪ
Ġë¹Ħë¡¯ íķľ
¤ ë²Ħ
ë ĸ
ë¶Ģ ìĹĲ
Ġê²½ ê¸°ëıĦ
Ġë§Į ìķ½
Ġë¯¸ ëĶĶìĸ´
ìĭ¬ íŀĪ
ĠìłĢ íĿ¬
Ġê²Ģ íĨł
ê·¸ëŁ¬ ëĤĺ
Ġìĭľ ê°ģ
ĠìĿ¸ ê³µ
ëį° ìĿ´íĦ°
ĠìĬ¤ íİĺ
ì§Ī íĻĺ
Ġëª» íķĺëĬĶ
ìµľ ê·¼
Ġ i
Ġìĺ ¥
Ġì£¼ ê³ł
ĠìĿ¼ ìĥģ
ĠìĤ Ń
Ġê·¼ ë¡ľ
ìĽĲ ìľ¼ë¡ľ
ì£¼ ìĭľ
ìĿ´ ê¸°ëıĦ
ëĭ¨ ìĿ´
Ġìŀ¥ ë¹Ħ
ĠìłĲ ìĿĦ
ĠíĻį ë³´
u re
Ġë¶Ģ ìĹ¬
Ġìĺ¤ ëŀľ
Ġë°ľìĥĿ íķľ
5 6
ë¥ Ń
ìĦľ ìĹĲ
ë° ¤
Ġ2 000
Ġìĭľìŀĳ íĸĪëĭ¤
Ġì·¨ ëĵĿ
Ġë©ĭ ì§Ħ
ĠíĽĪ ëł¨
r om
ĠìŀĪ ì§Ģ
ĠìłĦ íķ´
ë°Ķ ìĿ´
ëĵ± ë¡Ŀ
Ġê´Ģìĭ¬ ìĿ´
Ġ +
Ġìĥī ìĥģ
ĠíĽ ¨
ìĿĺ ë£Į
Ġìĸ´ ì©
Ġì¦Ĳ ê¸¸
ĠëįĶë¶Ī ìĸ´
u b
íķľ íİ¸
ì§Ģ ìĸ´
ë§ Ľ
ìĿ¸ íĦ°
Ġì£¼ ìĨĮ
Ġì¤ĳ ìĨĮ
ê³µ ê¸ī
ìĭĿ ìľ¼ë¡ľ
ì¶ľ ìŀ¥
ĠíĬ¹ë³Ħ íķľ
9 9
ìĭľ íĹĺ
Ġì² ¨
ê´Ģ ê´ĳ
Ġë¬¸ ìŀ¬ìĿ¸
íĶĦ ëĿ¼
an t
Ġíĸ¥ íĽĦ
Ġë§ģ íģ¬
Ġê¼ ¬
Ġê·¸ê²ĥ ìĿĦ
Ġëĳĺ ëŁ¬
ìłķ ìĥģ
ì¹ ¼
ëħ ¼
ê´Ģ ìĿĺ
ëł¤ ë©´
ĠìĹ° ì£¼
ĠC h
Ġëªħ ìĿĺ
ë°Ľ ìĿĢ
ë¿Ĳ ë§Į
Ġë ¿Į
ìĿ´ ìĹĪ
ìĺĢ ëįĺ
ĠíĻľ ìĦ±íĻĶ
Ġíĥľ ìĸĳ
Ġíĸ¥ ìĥģ
Ġìłķë¶Ģ ê°Ģ
ĠìĿ¸ê°Ħ ìĿĺ
ĠìºĲ ë¦ŃíĦ°
Ġê°ķì¡° íĸĪëĭ¤
Ġë¹Ħ ë°Ģ
Ġìĭ¤ íĮ¨
ĠíĿ ĺ
ĠëĤĺíĥĢ ëĤĺ
ĠíĽ¨ ìĶ¬
a il
ìľĦ ëĬĶ
ĠëĲĺ ìĹĪìĬµëĭĪëĭ¤
ëħ¸ ëıĻ
ĠëĮĢíĨµëł¹ ìĿĺ
ĠìĿ´ìľł ë¡ľ
Ġì±ħìŀĦ ìĿĦ
f f
l y
ëŀ Ĳ
Ġëĭ¤ ìĿ´
ìłĲ ìĹĲìĦľ
ãħ ¡
Ġê¸į ìłķ
ë§Į ìľ¼ë¡ľ
ĠìķĦ ëıĻ
ìľĦ ê°Ģ
ĠêµŃ íļĮ
in d
Ġì¦Ŀ ìĤ°
Ġìķ½ ìĨį
Ġíİ¼ ì³Ĳ
ê³łìĭľ ìłľ
æ ľ
ĠìĿ´ ë¡ł
ĠìĤ¬ ìľł
Ġë¬´ ìĬ¨
Ġê²Ģ ìĤ¬
ê°Ļ ìĿ´
ìĬ¤ëŁ½ ê²Į
Ġìŀ Ĭ
Ġë° ĸ
ë³ ´ë©´
Ġíķ ´ë³
êµĲ íļĮ
Ġìĭł ê²½
ĠìłĦ ìļ©
Ġì¤ĳ ê°Ħ
ì¡° íķ©
íķĻ ìĿĦ
Ġë°Ķ ê¾¸
Ġê·¼ ë¬´
ë¶Ģ ìĻĢ
ĠìŀĲ ë³¸
ê´Ģ ìĹĲ
Ġìĺ¤ ë¦¬
Ġì§Ħ ì§ľ
Ġíģ ´ëŀĺ
I S
ìĿ´ ìĿµ
ëĮĢ íļĮ
ĠìķĦ íĮĮíĬ¸
ë³´ ëĭĪ
ĠëĤ¨ ìĦ±
íķĺëł¤ ëĬĶ
Ġê´ ľ
4 4
ìĿ´ëĿ¼ ëıĦ
Ġê±° ì£¼
Ġëª© ìłģìľ¼ë¡ľ
ì³ ¤ëĭ¤
ìĶ¨ ê°Ģ
ì¼ĢìĿ´ ìħĺ
Ġì£¼ìĿ¸ ê³µ
s e
ìĭľ ë¥¼
ĠìĦ ¹
Ġê¸° íļĮë¥¼
Ġì£¼ ìĿĺ
ĠìľĦ ìĹĲ
Ġíģ ´ëĿ¼
Ġë¶Ī ë²ķ
Ġë¬¸ìłľ ëĬĶ
Ġì±ħ ìĿĦ
Ġìĵ ¸
ìĭľ íĤ¨
ĠìĿ¼ ìľ¼
ë£ ¡
ĠìĹ° ì¶ľ
Ġíĥ Ŀ
ìĹĲê²Į ëĬĶ
Ġë§¤ ëħĦ
ĠíĽĦ ìĹĲ
ì½ ¤
Ġìłķë¶Ģ ìĿĺ
ĠìŀĪìĹĪ ëįĺ
¨¸ ëĭĪ
ì ¯¤
íķ´ ìļĶ
ëĮĢ ìłĦ
ĠíļĮ ë³µ
ë°ľ ìłĦ
Ġìŀ¬ íĻĶ
Ġì¶ľ ë°ľ
ĠíĽĮ ë¥Ń
ë¦¬ ìłģ
Ġíķľ ê¸Ģ
Ġê³ł ê¸ī
ĠìķĮ ê²Į
ĠíĻĺ ìŀĲ
Ġìĸĺ ê¸°
0 8
ìĭľ íĤ¬
ëł ¬
ĠìĺĪ ìĤ°
ĠíĮĮ ìĽĮ
M L
e p
ê² ģ
Ġìłľ ìĿ¼
ì²ĺ ë¦¬
Ġê¸¸ ìĿĦ
Ġë¹ł ë¥¸
ĠìĤ¶ ìĿĺ
ëĤ ©
Ġë¹Ħ íķµ
ë¶Ħ ìĦĿ
Ġë§Ī ìĿ´íģ¬
Ġë§Ĳ íķľëĭ¤
Ġì§ģ ìĹħ
Ġì¦Ŀ ê±°
Ġìĭ¶ ëĭ¤
ĠìĿ´ê²ĥ ìĿĢ
Ġê¾¸ ì¤Ģ
Ġê² ģëĭĪëĭ¤
íķ´ ì§Ħ
Ġê³µ ìłķ
ĠìĹ° ëĿ½
ì¢ ĭ
ê·¼ íĺľ
ĠíĸĪ ëįĺ
ĠìķĦëĭ Ĳ
ìŀĲëıĻ ì°¨
Ġìĭľ ëıĦ
Ġìłķ ê¸°
ìŀ¬ ë¥¼
êµĲ íĨµ
Ġì¡° íķ©
Ġë°Ķ ê¿
ĠìĬ¤ íĨł
Ġìĭ¤ íĺĦ
ĠëĶ° ëľ»
Ġë¶Ī ê³¼
ĠëłĪ ìĿ´
ĠíĹĪ ìļ©
3 3
O S
íĮ ©
Ġë¹Ħ ëĶĶìĺ¤
ĠíĨµ ê³Ħ
ĠìŀĪìĸ´ ìķ¼
ĠëĿ¼ ìĿ´ë¸Į
ig n
ĠëıĪ ìĿĦ
Ġìľłëªħ íķľ
ì§Ģ ê²Į
Ġë¹Ħ ìľ¨
ĠìĿ´ìļ© íķĺìĹ¬
Ġë¯¸êµŃ ìĿĺ
ëģ Ĺ
Ġíķ´ëĭ¹ íķĺëĬĶ
ĠìĨĮë¹Ħ ìŀĲ
ĠëĤ® ìĿĢ
ĠìĿ¸ ì¦Ŀ
ĠìŀĪëĬĶ ì§Ģ
ĠìĻ Ķëĭ¤
Ġì´Ī ê¸°
ĠìŀĲìĭł ìĿĦ
ĠíĺĲ ìĿĺ
ĠìĿ´ ëĵ¤
ìłģ íķľ
ĠìķĦ ë¬´ë
ĠìĺĪ ë¥¼
Ġê°ķ íķľ
Ġë°Ľ ìķĺ
ê´ Ħ
ï¿½ ?
i a
ëĭ Ĳ
ëĤĺ ìļĶ
Ġì§Ģ êµ¬
ĠëĶ ±
Ġë¶Ī ê°ĢëĬ¥
íĺĦ ì§Ģ
Ġìŀĳ ê°Ģ
ar e
Ġê¸Ģ ìĿĦ
ë®¤ ëĭĪ
ĠëĮĢ íĻĶ
ëħĦ ìĿ´
Ġì¤ĳ ëĭ¨
ĠìķĬ ìľ¼ë©´
ìĦ¸ ê¸°
ëł¤ ëĬĶ
Ġìĸ´ëĸ ł
íıī ê°Ģ
Ġì½ ľ
ìĭľ ê°Ģ
ĠìĿ´ ìŀ¬
ĠìĹĨ ëĭ¤ëĬĶ
ĠëĴ ·
Ġíĺ¼ ìŀĲ
Ġë¹Ħë¡¯ íķ´
ê²¼ ëĭ¤
4 9
i al
Ġìŀ ĩ
ë¥ Ļ
Ġê² ¸
ë¦¬ íķľ
ìĬ¤ íħĮ
Ġë³´ ìķĪ
ĠìĿĺ ë¬´
Ġêµ¬ íĺĦ
Ġ201 0
ĠëŁ °
ë°Ģë¦¬ ë¯¸íĦ°
Ġë° ĸìĹĲ
ìĭł ìĿĦ
Ġìłģ íķ©
é ģ
ë¡ľ ë¥¼
Ġíķł ìĿ¸
Ġìĵ ´
Ġê¼ ½
ê³µê³ł ìłľ
ëĭ· ì»´
n d
ĠìĦ Ń
Ġëį §
Ġê±° ë¶Ģ
Ġë¸Į ëĿ¼
4 8
ìĥģ ëĭ´
ĠìŀĲ ìłĦê±°
ë¬¸ ìĹĲ
Ġë¶Ģ ëıĻìĤ°
ìŀ¬ ëĭ¨
Ġìĭł ê·ľ
or m
Ġë³´ë Ĥ
0 7
ê º¼
Ġë° ¥
ìĪĺ ëıĦ
Ġìłľ ëıĦ
Ġëĭ¬ ìĦ±
ĠíĮ¨ ìħĺ
ac t
Ġìłķìĥģ íļĮëĭ´
5 9
> <
I N
Ġë ĺĳ
ĠìŀĪ ìĹĪìĬµëĭĪëĭ¤
Ġê³ł ìĸĳ
ê·¸ ëŁ°
Ġíİ¸ ì§ĳ
ĠëĬ¥ ëł¥
ĠìĽĶëĵľ ì»µ
ĠìłĢëł´ íķľ
ìĿ´ ìļ©
Ġìķ ¨
ìľĦ ìĿĺ
Ġë© ¤ë²Ħ
íĺĦ ìŀ¬
Ġì´Ī ê³¼
ĠìĨĮíĶĦíĬ¸ ìĽ¨ìĸ´
ìĤ¬ ìĹĲìĦľ
ë¶Ħ ê¸°
ĠìĹ° ìĨį
ĠëıĦ ìĽĢìĿĦ
ĠìĹ´ ìĭ¬íŀĪ
Ġì¶ķ êµ¬
; ;
E C
ìĹ ĳìĬ¤
ëĤ ¸
ìĿ¸ ìĹĲê²Į
ë§Į íķľ
íģ °
Ġê²° ìłľ
Ġì²´ ê³Ħ
ëĵ¯ ìĿ´
¬ ëĭ¤
Ġê¸° ìĹ¬
êµ¬ ëĤĺ
ì§Ħ íĿ¥
íĭ° ë¸Į
ĠA C
Ġê¹¨ ëģĹ
Ġë°©ìĭĿ ìľ¼ë¡ľ
ìĿ´ ìĤ¬
ì° į
ëĭ¹ ìĿ´
ĠêµĲ íĻĺ
ĠìĺĪ ìĪĺ
Ġë³¸ ëĭ¤
Ġìķł ëĭĪ
Ġë¹¨ ë¦¬
% ),
i b
Ġë ®¤
ìĿ¸ ì¦Ŀ
Ġì§ ĵ
ê²½ ì°°
Ġì¹´ ëĵľ
ìĭľíĤ¤ ê³ł
´ë ŀ
ë¦¬ ìĸ´
Ġì§Ģ íĤ¤
ë¥´ ê¸°
ĠíļĮ ìŀ¥
ì¦Ŀ ê¶Į
ĠíļĮìĤ¬ ê°Ģ
Ġë¨¹ ê³ł
êµŃ ë¯¼
ì¹´ ìĺ¤
a st
Ġê³ ¤
ì² ¨
ìĸ´ë Ĥ´
Ġìĸ» ìĿĦ
ĠìĿĢ íĸī
Ġíķĺ ëĿ½
Ġê²ĥ ìĿ´ëĿ¼ëĬĶ
ĠìĿ¸ ë¬¼
Ġëį ĺ
ë¶Ħ ìĿĺ
Ġê°ķ ìĽĲ
ĠìĤ¬ëŀĮ ëĵ¤ìĿĺ
Ġì°¨ ë³Ħ
ĠìĤ¬ìĹħ ìĿĦ
0 5
ê³ł ë¥¼
ìķĦ ìĭľìķĦ
ìłľ ìĹĲ
ĠìĿ´ë ©
ìĸ´ë ²Ħ
ĠìĥĪ ë¡ľ
ĠìłĲ ìłĲ
Ġìĭ¬ ê°ģ
Ġê²Ģ ì°°
Ġì±Ħ ëĦĲ
ĠìĿ¸íĦ° ë·°
Ġë°ĶëĢ Į
ĠìĿ´ íĸī
ìĤ¬ ëŀĳ
ĠìŀĪ ìľ¼ë©´
ì²´ ê°Ģ
Ġë§İ ìķĦ
Ġì°¨ ìĿ´ê°Ģ
Ġì²Ń êµ¬
Ġë§ŀ ìķĦ
ic e
ĠëĦ¤ ìĿ´ë²Ħ
ĠëĪĦêµ¬ ëĤĺ
= =
Ġë° ´
ìļ© ìĿĦ
Ġê³Ħ ìłĪ
ĠíĮĮ íĬ¸
ĠíĿ ¡
Ġë²Ĺ ìĸ´ëĤĺ
u p
â Ĺ
ĠìĿ¸ ìĥģ
Ġêµ¬ ê¸Ģ
Ġë°ľ ëĭ¬
ĠìĤ¬ìĿ´ ìĹĲ
ìī ½
íķĺ ê²łëĭ¤
Ġì§Ģ ìĭĿ
Ġë¶Ģ íļĮ
ì½Ķ ë¦¬ìķĦ
íĿ Ĳ
' ,
ĠëĤĺ ë¥¼
ëªħ ìĿĢ
Ġê¹ ĬìĿĢ
ĠíķŃ ëª©
ĠìĿĳ ëĭµ
ĠìĦłìĥĿ ëĭĺ
ç Ķ
Ġíķĺ ìĿ´
ìļ° ëĵľ
ê³µ ëĭ¨
ìĿĮ ìĿ´
Ġë³µ ìŀ¡
Ġë¯¼ ê°Ħ
el l
Ġêµ° ìĤ¬
200 8
. âĢĺ
ìĿĦ ê¹Į
Ġíķĺ ìĺĢëĭ¤
ëħĦ ê¹Įì§Ģ
ë¹Ħ ê°Ģ
ê¸Ī ìĿ´
Ġì¹ ´ë©ĶëĿ¼
ĠìĤ¬ëŀĮ ëĵ¤
Ġë¶Ī ëŁ¬
Ġíı¬ ìŀ¥
ĠìĹĲ ìĦľ
Ġê¸°ì¤Ģ ìľ¼ë¡ľ
Ġê±± ìłķ
Ġê°ľ ìĿĺ
ìĦł íķľ
Ġêµ¬ ë¶Ħ
ĠìĥĿê°ģ íķľëĭ¤
Ġì§ĢëĤľ ëĭ¬
ëŀĢ ëĭ¤
Ġëĥ ī
ĠìĿ¸ ìĪĺ
ìĨĮ ëĵĿ
íĥĢ ë¯¼
ĠêµŃ ë¦½
Ġìµľ ìĭł
ëįĶ ëĿ¼
ĠìŀĪìĸ´ ìļĶ
Ġì½Ķ ìĬ¤
ë°Ľ ëĬĶ
Ġê²½íĹĺ ìĿĦ
ĠíĴĪ ì§Ī
Ġë¹Ħì¦Ī ëĭĪìĬ¤
Â Ń
Ġëĭ¤ ë£¨
ĠìĿ¸ ê¸°
ĠëĮĢë¶Ģë¶Ħ ìĿĺ
ãħł ãħł
Ġê°Ģê¹Į ìļ´
Ġë¹ĦìĬ· íķľ
E O
å ®
ë ķ
ìĿ´ ìĻĢ
ìĹĲ ìĿ´
ĠìłĦ ìĽĲ
ìĽĶ ë¶ĢíĦ°
ëĲĺ ê¸°
Ġë¶Ģ íĥģ
ĠìĦł ìĸ¸
Ġë¶Ī ìķĪ
ëĬĶëį° ìļĶ
Ġì²Ń ìĻĢ
200 7
ĠìĨ¡ ê³ł
ìĭ ¼
ë¹Ħ íĬ¸
ì¡° ê±´
Ġì¡° ìłĪ
ì¡ ¸
ĠíħĮ ìĬ¤íĬ¸
Ġë²Ķ ì£Ħ
ëħķ íķĺìĦ¸ìļĶ
Ł ìķĦ
ê° Ķ
Ġìĭł ìķĻ
Ġ9 0
Ġì²ĺìĿĮ ìľ¼ë¡ľ
E D
Ġ Q
ë¹Ħ ìľ¨
Ġìĺ¬ ëł¤
ĠìłĲ ìĹĲìĦľ
ì³ ¤
ê¸¸ ìĿĦ
ĠíĨł ë¡ł
Ġíģ´ ë¦Ń
i e
¼ ìĨĲ
ìĿ´ ëĦĪ
ê¸° ê¸°
ĠìĿ´ ëĵ¤ìĿĢ
ëĤĺ ëĭ¤
ì£¼ ê°Ģ
ê±° ëĵł
Ġ5 00
ĠíĻĶ ìŀ¥
Ġë¹ł ìł¸
ê¸° ëĬ¥
ëĵľ ë¦¬
Ġê²½ ëĤ¨
ê´Ģ ìĹĲìĦľ
ĠìĨĮ ëĵĿ
ĠìĿ´ìļ© íķľ
ĠìĿĺê²¬ ìĿĦ
ê¸Ī ìĿĢ
ĠíĨµ ê³¼
Ġìłĳ ìĨį
Ġíı¬íķ¨ íķľ
ĠìĥģíĻ© ìĹĲìĦľ
ë¨¼ íĬ¸
6 7
ëĲĺ ìĹĪìĬµëĭĪëĭ¤
Ġê³ł íĨµ
ĠìĥĿê°ģ íķ©ëĭĪëĭ¤
Ġ200 7
ĠìĹĶ ì§Ħ
ìĿ´ ìĿĺ
ìŀĲ ì¹ĺ
ìĽĲ ê³¼
ëĮĢ ìĥģ
Ġìĥģ ì§ķ
ì¤ĳ êµŃ
ëĥ Īëĭ¤
ĠëĦĺ ëĬĶ
ìĦ ¬
Ġêµ ³
ëĭĪ ëĿ¼
Ġìĭ¤ ì²ľ
ìłĲ ìĹĲ
ĠìĻĦ ìłĦíŀĪ
ĠK T
íķĺìĺĢ ìĬµëĭĪëĭ¤
ìĦ± ìŀ¥
íĸī ìłķ
Ġê°ľ íĺģ
íĶĦ ëĿ¼ìĿ¸
Ġê°ķ ìĿĺ
Ġëħ¸ ìĿ¸
ĠìĥĪ ë¡Ńê²Į
Ġì°½ ì¶ľ
Ġë¸Ķ ë¡Ŀ
ĠìŀĲ ëŀĳ
Ġë³´ ìĿ´
ì¹ĺ ë£Į
Ġê´Ģ ê°Ŀ
ĠìĬ¤ íĶ¼
Ġê±° ë¦¬
ëĳ Ķ
Ġë²ł ìĿ´
Ġ k
ëħĦ ìĿĺ
ë¶Ħ ìķ¼
ĠêµŃ ìłķ
Ġê²½ìļ° ëĬĶ
ĠíĬ¹ ìĪĺ
ë¹ Į
Ġìķŀ ìĹĲ
ëĳ ĺ
Ġ200 8
Ġë°ľìĥĿ íķĺëĬĶ
Ġê³¨ ëĵľ
Ġíļ¨ê³¼ ë¥¼
ex t
R A
p r
ìĿ´ ìĥģ
ìĿ¼ ë³¸
ëĿ¼ ìĬ¤
Ġìĺ µ
ëĮĢ ìĹĲ
ì£¼ ë¥¼
Ġì² Ļ
ìĺ¤ ëĬĺ
ĠêµŃ íļĮìĿĺ
ĠìķĪ ìĹĲìĦľ
ĠíĹ ¬
Ġë¶ģ ë¯¸
íĺĳ ëł¥
ĠìĬ¤íĥĢ ìĿ¼
Ġ æ
ĳ ìĿĢ
Ġë§ º
ìĤ¬ ìļ©
ĠìĪĺ ìłķ
ìłģ ìĿ´ëĭ¤
Ġëı ķ
íĻĶ ìĿĺ
Ġìĭł ìļ©
ìĸ´ë §
Ġê¹Ģ ìłķìĿĢ
Ġìŀħ ìŀ¥
Ġë§Įëĵ¤ ê³ł
o v
íķĺ ëĿ¼
íĦ° ë¦¬
Ġìĺ¬ ë¦¬
Ġê°ĢëĬ¥ íķĺëĭ¤
Ġc om
as s
Ġì§ĢìĨį ìłģìľ¼ë¡ľ
íķ Ģ
Ġê º¼
ĠëĮĢ íļĮ
ì¹ĺ ì§Ģ
Ġëª¨ ìĹ¬
ìĦ¸ ê°Ģ
ĠìĿĺ ìĽĲìĿĢ
Ġìĭł ìĨį
íĹ ¤
Ġê°ķ ëĤ¨
ĠíļĮ ìĿĺ
íĺķ ìĿĦ
Ġëĵ¤ ê³ł
Ġë§ŀ ì¶°
Ġë§Įëĵ¤ ê¸°
Ġc h
Ġì§Ī íĻĺ
ĠìĤ¬ì§Ħ ìĿĦ
Ġëĸł ëĤĺ
Ī ľ
ìĦľ ê°Ģ
ìĦ¤ ì¹ĺ
íĬ¹ ë³Ħ
Į Ħ
ì§Ģ ë©´ìĦľ
ìĨĮ ê°Ģ
Ġì§Ħ ëĭ¨
Ġëħ¸ ì¶ľ
Ġë¹ ħ
Ġê³³ ìĹĲ
Ġëĭµ ë³Ģ
ìĽł ëĭ¤
Ġì¿ł íĤ¤
3 2
Ġëĭ¤ ìĨĮ
ëħĦ ëıĦ
ì²´ ìľ¡
Ġëªħ ìĭľ
Ġc l
ìį ¹
Ġë¶Ģë¶Ħ ìĿ´
ĠìĨĶ ë£¨
ìĦ °ëĭ¤
ê°Ģ ì¡±
ìĤ¬ ìŀĲ
Ġ3 6
ĠìĬ¤ ìľĦ
ĠìĬ¤ íģ¬
ìłĲ ìĿĢ
íķŃ ê³µ
ĠìķĦëĭ ĻëĭĪëĭ¤
ĠìĦ¼ íĦ°
Ġí Ģ
ìĭľ ìĿĺ
Ġìĺ Ľ
ĠëĮĢ ì±ħ
Ġìľ µ
Ġìĸ´ë ¨¸ëĭĪ
ĠíĮĲ ê²°
íķĺìĺĢ ê³ł
il l
ê¼ ¬
ìĽĲ íķľ
ìłĦ ìĿ´
ìĪĺ ë¡ľ
ìłĲ ìľ¼ë¡ľ
ĠíĶĦ ëłĪ
Ġë°° ìĨ¡
ëĳ ¥
Ġì¢ĭìķĦ íķĺëĬĶ
å ľ
ìĬ¤ íı¬ì¸ł
Ġê³Ħ ìĤ°
Ġë³µ ì§Ģ
ĠëĪĦ ê°Ģ
ĠëĦĪ íĿ¬
Ġë°©ë²ķ ìľ¼ë¡ľ
ĠìĪĻ ë°ķ
âĸ ²
ãİ ¡
Ġê´ľ ì°®
5 8
T A
ì£¼ ëĭ¹
ê³Ħ ìĹĲ
ìļ¸ ëŁ¬
ĠìĤ´ ê³ł
Ġë¡ľ ë´ĩ
ĠëĨį ìĹħ
Ġë§ĪìĿĮ ìĿ´
I D
m ent
u st
Ġê·¸ ë¦°
Ġíķ ¸
ĠìĺĪ ì¸¡
ĠìķĦëĭĪ ë©´
ĠìĿ´ìļ© íķ´
Ġìļ´ ìĨ¡
ëģ Ħ
Ġì§Ī ë³ĳ
Ġê°ľìĿ¸ìłķë³´ ë¥¼
Ġ ï¼
ìĭľ ì¼
Ġìľł ìĤ¬
ĠëıĦ ë¡ľ
Ġìŀ¥ ì¹ĺ
ëĤ´ ê³ł
Ġì§ģ ìŀ¥
Ġìĭľìŀĳ íķľ
Ġíļ į
ĠíĿ¥ ë¯¸
Ġì£¼ ë§Ĳ
ìĦł ìĿ´
ĠìĦ¸ ìĥģìĿĦ
ĠìłĢ ëıĦ
ĠìķĦìĿ´ íı°
Ġìķŀ ëĳĲê³ł
ë ļ
Ġ Â
ìĿ¸ ìĹĲ
ìŀ¥ ì¹ĺ
Ġê¸° ëıħêµĲ
ĠìĥĿ ê¸´
ë¬´ ë¦¬
íĺ¸ íħĶ
Ġë¬´ ìĹŃ
Ġê³¼ ìĹ°
ĠìķĦëĭĪ ê³ł
ìĺĪ ìļĶ
ĠíĸĪ ëĬĶëį°
Ġì²ľ ì§Ģ
Ġì»¤ ë®¤ëĭĪ
Ġì²ł ìłĢ
íķĺ ìĿ´
ìłķ ì¹ĺ
Ġë³´ ê´Ģ
ëį° ìĿ´íĬ¸
Ġì¶Ķ ìĦĿ
Ġê±¸ ì³Ĳ
Ġê°ĸ ì¶Ķ
Ġìŀ¥ëĤľ ê°Ĳ
7 7
ëĵ Ń
ì¹ ´ëĿ¼
Ġë¬ ĺ
ĠìĿ¼ ìĿĢ
íı ´
ê´Ģ ëł¨
ëĭ¹ ìĿĦ
ë¥ł ìĿ´
ĠíĥĦ ìĥĿ
ìĹĲ ë§Į
Ġìĭ Ń
ĠìĹĨ ëĭ¤ê³ł
ĠìĿĺ ìĭ¬
íŀĪ ëĬĶ
ĠìĥĿ ìĦ±
ĠëıĻ ìŀĳ
ĠëıĻ ìĺģìĥģ
ëįĶ êµ°ìļĶ
íħĮ íģ¬
ëĨ ĢìĿ´
ĠëģĿ ëĤĺ
ĠëĨĵ ê³ł
ĠíĹĮ ë²ķ
ë¬¸ ìłľ
Ġê± ·
ìķĪ ë§Ī
ìĹĪ ì§Ģë§Į
on d
Ġê°ĸ ì¶ĺ
ë »
ìĿ¼ ê¹Į
Ġë° ĳ
ĠìĿ´ë ķĮ
ìĭĿ ìĿĺ
Ġìľł ìĿ¼
ĠìĦł ë°ľ
Ġë§Ĳ ê³ł
Ġê²° íķ©
Ġë¬´ ìĦł
íĶ¼ ìĬ¤
ĠëĬĺ ìĸ´ëĤĺ
ĠìĿĺë¯¸ ë¥¼
Ġë¨¸ ë¦¬
ëĭī ìĬ¤
¥ Ĳ
ëĵ ¬
ë¦¬ íĬ¸
Ġëĵ ł
íļĮ ìĽĲ
Ġì£¼ ëıĦ
íĺ¸ ë¥¼
ĠëıĦ ìĻĢ
ì¤ĳ íķľ
ìĸ´ë ¯¼
ĠìĹŃ ìĤ¬ë¥¼
Ġë§ŀ ì¶¤
Ġë©Ķ ìĿ´
ĠëĮĢíĳľ ìłģìĿ¸
ĠëĤ´ìļ© ìĿ´
ĠêµŃë¯¼ ìĿĺ
ĠêµĲìĪĺ ëĬĶ
Ġê°ĳ ìŀĲê¸°
ì§Ģ ê¸°
ìĦľ íĬ¸
ìĥ µ
ìļ° ê³ł
ìĤ° ìĿĺ
Ġë§Ĳ íķĺëĬĶ
ë¸ Ĳ
ëĵ± ìĿĦ
Ġì§Ģê¸Ī ìĿĢ
0 6
ê°Ģ ê²©
Ġê¸° ìŀ¬
ìŀĦ ê¸Ī
Ġë² ¤
Ġìĥģ ìĥģ
ìļ´ ìĺģ
ĠìĹ° ê³Ħ
Ġë¶Ħ ëĵ¤ìĿ´
ì¢ħ ìĿĺ
ë¥ĺ ë¥¼
Ġì°¾ ëĬĶ
ìĪľ ìľĦ
ìº ł
Ġìħ Ģ
Ġëī´ ìĬ¤
¨ ìĿĦ
ë¬¸ ìĿĺ
ĠëĤ´ ìĹĲ
ĠìĽĲ ëŀĺ
íķ¨ ìĿ´
Ġëª» íĸĪëĭ¤
ĠìłĲ ê²Ģ
íİĺ ìĿ´
ou r
íĶĦë¡ľ ê·¸ëŀ¨
Ġê¸° ìĤ¬
Ġê°Ģ ì¹ĺë¥¼
ĠìłĦ ìĨ¡
íĻĶ ìĹĲ
ĠìĿ¸ íķĺìĹ¬
ĠìĹ° íķ©
Ġíĥ ģ
Ġíı¬ ê¸°
Ġëª© ìĤ¬
Ġìĭ¬ ì§Ģìĸ´
Ġìłķë¶Ģ ëĬĶ
Ġì»¤ íĶ¼
ë· Ķ
Ġìĸ´ëĸł íķľ
. '
4 6
ëĤ ®
ìļ© íķľ
Ġë¹Ħ íĬ¸
ĠìĻ ĢìĿ´
ëª¨ ëį¸
Ġëħ¸ ëł¥ìĿĦ
Ġëªħ ìĿ´
Ġê¸Ī ì§Ģ
Ġìļ´ìĺģ íķĺëĬĶ
ëľ ¨
d iv
p l
ëĬĶ ê°Ģ
ìĸ´ ëĬĶ
Ġì§Ģ íķĺ
ĠìłĦ ê³µ
êµ¬ ì¡°
ëħĦ ìĹĲëĬĶ
Ġì£¼ ìłľë¡ľ
ê³µ ëıĻ
Ġë² ¨
Ġë¹Ħ íĥĢë¯¼
Ġë§¤ ëł¥
íĨł íĨł
ĠìĤ¼ìĦ± ìłĦìŀĲ
Ġìħ Ī
īìŀ¥ íŀĪ
i le
ë Ń
ìĿ´ ëĤł
ĠìĿ´ íĥĪ
íĻ Ī
íĬ¸ ëĤ¨
íŀ Ĳ
Ġë¯¸ ìĪł
ë²Ħ ìĬ¤
Ġì§ĳ íĸī
Ġê·¸ëŀĺ ëıĦ
Ġê·¸ê²ĥ ìĿ´
Ġì¼ Ģ
Ġëĭ¨ìĪľ íŀĪ
Ġëį§ ë¶Ļ
Ġìľł ì¹ĺ
ìľł ìĿĺ
ë¯¸ ëĶĶìĸ´
Ġê¹ Ķ
Ġê²½ìļ° ëıĦ
or d
ë¦¬ ëĿ¼
ĠìĿ´ ë¥¸
Ġê·¸ ëŁ¼
Ġê²ĥìĿ´ ê³ł
íķŃ ìĹĲ
ĠíĿ ĳ
ëŁī ìĿĢ
ë´ Ĳ
Ġì²´ íģ¬
ĠíĻķìĿ¸ íķł
Ġëĳ Ķ
Ġëĵ£ ê³ł
oo k
E S
P G
b er
Ġìĥ ¤
ë¶Ģ ìĤ°
ìĭ¤ ìĹĲìĦľ
íĮĲ ë§¤
ĠìĭĿ íĴĪ
201 7
ìĿ¸íĦ° ëĦ·
) (
Ġ `
íķľ ìĿĺ
ëł Ľ
Ġì¡° ìłķ
ê±´ ìĦ¤
íķ¨ ìĹĲ
Ġíļ¨ê³¼ ê°Ģ
. [
ĠìĹ ĺë¦¬
ĠíĻ Ģ
ĠìŀĲ ë¦¬ë¥¼
ë¬¸ íķĻ
ê³µ ìĽĲ
ëį° ìĿ´
Ġìľł ê¸°
Ġìļ° ìĬ¹
ìķĪ ìĹĲ
Ġíķ´ ì£¼
Ġë¯¸ ìĦ¸
ìĸ´ë Ĥ¬
Ġì°½ ìĿĺ
ìĺ¬ ë¦¼íĶ½
Ġíľ ĺ
ĠíĿĲ ë¦Ħ
ê±°ëĵł ìļĶ
r ic
ëŀ Ħ
Ġìłķ ìĭĿ
êµ¬ ìĹŃ
íĮĮ ìĿ¼
Ġíıī ìĨĮ
ĠìĻĦ ë£Į
Ġb y
id e
ĠìĤ´íİ ´ë³
4 7
? )
Ġì Įį
íķĺ ìħ¨
ê¸° ë¡Ŀ
ë¦¬ ìĺ¤
ĠìķĦ ëĤ´
ìĤ° ë¬¼
Ġìĭ¤ ë¬´
ìłģìľ¼ë¡ľ ëĬĶ
ĠìĤ¬ëŀĮ ìĹĲê²Į
ì¦Ŀ ìĿ´
Ġë°Ŀíĺ Ģ
Ġíŀĺ ëĵł
ìª½ ìľ¼ë¡ľ
Ġìī½ ì§Ģ
Ġì¦ī ìĭľ
ìĬ¤íĨł ëŀĳ
0 2
O N
ìĦľ ìĿĺ
Ġì£¼ ì°¨
ë£ ¸
Ġëĭ¨ ì§Ģ
ĠëĤ¨ íİ¸
ì¢ħ íķ©
ĠìķĦìĿ´ íħľ
Ġ200 9
Ġb e
¾ ¼
ê¸° ìŀĲ
ìĭľ ë¯¼
ëĮĢ ë¦¬
ĠìķĦ ìī¬
ëĵľ ìĿĺ
Ġ3 5
ê·¸ ë¦¬ê³ł
íĭ ¸
Ġë³ĳ ìĽĲ
ĠìŀĪìľ¼ ëĭĪ
Ġì§§ ìĿĢ
Ġìķ¨ ë²Ķ
6 8
ì§Ģ ëĬ¥
Ġê° ¤
ìĿ¸ ëĵ¤ìĿĺ
ĠìĿ¸ ê·¼
Ġë¹Ħ ì¤ĳ
Ġë¶Ī ê°Ģ
Ġìķŀ ìĹĲìĦľ
Ġê·ľ ìłľ
Ġê³³ ìĿ´
´ë° °
Ġíİĺ ìĿ´ì§Ģ
Ġë°ľíĳľ íķľ
Ġth at
Ġê°ķëł¥ íķľ
C T
l l
ë¶ ķ
Ġìĭľ ê¸°
ê¹ ¨
ëł¥ ê³¼
Â· Â·
êµ° ìĿĺ
ì±ħ ìŀĦ
ëĦ¤ íĬ¸ìĽĮíģ¬
Ġê°ĢëĬ¥ íķ©ëĭĪëĭ¤
ĠâĢ ¦
Ġê°ľ ë³Ħ
Ġë§Į íķľ
ĠìĹ° ìĬµ
ëĭ¹ ìĿĺ
Ġìĺģ ìĸĳ
ê²° ê³¼
Ġë°ķ ê·¼íĺľ
ĠìĹħ ëį°ìĿ´íĬ¸
ow er
ãħ¡ ãħ¡
n et
Ġ an
ìĤ¬ ìĭ¤
ĠìĿ´ë Ŀ¼
ĠìĿĺ íĺ¹
ë§Ĳ ë¡ľ
ĠíĴį ë¶Ģ
å ı
ê² Ĳ
Ġì§ ľ
Ġë¶ ķ
Ġê¸° ìļ¸
ìļ° ë¦¬ëĬĶ
ê¸Ī ìķ¡
Ġìĸ´ ìļ¸
en d
ĠìĿ´ìļ© ìŀĲìĿĺ
Ġìļ´ ìłĦ
Ġì¹´ ì§Ģëħ¸
ë¶ĢìĬ¤íĥĢë¹Ĺë¶ĢìĬ¤íĥĢë¹Ĺ ë¶ĢìĬ¤íĥĢë¹Ĺë¶ĢìĬ¤íĥĢë¹Ĺ
Ġìľ Ī
ë¶Ģ ëª¨
ëł¥ ìĿĺ
ê·¸ ëĬĶ
Ġë§Ĳ ìĿ´ëĭ¤
ë²ķ ìĿ¸
Ġë¶Ħ ë¥ĺ
Ġê°Ħ ìĿĺ
ìĿ´ìķ¼ ê¸°
Ġê° Ķ
Ġì§ Ĳ
ë¬ ĺ
ê°Ħ ëĭ¤
ĠìĨĮ ìħľ
ĠìĻ¸ êµĲ
ħ ¸
ĠìĿ¸ ê¶Į
Ġëª¨ ì§ĳ
ìĭĿ ìĹĲ
ĠìłĢ ìŀĳ
ĠíĶĦë¡ľ ìĦ¸
ĠìĤ¬ëŀĳ ìĿĦ
íķľ íħĮ
ì¹ ¸
ĠìłĦ ê°ľ
Ġëĭ¤ ëħĢ
ë¬¸ ìĿ´
ê¹ Ŀ
ĠëĤĺ ìĿ´
Ġìľł íĬľ
Ġë°Ľ ì§Ģ
ĠëķĮë¬¸ ìŀħëĭĪëĭ¤
ĠìĦľìļ¸ ìĭľ
ë°Ľ ê³ł
Ġë´ ¤
Ġëī´ ìļķ
Ġìµľì´Ī ë¡ľ
5 7
u c
íķĺ ëĭĪ
ë¡ľ ë¯¸íĦ°
ĠìŀĪ ìĿĮìĿĦ
ëį ´
Ġë³´ ìĥģ
ì¡° ì°¨
Ġ3 00
ìĥĿ ìĿĦ
ĠíĨµ ìĿ¼
Ġê¹Ģ ìĺģ
Ġë°ĺ ëıĦ
íĥľ ìĸĳ
ĠìĥĿê°ģ íķĺëĬĶ
or k
ĠëĿ¼ ëĬĶ
ĠëĤ´ìļ© ìĿĢ
Ġë¹ł ë¥´ê²Į
a k
ìŀ ĸ
ĠìĪĺ ìļ©
Ġê·¸ ìĹĲ
ĠêµŃ ë°©
ì°¨ ê°Ģ
ĠK BS
Ġë½ ĳ
ìĬ¤ íĭ°
ìĥģ íĥľ
Ġë³´ ìĺĢëĭ¤
Ġì¡° ì¹ĺ
Ġì°¨ ëĭ¨
ãĢ Ĥ
Ġì¹´ íİĺ
ìĹ°êµ¬ ìĨĮ
Ġê¸° ëıĦ
ë¹Ħ ìļ©
ĠêµŃ ë¬´
Ġìµľ ìłģ
ë°ĺ ê¸°
ĠS M
Ġ19 8
le ct
Ġëª¨ìĬµ ìĿ´
Ġë¬´ë£Į ë¡ľ
Ġëį°ìĿ´íĦ° ë¥¼
Ġê´Ģê´ĳ ê°Ŀ
ĠìĪĺ ìĺģ
Ġê·¸ ëĵ¤ìĿ´
Ġëĵ± ìĿĢ
ëªħ íķľ
ê²½ ë§Ī
ëĭĺ ìĿĢ
ê°Ĳ ëıħ
ĠìĪ ²
ĠëĤ´ë Ĩĵ
ĠìĤŃ ìłľ
Ġ ^^
ìł ¤
ìķ Ĭ
Ġì¤ĳ ìĿ´ëĭ¤
ëŁī ìĿĺ
ĠìĹ´ ë¦¬ëĬĶ
ĠëłĪ ìĬ¤íĨłëŀĳ
ëĵľë¡ľ ìĿ´ëĵľ
Ġ ex
ë³ ´ë³´
Ġëª¨ ë¥´ëĬĶ
Ġë°° ì¹ĺ
ë¡ł ìĿĦ
at t
ëĤ ´ë
Ġë¬ µ
ìĨĮ íĶĦíĬ¸
ëĭ¨ ìĹĲ
ëĭ¹ ìĿĢ
ĠíĺĦ íĻ©
ì§Ī ìĿ´
íĮĮ ìĿ´
ĠëĮĢíĨµëł¹ ê³¼
Ġë²Į ìĸ´
ĠëĬĲëĤ Ħ
igh t
f orm
ê ¾¼
ìĹ ½
ìŀ ī
ìłĦ ìŁģ
Ġìłľ ëª©
êµ¬ ëĬĶ
ĠìŀĲ ìľ¨
ìĭ¤ ìĿ´
Ġë°Ķ ëŀĢëĭ¤
Ġë¬¸ íķĻ
Ġë³Ģ íĻĶë¥¼
Ġëªħ íĻķ
ĠìĨĲ ìĿĦ
ìľĦìĽĲ ìŀ¥
Ġë§ĪìĿĮ ìĹĲ
ìĺ¬ íķ´
íĽĪ ëł¨
´ëł Ī
ĠìķĦë¬´ ë¦¬
Ġ ..
íķĺ ìļ°
ë¦ ī
ë©´ ìĹĲ
Ġíķľ ìĿ¸
ìłĦ ìĿĺ
Ġì£¼ ê´Ģ
ëĭĪ íĦ°
Ġê²° ì½Ķ
ĠìķĦìĿ´ ëĶĶìĸ´
ìĬ¤íĥĢ ê·¸ëŀ¨
ĠêµĲìľ¡ ìĿĦ
ëłĩ ê²Į
ĠìĤ´íİ ´ë³´
íĶĦë¦¬ ì¹´
ìĬ¤ íĮħ
ë£ ©
ëĭĺ ìĿĦ
Ġíĺ¸ ì£¼
Ġì¤ĳìļĶ íķĺëĭ¤
ĠìŀĲìĦ¸ íķľ
ĠëĤĺìĺ¨ ëĭ¤
e g
ä ¹
ì§Ģ ìĹĲìĦľ
ê°Ģ ìŀħ
Ġê¸° íļĮ
ĠìľĦ íĺĳ
ëł¥ ìĿĢ
íİ Ģ
ëĵ± ê¸ī
ĠëĤĺ ë¨¸
ĠìĹ° ê¸°
ĠêµĲ ê³¼
ê¹Įì§Ģ ëĬĶ
Ġìŀ¬ ë£Į
Ġìłľê³µ íķĺê³ł
ĠìĹħ ê·¸
ĠíĪ¬ íĳľ
Ġì§ĢìĹŃ ìĿĺ
Ġw h
ëĪĪ ìį¹
Ġê¾¸ì¤Ģ íŀĪ
h ttp
ë ĩĮ
Ġë Įĵ
ìĬ¤ ìĻĢ
Ġíķľ ë°ĺëıĦ
Ġì¤ĳ ìĹĲìĦľ
íķĻ ìĬµ
ë¬´ ë¥¼
ì§ĳ ëĭĪëĭ¤
Ġëıħ íĬ¹
Ġë©Ģ íĭ°
ĠëıĻìĿ¼ íķľ
ë¥ ľ
ëĵľ ê°Ģ
Ġì£¼ ì£¼
ëĭ¨ ìĿĢ
ìĹ° ìĿĦ
ĠìĦ± ê²©
Ġì·¨ ìĨĮ
ĠíĸĪ ì§Ģë§Į
Ġìĭ «
ëĿ¼ ìĦľ
íĬ¸ ìĿĺ
ëıĻ ìĿĺ
Ġê´Ģ ëŀĮ
ĠëĦ ·
ĠìĤ¬ëŀĮ ëĵ¤ìĹĲê²Į
ëĵ± ìĿĺ
Ġì¢ħ ë£Į
Ġíģ¬ ë¦¬ìĬ¤
ĠìĹ¬íĸī ìĿĦ
0 3
ìŀ ĺ
ĠìĿ´ ìĻ¸
ĠìĪĺ ìĤ¬
ĠëĮĢ íķĻêµĲ
Ġìľ ¼
ëª ½
ìĭł ìĿĺ
ĠëķĮ ë§Īëĭ¤
Ġë© ĺ
Ġíİĺ ìĿ´ìĬ¤
Ġë¬´ìĹĩ ë³´ëĭ¤
P C
r a
ĠìĿ´ ìĬĪ
ĠëĤ ļ
Ġíķ ´ë³´
Ġì¤ĳ ê³ł
ê°ľ ìĿ¸
ĠíĺĦ ê¸Ī
Ġìķ½ ê°Ħ
ë°Ľ ìĿĦ
Ġê´Ģê³Ħ ë¥¼
p t
ìĿ¼ ë¦¬
ìĬ¤ íĥĦ
ìĺ µ
ĠìķĦ ëĬĶ
íĬ¸ ë¦¬
ĠëĤĺ ìķĦê°Ģ
Ġëį ®
Ġë°ľ êµ´
ë©´ìĦľ ëıĦ
ĠíĬ¹ íĹĪ
ĠìĿ´ìļ© ìŀĲê°Ģ
ar k
Ġê·¸ëŁ¬ íķľ
ĠìĤ¬íļĮ ë³µì§Ģ
Ġê´ĳ ì£¼
Ġì¹ľ ìłĪ
ĠìĿĳ ìļ©
éģ ĵ
Ġëª ¬
Ġìłķ íķľ
ĠìŀĲ ê·¹
Ġë¬¼ ë¥ĺ
Ġì§ĳ ìĹĲ
Ġë¨¹ ëĬĶ
ĠìĥģíĻ© ìĿĦ
Ġê³¨ íĶĦ
âĢ ĭ
ìĬ¤ ëŁ¬
íĬ¸ ëĬĶ
êµŃ ìĿ´
Ġì£¼ ìµľ
ĠëĤĺ ìĻĶëĭ¤
ë¯¸ ëĤĺ
Ġíķ´ ìĨĮ
Ġë°© ì§Ģ
ìĹĪ ìĿĦ
Ġë© Ī
ê±´ ì¶ķ
Ġì¶Ķ êµ¬
íĺĦ ëĮĢ
Ġê·¹ ë³µ
ì¤ ĺ
s p
í Ī
ĠìĿ´ ìĽĥ
ìŀĲ ìĹ°
ìĽĶ ëĵľ
ë¹Ħ ëĬĶ
ĠìĿ¼ ìŀĲë¦¬
ĠìĦł ê³ł
ĠëĨ ĢìĿ´
Ġëį° ë·Ķ
Ġë§ŀ ì¶Ķ
Ġëĵľ ëĿ¼ìĿ´
ĠìĭĿ ìĤ¬
Ġê¸°ìĹħ ìĿĺ
ĠìĭľìĬ¤íħľ ìĿĦ
Ġëª¸ ìĿĦ
ĠëŃ Ķ
ìłķìĥģ íļĮëĭ´
Ġë§ĪìĿ´íģ¬ ë¡ľ
ìľ Ī
ìŀĲ ëĵ¤ìĹĲê²Į
ĠìķĦ ëĵ¤
ê°Ħ ìĹĲ
ìĭł ìĿ´
íĮ ¡
ĠìĨĮ ë°©
ĠëıĦ ìĦľ
Ġì¶Ķ ìłķ
Ġëªħ ëł¹
ĠìłķíĻķ íķľ
6 6
ª ¨
ìĭľ íĭ°
ĠìŀĪ ê²ł
Ġê·¸ ë¥¼
ìłľ ëıĦ
ĠìĦł êµĲ
íĮĮ íģ¬
ĠëĪĦ êµ°
Ġë§ĲìĶĢ ìĿĦ
íĺĦì§Ģ ìĭľê°Ħ
ëŀ Ń
íĸī ìĿĦ
ìĭĿ ìĿĢ
Ġë°© ì¹¨
Ġìĭ¤ ìĭľê°Ħ
ì²ľ ì§Ģ
ëĭĺ ê»ĺìĦľ
ĠìĤ¬ìļ© íķĺìĹ¬
Ġê³³ ìĹĲìĦľ
ĠíĬ¸ ëłĪìĿ´
Ġì§ĢìĽĲ ìĿĦ
Ġ ãħ
ì§Ģ ë©´
ìĤ¬ ë¬´
ë°© ìĿĦ
Ġì°¨ ë¡Ģ
Ġì¶ľ ëł¥
ĠëĳĲ ëł¤
ĠìĹħ ê³Ħ
Ġê³Ħìķ½ ìĿĦ
ìĩ¼ íķĳ
Ġëľ¨ ê±°ìļ´
3 00
E X
ìĥģ ìľ¼ë¡ľ
Ġëª¨ ìķĦ
Ġìĥģ ê´Ģ
ĠíĪ¬ ìŀħ
ĠìłķëıĦ ìĿĺ
ĠëĦĪ ë¬´ë
201 6
ĠìĥģíĻ© ìĿ´
ĠìŀĲì²´ ê°Ģ
r an
Ġ it
Ġì§Ģ íĺľ
ìłľ ìŀĳ
ìĬµ ëĭĪê¹Į
ĠìĻ ¼
Ġë°ľ ìĸ¸
Ġìĭ¤ ì§Ī
ĠíĻĶ ëł¤
Ġë§ŀ ìĿ´
Ġê²ĮìŀĦ ìĿĦ
Ġê½ ¤
9 8
e v
o f
â Ħ
ê³ł ìŀĲ
ĠìĿ¸ ì§Ģ
ĠìĨĮ ë¦¬
ĠìĥĿ ì¡´
ĠìĦ± ê²½
ë°Ķ ë¡ľ
íĮĮ ìĽĮ
Ġìłľê³µ íķ©ëĭĪëĭ¤
Ġì°¾ ìĿĦ
Ġâĸ ¶
Ġê¶Į íķľ
Ġìı ŁìķĦ
Ĩ Ĵ
ĠëĤĺ ìĦł
ĠëĤĺ ìĻĶ
Ġ3 2
ĠìĿ´ìļ© íķł
ĠíħĮ ìĿ´
ĠìķĮëł¤ ì¡Įëĭ¤
Ġìŀł ìĭľ
Ġê¸°ë°ĺ ìľ¼ë¡ľ
Ġìĥģëĭ¹ íŀĪ
ab le
ì¾Į ìłģíķľ
íķ´ ê°Ģ
ëĵ¤ ìĸ´
ĠìĿ´ë ³
Ġëį ľ
ĠíļĮ ìŀ¥ìĿĢ
ĠëĶ° ë¡ľ
ê¶Į ìĿ´
ê²ĥ ëıĦ
Ġíĺ¸ íĿ¡
íĸ¥ ìĿĦ
ĠP ro
Ġê´Ģëł¨ íķ´
ëĲĺìĸ´ ìķ¼
ë²ł ìĿ´
ĠìĿ´ê²ĥ ìĿ´
ì§Ģ ëĭĪ
ìŀĲ ìĽĲ
Ġíķĺ ëĬĲ
ë©´ ìĿĦ
ĠìķĬ ëıĦë¡Ŀ
ìķĪ ìĿ´
Ġì¹ ł
Ġìµľ ìĦłìĿĦ
er e
ĠìĤ¬ëŀĮ ëĵ¤ìĿĦ
Ġê°Ħ íĺ¸
Ġíĸ¥ íķ´
Ġë²ł íĬ¸ëĤ¨
Ġì¸¡ ìĿĢ
Ġê¸°ì¡´ ìĿĺ
Ġë¥ ĺ
Ġìĸ¸ìłľ ëĤĺ
ĠìĿ´ë© Ķ
ê°Ģ ìļĶ
ë¬ µ
íĻĶ ìĻĢ
ĠìĿ¸ ìĩĦ
ĠìĹ¬ ìľł
ìŀĳ ìļ©
ĠíķĺëĤĺ ë¡ľ
ê²ĥ ìĿ´
Ġë²Ħ íĬ¼
ĠìŀĪìĿĦ ê¹Į
Ġë³ĢíĻĶ ê°Ģ
ĠìĹħê·¸ ëłĪìĿ´ëĵľ
I T
ì§Ģ ê¸Ī
Ġë§ ¨
ĠìĿ´ ëĵ¤ìĿĺ
ë© ¸
ìĻĢ ëĬĶ
Ġëĵ± ìĹĲìĦľ
ì§Ħ ìĿĦ
ê» ı
Ġëĵ¤ ìĹ¬
Ġìłľê³µ íķł
Ġì¤ĳêµŃ ìĿĺ
ac e
Ġê¸¸ ìĿ´
ëĭµ ëĭĪëĭ¤
´ë° ©
ĠìºĲ ëĤĺëĭ¤
Ġìļ¸ ìĤ°
Ġëĭ¹ìĭł ìĿ´
0 4
b y
i o
Ġ @
Ġì§Ģ ë°°
Ġë³´ ì¡´
ìĦł ìĸ¸
ĠìĥĿ ê²¨
ëĬ¥ ëł¥
ëĤľ ëĭ¤
Ġì´Ī ì²Ń
Ġìŀ¡ ìķĦ
as e
ĠìķĮëł¤ ìł¸
ĠëĦĵ ìĿĢ
Ġì¤ĳìĨĮ ê¸°ìĹħ
íĻĶ ë¡ľ
ĠâĢ ĵ
Ġëª¨ ëĭĪíĦ°
Ġíı ´
Ġë§Ī ë¬´ë¦¬
Ġì¹ Ń
ĠìķĪ ëĵľë¡ľìĿ´ëĵľ
ĠíĻķ ìĤ°
Ġ19 7
Ġë°ķ ìĤ¬
ìŀĪ ê²Į
Ġíĺĳ ìĿĺ
ìĹ°êµ¬ ìĽĲ
ĠìĹ¬ê¸° ìĦľ
T N
ç ¥
Ġë »
ëıĦ ìĦľ
ìłķ ìľ¼ë¡ľ
ë³´ ë¥¼
ĠëķĮ ê¹Įì§Ģ
ĠìķĪ íĥĢ
... [
ìĺĢ ê³ł
on t
Ġì¶Ķ ìĸµ
Ġs h
Ġâĳ ¢
ĠíĽĮë¥Ń íķľ
Ġ y
ëĭ¤ ëĭĪ
ĠìĪĺ ìĦĿ
íĬ¸ ê°Ģ
Ġì²Ń ìķ½
Ġì¶© ìłĦ
ow s
Ġìį ¬
Ġëħ¹ ìĥī
ĠëģĬ ìŀĦ
Ġê°Ģ ìĦľ
Ġíķľ ëĭ¬
ì£¼ ë¯¼
ìĨĮ ë¹Ħ
Ġê³µ ì§Ģ
Ġê³ł ìłķ
ëĤ´ ìĹĲ
Ġìĸ´ ì°Į
ĠìłĲ ìĿĢ
ĠëĿ¼ ê³ł
Ġíĺ¹ ìĭľ
ĠìŀĳìĹħ ìĿĦ
ĠìĿµ ìĪĻ
Ġcon t
' (
= "
ĠìŀĪ ìľ¼ëĤĺ
ëĮĢ ì±ħ
Ġë³´ ìĿ´ê³ł
ì¡° íķľ
Ġë¯¸ ëĭĪ
Ġíģ ´ëŁ½
Ġìŀ¬ ìłķ
Ġëĸ ¨
Ġì±Ħ ìļ©
Ġë°©ë²ķ ìĿĢ
´ë° Ķ
Ġì± Ļ
Ġê´ĢìĦ¸ ë²ķ
Ġì²ŃìĻĢ ëĮĢ
Ġê³µ ëª¨
Ġë¶Ģ ëĵľ
íĺ¸ ìĿĺ
Ġì§Ħ ìłķíķľ
Ġìŀĳ ëıĻ
´ë³ µ
Ġìĭ¬ ìĤ¬
ĠìĤ¬ìĿ´ ë²Ħ
iv ers
Ġëĸł ìĺ¬
ĠU n
ĠìĿ´ìłľ ëĬĶ
Ġê·ľëª¨ ìĿĺ
4 1
T S
u ct
ìłĦ ìĹĲìĦľ
ê³µ íķŃ
ì¡° ì§ģ
ê²½ ìŁģ
íķĺë©´ìĦľ ëıĦ
Ġë¶ģíķľ ìĿĺ
-------- --------
ìĿ¼ ìĿĢ
ëł ĺ
ìĸ´ ìĿĺ
Ġê°Ģ ê³µ
ĠìķĬ ê²Į
ë¬¼ ìĹĲ
ĠëĤ´ ìĹĲìĦľ
Ġíı¬ ìĿ¸íĬ¸
Ġê¿Ī ìĿĦ
Ġìµľì´Ī ìĿĺ
4 2
O R
ë¦¬ ì¹´
ĠëıĻ ë°ĺ
Ġìŀħ ê³ł
ĠìĽ¹ ìĤ¬ìĿ´íĬ¸
Ġëŀ ľ
ìĸ´ë¯¼ ì£¼ëĭ¹
i es
ĠìĹ ´ëł
ëĿ¼ ìĿ´íĬ¸
ìĦ± ìľ¼ë¡ľ
Ġë³´ ê±´
ìĺģ ìĹħ
ĠìĬ¤ íħĮ
ìħ ĭ
Ġìłģ ìłĪíķľ
Ġëĵ¤ ìĹĪëĭ¤
ìłĢ ëĬĶ
ĠíĻķ ìłķ
ĠA I
ìŀĪ ìĬµëĭĪëĭ¤
ìľ¨ ìĿ´
Ġëª¨ëĳĲ ê°Ģ
Ġë¶Ħìķ¼ ìĿĺ
íĤ¬ ë¡ľë¯¸íĦ°
u g
ç ļ
Ġì ĮĢ
íķ´ ì£¼ëĬĶ
Ġê·¸ ëł¤
ĠëĮĢ ê¸°
ìķĦ ìĿĺ
íĦ° ë¥¼
Ġê°Ļ ìķĦìļĶ
íĤ¤ ëĬĶ
Ġìĵ° ëĬĶ
ut e
Ġëľ» ìĿĦ
ĠìĤ¬íķŃ ìĿĦ
ĠíĶĦë¦¬ ë¯¸
ĠëĿ Ħ
Ġëį§ë¶Ļ ìĺĢëĭ¤
ħ ìĬ¤
ë¦ ĩ
ì£¼ ë¡ľ
ĠìĿ¼ ìĿ´ëĭ¤
ìĦł ìĿĺ
íĥĢ ìŀĦ
en ce
Ġì¹ĺ ë§¤
ĠI S
Ġíĺķíĥľ ë¡ľ
ì£¼ ìĦ¸ìļĶ
Ġê´Ģ ì°°
ĠìĹ° ìŀ¥
Ġë°° ì¶ľ
Ġì¢ĭ ìĬµëĭĪëĭ¤
Ġëĭ¬ ëł¤
Ġìłľê³µ íķľëĭ¤
íĶĮ ëŁ¬ìĬ¤
Ġë¶Ħìķ¼ ìĹĲìĦľ
ĠìķĬìĿĦ ê¹Į
´ë§ ¤
ew s
ê·¸ëŁ° ëį°
( *
Ġ al
ìĿ´ ë¡ľ
Ġê¸° íļĮê°Ģ
ĠìłĦ ë¶Ģ
ê³µ ê°Ħ
ìĦł ë¬¼
ìŀ¬ ìĤ°
ê°ľ íĺģ
ë¬¼ ë¡ł
ĠëĲĺ ê¸°
Ġíİ ľ
Ġìĸĳ ìĦ±
ic al
Ġê·¼ ë³¸
ĠëĽ° ìĸ´ëĤľ
9 5
ë Ĵ
ìĦ± ëıĦ
Ġíķľ ìłķ
ĠìŀĲ ìĽĲ
ìĨĮ ìĿĺ
ê´Ģ ê³¼
ìĪł ìĿĦ
ìķĺ ê³ł
Ġíķ© ë³ĳ
Ġëªħ ìĺĪ
ĠìĹ´ ìĸ´
Ġìĭ¬ ë¦¬
íĻľ ëıĻìĿĦ
Ġíİ¸ ë¦¬
Ġ200 1
ĠìĿ´ë²Ī ìĹĲ
Ġìĵ° ê³ł
íķĺëł¤ ê³ł
ĠëĬ¥ ëł¥ìĿĦ
ĠìĬĪ íį¼
Ġëļ ľ
E T
e ar
ĠìĿ´ ëĵ¤ìĿ´
ĠìĪĺ ìĪĺ
ĠìĤ¬ ìĥģ
ĠìĤ¬ íĥľ
ëŀ ĢìĿ´
Ġêµ īìŀ¥íŀĪ
ë³´ ê±´
Ġëĵ± ê³¼
ì§Ħ ìĿ´
Ġì¡° ì¹ĺë¥¼
ë¯¼ ì¡±
ĠìŀĪìĹĪ ê³ł
íķĺìĺĢ ìľ¼ë©°
Ġë¬´ìĹĩ ìĿĦ
ĠìĹĦì²Ń ëĤľ
Ġíķĺ ëĵľ
Ġë¹Ħ íĸī
Ġìľł ë¦¬
Ġë¬¸ ìĿĦ
ë²ķ ë¥ł
Ġì§ĢìĹŃ ìĹĲ
Ġëł Į
Ġì¦Ĳ ê±°
ëĭĪê¹Į ìļĶ
Ġìĺ¤ë¦¬ ìĹĶ
? âĢĿ
c m
ê¸° íļį
ĠìľĦ ë¡ľ
ĠëĤĺ ìĺ¬
ìĭ¤ íķľ
ë¯¼ ì£¼
ì§ģ íķľ
êµ° ìĿ´
êµ° ìĿĢ
Ġê³³ ê³³
Ġìĭ¶ ìĸ´
ĠíĻį ì½©
ĠìĿ¼ë°ĺ ìłģìľ¼ë¡ľ
o ol
ä »
ê°Ģ íı¬
ìĬ¤ ìĹĲ
ìľ¼ë¡ľ ëıĦ
Ġíķĺ ìŀĲ
Ġê³µ ë¬´ìĽĲ
ëĭ¨ ê³Ħ
ĠìĦł íĺ¸
ĠìĦ¸ ìĽĶ
ĠìĬ¤ íĥ
ĠëĦ Ĳ
ìĦ¤ íĮħ
ìĽĮ ëĵľ
Ġëª» íķľëĭ¤
ĠìłĲ ìĿ´
ĠíķĺëĤĺëĭĺ ìĿĢ
ent s
ĠìĿ´ë¯¸ ì§Ģ
Ġë°ĽìķĦ ëĵ¤
Ġëª©íĳľ ë¡ľ
D A
E N
L G
Ġ le
ìĿ¼ ê°Ħ
ê°Ģ ëĿ½
Ġê°Ģ ê²Į
ĠìłĦ ëħĦ
ìĥĿ ëªħ
ìĿĮ ìĹĲëıĦ
Ġìĭł ë°ľ
Ġê°Ĳ ìĹ¼
ĠìļĶ ë¦¬
ĠìĪ «
Ġì¦Ŀ ê¶Į
ï¼ Į
ë¥ł ìĿĢ
ĠìĨĶë£¨ ìħĺ
I G
u e
Ġì «
íķĺ ìĿĺ
ê°Ģ ìĹĲ
ìŀĲ ìĤ°
ìľł ìĤ°
Ġìĺ¬ ë¦¼íĶ½
ĠëĪĪ ìĿĦ
Ġë¸Ķ ë£¨
ĠìķĦë²Ħ ì§Ģ
´ëĲ ĺ
ĠëıħíĬ¹ íķľ
ìĿ į
ĠìĤ¬ ìŀ¥
Ġê°Ģ ê³ł
Ġì¢ ģ
ê¸Ī ìĿĺ
Ġìŀĳ ëħĦ
Ġì¢ĭ ìĿĦ
ê²ĥ ìĿĢ
ĠíĻĶ ìĿ´íĬ¸
ĠM BC
ĠíļĮìĤ¬ ìĹĲ
ĠìĤ¬ìĭ¤ ìĥģ
Ġêµ¬ìĦ± ëĲľ
Ġë³´ìĹ¬ ì£¼ëĬĶ
Ġì¹ĺë£Į ë¥¼
Ġìĸ´ëłµ ëĭ¤
Ġê´ ´
Ħ ìĥĪ
ìĭ ¶
ëĵ Ī
ìķĦ ë²Ħ
íĬ¸ ë¡¤
Ġìĥģ ìĥĿ
ìŀ¬ íĮĲ
Ġìľł ìĹĶ
ĠìĥĿ íĥľ
ĠëıĻ ê¸°
Ġíĥ ĵ
Ġë¶Ħ ë¦¬
ĠêµĲ ìĤ¬
Ġìŀĳ ìļ©
Ġê´Ģëł¨ íķľ
Ġëĭ´ ìĿĢ
ĠìĥģíĻ© ìĹĲ
Ġê³Ħíļį ìĿĦ
ĠíĿĶ ëĵ¤
íĬ¸ë¡ľ ëĭīìĬ¤
ĠíĮ¨íĤ¤ ì§Ģ
D C
ìĭľ ì¦Į
ìŀĲ ëĵ¤ìĿĦ
Ġê·¸ ê²Į
Ġê·¸ ëŀľëĵľ
ëıĻ ë¬¼
Ġê³µ íĨµ
ĠíĨµ ì§Ģ
ĠìĦ± ê³¼
íĳľ ë¥¼
Ġìŀ¬ ìĤ°
Ġë¨¹ ìĿĦ
Ġë³´ìĹ¬ ì£¼
ĠíĦ ¸
E B
r es
¼ Ī
Ġì ¿
Ġë³´ ì¡°
Ġë³´ ìĿ´ì§Ģ
ĠìľĦ íĥģ
Ġìĺ¤ ì§ģ
ìĭ¬ ìĿ´
Ġíķ© ê²©
Ġëª» íķł
Ġë¬´ë į
Ġë²Ķ ìľĦ
Ġìĸ´ì© Į
ĠìĦŃ ì·¨
? ?
Â »
ī ìĿĢ
ê°Ģ ë¡ľ
ìķ Ĺ
ëĵ Ģ
ê¸° ì§Ģ
ëŀ ©
ë¶Ģ ìŀ¥
íĥ ĳ
ìĦł ìĪĺ
Ġ4 5
Ġë¶Ī ë¦¬ëĬĶ
ë°ķ ìĿĦ
ìľ¨ ìĿĦ
ìĤ¼ ìĦ±
ĠìŀĲë£Į ë¥¼
ĠìĿ¸ê³µ ì§ĢëĬ¥
h n
ëŀ į
ĠëĮĢ ëĭµ
ĠëĮĢ ê¸°ìĹħ
ê³µ ìĹħ
Ġê³µ ê°Ĳ
ĠêµĲ ë¥ĺ
ĠS NS
Ġìłĳ ìĪĺ
ĠëłĪ ë²¨
íķĺìĭľ ë©´
ĠíİĺìĿ´ìĬ¤ ë¶ģ
Ġ un
ê¸° êµ¬
ìĤ¬ ìŀ¥
ì² ©
Ġê°Ģ ìĿ´ëĵľ
Ġìłķ íĨµ
Ġë§Ĳ ìĿĢ
íħ Ģ
íĶĦ ëłĪ
Ġìŀ¬ ìĥĿ
en s
Ġì²ĺ ë²Į
ë°° ìļ°
Ġìĭ¬ íĮĲ
ì¼Ģ ìĸ´
ĠìķĮëł¤ ì§Ħ
AS S
ĠíĺľíĥĿ ìĿĦ
Ġë°ĺëıĦ ì²´
< /
y st
Ġ $
Ġ x
ìĿ´ ì¦Ī
ëıĦ ìļ°
ìĥ ¤
Ġê²ĥ ìĿ¸ì§Ģ
ê°ľ ê°Ģ
ìĿĮ ìķħ
ìĹĪ ìĸ´ìļĶ
ìĹŃ ìĭľ
ĠìĺĪ ë¹Ħ
ìĨį ìĹĲ
íĤ ·
Ġìłģ ìĿĳ
Ġì¶ľ íĮĲ
ĠëĶĶ ìĬ¤
ê²¬ ìĿĦ
ĠL A
Ġë¨¸ ë¬¼
ĠíĽ ¼ìĨĲ
íķĺëł¤ ë©´
Ġìłģê·¹ ìłģìľ¼ë¡ľ
Ġíķ¸ ëĵľ
ìĹĲ ìļĶ
ìłľ íķľ
ĠìłĦ íĺķ
íŀĪ ê³ł
ì°¨ ë¡Ģ
ĠìĹ´ ê³ł
ĠìĹĲ ìĸ´
ĠíĸĪ ê³ł
Ġíŀĺ ìĿ´
Ġëħ¼ ëŀĢ
ĠëģĿ ìĹĲ
íķľêµŃ ëĭ¹
Ġìłķì¹ĺ ìłģ
Ġíľ´ëĮĢ íı°
Ġìĩ¼íķĳ ëª°
Ġë¹Ħíķµ íĻĶ
c l
ë¦¬ ì¼ĢìĿ´ìħĺ
ëĲ ¨
Ġì§Ģ ë¶Ī
ĠìĿ´ë §
ĠìĿ´ë ¯¼
ĠëĤĺ ë¦Ħ
ëªħ ìĹĲ
Ġë°Ķ ëĭ¥
ëĤ´ ê°Ģ
Ġë¬´ íķľ
ĠëĨĴ ëĭ¤
Ġì¹ľ íĻĺê²½
Ġê¸¸ ìĿ´ëĬĶ
ĠìķĦì§ģ ëıĦ
Ġë¶Ģì¡± íķľ
Ġì»¬ ëŁ¬
ĠëĦĪë¬´ë Ĥĺ
Ġìĺ¤ë¦¬ìĹĶ íĬ¸
ëł ģ
ĠëĮĢ ê·ľëª¨
ì¡° ìłķ
ëĤ´ ìļ©
Ġíĸī ìĤ¬ë¥¼
Ġì§ĳ ëĭ¨
201 5
ĠíĮ¨ íĦ´
Ġl a
( ?)
C C
p er
ìĦľ ë¡ľ
ê³µ íķĻ
Ġê°ľ ë§ī
Ġë¹Ħ ê°Ģ
ĠìĦ± ê³¼ë¥¼
Ġë¬¼ ì§Ī
Ġì´Ī ëĮĢ
Ġê²Ģ ì¦Ŀ
ë©Ķ ìĿ´ìħĺ
Ġê³łê°Ŀ ìĿĺ
Ġì§ĢìĨį ìłģìĿ¸
ĠìĪĺì¤Ģ ìĿĺ
Ġìī¬ ìļ´
5 3
9 7
ë ī
ìĿ¼ ë°ĺ
ê°Ģ ê¸°
íķ´ ì§Ģê³ł
ĠìĪĺ ë¦½
ĠëĮĢ ì²ĺ
Ġê°Ģ ë¡ľ
Ġìłķ ê·ľ
ìĦ¸ íı¬
ĠíļĮ ëĭ´
Ġê²° ìĿĺ
ĠíĽĦ ìĽĲ
ĠíķĺëĤĺ ëĬĶ
Ġë¬´ë ĦĪ
Ġp ack
ĠíĺĦìŀ¬ ìĿĺ
ĠêµŃëĤ´ ìĻ¸
ĠìĿ´ìľł ê°Ģ
Ġëĸł ìĺ¤
ì¤ įëĭĪëĭ¤
Ġì¦ĿìĤ° ëıĦ
ĠëĤĺë¨¸ ì§Ģ
5 4
i ke
ĥ Īëĭ¤
ĠìĿ´ ë¡ľ
ëĿ¼ ìĹĺ
ĠëĤ ³
ĠìĪĺ ê°ķ
Ġ1 000
ĠìĿ¸ êµ¬
ĠìĿ´ë ªħ
ĠëĤĺ ìķĦ
Ġ3 8
ĠëķĮ ê°Ģ
Ġìļ° ìļ¸
Ġìµľ ëĮĢíķľ
Ġìŀħ íķĻ
or y
en c
íķĺëĭ¤ ê°Ģ
ĠëĨĴ ìĿ´
Ġë²ķ ëł¹
Ġëĭ¤ìĿĮ ìĿĺ
Ġë¹ĦêµĲ ìłģ
ap os
ë ±ħ
Ġì ³
ĠëĮĢ ëĭ¨
Ġê¸° íĽĦ
Ġê²ĥ ìĿ¸ê°Ģ
ìłĦ ëŀµ
ĠìĿ´ë ŀĺ
Ġê´Ģ íķĺìĹ¬
Ġê´Ģ ì¸¡
ĠìķĬ ìľ¼
Ġê³ł ëĮĢ
Ġìłģ ìĸ´ëıĦ
ĠìĿ´ìļ© ìŀĲ
Ġìĸ¸ ìĸ´
Ġíħ į
ë¥ł ìĿĦ
Ġìŀ¡ ê³ł
Ġë³Ħ ë¡ľ
ĠìłĦë§Ŀ ìĿ´ëĭ¤
Ġìŀĺëª» ëĲľ
Ġë§ ¹
ĠìĪĺ ëĬ¥
ëĮĢ ë¶Ģë¶Ħ
ìĦ± íķľ
Ġíķľ ìĺ¥
íĻĶ íķĺëĬĶ
ĠìĿ¸ ê¸°ë¥¼
Ġìĥģ ì²ĺ
ìĭĿ ê³¼
ë§Ī ìłĢ
Ġêµ¬ ìĨį
Ġíķ© ë¦¬
ĠëĿ¼ ìĿ¸
Ġë²Ħ ìłĦ
st r
Ġë¶Ģë¶Ħ ìĿĦ
Ġë¶Ģë¶Ħ ìĿĢ
Ġê²½íĹĺ ìĿ´
Ġêµ¬ì²´ ìłģìĿ¸
ĠìĦ¹ ìĬ¤
ìĿ´ ëŁ°
Ġíķĺ ìĭľ
Ġíķĺ ëįĶëĿ¼ëıĦ
Ġê¸° ë¶Ģ
Ġê°Ģ ìĥģ
ëª ĩ
ĠìłĦ ë¶ģ
Ġìłķ ì²´
ì§Ħ ìĿĢ
Ġë¶Ģ íĦ°
Ġë§Į ëĤľ
Ġíķ´ ìĸĳ
ĠëıĻ ëĦ¤
ì²Ń ìĨĮëħĦ
Ġìĭľìŀĳ ìľ¼ë¡ľ
Ġì½Ķ ë¦¬ìķĦ
ĠìĤ¬ìĭ¤ ìĿ´
´ëį Ķ
Ġê±´ê°ķ íķľ
ĠìĹħë¬´ ë¥¼
Ġíĸīë³µ íķľ
Ġì§Ģìłģ íĸĪëĭ¤
Ġëĭ¹ìĹ° íŀĪ
ĠìħĪ ìĿ´ëĭ¤
ĠìĿ´íĥĪ ë¦¬ìķĦ
ë³´ë³´ íĺ¸
6 5
i re
ì§Ģ êµ¬
ìŀĲ ìľł
ĠëĤ ¸
ìłľ ì£¼
ìĹ¬ ìĦ±
ì¡° ìĹĲ
ìĿĮ ìĿĺ
Ġë¯¸ ì¹ĺëĬĶ
ìĭ¬ ìĿĺ
Ġê±° ëĵŃ
Ġë¬´ ìĭľ
Ġëĭ¹ ìĦł
Ġê²ĥìĿ´ ë©°
ĠíĮĮ ìĿ´
Ġìĺ¬ ë°Ķ
ĠíĻľ ë°ľ
íĸ¥ ìĿ´
Ġì±Ħ íĥĿ
ĠëĪĪ ìĿ´
Ġê³³ ìĿĢ
ĠíĶĮ ëŀľ
ĠìĻĢ ìĦľ
ĠìŀĳíĴĪ ìĿĦ
Ġê°Ģì¹ĺ ê°Ģ
ĠìĻ¸êµŃ ìĿ¸
ì£¼íĥĿ ëĭ´ë³´ëĮĢì¶ľ
Ġëįķ ë¶ĦìĹĲ
æ ĺ
ë³´ ëĵľ
ì° ¾
Ġëĵ± ê¸ī
Ġê³µ íķŃ
Ġë¶Ģ íĴĪ
ìĹ° íŀĪ
Ġêµ¬ ë¦Ħ
ê·¸ ë¦¼
Ġê³Ħ ìĹ´
Ġê¹Ģ ìłķ
ĠëĤ¨ ìĿĢ
ãĢ ĳ
ì¶Ķ ì¶ľ
ë´ Ħ
íİĺ ìĿ´ìĬ¤
ìµľ ëĮĢíķľ
Ġëıħ ìŀĲ
ìķ¡ ìĿĦ
ì±Ħ ëĦĲ
ë¬´ë ¶Ģ
ul t
Ġìŀ¥ìķł ìĿ¸
ĠíĮĮíĬ¸ ëĦĪ
I P
T E
n e
Ġ j
ë¡ľ ìļ°
ë¦¬ ê²Į
ĠìĹĨ ì§Ģë§Į
ìķĪ ìĤ°
ĠìĦ¸ ìĽĮ
íĸĪ ìĸ´ìļĶ
Ġíıī ìĥĿ
íķ¨ ê³¼
ĠìĿĮ ìĭĿìĿĦ
Ġë³Ħ ëıĦìĿĺ
Ġë¯¸ëŀĺ ë¥¼
ĠìŀĪìľ¼ ë¯Ģë¡ľ
Ġë´ī ìĤ¬
Ġï Ĥ
ĠìĿ´ëĤ´ ìĹĲ
l d
Ġ us
ĺ ħ
Ġì ĩ
Ġë ·
ë¦ ħëĭĪëĭ¤
ìŀĲ ê²©
Ġëĭ ĺ
Ġì§Ģ ëĭĮ
Ġë¶Ģ ë¬¸
íģ ´ëŁ½
ĠëķĮ ìĹĲ
ĠìĹ° ê°Ħ
ìľł ëŁ½
Ġìĺģ íĻĶë¥¼
Ġë¬¸ ìŀĲ
ìĸ´ë Ħ
íķĺê¸° ìĹĲ
Ġìŀħ ìŀ¥ìĿĦ
Ġì¦Ŀ ëªħ
ar y
Ġê·¼ ì²ĺ
Ġëĭ´ ìķĦ
ĠìĿ¼ë³¸ ìĿĺ
Ġìĺ® ê²¨
Ġë§Īì°¬ê°Ģì§Ģ ë¡ľ
ëķ ħ
S L
ìĤ¬ ìĿ¸
ëĤĺ ë§Ī
ĠìķĦ ìĭľ
ĠìķĦ ìļ¸ëŁ¬
íĻĶ íıĲ
Ġìłľ ìĸ´
ëŁ¬ ë¦¬
Ġê°ľ ë°©
ê²½ ìĿ´
Ġì§Ħ ìŀħ
Ġìļ°ë¦¬ ìĹĲê²Į
ĠìĥĿê°ģ íķĺê³ł
ĠìĻ¸ ìĹĲ
ĠíĻĺ ìĺģ
Ġë²ķ ìłģ
ĠI P
ë¡ľìĦľ ìĿĺ
ĠìĥģëĮĢ ìłģìľ¼ë¡ľ
Ġê°Ģê¹Į ìĿ´
Ġ) (*
ĠìĻĦë²½ íķľ
ìµľëĮĢíķľ ëıĦ
A N
c ess
ë ĩ
ĠìĿ´ ìłķ
ìĹĲìĦľ ë¶ĢíĦ°
ĠëĮĢ ë¦¬
Ġ3 3
Ġë§Į ëĤ¨
ĠíĺĦ ìĥģ
Ġìłģ ìĿĢ
Ġê²Į ëĭ¤ê°Ģ
Ġë³¸ ìĿ¸
´ë§ Į
ĠìĿ´ë©Ķ ìĿ¼
I C
ë¦¬ ë©°
Ġê¸° ìģ
Ġê°Ģ êµ¬
Ġíķľ íĻĶ
ĠìķĦ ê¸°
ìĪĺ ìĻĢ
Ġìłķ ëĭ¹
Ġë¹Ħ ìĥģ
ëĭ¨ ê³łê¸°
Ġì¡° ìŀĳ
on e
ĠìĤ¬ìļ© íķĺê³ł
Ġë¬¼ ë¦¬
ĠìĻ¸ ìĹĲëıĦ
ĠëĤĺíĥĢ ëĤĺëĬĶ
ĠíļĮìĽĲ ìĿ´
ĠíĿĶ íŀĪ
ĠëĶ°ëľ» íķľ
Ġë®¤ ì§Ģ
4 3
ëĭ¤ ìĭľ
ĠìĹ ī
ĠëĮĢ ë¡ľ
Ġê¸° ë¶Ħ
ëª ¸
ì¡° ë¥¼
ĠìĹ¬ ë¶Ģë¥¼
ëĦ ¥
ë¬¼ ìĿĢ
Ġìĭ¤ ëĤ´
ëª© ìłģ
ic ation
ĠìŀĦ ìĭľ
ĠìŀĦ ëĮĢ
Ġì¹´ ì¹´ìĺ¤
íĻķ ìĿ¸
ĠíķĻìĥĿ ëĵ¤ìĿ´
Ġê°Ī ëĵ±
Ġë§Įëĵ¤ìĸ´ ì§Ħ
Ġìħ ĭ
Ġëĸ¨ìĸ´ ì§Ħ
ĠìķĬìķĦ ëıĦ
oc k
O D
m in
r i
ìĿĺ ìĽĲ
ĠëĮĢ ìĦł
ĠëĮĢ ë¶ģ
ì¹ĺ ê²Į
ë¬¼ ê´Ģ
íĽĦ ìĪľìľĦ
íĻľ ìļ©
Ġë©Ķ ëª¨
ĠìłĪ ì°¨
Ġê·¸ëłĩ ì§Ģ
ĠìĤ¬ìĿ´ ì¦Ī
ëĨį ìĹħ
Ġëĭ¹ìĭł ìĿĢ
Ġì£¼ìŀ¥ íĸĪëĭ¤
O M
o st
Ġëĭ «
Ġëı ĭ
Ġê³µ ìŀ¥
Ġê³ł ëł¹
Ġìľł ë£Į
Ġìĭł ë¬¸
Ġë§Ĳ íķł
ëª© ìĿĦ
ì¶ķ êµ¬
ĠëĲľ ëĭ¤ëĬĶ
ĠìķĦëĭĮ ê°Ģ
Ġë°ľíĳľ íĸĪëĭ¤
Ġìłķì±ħ ìĿĦ
Ġê±´ë ĦĪ
Ġì£¼íĥĿëĭ´ë³´ëĮĢì¶ľ ì¶Ķê°ĢëĮĢì¶ľ
Ġì£¼íĥĿëĭ´ë³´ëĮĢì¶ľ ë¹Ħìľ¨
Ġì£¼íĥĿëĭ´ë³´ëĮĢì¶ľ ìµľëĮĢíķľëıĦ
Ġìļ°ìĪĺ íķľ
âłĢâłĢ âłĢâłĢ
ĠìłĢì¶ķìĿĢíĸī íĽĦìĪľìľĦ
Ġê°ľìĿ¸ìĤ¬ìĹħìŀĲ ì¶Ķê°ĢëĮĢì¶ľ
Ġê°ľìĿ¸ìĤ¬ìĹħìŀĲ ì£¼íĥĿëĭ´ë³´ëĮĢì¶ľ
ĮĦ ìĬ¤
ĠìłĢì¶ķìĿĢíĸīíĽĦìĪľìľĦ ëĭ´ë³´ëĮĢì¶ľ
ê³ł ëĬĶ
Ġê·¸ ë§Į
ĠëĮĢ ë³Ģ
ì£¼ ìĿ¼
Ġìĥģ ìľĦ
ĠìĨĮ íĻĶ
ìĺ¤ ìĿ¼
Ġìĭł ì²´
ë¯¸ ëŀĺ
ë¬¼ ë¡ľ
ìħ ī
íĸĪ ê¸°
Ġë© °
ëĭĺ ê»ĺ
ì§ģ ìĽĲ
ëĶĶ ìŀĲìĿ¸
ë¶ģ íķľ
ìł¸ ìĦľ
Ġê·¸ëŁ¬ ë©´
Ġë²Ħ ìĬ¤
Ġìłĳ ì´ī
Ġìļ´ìĺģ íķĺê³ł
Ġê¸°ë³¸ ìłģìĿ¸
ĠëĨĢ ëĿ¼ìļ´
ãĥ»ãĥ» ãĥ»ãĥ»
ê°Ģíı¬ ë¥´
Ġê°Ģ ë°©
ìĨĮ ìĹĲ
Ġëª¨ ë¥¸ëĭ¤
Ġìĺ¤ ëŀ«
ì²ľ ë§Į
Ġê°Ĳ ìłķ
ĠíĶĦ ë¦°
íħĮ ìĿ¸
Ġì¶© ê²©
Ġì¤Ģ ëĭ¤
íħĶ ëłĪ
Ġë°©ë²ķ ìĿ´
ĠG o
ĠíĻľìļ© íķľ
ĠìķĦë¦Ħ ëĭ¤
Ġëĭ¹ìĭł ìĿĺ
ĠëĬĲëĤĮ ìĿ´
Ġë©Ģ ë¦¬
ĠëĤĺëĪ ł
ĠíĿĺ ëŁ¬
4 00
r y
Ġ or
ê°Ģ ìĬ¤
ë¦¬ ë©´
ĠìĦ ŀ
ëł ·
ìŀĲ ëĵ¤
ĠëĤ Ń
ëĤĺ ê²Į
ë¶Ģ ë¬¸
Ġëĭ¤ íĸī
Ġê²½ ë¶ģ
ĠìĦľ ìĸĳ
ĠíĨµ íĻĶ
Ġ4 8
Ġìŀħ ë²ķ
Ġë¹ ļ
Ġíıī ì°½
at a
Ġì²´ ìľ¡
Ġì±ħ ìĿĢ
Ġê²Ģ ì¶ľ
ìĸ´ëĤ ł
íıī ìĸĳ
Ġa d
Ġã Ĥ
íĺģ ìĭł
Ġì¶Ķê°Ģ ë¡ľ
ĠíĶ¼íķ´ ë¥¼
5 1
A I
æ °
Ġ ãħİãħİ
ë¦¬ íķĢ
Ġ1 50
ì£¼ ìĭĿ
êµŃ ìĿĢ
Ġìĺ¤ íĶĦëĿ¼ìĿ¸
ìľĦ íķľ
Ġìľł ëıĦ
ĠìĦł ëıĦ
Ġì¦Ŀ ìĥģìĿ´
Ġê·¸ëŁ¬ ë¯Ģë¡ľ
ìĬ¤íĬ¸ ëĿ¼
ĠëĶĶ ìŀĲ
ĠíķĺëĤĺëĭĺ ìĿĦ
Ġì¶ķ ìłľ
Ġê°Ģê²© ìĿ´
ĠíĿĲ ë¦°
ì§Ģ ë©°
ĠìĪĺ ìĽĲ
ìĪĺ ìĹĲ
ìļ° ìĦł
ĠìĿ¸ íĶĦëĿ¼
ĠìĿ´ë °
Ġìĥģ ìłľ
ĠìĨĮ ìļĶ
Ġë°ľ íľĺ
Ġë© ¸
ĠíĬ¹ íĮĮ
ĠC ASS
Ġ9 5
ic k
ìĤ Ń
ĠìĿĢ íĺľ
Ġíıīê°Ģ ë¥¼
Ġë¹Ħìļ© ìĿĦ
íĬľ ëĶĶìĺ¤
¸ ı
Ġ è
ĠìĿ´ ìĬ¤
ìŀĲ ëıĦ
Ġì§Ģ ì²´
êµŃ ëĤ´
Ġë³´ ì§Ģ
ĠìķĬ ìľ¼ë©°
ì²´ íĹĺ
ëł¥ ìľ¼ë¡ľ
Ġê±° ì§ĵ
ìĶ¨ ìĿĺ
ĠE n
Ġë³´íĹĺ ë£Į
Ġë³´ëıĦ íĸĪëĭ¤
Ġë°Ķê¿ Ķ
s h
íķĺ ê²łëĭ¤ëĬĶ
Ġëĵ Ŀ
ĠìłĦ ìĦ¸ê³Ħ
Ġìłľ ìķ½
ìĭ¤ ë¡ľ
ê°ģ ìĿĦ
Ġë¶Ħ ìŁģ
Ġë¹ µ
Ġê²ĥìĿ´ ìĹĪëĭ¤
íħĮ ê³ł
ĠT h
Ġì¶© ì¡±
ĠíĬ¸ ìľĦ
201 1
ĠìĿ´ìķ¼ ê¸°ê°Ģ
ĠíĻĺê²½ ìĿĦ
Ġíĥĳ ìŀ¬
ĠìĬ¤íĶ¼ ì»¤
ĠíĶĦëłĪ ìŀĦ
Ġê°ľ ë´ī
ê°ľ ë¡ľ
ĠìĹ° ëł¹
Ġê±° ëĮĢíķľ
ĠìķĦìĿ´ ëĵ¤ìĿ´
Ġìĭľìŀĳ ëĲľ
ëĨ Ĵ
ìª½ ìĹĲ
ĠìĤ¬ëŀĳ íķĺëĬĶ
ĠëĬĲëĤĮ ìĿĦ
Ġìķī ìķĦ
ind ows
ë¹ĦíĬ¸ ì½ĶìĿ¸
Ġì»¤ë®¤ëĭĪ íĭ°
ĠëĮĵ ê¸Ģ
çļ Ħ
ëĭ «
ëĭ¤ ìĿĮ
ë¡ľ ìĿĺ
Ġìĭľ ê³µ
Ġìłľ ìŀ¬
Ġìłķ ìĦł
ê± ´ë
íĶ Ķ
Ġìļ° ì£¼ìĿĺ
ìĭ¤ ìĹĲ
ê¶Į ìĹĲ
ê²ł ì£ł
Ġì§ĳ ìĿĦ
ì¡Į ìĬµëĭĪëĭ¤
íĺģ ëªħ
Ġê°ĲìĤ¬ íķ©ëĭĪëĭ¤
Ġì°© ìļ©
ĠìĽĢì§ģ ìŀĦ
ëŁŃ ìĭľ
ĠìľłíĬľ ë¸Į
G B
» ¿
ĠëĮĢ ë²ķ
ëį ľ
Ġë¬ ¶
ĠìŀĲ ê°Ģ
Ġê³ł ëĵ±
Ġë§Į ëĤł
ĠìĦł ì§Ħ
Ġ( +
Ġë¬¼ ìĿĦ
Ġì¶ľ ìłĦ
Ġë²ķ ìłķ
Ġì¤Ħ ìĸ´ëĵ¤
ĠìłľíĴĪ ìĿĺ
Ġë´ ħëĭĪëĭ¤
Ġì¸ µ
Ġìĺ¤ëĬĺ ëĤł
Ġì»¨ íĬ¸ë¡¤
ĠíĿ¬ ìĥĿ
Ġëĵ¯ íķľ
Ġê¹Į ì§Ģ
Ġê¹Ĭ ìĿ´
ĠíĻķìĭ¤ íŀĪ
Ġ Z
Ġìł ĸ
ĠìĤ¬ ìĹŃ
Ġê·¸ ë§Įíģ¼
ì¹ ´ë
ëħ ¹
ìĪĺ ìĪĺ
ëĭ¨ ì§Ģ
ĠëıĻ ìĸĳ
íĸĪ ìľ¼ëĤĺ
Ġìļ°ë¦¬ ë¥¼
ĠíĽĦ ë°ĺ
Ġì§ĢìĽĲ íķĺëĬĶ
Ġì½ ©
et h
Ġìĸ» ìĿĢ
Ġë¶ģíķľ ìĿ´
Ġìŀł ìŀ¬
ter n
ë°©ë²ķ ìĽĲ
ĠìĶ¨ ëĬĶ
og le
ĠëįĶë¶Ī ìĸ´ë¯¼ì£¼ëĭ¹
9 4
Ġì į¼
ìŀ ł
ë¹Ħ ìķĦ
ìĤ° ìĿ´
ĠìķĬ ì§Ģë§Į
ĠìĦ¸ íĬ¸
ì§Ī ìĿĺ
Ġì¶ľ ìŀ¥
ĠìłĲ ì°¨
Ġë°ľìĥĿ íķł
ê²Ģ ìĤ¬
ĠìĿĺë¯¸ ê°Ģ
Ġíĭ Ī
Ġìĭľìŀ¥ ìĿĺ
Ġë°ĽìķĦ ëĵ¤ìĿ´
Ġê¸´ ìŀ¥
å¤ ©
Ġìºł íİĺ
Ġíģ´ëĿ¼ ìļ°ëĵľ
7 5
S D
¬ ¸
í Ľ
ë¡ľ ëıĦ
ìŀĲ ê¸Ī
ĠìĤ¬ ê³¼
Ġê°Ģ ìĪĺ
íĻĶ ëĬĶ
ìķĪ ìĿĢ
ìľł ë¥¼
ĠíĺĦ ìŀ¥ìĹĲìĦľ
íı¬ ìĿ¸íĬ¸
Ġê°Ĳ ëıĻ
an n
Ġì°¸ ì¡°
Ġì´Ī ë°ĺ
ĠìĿĮ ìĦ±
ĠíĬ¸ ëłĮ
ì¢ĭ ìĿĢ
u al
Ġ é
ë¦¬ ëĤĺ
âĢ ĵ
ĠìŀĲ ê¸Ī
Ġë³´ ìĻĦ
ĠìĿ¼ ìŀĲ
Ġë¹Ħ ë¡Ŀ
Ġë¹Ħ ëĤľ
ĠìĨĮ ìĭĿ
Ġë§Ī ê°Ĳ
Ġì¡° ìļ©
ë²ķ ìĹĲ
ì½Ķ íĮĢ
Ġíļį ëĵĿ
9 00
g e
j ect
Ķ íĶ¼
íķ´ ìĸĳ
ìĸ´ ìł¸
Ġíķĺ ê±°ëĤĺ
Ġê¸° ê¸°
ìĪĺ ìĽĲ
ìĪĺ ìĪł
Ġëĭ¤ ë¥´ê²Į
ìĨĮ íķľ
ë§Ī ë¸Ķ
ìĭ¤ ìĿĢ
ĠìĺĪ ê³ł
íı¬ ëŁ¼
ìĸ´ë Ĩĵ
Ġìĸ´ ìłľ
ì¢ħ ìĿĦ
íĮĲ ìĿĦ
Ġìĭľê°Ħ ìĹĲ
Ġë©Ķ ìĿ¸
Ġëĵ¤ìĸ´ ìĦľ
Ġê¸°ìĹħ ìĿ´
ĠE TN
Ġíĸ¥ íķľ
´ëį ĺ
ĠíħĮ ë§Ī
ìħĶ ìķ¼
ìĿ¸ëį° ìļĶ
Ġë¶ĦìľĦ ê¸°
íĢ ´
íĮ© íĬ¸
ĠíĬ¹íĮĮ ìĽĲ
ë ®
Ġë³´ ê¸ī
ê¹ Ķ
ëĲĺ ìĹĪê³ł
Ġê³ł ì§Ģ
Ġë§Ī ì£¼
ĠìĥĿ ê¸°
ĠìĤ¬ìļ© íķľ
ê°Ĳ ìĿĢ
ĠíķĻ ë¶Ģëª¨
ĠA P
ĠA r
Ġíģ¬ ëĭ¤
Ġì·¨ ìŀĦ
Ġíĺķ ìĤ¬
Ġê³łê°Ŀ ìĿ´
Ġë¿Ĳ ìĿ´ëĭ¤
Ġìĺ¤ëŀĺ ëĲľ
ĠëģĬìŀĦ ìĹĨìĿ´
Ġìĺ¤ëŀ« ëıĻìķĪ
ëĭ¤ ë¦¬
íķĺ ìĭŃìĭľìĺ¤
ĠìķĦ ë¹ł
ĠìĿ¼ ìĭľ
ĠìĿ´ë ŀ
Ġìľł ìłĢ
ì¤ĳ ìĿ¸
Ġë§İ ìķĺëĭ¤
Ġì¶Ķ ìļ´
ĠìĿ´ìļ© íķĺëĬĶ
Ġíģ¬ ê³ł
ĠëĤĺìĺ¤ ê³ł
Ġì¶©ë¶Ħ íķľ
ĠìĦ¸ìĥģ ìĹĲ
Ġë¶ĦìľĦ ê¸°ë¥¼
Ġê·¸ë¦¬ìĬ¤ ëıĦ
ëĩ ¨
ë ½
ìĿ´ ëŁ¬
ê³ł ìĿĺ
´ë ªħ
Ġê·¸ ëŁ´
ëĮĢ êµ¬
ëį ©
íĻĶ íķĻ
ìłĦ ìĭľ
ĠëĤĺ ê°Ī
Ġê³µ ìĤ¬
Ġë¶Ģ ìĬ¤íĥĢë¹Ĺ
ì²´ ìĹĲ
ĠìĨĮ ìĨ¡
ĠìĦľ ë¥ĺ
ĠëıĻ ë£Į
Ġë¬¸ ìĦľ
Ġë¶Ħ íķł
Ġìŀ¥ ë¥´
ĠC om
Ġê°ĢëĬ¥ ìĦ±ìĿĦ
Ġë§Įëĵ¤ ìĹĪëĭ¤
ĠíĪ¬ ìĸ´
ë³Ģ ê²½
ĠìĭĿ ëĭ¹
ìķ¡ ìĿĢ
Ġê¸°ìŀĲ íļĮ
Ġëħ¼ ë¬¸
Ġê°ĸ ëĬĶ
ĠíķĻìĥĿ ëĵ¤ìĿĺ
Ġê¸°ë¡Ŀ íĸĪëĭ¤
Ġë²Į ìį¨
ĠìľłìĿ¼ íķľ
yst em
8 00
ĠìĿ´ ì¤ĳ
ìĬ¤ íĦ´
Ġê·¸ ìłĢ
Ġìĥ Į
Ġêµ ´
Ġê°Ģ ëģĶ
Ġë¶Ģ ìĿ¸
ë§Ī ì¼ĵ
íı¬ íĬ¸
Ġëĭ¨ ìĿ¼
íķ´ìĦľ ëĬĶ
ĠëıĮ íĮĮ
Ġê·¼ ìľ¡
Ġ200 6
ĠëĴ¤ ìĹĲ
ĠìŀĪìĹĪ ëĬĶëį°
im e
ĠìĭľëĮĢ ìĹĲ
ĠìĿ´ë£¨ìĸ´ ìł¸
Ġì°¸ìĦĿ íķľ
ï½ į
Ġhttp s
ĠìµľìłĢ ìŀĦê¸Ī
ĠíħĮìĿ´ ë¸Ķ
c r
ï ¸ı
Ġë ±
íķ´ ìĺ¨
ëĵľ ìĹĲ
Ġë³´ ìĦĿ
ìĹħ ë¬´
ìĤ° ìĭľ
Ġê³ł ëĵ±íķĻêµĲ
ìĺ¤ ê³ł
Ġìľł ëĭĪ
íĺ¸ ìĻĢ
ìĭ¬ ìľ¼ë¡ľ
íķĺì§Ģ ëĬĶ
Ġíĸī ìľĦë¥¼
ĠìĥĪ ë²½
Ġ8 4
Ġëªħ ìłĪ
ìĸµ ìĽĲìĿĦ
ĠìĿ´ìĥģ ìĿ´
ĠìĦľë¹ĦìĬ¤ ìĿĺ
Ġì§Ħíĸī ëĲľ
Ġë³µ ìĽĲ
ĠìĬ¹ ë¦¬
Ġã Īľ
Ġê°Ĳëıħ ìĿĢ
ê°Ģ ìķ¼
ëĤ ¼
ĠìĹ ĺ
ìĭľ ê²½
ĠìĪĺ íķĻ
ëŀ ¬
ĠìłĦ ë©´
ìĹ¬ ë¦Ħ
ëĵľ ëĿ¼ë§Ī
ë¹Ħ ë³´íĹĺ
ìĨĮ ëĬĶ
Ġ3 4
ĠìĹ¬ ë¡ł
Ġë§Ī ì¹¨
ĠëķĮ ëıĦ
ĠìĦł ìŀĦ
Ġì§Ħ ë³´
Ġë°Ľ ê²Į
Ġê°Ĳ ìķĪ
Ġìĸ´ íĶĮ
ĠìĥĿê°ģ íķ´
ĠíĻĶ ìŀ¬
Ġê¶Į ë¦¬
ac h
Ġë§ĪìĿĮ ìľ¼ë¡ľ
Ġê·¸ëłĩ ëĭ¤ë©´
ìħ¨ ìĬµëĭĪëĭ¤
Ġì£¼ë³Ģ ìĹĲ
ĠëģĮ ìĸ´
Ġë°ĶìĿ´ ìĺ¤
Ġê·ł íĺķ
Ġíķ´ë³ Ģ
7 6
± ìĭł
â Ļ
Ġ ç
ìĿ´ ìĸ¸
ĠìĹ ł
ë§Į ìĽĲìĿĦ
êµŃ ìĿĦ
ĠìĿ¸ íħĮ
Ġì¡° ìĸ¸
ĠìĦ¸ íĥģ
ĠëĤ´ ìĦ¸
Ġë¶Ħ ìĿ´
ëª¨ ìŀĦ
Ġì¶Ķ ìĦ¸
Ġíķľëĭ¤ ë©´
Ġìŀħ ì¦Ŀ
Ġì¶ľ ë²Ķ
Ġì¢ħ ì¢ħ
Ġì§ĳ ìĹĲìĦľ
Ġë§ŀ ê²Į
ĠB l
Ġf rom
Ġì¦Ĳ ê±°ìļ´
Ġë°ľìłĦ ìĿĦ
ĠëĮĢíķ´ìĦľ ëıĦ
Ġìĭ± ê¸Ģ
Ġíģ´ëŀĺ ìĭĿ
ĠíĶĦë¦¬ë¯¸ ìĹĦ
n t
y p
y s
Ġ %
ìĭľ ë¡ľ
Ġìłķ ì°©
ìĦł íĥĿ
íĺ¸ ê°Ģ
ĠëĤ´ ê²Į
ĠíĬ Ģ
ĠëıĦ êµ¬
ĠëıĦ ëĭ¬
ĠìĺĪ ìłĦ
Ġëĵ¤ ëł¤
Ġë°° ëł¤
ĠíĻĶ íķĻ
ĠìłľíĴĪ ìĿĢ
ĠíıŃ ë°ľ
ĠìĿ½ ê³ł
Ġê°Ħëĭ¨ íķľ
ĠÂ «
ĶíĶ¼ ìĸ¸
² ķ
ìĤ¬ ì§Ģ
ìłģ ìĿĢ
Ġíķľ ë§Ī
ĠìłĦ íĪ¬
êµŃ ìĹĲ
ìĨĮ ë¡ľ
Ġê³µ íı¬
Ġë§Ī ìĿ´
íĨ ¨
ĠìĦ± ìĿ¸
ìĦĿ ìĿ´
Ġíİ Ģ
Ġê°Ĳ ìĭľ
Ġë³Ģ íĻĺ
ĠíĻľ ìķ½
ĠìĻĦ íĻĶ
ĠU S
Ġì´ī êµ¬
ìĭľì¼ °ëĭ¤
o od
Ł °
ëĭ Ń
ê¸° ê³Ħ
ìĤ¬ ìĿ¼
ìĪĺ íķľ
ìĨĮ ìĹĲìĦľ
ìĨĮ ìĦ¤
ĠêµŃ íĨł
Ġë§Ĳ ë¡ľ
Ġë°© ìķĪìĿĦ
ĠìĦ¸ íı¬
ĠìĦ¸ ì¢ħ
Ġê¹ ľ
Ġê±° ê¸°
íĽĦ ê¸°
ìĦĿ ìĿĦ
an ce
ì¹´ íİĺ
Ġì°½ ìĽĲ
Ġp l
ë©Ķ ê°Ģ
Ġê·¸ëŀĺ íĶ½
Ġì¦Ĳ ê¸°
Ġë³´ë©´ ìĦľ
ĠëĤľ ë¯¼
Ġìłģê·¹ ìłģìĿ¸
Ġìĭ¬ê°ģ íķľ
8 6
S t
ĠìĿ´ ì²ĺëŁ¼
Ġíķĺ ìĺĢ
Ġê²ĥ ëĵ¤ìĿ´
ìłľ ê³µ
ĠìŀĲ ëĬĶ
ëıĻ ìĹĲ
ëħĦ ìĥĿ
ĠìĿ¼ ì°į
ëį° ìļĶ
ìĥĿ ìĤ°
Ġë§Ĳ íķ´
ìŀĳ ìĹħ
Ġì§Ħ ë£Į
er ver
ĠìĽĲ ìĿ¸
Ġìłģ ìłĪ
ì±ħ ìĿĦ
ë¦¼ ìĿĦ
ĠíĶĦë¡ľ ê·¸ëŀĺ
ic h
Ġì§ĢìĹŃ ìĹĲìĦľ
ĠëĤł ìĶ¨
Ġì¹´ íħĮê³ł
ë°Ľ ìķĦ
Ġìľ¡ ìĦ±
ĠìĽĮ íģ¬
ìĽ¨ ìĿ´
ĠìŀĲìĦ¸ íŀĪ
ëĨĵ ê³ł
ç¥ ŀ
ìĿ¸ ê¶Į
ë© į
ë° ¸
ĠëĮĢ ëŀµ
ëĮĢ ìĻĢ
ìłľ ìĻĢ
ìļ© íĴĪ
Ġëĭ¤ ë£
Ġëĭ¤ ìĿ´ìĸ´
Ġì£¼ ê¸°
ë¹Ħ ë¹Ħ
ĠìĦł ë°ķ
ĠëıĻ ìĿĺë¥¼
ĠìĤ¬ëŀĮ ê³¼
ì²Ń ìĿĢ
Ġëħ¸ íĬ¸
ê°Ĳ ìĤ¬
Ġíģ¬ ê¸°
Ġì·¨ ê¸ī
ĠìĹ¬ìĦ± ìĿĺ
ê³¨ íĶĦ
Ġìķŀìľ¼ë¡ľ ëıĦ
Ġëĭ¨ìĪľ íķľ
Ġë°©íĸ¥ ìľ¼ë¡ľ
Ġê·¸ëħĢ ìĿĺ
Ġë¸Ķë¡Ŀ ì²´ìĿ¸
ì¶Ķì¶ľ ë¬¼
ĠìĿ´ìĬ¤ ëĿ¼ìĹĺ
å ·
ìĤ¬ ê±´
Ġì§Ģ íĸ¥
ë² ¼
ĠëĤĺ ëıĦ
ê³µ ê°ľ
Ġê°ľ ìĽĶ
ĠìķĬ ê¸°
ĠìĨĮ ì¤ĳíķľ
Ġìľł ì¶ľ
Ġìĺģ ê´ĳ
ì°¨ ëĬĶ
Ġë¶Ħ ëħ¸
ĠìĺĪ ë°°
ëłĪ ëĤĺ
ĠìĤ¬ëŀĮ ëıĦ
ìĸ´ë ĸ
Ġë°° íı¬
ĠìļĶ ê¸Ī
ĠíĮĮ ëĿ¼
Ġì§ģ íĽĦ
Ġë¬¸ìłľ ìĹĲ
Ġê°ľìĿ¸ ìĿĺ
ĠP ower
Ġë©Ķ íĥĢ
ĠìĤ¬íļĮ ìĿĺ
ĠìłĪ ë°ĺ
Ġ0 2
Ġìĵ° ëłĪ
ìĭŃ ëĭĪëĭ¤
ë§ģ íģ¬
ĠìĬ¤íĬ¸ ëłĪ
Ġìłģíķ© íķľ
Ġë¯¸ìĦ¸ ë¨¼
ĠëĦĲ ë¦¬
8 4
A C
å Ĳ
ê°Ģ ë£¨
Ġê° Ķëĭ¤
ìĸ Ģ
Ġë§ ĳìĿĢ
ĠìĿ´ ìłĦìĹĲ
ĠëĤ ¼
Ġê·¸ ê³³
Ġê°Ģ ë©´
Ġëĭ¤ ìĦ¯
Ġëª¨ ëĵĪ
ëªħ ê³¼
ĠìĦł ìĤ¬
Ġêµ¬ ìĽĲ
Ġë¶Ħ ëĵ¤ìĿĢ
ĠìĺĪ ìĻ¸
Ġë§İ ìĬµëĭĪëĭ¤
Ġ4 00
ê¶Į ìĿĢ
íĨł íģ°
Ġìŀħ ìĿĢ
ĠC C
ĠC EO
Ġì»¤ ë²Ħ
íĮĢ ìĿĢ
ol og
ĠëĮĢíķĻ ìĥĿ
Ġëĳĺ ì§¸
Ġíĺķíĥľ ìĿĺ
ĠìĿ´ë¥¸ ë°Ķ
íħĶëłĪ ì½¤
) Â·
l ob
ìĿ¸ ëĵ¤ìĿĢ
âĢ ¤
ëĮĢ ë¹Ħ
ëį ¤
ĠìŀĲ ìĤ°
ĠìŀĲ ë¦¬ìĹĲ
Ġì£¼ ëł¥
ê¹ Ĳ
ĠìĨĮ ëħĢ
ëĲľ ëĭ¤ê³ł
ĠìĦľ ìĦľ
ê¹Įì§Ģ ëıĦ
ĠëĤ¨ ëħĢ
ĠëĲľ ëĭ¤ê³ł
Ġë§ŀ ê³ł
ĠìķĦìĿ´ ê°Ģ
Ġê±¸ ìĸ´
ë¯ ¹
íıŃ ëł¥
Ġê¸įìłķ ìłģìĿ¸
Ġë¸ĮëĿ¼ ìļ°
O P
¶ Ħ
å Ń
Ġ ãħĭãħĭ
Ħ ¤
ëĵ¤ ìĿ´ëĭ¤
ìĹ¬ ìĦľ
ĠìŀĲ ìķĦ
ĠìĿ¼ ê´ĳ
ĠëĤĺ ìĦ°ëĭ¤
ê´Ģ ê³Ħë¥¼
Ġê³ł ìľĦ
ĠìĬ¤ ìĽ¨
Ġë¶Ħ ìĸĳ
Ġë°Ľ ìľ¼
ĠíķľêµŃ ìĹĲìĦľ
ĠíĮĮ ë¦¬
íĶ¼ ìķĦ
ë°ķ ìĬ¤
Ġê´Ģëł¨ íķĺìĹ¬
ì¡Į ê³ł
Ġì²ľ ìĹ°
Ġê¸ī ê²©
ĠìŀĲìĹ° ìĬ¤ëŁ½ê²Į
íļ¨ ê³¼
ĠìĥģíĴĪ ìĿĦ
´ëŁ ¬
ëįĶëĿ¼ êµ¬ìļĶ
å ±
ê ¶
ê¸° ë³¸
âĢ §
ĠìĿ´ ê±´
ê³¼ ìŀ¥
ì² ´ë
Ġê²ĥ ìĿ´ëĿ¼
ëĵľ ìĹĲìĦľ
ĠìĿ¸ ìŀ¬
ĠìĹ° ë°©
Ġíķ´ ìļĶ
Ġë°ľ ë§¤
Ġê±° ìĺĪìļĶ
Ġìŀ¥ ì°©
Ġìłģ ë¦½
ĠìĹŃ ëĮĢ
ê²° ìłķ
ĠíĿ °
Ġëª© ë¡Ŀ
ëħ¸ ì´Ŀ
Ġìļ´ ëıĻìĿĦ
15 0
Ġs e
Ġì°¾ ê¸°
ĠëıĮ ëł¤
ĠìĹ°êµ¬ ë¥¼
ì¹¨ ìĿĦ
ĠìķĮìķĦ ë³´
ìĿ´ìĹĲ ìļĶ
Ġìĥģëĭ¹ íķľ
ĠìķĦë¬´ë Ł°
ĠìĬ¤íģ¬ ë¦°
% (
U S
r am
ëĭ ĻëĭĪëĭ¤
ìĹ ł
ĠìŀĪ ìĿĮ
Ġíķĺ ê²łìĬµëĭĪëĭ¤
ìĥģ ê³¼
ĠìķĦ íĶĦë¦¬ì¹´
ĠëĤĺ ìģľ
íĮ ¬
ìĦł ìĹĲ
ìĦł ìĦłíķľ
ĠìĿĺ ì¡´
ĠëĤ´ ì§Ģ
Ġì§Ħ íĻĶ
íĨł ë¡Ŀ
Ġë°ĺ íĻĺ
ì¶Ķ ìļ´
Ġëĵľ ë¦½ëĭĪëĭ¤
Ġë¬´ë ł¤
Ġë¯¿ ê³ł
Ġê³µê°Ħ ìĿĦ
ìī½ ê²Į
y le
Ġ en
ìŀ¥ ê¸°
Ġìĺ¤ ë²Ħ
ë¯¸ ìĪł
Ġë°© ìķĪ
ĠìķĪ ëħķíķĺìĦ¸ìļĶ
Ġë¶Ħ ëĵ¤
Ġê²° ë¡ł
Ġë§¤ ë§¤
ĠíĬ¹ ìĦ±
ëĭĺ ê³¼
ê²° ìĿĦ
ĠíĶ¼ ê³ł
ìĺ¨ ëĭ¤
ĠíĪ¬ ëªħ
Ġì·¨ ìŀ¬
ìĤ¬ìĹħ ìĿĦ
ĠëĨį ì´Į
ĠR e
Ġì¦Ĳ ê²¨
Ġì¦Ĳ ê²ģ
ĠìŀĪìĹĪ ì§Ģë§Į
ĠìĬ¤íĥĢ íĬ¸
´ëŀ Į
5 2
Ġì ¾Į
ëĬ Ħ
ìĥģ ê±°ëŀĺ
ĠìĿ¸ ëł¥
ê³Ħ ëĬĶ
ĠìĿ¼ ìĹĲ
Ġë¶Ģ ê³¼
íĸī ìĤ¬
ĠìĨĮ ë¦¬ë¥¼
ĠìĹĨ ìľ¼ë©°
Ġíĸ ĩ
ĠìĥĿ ë¬¼
Ġì¡° ê¸°
ì¢ Ģ
ĠëĤ¨ ê²¨
ĠìĤ¬ìļ© ìŀĲê°Ģ
ĠíķĺëĤĺ ê°Ģ
ĠíĮĮ ìĿ¼ìĿĦ
ì§ĳ ìĿĦ
ëĦ¤ ìĭľìķĦ
ĠìĹĲ ëĦĪ
ĠìĦ¸ê³Ħ ìĹĲìĦľ
ac ute
ĠíļĮìĽĲ ìĿĺ
ĠìĬ¹ ìĿ¸
Ġã ĥ
Ġê¸°ëĬ¥ ìĿ´
ĠìĿĳ ìĽĲ
ĠìĤ¬ê±´ ìĿĦ
Ġê¿Ī ê¾¸
Ġëĥ ĦìĥĪ
âĳ ł
p h
ë¡ľ ìĬ¤
ĠëĤ ¯
Ġíķĺ ëĭĪ
ìłĦ íĻĺ
ìĽĶ ê¹Įì§Ģ
ìĨĮ ë¦¬
Ġë¶Ģ íļĮìŀ¥
ĠëĤ´ ê³ł
ĠëĲĺ ëĬĶëį°
ĠëıĦ ìĽĢ
ĠêµĲ ì²´
Ġê°ķ ìĪĺ
ë°Ķ ëĭ¤
ĠìķĦëĭĪ ì§Ģë§Į
ìĽĮ ì¹ĺ
ê·¼ íķľ
Ġê²Į ìŀ¬
ê´ĳ ê³ł
Ġì·¨ ìķ½
Ġë³µ íķ©
Ġìłķë³´ íĨµìĭł
ĠíĤ¤ ìĽĮ
Ġê·¸ëħĢ ëĬĶ
ĠìłľìĻ¸ íķĺê³ł
ĠìķłëĭĪ ë©ĶìĿ´ìħĺ
ĠìĬ¤íĥ ł
A L
ìĦľ ëıĦ
ê¸° ëħĲ
Ġì§Ģ ëĭĪ
ĠìłĦ ëĤł
êµŃ ìĹĲìĦľ
ì§Ħ ìĿĺ
íķĻ ìĿĺ
Ġê°ľ ìĦ¤
Ġìĺ¤ ìĹ¼
Ġìľł ìĿĺ
Ġìĺģ ìĥģìĿĦ
ì²ľ ìĭľ
Ġíķł ë¨¸ëĭĪ
ĠìĹĲ ìĿ´
ĠìĨį ëıĦ
ë´ ¤
Ġëĸ ¼
ëģ Ŀ
ëĵ¤ìĹĲê²Į ëĬĶ
ìĦ¼ íĬ¸
ĠìĤ¬ìĿ´ ìĿĺ
ìľĦìĽĲíļĮ ëĬĶ
Ġíŀ Ĳ
ĠìĥģëĮĢ ë°©
Ġst ud
ĠìłľìĻ¸ íķľ
ĠìķĦëĭĲ ê¹Į
ĠìĿ´ìŀ¬ ìļ©
Ġë°´ ëĵľ
ĠíĴįë¶Ģ íķľ
lob al
6 4
æ Ĺ
Ġ ðŁ
ìĬ¤ ì¹´
ĠìĤ¬ ìĦ¤
Ġê°Ģ ìķ¼
Ġì§Ģ ìĹ°
ĠìłĦ ë¶ĢíĦ°
ì£¼ ëħĦ
ìłĦ íĻĶ
Ġì£¼ ìĸ´
ĠëĤĺ ì¤ĳìĹĲ
Ġìĥģ ìĦ¸
Ġ3 7
ë§Ī íģ¬
ë¬´ ìĹŃ
Ġ4 4
er v
in t
Ġì¢ĭ ì§Ģ
Ġì¹ĺ ìĹ´
it ion
ĠëĤ´ë ł
ĠëĤ´ë Ĥ´
êµĲìľ¡ ìĿĦ
Ġì¦Ĳ ê¸°ëĬĶ
Ġìķ¼ ìĻ¸
ĠíĻľìļ© íķł
ĠìĭľëĮĢ ë¥¼
ĠìķĦë¦Ħ ëĭµ
Ġë§Īì§Ģë§ī ìľ¼ë¡ľ
Ġë¶Ħëªħ íŀĪ
Ġì¢ħë¥ĺ ìĿĺ
Ġë¹Ħë°Ģ ë²Īíĺ¸
> (
T he
i ew
ìĿ´ ìłľ
ìĿ´ ìĹĪëįĺ
ĠìĿ´ ê²Į
ĠìķĦ ìĽĥ
êµŃ íĨł
Ġìłķ ë¹Ħ
Ġë³´ ê²Į
ìĭł ê³ł
ĠëĤĺ ìĿĢ
Ġëª¨ ìŀĦ
Ġìĥģ ìĺģ
ìĹŃ ìĤ¬
ë¥´ ì§Ģ
Ġê±° ì£ł
ì§ģ ìĿĦ
ĠíķĻ ìĪł
at ed
Ġ9 9
Ġê²Ģ ìĿĢ
ĠìĦ¸ê³Ħ ìłģìĿ¸
Ġë²Ī ìĹŃ
íıī ê·ł
ĠìĿ´ë¯¸ ì§Ģë¥¼
Ġê±´ê°ķ ë³´íĹĺ
ì¿ ¨
Ġìĭ± ê°Ģíı¬ë¥´
ìĸ´ë§ ģ
æ Ŀ
Ġ are
ìĹĲ ëĦĪì§Ģ
ë¥ ´ë©°
ì§Ģ ìĤ¬
ìĿ¼ ìĺ¤ìłĦ
ë¦¬ íĦ°
ë° ´
ĠìĪĺ ë°±
ëĮĢ íĨµëł¹
Ġìĺ¤ ë¥ĺ
Ġìľł íļ¨
ë§Ī ìĬ¤
Ġì¡° ìĭ¬
Ġë°© ìĭĿìĿĦ
ĠìĬ¤ íĬľëĶĶìĺ¤
Ġë¬´ ì¡°ê±´
ĠìĦ¸ê³Ħ ë¥¼
Ġì§Ī ë¬¸ìĿĦ
ĠH T
Ġì¶ķ íķĺ
Ġì¹¨ íķ´
ĠìĥĿíĻľ ìĿĦ
ëłĮ íĬ¸
Ġëĸ¨ìĸ´ ìł¸
ê·¸ëŀĺ íĶĦ
å¤ §
ĠìĻ¼ ìª½
9 6
íķĺ ê²łìĬµëĭĪëĭ¤
ĠìĿ´ ëĭ¬
Ġëª ½
ëĮĢ ìĹĲìĦľ
Ġê°Ģ ë³
ìķĦ ìĽĥ
Ġíķľ ë¯¸
ì£¼ ê¸°
Ġìĭľ ìŀ¥ìĿĦ
êµ¬ ìĹĲ
íĦ° íħĮìĿ¸
ĠìĨĮ ìĭĿìĿĦ
Ġìľł ìĹ°
ĠëıĻ ìķĦ
Ġë¬´ ê¸°
ĠìĽĲ íĻľ
ìķ½ íĴĪ
Ġëĭ¨ ëıħ
Ġì¢ĭ ê³ł
Ġë¬¼ ê±´
Ġìĺ¬ ëŀĲëĭ¤
Ġ9 7
Ġì¶© ë¶ģ
Ġa c
ê·ľ ì¹Ļ
Ġëĭ´ ê¸´
Ġì§Ģê¸Ī ëıĦ
íį¼ ìĬ¤
ĠìĿ´ìľł ë¥¼
ĠìĿ¸ê°Ħ ìĿ´
ĠëĨĢ ëĿ¼
ìĵ ¸
ĠíŀĪ ìĸ´ë¡ľ
Ġr es
ĠëĦ· ë§Īë¸Ķ
Ġëļľ ëł·
ìĿ´ëŁ¬ íķľ
ëĭ¤ ìĿ´
ë¡ ¬
Ġíķĺ ëįĺ
Ġì§Ģ ìŀĲ
ĠìłĦ ëł¥
ì£¼ ìĿ¸
ìļĶ íķľ
Ġì¶ ¤
Ġë§Į ëĤĺëĬĶ
ê·¸ ëłĩ
ĠìĦ¸ ë¶Ģ
Ġìŀ¥ íķĻ
ìłĲ ìĿĺ
Ġë°° íĦ°ë¦¬
ãĢ Ĳ
ĠI D
ĠíķĺëĤĺëĭĺ ê»ĺ
Ġê°ľë°ľ íķľ
ë²Ķ ì£Ħ
.... ....
ĠíĻľìļ© íķ´
ĠëŁ Ń
Ġê°ľìĿ¸ìłķë³´ ìĿĺ
íķĺìĭľ ê¸°
ĠìłķíĻķ íŀĪ
ĠìłķíĻķ íķĺê²Į
ì¿ Ħ
ĠíĺĲìĿĺ ë¡ľ
Ġìĺ¬ë°Ķ ë¥¸
f er
i ent
´ ¤
Ġë Ĥ¬
ìĿ´ ëĭĪ
ëĭ¤ ëŀĢ
ìĹĲ ìĬ¤
ì§Ģ ë°©ë²ķìĽĲ
Ġë§ ĺ
ìĻ ľ
ĠìłĦ íĻĶë¥¼
ìłĦ ê¸°
ë³´ ì¦Ŀ
ìĭł ìĿĢ
Ġ3 9
Ġê³ł ìĨį
ĠëĦ ¥
ëª¨ ëĵł
ì²Ń ìŀ¥
Ġìŀ¬ ëĬ¥
Ġë°° ìĥģ
ì½Ķ ìĬ¤
ì¶ķ ìłľ
íħĮ ìĿ´ìħĺ
Ġê·ľ ì¹Ļ
ĠëĤł ìĿĢ
Ġì¤Ģ ìĪĺ
ĠìłķëıĦ ê°Ģ
ì§ľ ë¦¬
ĠìķĶ íĺ¸
R I
S K
ë¦¬ ìĬ¤íĬ¸
ìľ¼ ë¯Ģë¡ľ
ì£¼ ìĹĲ
ë³´ ìĪĺ
Ġìĥģ ìĹħ
ĠìķĪ ë³´
ìĹĪëĭ¤ ê³ł
ĠìłĢ íķŃ
Ġë¬´ ê²Į
ëĵ± ìĹĲ
ĠP D
Ġì§Ħíĸī íķĺê³ł
ëķĮ ëĬĶ
ìĭľíĤ¤ ê¸°
ĠíĻ© íĺ¼
ĠìļĶêµ¬ íķĺëĬĶ
Ġfor m
Ġì½ĺíħĲì¸ł ë¥¼
Ġë©Ķìĭľ ì§Ģë¥¼
ĠUn ivers
ë Ŀ
ìĿ¼ ë¡ľ
ìłķ ê³¼
ì² «
ì¹ ´ëį°
Ġìĭľ ìŀ¥ìĿ´
Ġê³µ ê¸°
íķĻ ìĽĲ
Ġê³ł êµ¬
ĠìĹ° ê´Ģ
Ġë°ľ ìĨ¡
ĠìĦ¸ ê¸Ī
Ġìŀ¥ ìĭĿ
ìķĺ ëĬĶëį°
Ġ201 9
Ġê¹Ģ ìĦ±
ĠìĤ¬ìļ© ëĲĺëĬĶ
ê°Ĳ íķľ
Ġë°° ëĭ¬
Ġê²Į ìĿ´
ĠìĨĲ ìĹĲ
íĪ¬ ìĸ´
Ġê¸°ìĪł ìłģ
ìķ¡ ìĿ´
Ġì¤Ħ ìĸ´
Ġê¶Į ë¦¬ë¥¼
Ġê¼ ¼
Ġì»¨ ìĦ¤íĮħ
ĠìŀĪëĬĶëį° ìļĶ
ĠìĺĪìĥģ ëĲľëĭ¤
Ġëª©ìłģ ìĿĦ
Ġë¯¼ì£¼ ì£¼ìĿĺ
ì© į
Ġë°©íĸ¥ ìĿĦ
Ġëĭ¤ë¥´ ëĭ¤
ĠìľĪ ëıĦìļ°
ìĦľ ìĻĢ
Ġëĭ Ń
ĠìĪĺ ìĭŃ
ìĥģ íĻ©
ĠìłĦ ëıĦ
ĠìĹĨ ê¸°
ĠìĿĺ íķ´ìĦľ
ìķĪ ëħķíķĺìĦ¸ìļĶ
Ġìĭł íĺ¸
ë¯¼ ìĿĺ
Ġìĸ´ë ĳĲ
Ġë© ľ
Ġìłģ ì§Ģ
ë°Ķ ëŀĮ
ë§¤ ë§¤
ĠC l
Ġì´Ī ëĵ±íķĻêµĲ
ĠíĻĺ ê¸ī
Ġë¬¸ìłľ ë¡ľ
it e
ĠìŀĦ ê¸Ī
Ġ200 5
201 4
ĠE U
ëĦĲ ëĵľ
ĠìĿ´ë¦Ħ ìĿ´
ìħĶ ëĦĲ
ë¡¯ ëį°
ĠêµĲíĨµ ìĤ¬ê³ł
ëĲĺìĹĪ ìľ¼ë©°
ĠêµŃíļĮìĿĺ ìĽĲ
form ation
âĦ ĥ
Ġê°Ģë³ į
. ,
ì Įį
ë¦¬ ì¦ĺ
Ġë³ ´ë©°
Ġíķĺ ìľĦ
ë©´ ìľ¼ë¡ľ
ì¡° ê°Ģ
ĠìĿĺ íķĺë©´
ĠìĦ¸ ë¯¸ëĤĺ
Ġë²ķ ìĿ¸
Ġì§Ħíĸī íķĺëĬĶ
Ġê³³ ìĿĦ
Ġíħ Ĳ
ĠëĤ´ìļ© ìĿĺ
ĠëłĪ ëĵľ
Ġëħ¼ ëŀĢìĿ´
ĠìĿ´ë¦Ħ ìľ¼ë¡ľ
Ġì½ĺ ìĦľíĬ¸
´ë§ Ī
th er
ĠìĿ´ìĿµ ìĿĦ
Ġì¸¡ë©´ ìĹĲìĦľ
ì ·
Ġ 01
ìŀ İ
Ġìķ ¤
íķ´ ìł¸
ĠìĤ¬ ë¡ľ
Ġê°Ģ ì§Ī
ìĥģ ìĹĲìĦľ
Ġì§Ģ ëĬ¥
ĠìķĦ ìĺĪ
Ġì£¼ ê±°
ìĤ° íĻĶ
ê´Ģ ìľ¼ë¡ľ
Ġìľł ìķĦ
íĥĢ ìļ´
ĠíĨµ ìłľ
ë¬¼ ê³¼
ìŀĳ ê°Ģ
Ġê°ķ ìļ°
ìķĺ ì§Ģë§Į
íĨł ìĬ¤
Ġì¶Ķ ì¶ľ
Ġê³¼ ëª©
Ġ9 8
Ġë¡ľ ê³ł
Ġì¤Ģ ìļ©
ĠëĦ¤ ìĺ¤
Ġê²°ê³¼ ê°Ģ
Ġì²« ì§¸
ĠW indows
Ġìĺ¤ëĬĺ ìĿĢ
Ġì¡´ìŀ¬ íķĺëĬĶ
ìĿ´ìĸ´ ìĦľ
Ġì¹¨ ëĮĢ
ìĤ¬íķŃ ìĿĦ
ĠìķĦë§Ī ëıĦ
´ëĲ ľ
Ġìľµ íķ©
ë» Ĳ
ĠëĶĶìĬ¤ íĶĮëłĪìĿ´
( +
F A
N A
ì ±
ëĭ¤ ìĿ´ìĬ¤
ë¡ľ ê°Ģ
ìĭľ íķľ
ë° Ń
ìĸ´ ë¦°
Ġì£¼ ìĭł
ê³µ ë¬´ìĽĲ
Ġê³ł íĸ¥
Ġì¡° íļĮ
Ġë¬¸ íĻĶë¥¼
Ġ4 9
Ġê°ķ ìłľ
ìłĲ ê³¼
ë¹ µ
ĠìĤ° ë¦¼
ë§Ĳ ìĿĦ
ìĺ¨ ëĿ¼ìĿ¸
Ġê³³ ìľ¼ë¡ľ
ĠíĨł ë§ĪíĨł
ĠìłĪ ì°¨ë¥¼
ĠìĦłíĥĿ íķł
ì¹ľ ëĭ¤
ë´ī ìĤ¬
Ġìĸ´ëł¤ ìĽĢìĿĦ
ĠìĿ´íķ´ íķł
ĠìĻĢ ìĿ¸
Ġìĸ´ëĶĶ ìĦľ
ĠìĽ¨ ëĶ©
C h
E L
Ġë ¼Ī
ìĿ´ ê²Į
ìŀĲ ìłĦê±°
Ġìĭľ ìŀ¥ìĿĢ
ìĹ¬ ìŀĲ
íĮ Ŀ
ĠíĮ Ŀ
ë§Ī ìĿ¼
ĠëıĻ ìĥĿ
íĳľ ì¤Ģ
íĺķ ìĿĺ
Ġ6 5
ĠíĮĮ íĭ°
Ġìļ´ íĸī
ê´ĳ ìĹŃìĭľ
ĠìĭĿ ìĤ¬ë¥¼
Ġìĭ¶ ìĬµëĭĪëĭ¤
ì¸µ ìĿĺ
Ġëĳ ¥
ĠìĤ¬ê³ł ê°Ģ
ĠìĹĶ ì§ĢëĭĪ
ĠìĬ¤íİĺ ìĿ¸
Ġë· °
íĦ°íħĮìĿ¸ ë¨¼íĬ¸
ìŀĲ ìłķ
ìķĦ íĬ¸
Ġì§Ģ ëĭĻëĭĪëĭ¤
Ġìļ ´ëªħ
ĠâĢ ĭ
ĠìŀĲ ì¹ĺ
ìĨĮ ìĻĢ
Ġìĺ¤ ëĶĶìĺ¤
ì²´ ëĬĶ
ĠìĨĮ ëª¨
êµĲ ìĤ¬
ĠëķĮ ë¶ĢíĦ°
ìĹ° ë§¹
íĹ ¬
ĠëĲĺ ìĹĪê³ł
Ġìŀ¥ ê´ĢìĿĢ
Ġì¢ĭ ê²łëĭ¤
ĠíķľêµŃ ìĹĲ
íİ¸ ìĿĦ
ĠìŀĦ ìĽĲ
Ġë¡ľ ëĵľ
re v
ĠêµŃê°Ģ ìĿĺ
Ġìµľê·¼ ìĹĲëĬĶ
ĠìĿ¼ë°ĺ ìłģìĿ¸
ĠìĭľëĮĢ ìĿĺ
ìĻĶ ìĬµëĭĪëĭ¤
Ġëª¬ ìĬ¤íĦ°
ĠíĻĶëł¤ íķľ
ìĭľ ëĭ¤
Ġìĺ ³
íĬ¸ ìĹĲ
Ġë³´ ëĭ¤ëĬĶ
Ġíı °
ìŀħ ìĿĦ
ìĦ¸ ìĹĲ
ĠìĹĨ ìĹĪëįĺ
Ġë§Ĳ íķ©ëĭĪëĭ¤
Ġëħ¸ íķĺìļ°
ĠíĮĮ ê´´
íĮĲ ìĹĲ
ìľ¨ ìĿĢ
Ġë³µ ìļ©
ï¼ Ķ
Ġë¶Ģë¶Ħ ìĹĲ
´ë° Ģ
Ġì¤ĳìĭ¬ ìĿĺ
ĠëıĮìķĦ ê°Ģ
ĠìŀĲë¦¬ ìĹĲìĦľ
ìĥĿíĻľ ìĿĦ
Ġê°ķìĽĲ ëıĦ
ĠìĹĺë¦¬ íĬ¸
ìŀĸ ìķĦìļĶ
Ġë©ĺ íĨł
8 5
æ Ī
íķ´ ì§ĢëĬĶ
ĠìĿ´ ìĬ¹
ĠìĿ´ ìĤ¬íļĮ
ĠìĿ´ ë¥´ëĬĶ
ĠìĪĺ ìĹħìĿĦ
Ġíķ ĳ
ìłĦ ìĿĢ
ë³´ ìŀ¥
Ġê²½ ë§Ī
ì¹ĺ ìĿĺ
ëł¤ ìĦľ
ĠìĦł ë°°
Ġ5 2
Ġë¬´ ë¦¬
Ġëĭ¨ ë§Ĳ
Ġì°¨ ìĿ´
Ġëĭ¹ ìĤ¬
Ġìĺ¬ ë¦°
ĠíĿ ī
Ġëį° ìĿ´
Ġs u
ëłĪìĿ´ ìħĺ
ï¼ Ĵ
Ġë¶Ħìķ¼ ìĹĲ
ĠìĻľ ëĥĲ
íķĺìĭľ ê³ł
Ġëª©íĳľ ë¥¼
Ġìķķ ë°ķ
Ġê°ģê°ģ ìĿĺ
Ġìĺ· ìĿĦ
Ġêµ³ ìĿ´
ëĿ¼ìĬ¤ íĭ±
Ġì²łìłĢ íŀĪ
ì¹´ëį° ë¯¸
S F
i an
p ort
Ġ im
íķĺ ìĹĲ
ë¦¬ ìĽĢ
ìŀĲ ëĵ¤ê³¼
ìĤ¬ ëĵ¤ìĿ´
Ġê°Ģ ë¦¬
ë§Į ìĿĢ
ì£¼ ì°¨
ë¹Ħ ìĿĺ
íķĻ íļĮ
íĸī ìľĦ
ìĦ¸ ìĿ´
ĠìĹ° ìĺĪ
ĠìĦ¸ ëĮĢ
Ġìĭ¤ ìłģ
ë¥´ íģ¬
Ġì°¨ ë¥¼
Ġëĭ¹ ìŀ¥
Ġëĭ¹ ë¶Ģ
Ġëª» íķ´
ĠìłĲ ìĿ´ëĭ¤
ĠëĤł ìĿ´
ĠëĬĲ ê¼
Ġ200 4
Ġìķ¼ êµ¬
Ġìĭľìŀ¥ ìĹĲ
Ġëķ ¡
ĠìĺĨ ìĹĲ
== ==
ĠíĬ¸ëłĪìĿ´ ëĦĪ
? "
E AR
â ħ
Ġì ¥Ĳ
ĠìĹ ´ëŀĮ
ĠìĿ´ ê¸°
ëĤĺ ìĻĢ
Ġì§Ģ ì¶ľ
Ġëĭ¤ ëĵ¤
ìĹ¬ ëªħìĿ´
ëıĻ ìĿ´
Ġëª¨ ìĥī
ëĭ¨ ìľ¼ë¡ľ
Ġì¡° ê°ģ
íĺ¸ ëĬĶ
ĠìĬ¤ íĤ¬
Ġê¹Ģ ìĪĺ
ê°ķ ìĿĺ
ĠìĿ´ìļ© ìŀĲìĹĲê²Į
Ġë¯¸êµŃ ê³¼
ĠêµĲìľ¡ ê³¼
Ġì¡´ ì¤ĳ
ĠìŀĲëıĻ ìľ¼ë¡ľ
Ġëª¸ ìĹĲ
ch ool
ĠìķĦëŀĺ ìĻĢ
ĠìĿĮìķħ ìĿĦ
ä¸ Ģ
äº º
Ġë©ĶìĿ´ ìłĢ
íĥľìĸĳ ìŀĲìłķ
) -
k g
¼ íĦ°
íķĺ ë¯Ģë¡ľ
ëĤ Ń
ìĿ¸ ëıĦ
ĠìĪĺ ëł¹
Ġê¸° ìĽĲ
ĠìĿ¼ ë°©
ê´Ģ íķľ
Ġìľł íĸī
ĠìĿĺ ë¢°
ĠìĦł ì¶ľ
íĴ ĢìĿ´
ë¬¼ ì§Ī
ĠìĦ± ìłģ
ĠìĤ ½
ìĭ¬ íķľ
íĶĦ ë¥¼
Ġìŀ¥ ê´Ģ
ĠìĹŃ ìĤ¬ìĿĺ
Ġë¦ ½
Ġì¶© ëıĮ
Ġê°ľë°ľ ìĿĦ
Ġê²½ìłľ ìłģ
Ġë³Ħ ëıĦë¡ľ
Ġë§Ľ ìŀĪëĬĶ
ëĪĦ ë¦¬
ĠìĪĺì¤Ģ ìľ¼ë¡ľ
Ġê°Ĳëıħ ìĿĺ
Ġê°ľëħĲ ìĿĦ
Ġëª©ìĨĮ ë¦¬ë¥¼
Ġìĺ¤ë¥¸ ìª½
Ġë¦´ ê²ĮìŀĦ
Ġíİ¸ìĿĺ ìĭľìĦ¤
Ġì¤ įëĭĪëĭ¤
A T
S C
ä ½
å į
Ġìŀ ī
ëıĦ íķľ
ìĬ¤ ë§ĪíĬ¸
Ġê¸° ìĺ¨
ĠìľĦ ëĮĢíķľ
ìķ¼ ë§Ĳë¡ľ
Ġë¶Ģ ë¥´
ìĦł ìĥĿ
ĠìĹĨ ìľ¼ë©´
ëĭ¹ ìĭľ
ĠëıĻ ìĽĲ
ĠìĦ± ìŀ¥ìĿĦ
ìĸ´ë Ŀ¼
Ġë§¤ ëĭĪ
Ġëĭ¨ ë°±
Ġëĭ¹ íķ´
Ġâ ħ
ãĢ İ
Ġì²Ń ìĨĮ
ĠM L
Ġì°¾ ê³ł
is h
ĠK B
ĠìĿ´ìĸ´ ì§ĢëĬĶ
et w
ĠíļĮìĽĲ ìĿĢ
ëķĮ ë¬¸ìĹĲ
ĠW eb
Ġê¸ī ìĨį
Ġìĥģíĥľ ìĹĲìĦľ
Ġë¬´ìĹĩ ìĿ¸ê°Ģ
ĠìŀĲìľł íķľêµŃëĭ¹
ĠìĹ´ë¦° ëĭ¤
´ëł ¥
ì¶ľìŀ¥ ìķĪë§Ī
ĠíĻĶìŀ¥ íĴĪ
ĠïĤ §
Ġìĩ ł
ĠìĿ´ëŀ Ģ
6 3
8 2
o y
ì ¥Ĳ
Ġì Łģ
Ġê º
ìĿ¼ ë¶Ģ
Ġìķ Ļ
ĠìĪĺ ìĭł
ìķĦ ì§Ģ
ì£¼ ëħĦìĿĦ
Ġìĭľ ìĽĲ
ĠëĤĺ ë©´
ì¡° ëĬĶ
ëĲĺ ê±°ëĤĺ
Ġê°ľ ìĦ±
ì²´ ê³Ħ
ëĲľ ëĭ¤ëĬĶ
ìĭ¤ ë¹Ħë³´íĹĺ
íĺ¸ ìĹĲ
íĽĦ ë³´
Ġê¹Ģ ì¢ħ
Ġê¹Ģ íĥľ
íĺķ ìĿ´
êµ° ìĿĦ
Ġëĵľ ë¦¬
ĠëĤł ì§ľ
Ġì»¤ ëĭ¤ëŀĢ
ì¹ľ êµ¬
ĠìĿĺë¯¸ íķľëĭ¤
Ġë§Ľ ìĿĦ
ĠìĿ¸ë¥ĺ ìĿĺ
ĠìŀĲê²© ì¦Ŀ
æĸ °
ĠâĹ ĩ
Ġì²¨ ëĭ¨
Ġìĺ¬ë¦¬ ë¸Į
Ġíħį ìĬ¤íĬ¸
a x
s s
ê³ł ê°Ŀ
ëł Ģ
Ġë¶ īìĿĢ
ĠìķĦ íĶĦ
Ġë³´ íİ¸
Ġì£¼ ì§Ģ
ĠìľĦ ìĹĲìĦľ
Ġê³µ ê³ł
ĠìĹĨ ìĸ´ìĦľ
ë¬´ ëĬĶ
íĥĢ ìĽĮ
ìĭ¬ ìĹĲìĦľ
Ġê°Ļ ìķĦ
íı¬ ëĭĪìķĦ
Ġë¬´ ìļ©
ĠíĬ¹ ìĦ±ìĿĦ
Ġì¶Ķ ìłģ
Ġìŀħ ì£¼
Ġë¹ Ĺ
ë¹ ¨
ë¹ ¼
ĠíĶ¼ ìķĦ
Ġì²´ ë¦¬
Ġì§Ħíĸī ëĲĺëĬĶ
ĠìĭĿ ìľ¼ë¡ľ
ì°½ ìĹħ
Ġëĭ´ ê²¨
Ġê´Ģê³Ħ ê°Ģ
Ġë²ł ìĿ´ìĬ¤
ĠëĤĺíĥĢ ëĤľ
Ġíĺ¸íħĶ ìĿĦ
Ġì»¨ íħĲì¸ł
ĠìĤ´ìķĦ ê°ĢëĬĶ
ìĸµìĽĲ ìľ¼ë¡ľ
ĠìľłìĤ¬ íķľ
i k
t he
ĺ ìĸ´
ĠìĿ´ ëĭ¤
ĠìĤ¬ ìłĦìĹĲ
Ġê·¸ ì¤ĳ
Ġíķĺ ê²łëĭ¤
ê¸ ĭ
Ġë³´ ìĿ¼
ĠëĤĺ ìĹĲê²Į
Ġì¤ĳ ë³µ
Ġìĥģ ëĮĢë¡ľ
ìŀ¬ ìĥĿ
ë§Ī ë¥¼
ëł¥ ìĹĲ
Ġíķ´ ì§Ģ
ĠíļĮ ìĤ¬ë¥¼
ê±´ ì¡°íķľ
íķĺê¸° ëĬĶ
Ġìŀħ ìĿĦ
ĠíķĦ ë¦¬íķĢ
ë¦Ħ ìĿĦ
íĮĲ ìĿ´
Ġë³¸ ìĿ¸ìĿĺ
ë§Ŀ ìĿĦ
ĠëĪĪ ê¸¸ìĿĦ
ĠíĶĮ ëŀĺ
íĮĢ ìĿ´
200 6
Ġìĭľìŀ¥ ìĹĲìĦľ
Ġë°ĽìķĦ ìķ¼
ow n
Ġì¡°ê¸Ī ìĶ©
ì°¸ ìĹ¬
Ġì£¼ìĭĿ ìĿĺ
ë³´ë Ĥĺ
ĠëĬĲëģ¼ ëĬĶ
Ġì± ĶíĶ¼ìĸ¸
Ġì« ĵ
å ¯
å °
å Ī
æ Ń
ìĿ¼ ìŀĲ
ìĽ ¹
Ġíķ Ģ
ëĮĢ ì²´
Ġì§Ģ ìĭĿìĿĦ
ê¸ Ģë¡ľë²Į
ĠìľĦ ê¸°
ĠìĿ¼ ìĸ´ëĤľ
ìĺ¤ ìĹ¼
íģ ´ëĿ¼
Ġì¡° ëªħ
Ġìĭł íķľ
Ġêµ¬ ê°Ħ
ĠìĦ± ëªħ
Ġë§İ ê³ł
ĠìĽĲ ìĿ¸ìĿ´
ëĶĶ ìħĺ
Ġì¶ľ ìĦĿ
ëįĶ ëĿ¼ê³ł
Ġëģ Ħ
Ġëĵľ ëĬĶ
Ġëĭ¤ìĸĳ íķĺê²Į
Ġì¶© ëĤ¨
ĠëĪĦ ìłģ
Ġì±Ħ ìĽĮ
ë©Ķ ëĭ¬
ĠíıŃ ìĹ¼
Ġë§Ľ ìĿ´
Ġê¸°ë³¸ ìłģìľ¼ë¡ľ
Ġë¬´ìĹĩ ìĿ´
Ġëķ Ģ
ĠíıĲ ìĩĦ
ĠìķĦë¬´ ëıĦ
Ġìĸ¸ìłľ ëĵłì§Ģ
ĠëĦ£ ìĸ´
Ġì§Īë¬¸ ìĹĲ
ĠGo ogle
ë® ¬
, ,
8 9
İ Ħ
Ł ¬
Ġë ī
íķĺ ë£¨
ìĭľ ì½Ķ
ĠìĪĺ ë¡Ŀ
Ġê·¸ ëĤł
Ġê·¸ ê±¸
Ġíķ «
Ġì§Ģ íĽĪ
Ġë³´ ìķĦ
ìĹħ ê³Ħ
Ġìľł ë°ľ
êµĲ íĻĺ
ĠìĹ° íľ´
Ġìĺģ ìĽĲ
ĠìķĦëĭĪ ìĹĪëĭ¤
Ġê°Ħ íİ¸
ĠìĨĲ íķ´
ìŀĪ ê³ł
ĠìłľíĴĪ ìĿ´
Ġë°©ë²ķ ìĹĲ
Ġì§Ģê¸Ī ìĿĺ
Ġë²ł ìĬ¤íĬ¸
Ġì°¸ìĹ¬ íķľ
ation al
Ġë°©ë¬¸ íķ´
Ġëªĩ ëªĩ
ĠíĮĢ ìĿĦ
ĠìľĦìĽĲ ìŀ¥ìĿĢ
Ġì´ī ì§Ħ
æĸ ¯
Ġìĺµ ìħĺ
ĠìłĢìŀĳ ê¶Į
Ġìľ¼ ë¡ľ
m ail
íķĺ ìļ°ìĬ¤
ê³ł ëĵ±íķĻêµĲ
ìĦľ ì¹ĺ
íķ´ ìĻĶëĭ¤
ìĭľ íĸī
ìĭľ íĶ¼
ëł Ģëĭ¤
Ġê³ °
Ġëĭ ¿
ìłķ ë³´ë³´íĺ¸
ĠëĮĢ ë§Į
ìĪĺ ì¤Ģ
Ġëĵ± ëıĦ
íķĻ ìŀĲ
Ġë¶Ģ ìĥģ
Ġë¹Ħ ìĭ¼
êµĲ ë¥¼
Ġë§Ĳ íķĺê³ł
íİ Ļ
ì¤ĳ ê³Ħ
Ġê²½ìļ° ìĹĲëıĦ
Ġë°ĺ ëł¤
Ġìĸ´ ë¥¸
ĠíķľêµŃ ìĿĢ
Ġì¶ľ ê°Ħ
ĠëĳĲ íĶ¼
ë³µ ìĿĦ
ĠC on
Ġìļ´ ìļ©
ëĭ´ ëĭ¹
Ġë¦¬ ê·¸
ìĬ¹ ìĿĦ
íĶĮ ëĿ¼ìĿ´
ĠìĦ¸ê³Ħ ìĿĺ
Ġë¡ľ ê·¸
re e
ìłķë³´ ë¥¼
Ġíĥľ ìĸ´ëĤĺ
ĠìĹ¬ëŁ¬ ê°Ģì§Ģ
ë¸Ķ ë¡Ŀ
Ġíı¬íķ¨ ëĲĺìĸ´
ĠëĮĢìĥģ ìĿ´
ĠìķĪìłĦ íķľ
ìħ¨ ëĭ¤
ĠìĹŃìĤ¬ ìłģ
Ġê·ľìłķ ìĿĢ
Ġì£½ ìĿĮ
Ġë°°ìļ° ëĬĶ
íķ´ì£¼ ìĦ¸ìļĶ
ãİ ŀ
ëľ» íķľ
ĠX ML
ìłĦë¬¸ ê°Ģ
ĠìĬ¤ìĽ¨ ëį´
ĠìĬ¤íĥĢíĬ¸ ìĹħ
8 7
E M
m l
p le
ë İ
ëĭ Ľ
ëı Ķ
Ġëĭ ´ë³´
Ġê¸° ìĨĮ
íĬ Ģ
ĠìłĦ ì£¼
Ġìłķ íķĺëĬĶ
Ġë³´ ì¦Ŀ
Ġì£¼ ìŀħ
ìĭł ìĦ¤
ĠìĿ¼ ì¹ĺ
Ġì¡° íĻĶ
ĠëĤ´ ìĿĺ
íĨµ íķ©
ĠíļĮ ìŀ¥ìĿ´
Ġë¬´ ì²Ļ
Ġê°Ĳ ìĥģ
Ġëĭ¨ ì¶ķ
ë°Ķ ì¹´ëĿ¼
Ġë¬¼ ìĿ´
ĠìĤ° ì±ħ
ë´ ¤ëĭ¤
Ġìĭľê°Ħ ìĿĢ
Ġë°Ŀ íŀĮ
ìłķë³´ íĨµìĭł
ĠíĶĮ ëĿ¼ìĬ¤íĭ±
Ġì°¸ìĹ¬ íķĺëĬĶ
ec hn
ĠëĨĵ ìĿĢ
Ġê¹¨ ëĭ¬
Ġê°Ĳëıħ ìĿ´
ĠíĶĦë¡ľìłĿ íĬ¸ë¥¼
Ġìłľì£¼ ëıĦ
Ġìļ°ëł¤ ê°Ģ
Ġê³łìĸĳ ìĿ´
6 00
Ġ el
ê² ¸
ìĿ¸ ì²ľ
ìĬ¤ íĤ¤
ĠìĪĺ ì¹ĺ
Ġìĥ ĺ
ëĮĢ íĻĶ
ìķĦ ëŀĺ
ìĦ± ìķł
íĬ¸ ëĿ¼
Ġìĭľ ìĤ¬
Ġìĭľ ëĤ´
ìĹ¬ ìķ¼
Ġê²½ ê³¼
ì¹ĺ ê¸°
Ġìĺ¤ íĨł
ìĭ¤ ìĿĺ
ë¬´ íĺĦ
ĠìĹ° ë§Ĳ
ĠëĤ´ ëĬĶ
ĠëĲĺ ëıĮ
ĠëıĦ ëįķ
Ġë¬¼ íĴĪ
ĠC o
Ġëª© ìĪ
ĠíĥĢ ìŀĦ
ĠìĤ¬ìĭ¤ ìĿĢ
ëĵ¤ê³¼ ìĿĺ
Ġíı¬íķ¨ íķ´
Ġíı¬íķ¨ ëĲľ
ou t
Ġíĺ¼ ëŀĢ
ĠìµľìĨĮ íķľ
ĠìµľìĨĮ íĻĶ
âĳ ¡
ĺë¦¬ íı¬ëĭĪìķĦ
ĠëŃĶ ê°Ģ
of t
ĠìĤ¬ë¡ľ ìŀ¡
F C
O T
Ã ©
ëĤ ´ëĮĢ
ìŀĲ ë³¸
ĠëĤ ´ë©´
Ġê·¸ ëŀ¬
ëĤĺ ìĿĺ
ì£¼ ìĻĢ
Ġëĭ¤ ë¦¬
ĠëĤĺ ëī
ìļ´ ìļ©
ĠìĿĺ íļĮ
ĠìĿĺ ìĭĿ
ĠìĹ° ë£Į
ĠíĬ¹ ìľłìĿĺ
ì¤Ģ ë¹Ħ
Ġìŀħ ì°°
Ġíıī ë²Ķ
ë¸Į ëĿ¼
ĠìŀĦ íĮ©íĬ¸
Ġì§Ħíĸī íķľëĭ¤
ĠìĪľ íĻĺ
Ġ200 2
Ġê¸°ìĪł ìĿ´
ĠíĨł ëĮĢë¡ľ
Ġíĺĳ ìĥģ
Ġê·Ģ ëĨį
200 9
ĠíĴį ê²½
ĠëĤ¨ë¶ģ ìłķìĥģíļĮëĭ´
Ġê²Įìĭľ ë¬¼
Ġë¯¼ì£¼ ëĭ¹
Ġë°ĺìĿĳ ìĿĦ
Ġë³µìŀ¡ íķľ
Ġê°¤ ëŁŃìĭľ
ìĬ¤íĭ° ë²Į
" ,
. -
2 000
6 1
e e
i x
ìĦ °
ê³ł ìĨį
ĠìĿ´ íĭĢ
ĠëĮĢ ìŀ¥
ĠëĮĢ íıŃ
íļĮ ìĤ¬ê°Ģ
Ġìłķ ë°Ģ
Ġëª¨ ìľ¼
ĠìĥĿ ê¸¸
Ġë§Ĳ ìĹĲ
Ġë§Ĳ íķľ
Ġê±° ê¸°ìĹĲ
Ġ4 2
Ġê¹Ģ ì§Ħ
Ġê³¼ ìłľ
Ġìĸ´ ê¹¨
ĠìķĦëĭĪ ëĿ¼ëĬĶ
Ġê±´ ì¡°
Ġëª© ìłģìĿ´
Ġì¦Ŀ ìĥģ
ĠíĪ¬ ìŀĲë¥¼
Ġc m
ĠëĦĺ ì¹ĺëĬĶ
Ġê²°ê³¼ ìĹĲ
ĠíĹĪ ê°Ģ
ĠìĤ¬ìĿ´ ìĹĲìĦľ
ĠëģĿ ëĤľ
Ġì±ħìŀĦ ìĿ´
ĠíĴį ìĨį
ĠìĿ¼ë¶Ģ ë¥¼
Ġê³µëıĻ ìľ¼ë¡ľ
Ġêµ¬ì¡° ë¥¼
ëĮĢíķĻ ìĽĲ
ĠíıĲ ì§Ģ
!! !
ì¿ł íı°
ĠìĿ´ë²¤ íĬ¸ë¥¼
Ġë³¸ê²© ìłģìĿ¸
Ġë¸ĮëĿ¼ìļ° ìłĢ
r ad
ã Ĥ
ì§Ģ ìĿ¸
ìĤ¬ íļĮìĿĺ
ìĸ´ ì§Ī
Ġê·¸ ìĹĲê²Į
Ġê°Ģ ëł¤
Ġ2 11
ĠìķĦ ëłĪëĤĺ
ì£¼ ê°Ħ
ìłĦ íķľ
ëĵľ ìĻĢ
ëĵľ ëł¤
Ġê²½ ê³ł
ê³µ ìĹ°
Ġê°ľ ìŀħ
Ġìĺ¤ ì§Ģ
ë§Ī ìŀĲ
Ġë§Į íĻĶ
ĠìĦ¸ ìĿ´ë¸Į
ĠëĲĺ ë©´ìĦľ
íĶĦ ë§ģ
Ġìŀ¬ ë°°
Ġê¹Ģ ì£¼
íķĺê¸° ë¥¼
Ġê°Ĳ ê°ģ
Ġëĵ¤ ìĿĦ
ì²ĺ ìĿĮ
Ġìĺ¬ ëł¸ëĭ¤
Ġëªħ ì¹Ń
ĠíĻľ ìĦ±
ĠíĨł íĨł
ĠìĤ¬ìĹħ ìŀĲ
ìį ¬
Ġëħ¼ ìŁģ
Ġëĭ´ ê³ł
ìħĶ ë¦¬
ĠíĻ© ê¸Ī
ĠìĤ¼ìĦ± ìłĦ
Ġìħ Ķ
Ġê¹¨ ëĭ«
Ġëª¨ëį¸ ìĿĦ
ì½ĺ ìĦľíĬ¸
ì¤ ¬
Ġë°ĶëŀĮ ìĿ´
Ġë´Ĳ ëıĦ
Ġë³Ģíĺ¸ ìĤ¬
Ġëıĭ ë³´
ìĿ´ íķľ
ĠëĮĢ ìļ°
Ġìĭľ ê³Ħ
êµ¬ ìĦ±
íĦ° ê°Ģ
Ġì° Į
ê³Ħ ìĺ¬ë¦¼íĶ½
íŀ ĺ
ì²Ń ê³łìĭľìłľ
Ġë§¤ ëĭ¬
Ġíı¬ íķŃ
ĠìĤ¬ìļ© íķ´
Ġìŀħ ìŀ¥ìĹĲìĦľ
Ġì°¨ ìĽĲìĹĲìĦľ
ë¦Ħ ìĿ´
ìĽĮ ìĦľ
ĠA pp
ë°° ìĨ¡
ìĺĪ ë¥¼
ĠìĿ´ìĥģ ìĿĦ
ëĥ Ī
ĠìŀĦ ìĭł
ê¸¸ ìĿ´
Ġëıħ ìĦľ
Ġì¡ ±
ĠëģĿ ê¹Įì§Ģ
Ġë³´ê³ł ìĦľ
ou s
Ġì¦Ŀê°Ģ íķĺê³ł
Ġì¤Ģë¹Ħ ë¥¼
ĠíķĺìĹ¬ ê¸Ī
ĠìĿ¸ëıĦ ëĦ¤ìĭľìķĦ
Ġë³´ìľł íķĺê³ł
av e
Ġë§ŀì¶¤ íĺķ
Ġê¹Ķ ëģĶ
Ġì¤Ģìļ© íķľëĭ¤
´ Ĳ
Ġê »
ìĿ´ ì£ł
íķĺ ê²łëĭ¤ê³ł
ìĭľ ë¶ĢíĦ°
ĠìĿ´ ë¥´ê¸°
Ġê³ ģ
Ġëĭ¤ ìĪĺ
Ġë¶Ģ ì²ĺ
Ġê°ľ ì²Ļ
Ġê´Ģ íķł
ĠìĨĮ ìĻ¸
ĠìĹĨ ê²Į
ìķĪ ìĿĺ
Ġë§Į ìĦ±
Ġë°Ķ ë¥¸
ìĹĪëĭ¤ ëĬĶ
ĠìłĢ ì§Ģ
ĠëĪ Į
Ġëĭ¬ íķĺëĬĶ
ĠíķĦìļĶ ë¡ľ
ĠìĦľë¹ĦìĬ¤ ê°Ģ
Ġp r
ĠëĮĢíĳľ íķĺëĬĶ
ĠíĸĪëĭ¤ ê³ł
ĠëĤ´ìļ© ìĹĲ
ĠE x
âĢ¦ âĢ¦
Ġê¸°ë¡Ŀ ìĿĦ
Ġìĺ¤ëĬĺ ìĿĺ
Ġìĥģíĥľ ë¡ľ
ĠìĿ´ê²ĥ ìĿĦ
ê¿ Ī
Ġìķ¡ ìĦ¸
ĠSK íħĶëłĪì½¤
Ġìª½ ìľ¼ë¡ľ
Ġíİ¸ìķĪ íķľ
Ġì§ķ ìĹŃ
Ġëª¨ëĭĪíĦ° ë§ģ
ëĿ ł
> ,
n n
ì§Ģ ìĪĺ
ë¦¬ ëĭ¤
ë¶Ģ ë¡ľ
Ġê¸° íļĮëĬĶ
ìķĦ ëª¬
ì£¼ ìĭł
Ġìĸ ĩ
ĠìŀĲ ê¾¸
Ġì¶ ĺ
Ġê³µ íĻĶ
Ġê³ł ìľł
ĠìĨĮ ìĪĺ
Ġìľł ë¡ľ
ĠíĨµ ë³´
Ġìĺģ ìłģ
ë²ķ ìĿ´
ĠìĦ± ëł¹
Ġìĭ¤ ìļ©
ì¤ĳ ê³ł
er t
Ġê³Ħ ê¸°ë¡ľ
ĠíĽĦ ìĹĲëĬĶ
Ġë°ĺ ë°ľ
ê°Ĳ ê³¼
an c
Ġë³¸ ìĿ¸ìĿ´
Ġê·¸ëŁ¬ ë©´ìĦľ
Ġs p
Ġë°Ŀ íŀĪ
Ġë¯¸êµŃ ìĿ´
ĠìķĬëĬĶ ëĭ¤ëĬĶ
ĠëĴ¤ ë¥¼
ĠR F
ìĦ¼íĦ° ìĹĲìĦľ
ĠO S
Ġë¯¸ëŀĺ ìĹĲ
ä¸ Ń
ĠìŀĬ ì§Ģ
Ġê°ĸì¶Ķ ê³ł
6 2
6 9
Y EAR
æ ķ
âĢ ¢
Ġê°Ģ ì¡Įëĭ¤
Ġë³´ ìŀħëĭĪëĭ¤
ìĨĮ ê°ľ
ìĺ¤ ìĬ¤
ĠìĽ °
Ġì¹ ¸
ĠíĨµ ì¹ĺ
ìĹŃ ìĹĲ
ìĹĲê²Į ëıĦ
Ġì§Ħ ë¡ľ
Ġ4 7
ìłĲ ê²Ģ
ìĦĿ ìĿĢ
ĠìķĦëĭĪ íķľ
Ġìĸ´ëĸ ¨
Ġë§ŀ ìĿĢ
Ġì°¾ ìĿĢ
Ġì°½ ìŀĳ
Ġ20 20
íıī íĻĶ
Ġa pp
Ġìº ¡
íĹĪ ê°Ģ
Ġë¶Ļ ìĹ¬
Ġï ¿½
Ġê¸°ëĭ¤ ëł¤
qu e
Ġì¢Į ìļ°
ĠìķłíĶĮ ë¦¬ì¼ĢìĿ´ìħĺ
Ġê¸°ìģ ¨
Ġë®¤ì§Ģ ì»¬
' s
b r
¸ Į
ê³ł ìļ©
ìĿ¼ ê³¼
ê°Ģ êµ¬
ê¸° íķľ
ìĬ¤ íĭ±
ĠìĤ¬ ìĹŃìĿĦ
Ġì§Ģ íľĺ
ìĪĺ ìĿµ
ìĻĢ ìĦľ
Ġê²½ ê³Ħ
Ġëĵ± ëĵ±
Ġë¶Ģ íĻľ
ìĺ¤ íĶĪ
êµĲ ìĿĺ
ë°© ë¬¸
ìĭ¬ ìĤ¬
Ġë°ĺ ì§Ģ
íĭ° ìĬ¤íĬ¸
ì¹´ ìĿ´
ìĭľê°Ħ ìĿ´
íİ¸ ìĿĺ
ĠìĨĲ ìĥģ
Ġì§ĢìĹŃ ìĤ¬íļĮ
Ġìłķë³´ ê°Ģ
íĺĳ ìĿĺíļĮ
´ë° ľ
ëģ¼ ë¦¬
Ġëŀ Ń
íķĺìŀĲ ë©´
Ġê°Ŀ ê´Ģ
Ġìĸ´ì© Ķ
ëĭĲ ëĿ¼
çĶ Ł
Ġê·¸ëŁ¼ ìĹĲëıĦ
S P
ìĿ´ ëłĩê²Į
Ġë° ¸
ĠìĪĺ ë¦¬
ĠìĤ¬ íĥĦ
ìĪĺ ìŀħ
Ġë³´ ìŀĲ
ìĨĮ ë°©
Ġìĺ¤ ëĿ¼
ìĦł ìĿĢ
ĠìĬ¤ íĭ°
ĠìĤ ´ëł¤
ĠìĽĲ ìĿĦ
Ġë§¤ ì£¼
ìłĢ íŀĪ
ĠíķľêµŃ ìĿ¸
Ġíĸī ìĤ¬ëĬĶ
Ġì§ĳ ê¶Į
ĠìĤ´ ì§Ŀ
ìĥī ìĿĺ
ìķħ íķľ
íĺĳ ìĿĺ
ê²¨ ì§Ħ
Ġì²ĺìĿĮ ìĹĲëĬĶ
Ġíİĺ ìĿ´
ĠìŀĲìľł ë¡Ńê²Į
âĸ ¶
ê·¸ëŀĺ ìĦľ
ĠëĤĺëĪ Ķ
ìŀ¥ìķł ìĿ¸
Ġë³¸ê²© ìłģìľ¼ë¡ľ
ĠëŁ° ëĭĿ
ëŀŃ íģ¬
ĠìĹ´ëł ¸ëĭ¤
ĠëŁŃ ìħĶë¦¬
9 3
ìĿ´ íĽĦ
ë¡ Ģë¡ľ
íķ´ ì§Ģ
íķ´ ì§Ī
ìĿ¸ ì¹ĺ
ìĬ¤ ëłĪ
Ġ1 20
ë¶Ģ ìĹĲìĦľ
ĠìłĦ ëĤ¨
Ġìĭľ ë²Ķ
Ġê²½ ì£¼
Ġë§Ī ì¹ĺê³ł
ëĦ ĺ
ĠëıĦ ë§¤
Ġê°ķ íķĺê²Į
Ġíı¬ ëŁ¼
Ġê¹Ģ ëıĻ
Ġë°° ìļ´
ĠíķĦ ìŀĲê°Ģ
Ġë¹ Ļ
Ġë¬¼ ìĹĲ
Ġê±´ ë¦½
Ġëªħ íĴĪ
ë¶ģ ëıĦ
Ġ19 90
Ġëĵľ ëĶĶìĸ´
ĠìĨĲ íķ´ë¥¼
Ġíļ ¡
ĠëĤĺíĥĢ ëĤ¬
ĠìĦłíĥĿ íķľ
Ġê±´ê°ķ ìĿĦ
Ġê¸ī ì¦Ŀ
Ġìĥģíĥľ ë¥¼
ë¡Ń ê³ł
ê¸°ê´Ģ ìĿĺ
Ġë¹Ħìļ© ìĿ´
ĠìľĦìĽĲ ìŀ¥
Ġêµ¬ì²´ ìłģìľ¼ë¡ľ
Ġë³´ëĤ ¸
âĹ ĭ
Ġìĸ´ì©Į ë©´
n b
Ġ --
ê² ¹
ìĬ¤ íĶ¼
ìĬ¤ ëĭ·ì»´
Ġëĭ ®
Ġê·¸ ëĤĺë§Ī
ĠëĮĢ íĻĶë¥¼
ìĽĲ ìŀ¥
ëĤĺ ê°Ģ
ëĤĺ ëĿ¼ëĬĶ
Ġíķĺ ìĭľëĬĶ
ì£¼ íĸī
ìļĶ ì¦ĺ
ìĪĺ ìĤ°
ĠìĿ¼ ìłľ
ìķ¼ ë§ĪíĨł
ìĦ¸ ìĿĺ
ĠìĹĨ ìĹĪ
Ġë°ľ ê¸ī
Ġê²° ìłķìĿĦ
Ġë°Ľ ëĬĶëĭ¤
Ġíı¬ ìĬ¤íĮħ
Ġë°ĺ ëĮĢë¡ľ
he ll
Ġì´Ī ëŀĺ
ŀĺ ëıĦ
ì¡Į ëĭ¤ê³ł
ĠíĸĪ ìĿĦ
Ġìļ© ìłĳ
Ġì¶ķ ìĨĮ
Ġê³¼ìłķ ìĿ´
am e
ĠìĽĮ ëĤĻ
Ġìĺ¬ëĿ¼ ê°Ģ
Ġê¸°ëĭ¤ ë¦¬ê³ł
ĠìĪĺìĿµ ìĿĦ
ĠìĺģìĹħ ìĿ´ìĿµ
Ġëļ «
ĠìĿ´ëģĮ ìĸ´
ĠìłĦìĽĲ ê³µê¸ī
íİĺìĿ´ ì§Ģë¥¼
Ġì¹´íħĮê³ł ë¦¬
Ġë©ĶíĥĢ ëį°ìĿ´íĦ°
B M
O C
ìĿ´ ëįĺ
ê¸° ë°ĺ
ìĬ¤ ìĹĲìĦľ
ĠìĪĺ íĹĺ
ĠìĤ¬ ìļ´ëĵľ
ìłķ ìĭł
Ġê°Ģ ê¹Ŀ
íķł ìĪĺ
ĠìĿ¸ ìĤ¬ë¥¼
ĠìĨĮ ë¦¬ê°Ģ
ĠìĿĺ ëıĦ
ĠìĿĺ ì§Ģë¥¼
ìĪ Ń
ë¯¸ ê°Ģ
ë¯¸ ë¥¼
Ġë°ľ ëłĪ
ë²ķ ìĿĢ
ê¹Įì§Ģ ìĿĺ
ĠìĽĲ ëĤ´ëĮĢ
ê¸ī ìĹ¬
Ġê¹Ģ íĺĦ
ĠíĻĺ ìŀĲìĿĺ
ìĺĪ ìĥģ
Ġë°Ŀ ìĿĢ
ĠìŀĦ ìĥģ
ĠíĪ¬ ìŁģ
Ġâĸ ·
ĠíĬ¸ ëŀĺ
íį¼ ëŁ°
ì±Ħ ê¶Į
as ed
ìĤ´ ìĿĦ
ĠìķĬìķĺ ìĬµëĭĪëĭ¤
Ġì¼ ľ
ìĻĶ ëįĺ
ĠíıĲ ê¸°
ëĿ¼ìļ´ ëĵľ
Ġë³´ìľł íķľ
Ġë¶Ģíĥģ ëĵľë¦½ëĭĪëĭ¤
Ġë©° ì¹ł
ĠìĻľëĥĲ íķĺë©´
a z
å ¸
å ¹
ìĤ¬ íķľ
ìĤ¬ ë¦¬
ĠëĮĢ ë¥Ļ
ìķĦ íĮĮíĬ¸
ìĦ± ê³µ
Ġìĭľ ê¸°ìĹĲ
Ġìłķ ì§Ģ
ê± ´ë³µ
Ġì£¼ ìłľ
ĠëķĮ ìĿĺ
ê¸Ī ì§Ģ
ëĭ¨ ê³¼
ĠìĦľ ì´Ī
ëĭ¹ ìĹĲ
ë²ķ ìĿĺ
Ġì§Ħ ì£¼
Ġìŀ¬ íĺĦ
Ġê³Ħ ìĭł
Ġëħ¸ íĽĦ
Ġì¶ľ ìŀħ
ëħ¸ ì¡°
ê²ĥ ìĿĦ
Ġë§ŀ ì§Ģ
ĠP l
Ġê³³ ìĿ´ëĭ¤
Ġíĥľ ê·¸
Ġ200 3
ï¼ ¯
ĠìĤ¬ìĭ¤ ìĿ´ëĭ¤
Ġë°± ìĦ±
ëł¸ ìĬµëĭĪëĭ¤
Ġì¦Ŀê°Ģ íĸĪëĭ¤
Ġë§ī ìĿĦ
Ġì²ł íķĻ
Ġê°Ģê²© ìĿĢ
Ġìĸ´ëł¤ ìļ¸
Ġëª¸ ìĿ´
un g
us s
ê¼ ¼
Ġë§Įëĵł ëĭ¤
ìľ¼ë¡ľìĦľ ìĿĺ
ĠíĬ¹ì§ķ ìĿĦ
Ġìķ¡ ìħĺ
ĠìĪĺìĪł ìĿĦ
åħ ĭ
Ġëħ¸ëŀĺ ë¥¼
ĠíĥĢìĿ´ íĭĢ
Ġì§Ģíķĺ ì²ł
ìĸ´ëĤ¬ ëĭ¤
ĠëĶĶìŀĲ ìĿ´ëĦĪ
ĠíĬ¸ìľĦ íĦ°
ĠML B
7 00
I n
M A
a f
â ĨĴ
íķ ´ë°°
ìĿ´ ë¯Ģë¡ľ
ìĦľ íĶĮëĿ¼ìĿ´
ìĭľ ìĻĢ
Ġìłľ ìłķ
ìĨĮ ìŀ¬
ëĲĺ ê²Į
Ġê´Ģ ìłĲìĹĲìĦľ
ëį° ìĿ¼ë¦¬
ë§Ī ì¼ĢíĮħ
ë°© ìĹĲ
ĠìĦ± ë¦½
ì¤ĳ ìĭ¬
ì°¨ ë¡ľ
Ġì§Ħ ìłķ
ĠìĺĪ ìĸ¸
ĠëįĶ ìļ´
Ġ5 5
Ġëĭ¨ ìĸ´
ĠíĻķ ìĭł
ĠìĹŃ ëŁīìĿĦ
Ġ7 5
ëĤ¨ ë¶ģ
Ġì§ĳ ê³Ħ
ĠëĨĴ ìĿ´ê³ł
Ġìĭ¬ ìŀ¥
Ġâĸ ł
Ġíĥľ íĴį
ĠìĿ´íĽĦ ìĹĲ
ou nd
Ġê°Ī ìĪĺë¡Ŀ
Ġíķĺë£¨ ìĿĺ
ĠíĥĪ íĩ´
ĠëĬ¥ ëł¥ìĿ´
Ġê¸°ë°ĺ ìĿĺ
ìĽł ëįĺ
Ġê²ª ê³ł
ìĸ´ëĤ´ ëĬĶ
PG A
ĠìĤ´íİ´ë³ ´ë©´
Ġãħ ĩ
ran s
ĠìķĪíĥĢ ê¹Į
S S
b o
ª ¬
å Į
ìĿ¼ ìĹĲëĬĶ
íķ´ ì¡Įëĭ¤
Ġì§ Ŀ
ĠìĿ´ ì£¼
ë¬ ´ëĮĢ
ìĸ´ ë¦¬
ìĥģ ìłľ
íĥ Ĳ
ĠâĢ Ļ
ĠìĿ¸ íķĺ
Ġìĺ¤ íĶ¼ìĬ¤
ĠìĹ¬ ê²¨
Ġë§Ī ë¸Ķ
íķ© ìĿĺ
Ġë§Į ìĿ¼
ĠìĻ ł
ìĹŃ ìĿĺ
Ġê²½ìļ° ë¥¼
Ġíķł ì§Ģ
ì´ ¬ìĺģ
ìĦ¤ ìĿĦ
Ġì°¨ ìĿ´ë¥¼
Ġìĸ´ ìļ°
ĠíķĺëĤĺ ìĿ¸
ãĢ Į
Ġê°Ħ ìĹĲ
ìĭľê°Ħ ìĿĦ
Ġëģ Ī
ĠìķĦìĿ´ ë¥¼
Ġì¹ĺ ìķĦ
Ġíĳľ ë©´
ĠìĦľë¹ĦìĬ¤ ëĬĶ
ìĽĢ ê³¼
ĠëĴ¤ ë¡ľ
Ġê·¸ëłĩ ëĭ¤ê³ł
ĠH D
ëĥĲ ëĬĶ
Ġâĳ £
Ġìĥī ê¹Ķ
Ġ... [
Ġë³´ìĹ¬ ì¤Ģëĭ¤
ìī Ĳ
ĠìĹŃìĤ¬ ìĻĢ
ĠíĥĪ ëª¨
Ġë³´ëĤ´ ëĬĶ
ĠìĦłë¬¼ ìĦ¸íĬ¸
ĠìķĪìłķ ìłģìĿ¸
ĠìĿ¸ìĥĿ ìĿĺ
ĠìĿ¸íħĮ ë¦¬ìĸ´
W att
ä ¼
ìĭľ ìĬ¤
ĠìĿ´ ìĦ±
Ġëĵ Ģ
ìĦ± íĺĦ
íĻĶ ìĿ¸
ìĪĺ ìĹħ
Ġì£¼ ìŀ¬
Ġê²½ ê¸°ë¥¼
ì¡° íĬ¸
ĠëĶ ľ
íĥĢ ìĿ´
Ġìĭł ìĦł
ĠìĺĪ ëĬ¥
Ġê²° ìĬ¹
Ġë¶Ī ë¦¬
Ġê¹Ģ ìĿ¼
ĠíĮĮ ê¸°
Ġì¶ľ ìĤ°
ë²Ī ìĹĲ
ëŀĢ íŀĪ
ĠíĻĺ ë¶Ī
ĠìĹħ ì¢ħ
Ġëĵ¤ìĸ´ ìĺ¤
ìĸ´ëĤ ¸
ĠìĭĿ ë¬¼
201 2
Ġìº Ķ
ĠëĴ¤ ì§ĳ
Ġê²°ê³¼ ëĬĶ
ĠêµŃê°Ģ ê°Ģ
Ġêµ¬ìĦ± ëĲĺìĸ´
ĠëĮĢíķĻ ìĽĲ
Ġë¬´ë£Į ìĦ¤ì¹ĺ
ìħĶ ëıĦ
ĠìĹĦ ê²©
ĠìĿ´íķ´ ê°Ģ
ĠëĲĺìĸ´ ìķ¼
Ġê³ĦìĨį íķ´ìĦľ
ìŀ¡ ê³ł
os e
Ġì£½ ìĿĢ
ĠìĻľ ê³¡
ì°¸ ê³ł
Ġì§ģìĽĲ ëĵ¤ìĿĢ
ìĬ¤íĨł ë¦¬
ĠíĮĮìĽĮ ìĦľíĶĮëĿ¼ìĿ´
ĠëŁ° ëįĺ
ìĹĲìĿ´ ì¹ĺ
ìĭľì¼ °
ì¤ĺ ìķ¼
ĠRF ID
ĠìłĦìĽĲê³µê¸ī ìŀ¥ì¹ĺ
ë Į
ì Ń
Ġ _
ķ ìĭľì½Ķ
ê³ ½
ĠìĤ¬ ë²ķ
Ġê°Ģ ëĤľ
Ġì§Ģ ë£¨
êµ¬ ë§¤
ĠìĿ¼ ì¢ħìĿĺ
ì¡° ìĽĲ
Ġìĺ¤ ë©Ķê°Ģ
ìľĦ ê¸°
Ġë¹Ħ ìłĦ
ê±° ë¦¬ëĬĶ
ê²½ ëĤ¨
ìļ´ ìĿ´
ì¦ Ĳ
ìĸĳ ìĿ´
ĠìĬ¤ íĤ¤
ìĹŃ ìĹĲìĦľ
Ġìĭ¤ ë§Ŀ
Ġìŀ¬ íĻľìļ©
Ġë§¤ ëıĦ
Ġê³Ħ ê¸°ê°Ģ
ë°Ķ ëĭ¥
ê°Ĳ ìĹĲ
ĠS U
ĠS h
ĠS p
ì½Ķ ìĿ¸ìĿ´
ĠA ir
ìĥī ìĿ´
ìĥī ìĿĦ
ĠìĨĲ ê°ĢëĿ½
Ġê²Ģ ìĤ¬ë¥¼
Ġëĸ ¡
Ġì§Ħíĸī ëĲľëĭ¤
ëģ Ī
201 3
ï¼ £
Ġíĺĳ ëł¥ìĿĦ
Ġëħ¼ ë¦¬
Ġë¹ł ì§Ħ
Ġìĸ» ê³ł
ĠìĿĢ íĩ´
Ġê¸ī ìĹ¬
ĠìĿ´íķ´ íķĺê³ł
¶Ģ íĦ°
Ġë¬´ìĹĩ ìĿ¸ì§Ģ
ĠìĪĺì¤Ģ ìĿĦ
ot h
ĠìķĬìķĦ ìĦľ
ëĶ° ëľ»íķľ
ip t
ë°ĶìĿ´ ìĺ¤
ĠìłķìĭĿ ê³µê¸ī
ãħ¡ãħ¡ ãħ¡ãħ¡
ĠSM PS
íĮĮìĽĮ ìĦ¼íĦ°
ëįĶëĿ¼ê³ł ìļĶ
7 3
s on
ã Īľ
ì İĦ
ê¸° ë§Į
ĠìĿ´ ì§Ģ
ë³ ´ëĿ¼
ìķĦ ì£¼
Ġì£¼ ìĦ¸ìļĶ
ë¹Ħ ë¡ľ
Ġê³ł ìĺ¨
ìĦł ìĹĲìĦľ
ê°ľ ìĦł
íķ© ë³ĳ
ĠìĦł ëĳĲ
Ġë°Ķ ëĳĳìĿ´
ĠëĤ´ ë¦°
Ġê±° ìłĪ
Ġë¬´ ìĦ¤ì¹ĺ
ê¶Į ëıĦ
Ġíı¬ íĨł
íĮĮ ìĿ¸
íĮĮ ìĿ´ìĸ´
Ġë¬¼ ê±´ìĿĦ
íĤ¤ ìĬ¤íĥĦ
Ġíĸī ëıĻìĿĦ
Ġë¡ ł
ĠìłĲ ìĭ¬
Ġìĭ¬ íķľ
ĠìĹĲ ìĬ¤
íĶĮ ëŁ¬
ĠìĤ¬íļĮ ìĹĲ
ĠìĦ¸ê³Ħ ìłģìľ¼ë¡ľ
Ġë³µ êµ¬
ĠìĭĿ ë³Ħ
Ġë¡ľ ë§¨
ĠìĪľ ìľĦ
Ġê¶Į ê³ł
Ġìº ĺë¦¬íı¬ëĭĪìķĦ
ë¡Ģ ë¥¼
ë©Ķ ìĿ´
ìĤ¬íļĮ ë³µì§Ģ
Ġìĸ´ëł¤ ìĽĮ
Ġìĺ¬íķ´ ëĬĶ
Ġê¸°ì¤Ģ ìĿĦ
Ġë©´ ìłĳ
ĠíĬ¹ë³Ħ íŀĪ
Ġì¶Ķì§Ħ íķĺê³ł
ìłķë¶Ģ ê°Ģ
ëĶ° ëĿ¼
ĠìĿ¸ìĥĿ ìĿĦ
ë²¤ ì²ĺ
Ġì¼ĢìĿ´ ë¸Ķ
ĠìĦ±ëĬ¥ ìĿĦ
Ġë°ĸ ìľ¼ë¡ľ
ĠìķĦìĭľ ìķĪ
íĨ¨ ë¦Ń
Ġëķ¡ íģĲ
H D
c on
ëĭ¤ ë§Į
ì§Ģ ìķĬ
ë° ı
Ġëĭ ¦
Ġê°Ģ ìĭľ
Ġìĭľ ìĥģ
íĻĶ ìłĲ
Ġëĭ¤ ìĪĺìĿĺ
íļĮ ìĤ¬ìĿĺ
ìļ° ìĪĺ
ë¹Ħ ìĻĢ
ĠìĿ¼ íĻĺ
ĠìĥĿ ê¸°ëĬĶ
ĠìĹ° ê·¹
ìķĺ ìĿĦ
ê±´ ìĿ´
ë§¤ ìļ°
ĠíķĦ ìŀĲìĿĺ
Ġì§ģ ë¬´
ĠC J
Ġë³¸ ì§Ī
ë°° ë¥¼
ãħ ľ
ĠìĤ´ ìĿ¸
Ġê°ľìĿ¸ ìłģìľ¼ë¡ľ
Ġíģ¬ ëŀĻ
ì´Ī ëĵ±íķĻêµĲ
Ġë³µ ê·Ģ
ĠL ED
Ġì±Ħ ê¶Į
ĠíĺĦìŀ¬ ëĬĶ
ĠíĶĦë¡ľê·¸ëŀ¨ ìĿ´
Ġê´Ģë¦¬ ìŀĲ
Ġë³´ìĹ¬ ì£¼ê³ł
Ġíļ¨ê³¼ ìłģìľ¼ë¡ľ
ĠìºĲ ìĭľ
Ġë°©ìĨ¡ ìĿĦ
od e
ĠíĥĦ íķµ
ĠíĦ° íĤ¤
Ġëħ¸ëł¥ íķĺê³ł
ĠíĹ¤ ëĵľ
ê³¼íķĻ ê¸°ìĪł
** **
ĠêµŃë¬´ ìľĦìĽĲ
ëĴ ¤
å± ±
ì· Ħ
O U
P U
n ing
Ġ Ġ
Ľ ¸
ìĤ¬ ìĿ´ë²Ħ
ìŀ¥ ê´Ģ
ëĤĺ ê³ł
Ġíķ ´ë°©
Ġê²ĥ ëĵ¤ìĿĦ
Ġë³´ ìĿ¸
Ġì£¼ ìĸ´ì§Ħ
ìĨĮ ìĨ¡
Ġì¤ĳ ìĿĺ
ê³µ ê³µ
Ġê°ľ íİ¸
Ġê³ł ìĥĿ
Ġìľł ëıĻ
ĠìĿĺ ìĽĲìĿ´
Ġë§Ī ì¹ľ
ĠìĹ° ìķł
Ġë§Ĳ ê¹Įì§Ģ
ì¤ĳ ìĿ´
Ġê±° ë¡ł
Ġê±° ë¦¬ìĹĲ
Ġ4 3
er y
ìĺĢ ëĬĶëį°
ì²Ń ìĿ´
Ġíı¬ íĬ¸
Ġíı¬ ê´Ħ
ĠS W
ĠìĥĿê°ģ ë³´ëĭ¤
Ġë³Ģ ìĭł
Ġíĺ¸ ìĨĮ
êµ° ìĹĲ
Ġíķ¨ê»ĺ íķĺëĬĶ
Ġë©Ķ ìĿ¼
Ġì§ĢìĹŃ ìĿĦ
Ġë³µ ìĿĮ
ìµľ ê³ł
ĠìĿ´ë²Ī ìĹĲëĬĶ
ìĹĶ ì§Ħ
ĠD B
ĠíĹĪ ëĿ½
ĠìĤ¬ê±´ ìĿ´
Ġê²½ìŁģ ëł¥
Ġê³µìĹ° ìĿĦ
Ġìı ĺ
ĠëĬĲëģ¼ ê²Į
ìģĺ ê²Į
Ġëĭ¤ìĿ´ ìķĦëª¬
Ġì²Ļ ì¶Ķ
Ġì§ĢëĭĪ ê³ł
) âĢĿ
i el
n a
y l
´ ëĭ¤
Ġ at
ìĿ¸ ê°Ħ
ë° Į
Ġìľ ¨
ë§Į ëªħ
Ġíķľ ë°ĺ
êµŃ ë¦½
Ġë³´ ìķĺëĭ¤
ìļ° ì£¼
Ġê³µ ë¶Ģë¥¼
ê²½ ë¶ģ
ĠìĹ¬ ìĦ±ìĿ´
ĠìĥĿ ìĥĿ
ìĹ° ìĿ´
ìĹ° ìĪĺ
ìĹ° ê¸Ī
ë¯¼ ìĿ´
ĠëĲĺ ëıĦë¡Ŀ
íĨł ë¦¬
ĠìĦ¤ ëĵĿ
Ġì°¨ ê°Ģ
ìľ¡ ìĦ±
ë¹ ħ
ĠíĿ Ļ
en er
ëª© ìĿ´
ĠíķĦìļĶ íķ©ëĭĪëĭ¤
Ġìĭľìŀĳ íķľëĭ¤
ĠìĿĮ ì£¼
Ġì°½ ë¦½
Ġë°Ŀíĺ Ķ
ĠíĨł ëłĮíĬ¸
Ġê¶Į ëł¥
ĠíĶĮ ëĿ¼
ĠìłĪ ê°Ĳ
ë¸Ķ ëŀĻ
ëĥĲ ê³ł
Ġê¸°ìĸµ ìĿ´
Ġê³¼ê±° ìĿĺ
ìĩ ł
Ġìķ± ìĿĦ
Ġê·¸ë¦¬ìĬ¤ ëıĦìĿĺ
Ġë¦¬ëįĶ ìĭŃ
ĠìĻĦìłĦ íķľ
Ġì²¨ ë¶Ģ
Ġë©Ī ì¶Ķ
ìĩ¼íķĳ ëª°
Ġìĸ´ìļ° ëŁ¬
. âĢĻ
è Ģ
Ġë° Ł
Ġê²ĥ ë³´ëĭ¤
ìĥģ ê³µ
ĠìķĦ ìļ°
Ġìĭľ ì¼ľ
Ġìĭľ ìĦłìĿĦ
ĠìĿ¸ ìļ©
ĠìĿ¼ íķĺëĬĶ
ìķ¼ ë§Ī
ì¡° ì¹ĺ
Ġê°ľ ì²´
ĠìĨĮ ì¤ĳ
ĠìĨĮ íĺķ
ìĭ¤ íŀĪ
ì¦ ī
íĨµ ê³Ħ
ĠìĦ± ëıĦ
in k
ìķĺ ìĸ´ìļĶ
ĠìĤ¬ìļ© íķĺì§Ģ
Ġì°¨ ë¡ľ
ëĶĶ ë¸Į
íĥľ ë¥¼
ĠíĶ¼ ìī¬
ë°° íĮħ
Ġê°ĢëĬ¥ íķĺë©°
ìĸ¸ ë¡ł
Ġìłķë³´ ëĬĶ
ĠíķŃ ìĨĮ
Ġê°ĸ ê²Į
as h
Ġê¸°ëĮĢ ëĲľëĭ¤
ìº Ķ
Ġì¹ľêµ¬ ê°Ģ
Ġì§Ģë°© ìŀĲì¹ĺ
ìĦľë¹ĦìĬ¤ ë¥¼
Ġìļ°ë¦¬ëĤĺëĿ¼ ìĿĺ
Ġìĸ¼êµ´ ìĿĦ
Ġíķľê¸Ģ íĮĲ
Ġê¹¨ëģĹ íķĺê³ł
ĠíĹ¬ ìĬ¤
Ġë§ĪìĿ´íģ¬ë¡ľ ìĨĮíĶĦíĬ¸
9 1
A P
ì ¨
Ġë º
ì§Ģ ë¶Ģ
Ġíķľ ê³Ħê°Ģ
Ġìłľ íľ´
ĠìĿ¸ íĦ´
ĠìľĦ ìĿĺ
Ġê³µ ìĿ¸
Ġê³ł ìłĦ
êµĲ ë¥ĺ
ìĥĿ ìĿĺ
ĠìĿĺ ë¥ĺ
ìĹ° ìĿĺ
Ġë°© íķ´
íĨµ ìĿĦ
Ġìĺģ êµ¬
ĠëıĦ ëª¨
ĠìĦ± ì·¨
ë¥´ íĥĢ
ĠíĺĦ ìĥģìĿ´
Ġë§¤ ìŀ¥
Ġìĸ´ ë¥´
ê·¼ ë¡ľ
ĠíĶ¼ ë§Ŀ
Ġë³Ģ íĺķ
Ġì¢ħ ìĤ¬
Ġê¸Ī ê°ķ
Ġëĵ¤ìĸ´ ê°ĢëĬĶ
Ġë¡ľ ë§Ī
Ġê±¸ ëł¤
ĠìĥģíĻ© ìĿ´ëĭ¤
ĠìĤ¬ëŀĳ ìĿĺ
Ġê¸°ë¡Ŀ íķľ
Ġë¬¸íĻĶ ìŀ¬
ëıĮ ìĿ´
ì§ĢìĹŃ ìĿĺ
ĠìķĦë¬´ ê²ĥëıĦ
Ġë§¡ ìĿĢ
Ġíĭ° ì¼ĵ
ĠëĩĮ ë¬¼
Ġì°¨ì§Ģ íķĺëĬĶ
Ġìı ł
ĠìĬ¤íĬ¸ ëłĪìĬ¤
Ġë´Ĳ ìķ¼
íķ´ë³ ¼
>< /
ĠIS O
ĠíĶĦë¡ľê·¸ëŀĺ ë°į
S hell
p en
è ¿
ì ĮĢ
Ġ ed
Ġ em
íķĺ ëĬĺ
´ë Ĥ
ëĿ¼ ìĿĺ
íĺ Ķëĭ¤
Ġë¶ ĵ
Ġê°Ģ ì§ĢëĬĶ
ìłĦ êµŃ
íļĮ ë¡ľ
ìĹ¬ ëŁ¬
ĠìĿ¼ ê´Ģ
ĠìĿ¼ ìłķíķľ
Ġê³ł ìĦ±
ë¶Ħ ìĿĢ
ĠìĹ¬ ë¶Ģ
Ġë§Ĳ ëıĦ
ĠìĦ¸ ë¬´
ĠìĦ¸ ëł¨
âĢĿ (
ĠëĤ´ ë¦¬
Ġ5 000
ĠíļĮ ê³Ħ
Ġë¶Ī ë§Į
Ġê³Ħ ìĭľ
Ġíķł ìķĦë²Ħ
Ġê¹Ģ ê²½
ìĦ¤ ê³Ħ
Ġëĭ¨ ê¸°
ĠìĤ¬ìļ© ìŀĲìĿĺ
Ġì´Ī ëĵ±
ĠìĨį ëıĦë¥¼
Ġs chool
Ġìĭľê°Ħ ê³¼
ĠìŀĦ ëªħ
ĠíĬ¸ ëłĪ
ĠëĤ´ìļ© ê³¼
ĠíĹĪ ëĭĪ
ë©Ķ ë¦¬ì¹´
ĠìĺģíĻĶ ìĿĺ
ol l
Ġë§Ľ ì§ĳ
ĠìĤ¬íķŃ ìĿĢ
Ġê¸´ ê¸ī
Ġì°¸ìĦĿ íķ´
ĠìĦ¬ ìľł
Ġon e
ĠìķĦë¬´ë ŀĺëıĦ
Ġpack age
ĠëŁ°ëĭĿ ë§¨
T O
ê° ¤
Ġìŀ İ
ìĬ ĺ
ìĺ ·
ìłľ ìĿ¼
Ġìĭľ ê¸ī
Ġìĭľ ëĭ¬
ìłĦ ì§Ģ
ë¬¸ ìłĲ
ìļ° ë¦¬ê°Ģ
Ġëª¨ ìŀĲ
ëĲĺ ê¸°ëıĦ
Ġë² ¼
ìĦ¸ ë¡ľ
ĠíĮ ©
Ġìľł ìļ©
Ġìĭł ìĦłíķľ
ĠëıĻ ìĭľ
ĠìĬ¤ ì¼Ģ
íĴĪ ìĿ´
ëłĪ ë¸Ĳ
ìĨį ìĹĲìĦľ
Ġëħ¸ ëł¥ìĿ´
Ġëħ¸ ë¦¬íĦ°
íĺĦ ìĭ¤
Ġt er
ĠíĻķ ë¥ł
ar r
Ġë¦¬ ë·°
ĠìĦľë¹ĦìĬ¤ ìĹĲ
Ġë²Ī íĺ¸
ĠíĻķìĿ¸ íķĺê³ł
Ġëª¨ìĬµ ìĿĢ
Ġê°Ģê²© ìĿĦ
Ġê°Ģì¡± ìĿ´
Ġì¢ĭìķĦ ìļĶ
Ġë§ĲìĶ ĢìĿ´
Ġìĭłì²Ń ìĿĦ
ì¤ ¬ëĭ¤
ì§ĢëĤľ íķ´
Ġë¶Ģëĭ´ ìĿĦ
Ġê¶ģ ê·¹
Ġì°¨ì§Ģ íĸĪëĭ¤
ĠìµľìĨĮ íķľìĿĺ
Ġde v
Ġì¡°ê±´ ìĿĦ
Ġê³¨ëĵľ ì½ĶìĿ¸
Ġì²Ńìķ½ ì²ł
Ġíķ©ë¦¬ ìłģìĿ¸
Ġíķľë§Ī ëĶĶ
ĠìĦ¸ìĿ´ë¸Į íĮĮìĿ¼
g l
Ã ³
ĥ Ī
ê³ ±
íķľ ëį°
Ġê² ī
ëĤ ©ëĭĪëĭ¤
ìĿ¸ ìĤ¬
ìľ¼ ìĭł
ìĬ¤ íħĶ
ĠìŀĪ ê±°ëĤĺ
Ġê·¸ ëĵ¤ìĿĦ
ë¶Ģ ëĭ´
Ġì§Ģ ë¦¬
ĠìłĦ íĮĮ
Ġìĭľ ìĪł
Ġëĭ¤ ì§Ĳ
ìĽĶ íķľ
Ġê²½ ë¡ľ
ê¹ ĥ
Ġìĥģ ìĭ¤
Ġê³ł ê¸°
Ġë¹Ħ ë°Ķ
Ġë§Ī ìĭľ
ìľł ê³µ
ë°© íĸ¥
ĠíĬ ľ
Ġë§İ ì§Ģ
ĠíĺĦ ìŀ¥ìĹĲ
ìķĺ ëĭ¤ê³ł
Ġíı¬ ì»¤
ĠíķĺëĤĺ ë¥¼
ĠìĥĿê°ģ ìĹĲ
Ġíĺ¸ íĶĦ
ëŀĢ ëĵľ
Ġë¦¬ ìĦľì¹ĺ
ĠëĨĴ ìĿ´ëĬĶ
ë°ķ ë¬¼ê´Ģ
Ġì½Ķ ìĸ´
ĠíĥĢ ìŀħ
Ġíĥľ ìĸ´ëĤľ
Ġd es
Ġ0 9
Ġw eb
Ġë¨¸ ë¦¬ë¥¼
´ë° ĺ
Ġì¤Ģë¹Ħ íķĺê³ł
Ġëª° ëł¤
íķ´ë Ĳ
íģ´ ë¦¬
ĠìľĦíĹĺ ìĿ´
Ġth is
ĠëģĮ ê³ł
Ġê³§ ë°Ķë¡ľ
Ġì¹¼ ëŁ¼
ĠìĪł ìĿĦ
iz e
ĠìĬ¤íİĺ ìĿ´ìĬ¤
rom e
ĠìĿ´ë¥´ê¸° ê¹Įì§Ģ
M S
ë¡ľ ìį¨
ë§ ĺ
ë³ ĢìĿ´
Ġìĺ ¹
ĠìĤ¬ ëª¨
ĠëĮĢ ìĻ¸
ëį ¥
Ġì§Ģ ìĿĮ
Ġëĭ¤ ë¥¼
ìķ¼ êµ¬
ëŁ¬ ëĭĿ
Ġìĥģ ìŀ¥
Ġìĺ¤ ë¸Į
ìľĦ ìĻĢ
ĠìĦľ êµ¬
ëĭ¹ ìĹĲìĦľ
ĠêµŃ ê²½
ĠìĦ¸ ìĥģìĿĺ
ĠìķĪ ëħķ
ë°© ìĿ´
ĠêµĲ ìłķ
ĠëįĶ íķ´
ëĶ ±
Ġ5 7
ĠíļĮ ìŀ¥ìĿĺ
ì§ģ ìĹħ
ĠìĦ¤ ë¬¸
Ġëĵ¤ ë©´
ì§Ī ëŀľëĵľ
Ġì°¨ ìĦ¸ëĮĢ
ĠíķĺëĤĺ íķĺëĤĺ
at h
íĶ¼ ë¶Ģ
ëª© ìľ¼ë¡ľ
ì¦Ī ëĬĶ
ì¦Ī ë¥¼
Ġë²ķ ì¹Ļ
ĠìĿĮ ë£Į
ĠìĿĮ ë°ĺ
ic s
íıī ìĿĦ
ĠëĨį íĺĳ
ë¨¸ ìĭł
ĠíķĻìĥĿ ëĵ¤ìĿĢ
Ġìĸ» ìĸ´
ĠëĮĢíķĻ ìĿĺ
Ġìŀł ìĿĦ
ĠìĿ´ë£¨ìĸ´ ì§Ħ
Ġì£¼ë³Ģ ìĿĺ
ĠëĤĺëĿ¼ ìĿĺ
ë¥´ë ª¬
íķ´ë³´ íĹĺ
Ġëĵ£ ëĬĶ
Ġê³¼íķĻ ê¸°ìĪł
ĠìĿ´ë£¨ ëĬĶ
ê±´ê°ķ ë³´íĹĺ
Ġë®¤ ì§ģ
ìĺµ ëĭĪëĭ¤
Ġêº ¾
) ;
. âĸ²
8 3
E A
c k
¥ ¬
Ġ ãħłãħł
ìĿ´ ëĵł
íķĺ ëĿ¼ê³ł
ê³ł íķľ
Ġìķ ĵ
âĢ Ķ
ĠëĮĢ ìĹ¬
Ġê°Ģ ë²¼
ë©´ ìłģ
Ġìĥģ ë°ĺê¸°
Ġìľł ìłĦ
ë§Ī ê°Ģ
ĠìĿĺ ì§Ģ
ê¸Ī ê³¼
ìĹ° íķľ
Ġìĭł ìĦ¤
ĠëĲĺ ë©°
ìŀĳ ìĿĢ
íĳľ ê°Ģ
ëłĪ ìĿ´íĬ¸
ĠìĤ¬ëŀĮ ëĵ¤ê³¼
ìĨį ìĿĦ
ĠìłĢ ìĿĺ
ĠìķĮ ê¸°
Ġìŀ¬ ë°Į
Ġë§¤ ì²´
Ġíı¬ ìĬ¤íĬ¸
Ġê³Ħ ì¸µ
Ġ6 4
Ġâ ĨĴ
Ġë¬¼ ëŁ¬
ĠíĮĮ ëŀĳ
ĠìĥĿê°ģ íķł
Ġëĭ¬ ìķĦ
ĠìĿ´ëŁ ¬
ĠìĨį ìĹĲìĦľëıĦ
Ġc an
ĠíĨ ¤
ìĪľ ìĭ¤
ĠìĤ°ìĹħ ìĿĺ
ĠëŃ ĺ
Ġê³µê°ľ íĸĪëĭ¤
ĠìĽĮ íĦ°
Ġê·ľëª¨ ê°Ģ
Ġìłķìĭł ìĿĦ
ĠìľĦìĽĲ ìŀ¥ìĿ´
Ġï ½
Ġê²© ëł¤
Ġìĭłë¢° ë¥¼
ĠëĤ© ë¶Ģ
ë§Įìľ¼ë¡ľ ëıĦ
ĠìĬ¤íĨł ë¦¬
ĠëĵľëĿ¼ìĿ´ ë¸Į
Ġë¬´ëį ¤
ë¹Ħë¹Ħ ì¶Ķ
g o
ì ı
ìĬ Ĳ
ê¸° ìĤ¬
ìłķ ê·ľ
ëĤĺ ìĿ´
íĥ ±
ë² ³
ìĦ¸ ëĬĶ
ĠìĦľ ëªħ
Ġíķ´ ìłľ
Ġë¯¸ ë§Į
ìĸĳ ìĿĺ
Ġìĺģ ìĽħ
íĤ ´
ëª¨ ì§ĳ
íĨł ë¡ł
ĠìĤ¬ìļ© ìĿĦ
ë§¤ ìĿ¼
Ġë°° ìļ¸
Ġëĭ¹ ìĿ¼
íĭ° ìĬ¤
íķ¨ ìľ¼ë¡ľ
ëįĶ ë¦¬ìĽĢ
ìĻ¸ ê³¼
Ġìłľê³µ íķĺê¸°
Ġì½Ķ ì½ĶíĮĢ
ic ro
ĠìĦľìļ¸ ëĮĢ
ìķ¡ ìĿĺ
Ġì»¤ ì§Ģê³ł
ë¨¸ ìĬ¤
ĠëĬĺ ê³ł
Ġêµ° ì£¼
ĠN ext
ëĨį ëĭ¨
ĠìĿ´ë¦Ħ ìĿĢ
Ġê¸°ëĮĢ ë¥¼
Ġëª° ëĶĶë¸Į
ë¨¼ ìłĢ
Ġëĥ Īëĭ¤
ĠíĴĢ ìĸ´
ct ion
Ġì¿ł íı°
ĠìĿ¼ìĸ´ëĤĺ ì§Ģ
Ġê¼¬ ê¼¬
ĠëĳĺëŁ¬ ìĭ¼
Ġë²łìĿ´ ì§ķ
ĠìĺĽ ëĤł
IG ER
Ġê¹ľ ì§Ŀ
echn olog
¶ Ī
é Ŀ
ìĿ´ ìĹĪìĬµëĭĪëĭ¤
ëĬ ¦
ìŀ ĩ
íķĺ ëįĶëĿ¼ëıĦ
ìĿĺ ëıĦ
ê°Ģ ìĻĢ
ìŀĲ ê³ł
ìŀĲ ë¡ľìĦľ
ĠìłĦ íĽĦ
ëĵľ ëĭĪ
Ġì£¼ ë¥ĺ
ĠìľĦ ì¹ĺë¥¼
ê³Ħ ìĤ°
Ġì¤ĳ ìĹĲìĦľëıĦ
Ġíı ¼
Ġë¶Ģ ëģĦ
Ġê³ł ê°ľë¥¼
ìľĦ ì¹ĺ
ìļ´ ìłĦ
ĠìĹĨ ìķł
Ġë§Ī ëĿ¼
Ġë§Ī ìĬ¤íģ¬
ĠìĥĿ ëªħìĿĺ
ĠìĹ° ë´ī
ĠíĨµ ìĥģ
Ġíķ´ ìĥģ
ëĦ ĵ
ĠëıĻ ë¶ģ
ìĸĳ ìĿĦ
íĴĪ ì§Ī
ì¤ĳ ìĿĺ
íģ¬ ë¡ľ
Ġê°ķ ìĿĺë¥¼
ë°ľ ìĿĦ
Ġë¬´ ìĸ¸
Ġíıī íĥĿ
ĠìļĶ ìĨĮë¥¼
ì½Ķ ëĵľ
at ch
ìĺĪ ìĤ°
ĠM C
ĠI CT
Ġë¶ģ ë¶Ģ
Ġì§Ħíĸī íķł
ëĬĲ ëĭĪëĿ¼
ĠíĬ¸ ëŀľ
Ġíħ Ķ
ĠëĦĺ ê²Į
ĠíĶĮ ëĿ¼ìĿ´
Ġíľ ł
ĠíĶĦë¡ľê·¸ëŀ¨ ìĹĲ
ĠíĶĦë¡ľê·¸ëŀ¨ ìĿĢ
Ġm eth
ol d
Ġì¦Ŀê°Ģ íķľ
Ġì²ł ëıĦ
ĠìĿĳ ê¸ī
Ġíļ¨ê³¼ ìłģìĿ¸
Ġì§Ģë°© ìĦłê±°
ĠìłĦìŀĲ ìĥģê±°ëŀĺ
ëĲĲ ê³ł
ĠìĨĶ ì§ģ
ĠìłĦëŀµ ìĿĦ
ĠëĦ£ ê³ł
ĠìĤ¬ë¡Ģ ë¥¼
ãģ ¥
ëĦ¤íĬ¸ìĽĮíģ¬ íĨłíģ°
ĠìĪĺìĪĺ ë£Į
Ġë¯¸ìĦ¸ë¨¼ ì§Ģ
Ġê¼¼ ê¼¼
Ġìĸ´ëĳĲ ìļ´
7 2
v id
Ġë ŀĺ
ìĿĺ ê°Ģ
ë¡ľ ì§Ģ
ìĿ¼ ëŀľëĵľ
ìĥ ·
ĠìŀĪ ê²łì§Ģë§Į
ê²Į ëıĦ
Ġê¸° ì¶ľ
Ġì§Ģ ìĭľ
ĠìķĦ ëģ¼
ë³´ ê°Ģ
Ġìłķ ìĽĲ
ëħĦ ì§¸
ĠëĤĺ ê°ĢëĬĶ
Ġëª¨ ë¥´ê³ł
Ġê³µ ìĿĦ
ìĺģ ìĿĺ
ë¯¸ ëĬĶ
ë¯¸ ìĦ¸
Ġê°ķ ìĹ°
ĠìķĮ ë¦¬
Ġë§¤ ìĪĺ
ëł¨ ìĿĺ
Ġë°° ìłķ
ĠìĹŃ ìĤ¬ê°Ģ
or ld
ëĭ¬ ëĿ¼ê³ł
Ġë³Ģ ëıĻ
Ġëª» íĸĪëįĺ
Ġì´Ī ìłĲìĿĦ
ĠìĨĲ íķ´ë°°
ĠëĪĪ ìľ¼ë¡ľ
íĮħ ìĿĦ
ĠK ore
ĠëĦ¤ ìŀĦ
Ġëĭ¤ìĿĮ ìĹĲ
Ġê°ĸ ì¶°
ĠíħĮ íģ¬
ĠìķĪìłĦ íķĺê²Į
Ġì²ł íļĮ
ĠìłĦì²´ ë¥¼
Ġê·¹ ìŀ¥
un d
íķ´ë Ĥĺ
ĠìĬ¬ ëĿ¼ìĿ´
Ġëķħ ìĿĦ
ĠìłĦíĻĶ ë²Īíĺ¸
ëłī ìħĺ
Ġë§¥ ëĿ½
ĠìĮĵ ìķĦ
ìĭľíĤ¨ ëĭ¤
ĠìķłëĭĪ íĮ¡
åľ °
Ġì¹ľìłĪ íķĺê³ł
cr ipt
ëĭ¤ ë³´ëĭĪ
ê¸° ë¶Ģ
ĠëĤ «
Ġê·¸ ê±´
ìŀ¥ ìĿ¸
Ġê°Ģ ëıĻ
Ġê²ĥ ìĿ¸
ì£¼ ìĸ¼
ëĵľ ë¦¬ê³ł
ìĭł ìļ©
ì§Ħ ê³¼
ì¡° ìĤ¬ë¥¼
ì²´ ìĿ¸íĬ¸
ìĭ¤ ìĬµ
ìľł ë¡ľ
Ġìĭł ë¶Ħ
Ġêµ¬ ë¡ľ
Ġíķ´ ì£¼ëĬĶ
Ġë°© ìĤ¬
ĠëıĻ ë¶Ģ
ĠëıĦ ëĦĲëĵľ
ĠìĦ± ìĪĻ
Ġì§Ħ ëıĻ
ĠìĺĪ ìģľ
Ġ5 8
íı¬ ë¨¼
ĠìķĮ ì§Ģ
ë¶ĢíĦ° ëĬĶ
Ġíķł ë°°
ëĵ± ìĿ´
ĠíĻĶ ê°Ģ
Ġë¯¸êµŃ ìĹĲìĦľ
ĠìĤ¬íļĮ ë¥¼
ëĬĲ ëĿ¼
Ġë¯¼ ìĽĲ
ìĪľ íĻĺ
ĠíĮ¨ ëŁ¬
ĠìłĦì²´ ìłģìľ¼ë¡ľ
Ġë°©ë¬¸ íķľ
.âĢĿ âĢľ
ĠìĤ´ìķĦ ëĤ¨
ìłķë¶Ģ ìĿĺ
Ġë°°ìļ° ê³ł
ĠíĽĦë³´ ëĬĶ
ĠëĤĺëĿ¼ ë¥¼
Ġìķķ ëıĦ
ĠíĹ¤ ìĸ´
Ġìŀ¬ë¯¸ ìŀĪëĬĶ
ĠëĬĲëģ¼ ê³ł
íħį ìĬ¤
Ġas s
Ġë¿Į ë¦¬
Ġë°Ķê¿ Ģ
Ġëıķ ëĬĶ
Ġìĭ« ìĸ´
Ġï¿½ ?
ì½ĶìĿ¸ìĿ´ ëįĶë¦¬ìĽĢ
K B
d uct
m art
© ¬
å ¾
í ī
Ġ !
ê° ĸ
ê°Ģ ìĿĦ
Ġê³ ±
Ġê²ĥ ë§Į
Ġíķľ ê°Ģ
Ġíķľ ì¸µ
íĻĶ ìŀ¬
Ġëĭ¤ íģĲ
ĠíĻ Ģë¡ľ
ĠìŀĲ ëĿ¼
ĠìĿ¼ ëıĦ
Ġë¹Ħ ìŀĲ
ì²´ ìłľ
ìĭ¤ íĹĺ
Ġì¡° ì§Ģ
Ġë°Ķ ëĭĪ
Ġë°Ķ ëĭĲëĿ¼
Ġêµ¬ ë©į
íĹ ¥
ĠìĦ¸ ìļ´
ë²ķ ëł¹
ĠêµĲ íļĮìĿĺ
Ġ4 6
ĠíĺĦ ìŀ¥ìĿĦ
íı¬ ë¥¼
Ġë§¤ íĬ¸
Ġë§¤ ê°ľ
Ġëħ¸ ë¬´íĺĦ
Ġíķ© ë¥ĺ
ĠíĻĶ ìĿ¸
Ġê°Ħ ëĭ¤
Ġ19 80
Ġë¬¸ìłľ ìĿĺ
ìĺĪ ë°©
ĠíĮĲ ì§Ģ
Ġê¸Ī ìĨį
Ġìķŀ ìŀ¥
ĠT IGER
ì¡Į ëįĺ
ëłĪìĿ´ ìĬ¤
ĠëĮĢíĳľ ê°Ģ
ĠíĬ¸ ëŀĻ
ï¼ ĳ
Ġê¶Į ìŀ¥
Ġìļ© ìĿ¸
ê¸Ģ ë¦¬
ĠìŀĪìĿĦ ì§Ģ
ĠìĿ¸íĦ° íİĺìĿ´ìĬ¤
Ġë¨¸ ìĭł
ĠìĤ°ìĹħ íĺģëªħ
Ġëª° ìķĦ
Ġë©´ ìĹŃ
Ġê¸°ê°Ħ ìĹĲ
Ġë³ĢíĻĶ ìĹĲ
ĠìķĬìķĺ ì§Ģë§Į
ĠìķĬìķĺ ëįĺ
Ġë¯¸ëŀĺ ìĿĺ
Ġë¯¿ ìĿĮ
ìłķë¶Ģ ëĬĶ
ĠìĪĻ ìĨĮ
ê¸°ê°Ħ ìĿ´
ĠíķĺìĹ¬ ìķ¼
ĠëĬ¦ ê²Į
ĠëĮĢì²´ ë¡ľ
TA G
Ġìľłê¸° ëĨį
Ġì³ Ĳ
ĠCC TV
ĉ ĉ
ŀ Į
ê³ł ìļĶ
ê°Ģ ìŀ¥
ĠìĹ ½
ĠìĿ´ ìĬ¬
ìĥ ĺ
ê³¼ ìłķìĿĦ
ĠìĪĺ ë£Į
Ġìľ Į
Ġíķĺ ë°ĺê¸°
Ġê°Ģ ê¸°
Ġê°Ģ ì£½
ìķĦ ëĬĶ
Ġíķľ ì°¸
Ġìĭľ ëĤĺ
Ġë³´ ìĦ¸ìļĶ
Ġì£¼ ê°Ģ
ìļ° ê¸°
Ġê³µ ìĽĲ
Ġ3 37
Ġìļ° íİ¸
Ġê¸ ĢìĿ´
ĠëıĻ ìĺģ
ë²ķ ìľ¼ë¡ľ
ì°¨ ìĹĲ
íĶĦ ëĬĶ
íı¬ ìŀ¥
ĠìĤ¬ìļ© íķĺë©´
ĠìķĦìĿ´ ëĶĶ
ĠìŀĲìĭł ëĵ¤ìĿĺ
Ġíģ¬ ë¡ľ
Ġë¬´ë łµ
25 0
Ġìłĳ ëª©
ĠìłĪ ìķ½
Ġd is
ë¸Ķ ë¦¿
ë©Ķ ìĿ¸
Ġê·¸ëłĩ ì§Ģë§Į
ĠìĿ´íķ´ ë¥¼
ĠìĶ »
ĠìµľëĮĢ ìĿĺ
ĠìĿĮìĭĿ ìĿĢ
Ġíľ´ ê°Ģ
ìĭ± íĦ´
ĠëĤĺëĪĦ ìĸ´
ĠìĪĺìļĶ ê°Ģ
ëĸ ¡
ë´Ĳ ìķ¼
ëıĦìĦľ ê´Ģ
ħìĬ¤ íħĲ
ĠìĦľìĦľ íŀĪ
P rev
T X
t e
ìĿ´ ë¯¸
ê°Ģ ëŁī
Ġê² ¹
ĠìĿ´ ìĪĺ
íķł ì§Ģ
ĠìĿ¸ ìĥģìĿĦ
Ġëĵ± ìĤ°
Ġì² ´ëł¥
ĠëĤĺ ìĿ´ê°Ģ
ê³µ ìłķ
ë£ °
ĠìĿĺ ìĤ¬ë¥¼
ĠìĥĿ ê²¼
ìķĪ ë³´
ë¯¸ ëĭĪ
Ġêµ¬ ë³Ħ
íĶĦ ê°Ģ
Ġ5 9
Ġë§¤ ëł¥ìĿĦ
Ġíı¬ íĦ¸
ĠìĿ´ìļ© ìŀĲëĬĶ
ìĻ¸ êµŃ
ĠíĻĶ íıĲ
Ġê°Ħ ì£¼
ĠíķĦìļĶ íķĺëĭ¤ê³ł
Ġì²ĺ ëŁ¼
Ġì²Ń ì£¼
Ġì²Ń ìĤ°
ĠìķĦìĿ´ ìĿĺ
Ġìĭľìŀĳ íķĺëĬĶ
ĠìĨĲ ìľ¼ë¡ľ
ĠìĤ¬ìĹħ ìĹĲ
Ġíĺĳ ìķ½
ĠëĤĺíĥĢ ëĤ´ëĬĶ
ent er
ìĦ¼íĦ° ëĬĶ
ĠìĿ´ë£ ¬
ê²Ģ ì°°
ĠìķĮëł¤ ì£¼
Ġê³¼ìłķ ìĹĲ
ĠìĪĺëıĦ ê¶Į
em ent
ĠíĶ¼íķ´ ìŀĲ
Ġëħ¸ëıĻ ìŀĲ
ĠëĽ° ìĸ´
ê°ĢëĬ¥ íķľ
ĠìĿĺê²¬ ìĿ´
Ġì£Ħ ìĨ¡
Ġëª©ìĨĮ ë¦¬
íķ´ë³ ´ë©´
Ġê¸Īìķ¡ ìĿĦ
ëĵ±ë¡Ŀ ë²Īíĺ¸
Ġëĺĳ ê°ĻìĿĢ
Ġì¶Ķêµ¬ íķĺëĬĶ
ĠUnivers al
5 000
v ent
¦ ģ
¨ ëĭ¤
µ ì»¤
ìĿ´ ë©´ìĦľ
Ġê° ±ìĭł
ìĽ į
ĠìĹ ¿
ìĭľ ê¹Įì§Ģ
Ġëĭ ¥
ê³¼ ëıĦ
ĠìĪĺ ëĤ©
Ġê·¸ ìĻĢ
Ġê°Ģ ìĨį
íļĮ ìĻĢ
ìĽĶ ìĹĲëĬĶ
íĦ° ëĬĶ
ìĭł ê²½
ĠìĿ¼ ëłĪë¸Ĳ
Ġì¤ĳ ì§Ģ
ĠíĮ ģ
ìŀ¬ ìĿĺ
ĠìĽ ħ
Ġë§Ī ë¦¬
íĥĢ ë¥¼
Ġë°ľ ê°Ħ
ĠìķĪ ê²½
ìĹĪ ìľ¼ë©°
Ġ5 3
Ġ5 6
ì²ľ íŀĪ
Ġë¬´ ê´Ģ
Ġë¶Ī êµĲ
ê±´ ìĿĺ
íĺĦ íĻ©
íķĺê¸° ê°Ģ
Ġê°Ĳ ìĦ±
Ġëĭ¨ ìľĦ
ĠíķĺëĬĶ ì§Ģ
ĠìĹŃ ëŁī
ĠS BS
at er
ĠëĨĴ ìĹ¬
ìł¸ ìķ¼
ĠìĭĿ ë¯¼
is m
ìĶ¨ ë¥¼
ë°Ľ ìķĺëĭ¤
ì²ł ëıĦ
ĠìĿ´ìĸ´ ì§Ī
ĠìĬ¹ ëĤĻ
ĠëĬĺ ìĸ´ëĤľ
Ġìķ¼ ë§ĪíĨł
Ġìī½ ê³ł
ì´Ŀ ë¦¬
Ġíĺ¸íħĶ ìĹĲìĦľ
Ġëĭ¹ìĭľ ìĿĺ
ë¬´ë £Į
ìĥĪ ë¡ľìļ´
ĠìŀĳíĴĪ ìĿĢ
Ġíĺ¼ íķ©
ĠìĿ½ ëĬĶ
ĠëŃ ī
ĠìķĦëŀĺ ìĿĺ
ëĲĲ ëĭ¤ê³ł
ĠìĹ¬ëŁ¬ë¶Ħ ìĿĺ
ìĬ¤ì½Ķ ìĸ´
ëĨĢìĿ´ íĦ°
Ġë²ĦíĬ¼ ìĿĦ
Ġìį¬ ëįĶ
ë½ ķ
ĠPower Shell
Ġì¦Ĳê²ģ ê²Į
ĠíĶ¼ìķĦ ëħ¸
! âĢĿ
D P
Ġ 00
Ġ all
ê°Ģ ë©°
ĠìĹ ĳ
ĠìĹ ´ë§¤
ìĿ¸ ëł¥
ĠìĿ´ ëĵ¤ìĿĦ
ë° ĸ
ìĽĲ ëĵ¤ìĿ´
Ġíķĺ ìĺĢìĬµëĭĪëĭ¤
ìĥģ ìĦł
Ġì§Ģ ë¶ķ
ìĹ¬ ëªħìĿĺ
Ġì£¼ íĸī
ì¹ĺ ë©°
ìĨĮ ìĬ¤
ê³µ ìĿĦ
ê´Ģ ìłĪ
Ġê³ł ëıĦ
Ġë¹Ħ ëĮĢ
Ġì¡° íķŃ
Ġìĭł ìĿ¸
Ġìĭł ìŀħ
Ġë°© ë¶ģ
ĠëıĻ ëĤ¨
ĠëıĻ ìĦ±ìķł
ĠëıĦ ì¿Ħ
íĳľ ëĬĶ
Ġìŀ¥ ìłĲ
Ġëĵ¤ ìĿ´
ĠíķĦ ë¦Ħ
ĠìĪ Ń
ìĻ¸ ìĦł
ê´ĳ ì£¼
ĠìĨĲ ëĭĺ
Ġëĵ¤ìĸ´ ê°Ħ
Ġíĺķ ìłľ
ê²¨ ìļ¸
ê·ľ ìłķ
ac ter
Ġê·¸ëłĩ ëĭ¤
ì¼Ģ ìĬ¤íĬ¸ëĿ¼
Ġin formation
ëĿ¼ìĿ´ ë¸Į
ì·¨ ìĹħ
Ġì¢Ģ ëįĶ
ĠëĬĲëĤ Ģ
ĠìĦ±ê³µ íķľ
ĠëĶĶìŀĲìĿ¸ ìĿĦ
Ġê³µê°Ħ ìĿ´
ĠëıĪ ìĿ´
ĠìĤ¬ê³ł ë¥¼
ĠíĦ° ì¹ĺ
Ġëĸ¨ìĸ´ ì§ĢëĬĶ
Ġë¶Ģëĭ´ ìĿ´
ĠìĤ¬ë¡Ģ ê°Ģ
Ġíĳ¸ ë¥¸
ĠíĺĪ ìķ¡
all y
ĠëĤ© ìŀħ
ĠìĻĦë²½ íķĺê²Į
ìĸ´ë²Ħ ë¦°
Ġy ou
Ġì¹´ì¹´ìĺ¤ íĨ¡
æĸ¯ åħĭ
Ġíıīë²Ķ íķľ
©¬ æĸ¯åħĭ
B T
T P
c he
m er
å º
íķľ ë¯¸
ëĤ ¸ëĭ¤
ìĺ ¹
ìĹĲìĦľ ë§Į
Ġ1 30
Ġê¸° ìĥģ
ìļ© ìľ¼ë¡ľ
ìļĶ ë¦¬
Ġìłľ ê³ł
ĠìŀĲ ìĿĺ
Ġì£¼ ì²´
ë¹Ħ ì¦Ī
ĠìĿ´ë ĮĢ
ìĨĮ ìĦľ
Ġê³µ ìķ½
Ġë¶Ģ ìŀĳìļ©
ĠìĨĮ ëħĦ
ĠíĶ ½
Ġë§Ī íĮ¨
ĠëĺĲ ìĻĢ
ì²ľ ìĽĲ
Ġë¬´ ìĦľ
Ġìŀ¬ ë¬´
Ġë§¤ ê°ģ
Ġê¹Ģ ë¯¼
íĺķ ìĿĢ
íĺķ ìľ¼ë¡ľ
Ġëħ¸ ì¡°
íĿ ĳ
Ġëĭ¬ ìĿ´
ì¶Ķ ìĸ´
Ġê°Ħ ìłĳ
Ġìĭ¬ ìĿĺ
ĠL a
ĠëĦĺ ìĸ´ìĦľ
Ġíĺĳ ìĹħ
ĠíĺĦìŀ¬ ê¹Įì§Ģ
ĠìĿĳ íĮĶ
Ġíķĺë£¨ ìĹĲ
Ġë¹ĦêµĲ íķ´
Ġìłķìĥģ ìłģìĿ¸
od el
ĠëĨĢ íĨł
ìĬĪ íį¼
ãĢı ,
Ġíį¼ íı¬ë¨¼
if e
ĠíĿ¬ë§Ŀ ìĿĦ
ë©ĺ íĬ¸
iz ed
Ġíģ´ëĿ¼ ìĿ´ìĸ¸
Ġë³´ëĤ ¼
Ġëĵł ëĭ¤
Ġë²¤ ì²ĺ
Ġë¶ķ ë¶ķ
íİĢ ëĵľ
Ġì±Ļ ê²¨
ì¶Ķìļ´ ìĦłìĦłíķľ
E V
I A
O L
e y
ìĹ £
ì§Ģ ê·¼íķľ
ĠìĿ´ íĺ¼
ìĤ¬ íķĻ
ĠìĤ¬ ê¸°
Ġê·¸ ê°Ħ
ìŀ¥ ë¹Ħ
ëĮĢ ë¬¸
Ġíķĺ ëĭ¤ê°Ģ
Ġìĭľ ìłĲ
êµŃ ìľ¼ë¡ľ
Ġìłľ ëıĦë¥¼
ìĹ¬ ê¸°
Ġëĵ± ìĿ´ëĭ¤
ìĨĮ íĨµ
ëŁ¬ ìĬ¤íĬ¸
Ġê³µ ìĤ°
Ġê³ł ë°±
ĠìĨĮ ìľĦ
ìŀ¬ ë£Į
ĠìĿĺ íķĻ
Ġë§Ī êµ¬
ìľł íĨµ
Ġìĭł ì¤ĳ
Ġíķ´ ìķĪ
Ġë°© ìĸ´
Ġìĭ¤ ë²Ħ
Ġì§Ħ íķĻ
ĠìĽĲ ìŀĳ
Ġë°Ľ ê¸°
ĠìĦ¤ ë¹Ħ
Ġë°° ìłľ
ĠíķĻ ê³¼
ĠíķĻ ë¬¸
ĠëĳĲ ê»ĺ
Ġê°Ħ ëĭ´
Ġì²ĺ ë°©
ĠíĻĺ ìĥģ
ĠíĶĦë¡ľ ëª¨
Ġìĸĳ ëıĦ
ĠìķĦìĿ´ ëĵ¤ìĿĺ
Ġìķŀ ëĳĶ
ĠìĿ´ìĥģ íķľ
Ġì±ħ ìĿĺ
Ġì§Ħíĸī íĸĪëĭ¤
ĠëĤł ë¶ĢíĦ°
ëłĪìĿ´ íģ¬
ĠëĪĦ ë¦¬
ï¼ İ
ë¸Ķ ë¦¬
Ġë³´ë ĥĪëĭ¤
il d
ĠìĦ¼ ìĦľ
Ġëĵ±ìŀ¥ íķĺëĬĶ
íŀĮ ëĭ¤
ê³Ħìķ½ ìĿĦ
ĠíĺķìĦ± ëĲľ
Ġë¹ħ ëį°ìĿ´íĦ°
Ġìį¬ íĬ¸ë¡ľëĭīìĬ¤
Ġë¶Ģëĵľ ëŁ½
ĠìĿ´ë§ Ī
Ġìĺ¤ë¦¬ìĹĶíĬ¸ ìłĦìŀĲ
ë±ħ íģ¬
ìį¬ íĬ¸ë¡ľëĭīìĬ¤
ĠíĻĶìĿ¸ ìį¬íĬ¸ë¡ľëĭīìĬ¤
7 1
e en
y ric
ç §
é ĩ
ë¦¬ ìĸ¼
ìĭľ ìłĪ
ëĵ¤ ë¡ľë¶ĢíĦ°
ĠìŀĪ ê¸°ìĹĲ
Ġê°Ģ ë§¹
ìĦ± êµ¬
ĠìłĦ ìĦ¤
Ġëĭ¤ ë¦Ħ
ĠìŀĲ ë¥¼
ĠìŀĲ ë°Ķ
ëĵľ ë¦´
ë¬¸ ìŀ¬ìĿ¸
ĠìĿ¼ ìĤ°
ì§Ħ íķľ
ìĤ° ëıĦ
Ġìĥģ ìĿĺ
íĸī ë³µ
ĠìĨĮ ìŀ¥
ĠìĨĮ ì§ĳ
Ġìľł ê¶Į
ëĦ ī
ë²ķ ê³¼
Ġìĭ¤ ë¦¬
ë¥´ íĬ¸
Ġê±° ëĳĲ
ëĶ ĺ
Ġê°ķ ìļĶ
Ġê°ķ ì¢Į
Ġëĭ¨ íİ¸
ĠíķľêµŃ ìĸ´
ĠíķĦìļĶ íķł
Ġê°ĻìĿĢ ëį°
Ġì²Ń ì¶ĺ
Ġë²ķ ìĿĦ
Ġë©Ķ ëĶĶ
ìĸ¸ ìĸ´
ĠìĤ¬íļĮ ìĹĲìĦľ
ĠìłķëıĦ ëĬĶ
Ġê´ĳ ë²Ķ
Ġë´ ¤ëĭ¤
ĠìĬ¹ ìĿ¸ìĿĦ
ou nt
ëł¸ ëįĺ
Ġìĥī ìĥģìĿĦ
ĠìĦ¤ì¹ĺ ëĲľ
Ġë§¡ ìķĦ
Ġìłľì¡° ìĤ¬
ëħ¼ ìĪł
ĠëłĪìĿ´ ìłĢ
ĠíĿ¡ ìĪĺ
Ġë°©ì¹¨ ìĿ´ëĭ¤
ĠíĮĮëĿ¼ ëĭ¤ìĿ´ìĬ¤
ĠHT ML
t on
ģ ìĬ¤
Ľ ë¶Ī
Ġí Ī
ì§Ģ ìŀĲ
ìĬ¤ ëŁ°
ë©´ ìĿĺ
ìķĦ ë¦¬
Ġíķľ ìĿĺ
ĠìķĦ íĬ¸
ê¸ Ģë¡ľ
íĻĶ íķĺê³ł
Ġìłķ ìŀĳ
Ġìłķ ê¶Į
ê³µ íĻĶ
ìŀĦ ìĹĲëıĦ
Ġìĥģ ìŀĦ
Ġë¶Ģ ë¥´ëĬĶ
Ġê´Ģ ë¦¬ë¥¼
Ġìľł ëĮĢ
ĠìĹ° ì¤ĳ
ĠëĤ´ ìĻ¸
Ġìĺģ íĺ¼
Ġ4 1
ĠíĺĦ íĸī
ëĤ´ ê¸°
Ġë¬´ ë¦
Ġë§¤ ìŀħ
Ġê°Ĳ ê¸°
Ġíĸī ìĦ±
íĿ ĺ
Ġì¦Ŀ ìłķ
Ġì´Ī ë¡Ŀ
ë°ķ íķľ
Ġì¹ĺ ìľł
Ġê¸Ī ë¦¬
Ġíİ¸ ìĦ±
íİĺ ëĿ¼
ĠëĿ¼ ëĶĶìĺ¤
ê¸¸ ìĹĲ
Ġìłķë¶Ģ ìĻĢ
ĠG lobal
ĠëĲľëĭ¤ ë©´
Ġíľ ©
íĮ¨ ë¥¼
Ġì²ĺìĿĮ ë¶ĢíĦ°
Ġin t
Ġë¬¸íĻĶ ìĺĪìĪł
Ġë³Ħ ëıĦ
ì¸¡ ìĿĢ
ëĮĢíķľ ë¯¼êµŃ
ìĤ´ ìĿ´
Ġê³¼ìłķ ìĿĢ
ĠìłĦì²´ ìĿĺ
Ġìĸ´ëł¤ ìĽĢ
ëı¼ ìķ¼
Ġê°Ģìŀħ ìĿĦ
ê°ľìĽĶ ê°Ħ
ĠìķĮê³ł ë¦¬ì¦ĺ
Ġìķħ íĻĶ
ĠíĴĪ ëª©
ĠìłĦíĨµ ìłģìĿ¸
ê°ĳ ëĭĪëĭ¤
Ġê·¸ë¦¼ ìĿĦ
Ġìĥģëĭ´ ìĿĦ
Ġê³µê³µ ê¸°ê´Ģ
Ġëª¨ë¥´ ê²ł
Ġê°Ĵ ìĿĦ
Ġëĭ¤ë£¨ ëĬĶ
Ġì§ģìŀ¥ ìĿ¸
Ġìµľìłģ ìĿĺ
Ġë¶Ģëĵľ ëŁ¬ìļ´
ĠíĶĮëŀľ ì§Ģ
Ġìĺ¤ëĿ¼ íģ´
I M
L ìĿ¸ì¦Ŀ
h y
ħ Ĳ
ë¥ ¨
ìļ ´ëĮĢ
ìĿ¼ ìĥģ
ĠìĿ´ ê²¨
ĠìŀĪ ì£ł
ìłģ ìĿ´ë©°
ëĮĢ íĸī
ë¶Ģ ëıĻìĤ°
ëŁ ¿
Ġê²ĥ ìĿ¸ëį°
Ġíķľ ê²ĮìŀĦ
Ġëĭ¤ ì±Ħ
ëĭĪ ê°Ģ
ìĤ° ìĿĢ
Ġë¶Ģ ëŁ¬
Ġê´Ģ íķ´
Ġê³ł ìĿĺ
Ġê³ł ë§Ī
Ġë¹Ħ ë¡ľ
ĠëķĮ ë¡ľëĬĶ
ìĪ į
ĠíĨµ ì¦Ŀ
ĠëĤ´ ìŀ¥
ĠìĬ¤ íĮĮ
ì¤ĳ ê³µìĹħ
Ġì§Ħ ìĭ¬ìľ¼ë¡ľ
Ġê±° ëĮĢ
ìĨį ìĿĺ
ë°ľ íĳľ
Ġìŀ¬ ê°ľ
ìĦ¤ ëªħ
íĺĦ ìŀ¥
Ġì°¨ ê¸°
ĠíķĦ ìŀĲ
ë²Ħ ë¦¬
ĠìĪ ¨ìĸ´
ĠíĮĮ ê²¬
Ġ7 7
íĿ Ķ
Ġë¦¬ ìĬ¤íĬ¸
Ġê°ģ ìŀĲìĿĺ
Ġëģ ĵ
ĠíĻĺ ìŀĲê°Ģ
ĠìĨį ìĿĺ
ĠT r
Ġë¯¸êµŃ ìĿĢ
Ġì¹´ ìļ´
Ġì¹´ ìķ½
ĠìĪľ ìĪĺ
ĠëĦ¤ ê°Ģ
Ġì²ľ ì²ľíŀĪ
ì£¼ìĿĺ ë¥¼
ĠìĦ¤ëªħ ìĿĦ
Ġì°¸ìĹ¬ íķ´
Ġê°Ģê²© ìĹĲ
Ġê¸°ê°Ħ ìĿ´
Ġë¯¿ ëĬĶ
ìĿ´ë²Ī ìĹĲ
íģ´ ë¡ľ
ĠëĮĢíķĺìĹ¬ ëĬĶ
Ġëķħ ìĹĲ
ĠìĿ´ëģ Ħ
âĳ ¢
ìķŀ ìľ¼ë¡ľ
íĢ Ģ
ĠìķĦë§Ī ì¡´
ĠìłĦíķ´ ì¡Įëĭ¤
ëļ Ŀ
íĤ¬ë¡ľë¯¸íĦ° ìĿ´
ĠìĹĲìĸ´ ì»¨
Ġìħĭ ì§¸
a ìĹĲìĦľ
h ot
Ġ ke
ĠìĪĺ ê¸ī
ĠëĮĢ ìķĪ
Ġê¸° ë¦Ħ
Ġíķľ ìļ°
íķĺëĬĶ ì§Ģ
ĠìŀĲ ë°ľ
ëıĻ ìĺģìĥģ
ëĭĪ íĭ°
ĠìĿ¸ ê¸°ê°Ģ
Ġì¤ĳ ëĮĢíķľ
Ġë¶Ģ íķ©
ìĦ¸ ë¬´
ë¶Ħ ê°Ħ
ê²½ ìĹĲ
ĠìĹĨ ìĹĪìĬµëĭĪëĭ¤
ĠìĹ¬ ìķ¼
ìĥĿ ë¬¼
ĠìĥĿ ëªħìĿĦ
Ġë°Ķ ëĿ¼ëĬĶ
ê·¸ ëıĻìķĪ
Ġë°ľ ë³ĳ
Ġë°© ì¹ĺ
ĠëıĻ ì°¸
Ġìĺģ ìĽĲíķľ
ĠëıĦ ì¶ľ
ĠëįĶ ë¸Ķ
Ġìŀĳ ê°ĢìĿĺ
Ġì¶ľ ë§Ī
ë£¨ ë¯¸
ì½Ķ ìĸ´
Ġê°ĢëĬ¥ ìĦ±ëıĦ
Ġp ar
Ġê¸°ìĪł ìĿĺ
Ġíħ ħìĬ¤íħĲ
ĠR es
Ġì»¤ íĶĮ
ĠíļĮìĽĲ ìĹĲê²Į
ì¸µ ìĹĲ
ĠëĬĺ ìĹĪëĭ¤
Ġìŀ¡ ìĿĢ
Ġë³ĳ íĸī
ê¸´ ëĭ¤
Ġê´Ģìĭ¬ ê³¼
Ġë¶ĦìĦĿ ìĿĦ
ĠëĤ® ìķĦ
Ġê°ľìµľ íĸĪëĭ¤
âĸ ł
ĠìĭľíĹĺ ìĿĦ
ìļ°ë¦¬ ëĤĺëĿ¼
ĠìĿ´ê³³ ìĹĲ
Ġë¹Į ëĶ©
ĠìĿ´ë£¨ ê³ł
ĠìĿ¼ìĸ´ëĤĺ ëĬĶ
Ġìĸµ ìłľ
Ġë°°ê²½ ìľ¼ë¡ľ
ĠíĥĿ ë°°
Ġë¹Ħì¤ĳ ìĿ´
Ġë©Ķëª¨ ë¦¬
Ġë± Ģ
Ġëª©ìĪ ¨ìĿĦ
ì¨ Į
A M
p os
x x
Ġ ?
ê°Ģ ì¹ĺ
ìķ ī
ìĭľ ë¦¬ì¦Ī
ĠìĿ´ ê±°
ĠìĿ´ ìĺģ
ë© Ģ
ìĤ¬ ëıĦ
ĠëĮĢ ë¦½
Ġê¸° ìķĦ
Ġê²ĥ ìĿ¼
ìĦ± ê¸ī
ĠìķĦ íĭ°ìĬ¤íĬ¸
ê¸ ĢìĿ´
ìĹ¬ ê°ľ
Ġì£¼ ìĹĪëĭ¤
Ġëª¨ ëŀĺ
Ġê³µ ì¡´
ĠìĨĮ ëĤĺë¬´
Ġì¡° ë¦½
Ġêµ¬ ìĦĿ
Ġë°© ìĿĢ
Ġê±° ë¦¬ê°Ģ
Ġìŀ¥ ìłĲìĿ´
Ġë¶Ī íĻķ
Ġìŀĳ ê³¡
Ġâ ĺħ
ĠíķĺëĤĺ ìĶ©
ê²ł ëĬĶê°Ģ
Ġëª© ìĤ¬ëĬĶ
Ġëªħ ìĿĦ
Ġíĺ¸ ìĿĳ
ëĤ¨ ëıĦ
Ġì¢ħ ëª©
Ġë¡ Ŀ
ĠíĻĺ ëĭ¨ê³łê¸°
Ġëį° ìĬ¤íģ¬
Ġë°ķ ì§Ģ
ĠM an
ĠìķĦìĿ´ ëĵ¤
Ġê·¸ëŁ¬ ëĭĪê¹Į
Ġì±ħ ìĿ´
ĠìĦ¸ê³Ħ ìĹĲ
Ġíı¬íķ¨ íķĺëĬĶ
ìĦ¼íĦ° ë¥¼
Ġëª¨ìĬµ ìľ¼ë¡ľ
ëĨį íĺĳ
Ġì°¸ìĹ¬ íķł
ìĤ¬ìĿ´íĬ¸ ì¶Ķì²ľ
ĠëĤ® ì¶Ķ
Ġê¸°ê°Ħ ìĿĦ
ĠìķĬìķĺ ê³ł
Ġíķ´ê²° íķĺê¸°
´ë§ ģ
ĠíĥĪ ì¶ľ
Ġìĸ¸ê¸ī íķľ
Ġê°Ŀ ìĭ¤
Ġëª©ìĨĮ ë¦¬ê°Ģ
Ġë©Ķìĭľ ì§Ģ
Ġë¶Īê°ĢëĬ¥ íķľ
ë°Ģë¦¬ë¯¸íĦ° ë¥¼
Ġì´Īê³¼ íķĺê±°ëĤĺ
Ġë¶ĢíļĮ ìŀ¥ìĿĢ
Ġëĵ¤ìĹ¬ ëĭ¤
Ġed uc
) :
C D
N G
r and
ê³ł ê°Ģ
Ġëĭ ´ë°°
ĠìĤ¬ ìŀ¥ìĿĢ
ë¶Ģ ê³µê³łìłľ
Ġê°Ģ ì¤ĳ
Ġìłķ ìłķ
ëħĦ ê³¼
ëĭĪ ìĸ´
ìĭł íķľ
ĠìĿ¸ ë¯¼
ì§Ħ íĸī
ĠìĨĮ ë§¤
Ġìľł íķĻ
Ġìľł ìŀħ
ë§Ī ìĿ´
ë§Ī ì§Ģë§ī
Ġë§Ī íģ¬
ĠìĦľ ë¯¼
ĠìĹ° ëĮĢ
ĠìĹ° ê¸Ī
ĠìĦł íı¬
Ġìĭł ìŀĦ
Ġìĭł íķĻ
ë¯¸ ëĦĲ
Ġë¯¸ ìķĪ
ë°© ìĭĿ
Ġìĭ¤ ìĪĺ
Ġíģ Ĳ
Ġìĸ´ë ĳ
Ġìŀ¬ ëĤľ
Ġë°Ľ ìľ¼ë©°
Ġìŀħ ìĤ¬
Ġëĭ¹ ëĩ¨
ì¢ħ êµĲ
Ġíķ¨ ìľł
Ġì§ģ ë©´
ĠíĶ¼ ë¡ľ
ar acter
´ë©´ ìĦľ
Ġê°ģ ê¸°
ĠìķĦìĿ´ ì½ĺ
ĠìŀĲìĭł ìĹĲê²Į
ìŀĪ ìĿĦ
Ġì§Ħíĸī ëĲł
ëĲľëĭ¤ ë©´
ìĿµ ìĿĦ
ĠëĮĢíĳľ ìĿ´ìĤ¬
ĠìĤ¼ ìķĦ
Ġíĥľ ë¸Ķë¦¿
Ġì§ĢìĽĲ íķĺê³ł
ĠíĨł ì§Ģ
ĠìĤ¬ìĹħ ìĿĢ
ĠíĮ¨ ë°°
Ġo acute
ĠíĹĪ ë¦¬
ĠìĽĶ ê¸ī
ĠìĦłíĥĿ ìĿĦ
ĠêµŃë¯¼ ìĿ´
Ġê¸ī ìĦ±
Ġë©´ ìĹĲìĦľ
ëľ ©
ĠëĮĢë¶Ģë¶Ħ ìĿ´
Ġì§ĢëĤĺ ì¹ĺê²Į
Ġë²Īì§¸ ë¡ľ
ìĽĥ ìĿĮ
Ġë¹¨ ê°Ħ
Ġê²¨ ìļ°
Ġì°į ìĿĢ
Ġì£¼ëª© ìĿĦ
Ġê°Ģë¥´ ì³Ĳ
æĸ ĩ
ĠëĿ¼ìĿ´ íĶĦ
ĠíĻķìĭ¤ íķľ
ĠâĹ ı
ĠìĿ¼ìĥģ ìĥĿíĻľ
Ġêº¼ ëĤ´
Ġë§¤ëł¥ ìłģìĿ¸
ĠìķĦìĿ´ëĶĶìĸ´ ë¥¼
ĠêµĲê³¼ ìĦľ
ìĨĮë¹Ħ ìŀĲ
Ġëĭ¤íĸī íŀĪ
Ġì§Ģì²´ ìĹĨìĿ´
Ġë§Īì¹¨ ëĤ´
Ġìĺ¤ë²Ħ ìĽĮì¹ĺ
Ġìĸ´ë¥´ ìĭł
S T
â ĺħ
Ġ ----------------
ìĿ´ ìĭĿ
ëĬ ¬
ê¸° ëıħêµĲ
ëĤ ļ
ìĿ¸ íĬ¸ë¥¼
ĠìĪĺ ìĹ¬
ĠìĤ¬ ì±Ħ
Ġì§Ģ ìĥģ
ìłľ ìŀ¬
ĠìłĦ ëĭ´
Ġìĭľ ìĿĺ
íļĮ ìĤ¬ëĬĶ
ìĬµ ìĿĦ
ìļ° ì§Ģ
ìļ° íİ¸
Ġê²½ ìĥģ
ĠëĤĺ ìģĺ
Ġëª¨ ë¥¼
íĮ Ł
Ġê³µ ì§ģ
Ġë¶Ģ ì§Ģ
Ġëį ©
ìĦ¸ íķľ
ë¶Ħ ìŁģ
Ġë§Ī ì¼ĵ
Ġì¡° ìĤ¬ë¥¼
ë¯¸ ìĬ¤
Ġë°ľ íļ¨
ë°© ì§Ģ
Ġìĺģ ê°ĲìĿĦ
ĠìĦ± ë¶Ħ
ìĭ¬ ê³¼
Ġê°ķ ë¦ī
ĠíĶĦ ëĿ¼
Ġëĭ¹ ì´Ī
Ġâ Ļ
íķ¨ ìĿĢ
ĠíķľêµŃ ê³¼
Ġì¶ľ ì²ĺ
Ġì¶ľ ê·¼
ĠìĥĿê°ģ ìĿĢ
Ġì§ģ ìłĦ
íĶ¼ íķ´
Ġíĺ¸ ëĤ¨
ĠA d
Ġê°ģ ìŀĲ
ĠìłĲ ëıĦ
ë¸Į ëŀľëĵľ
ĠëĨĴ ê³ł
Ġìłľê³µ íķľ
Ġìĺ¨ ì²ľ
Ġê´Ģëł¨ ìĿ´
Ġê·ľ ìłķìĿĦ
ĠëıĮ ìŀħ
íĺĳ ëıĻ
ì°½ ìĽĲ
ë°Ľ ì¹¨
ĠíĹĪ ìľĦ
ìĹ´ ìĿĦ
ĠìĺģíĻĶ ëĬĶ
Ġì²ĺìĿĮ ì²ĺëŁ¼
Ġìµľê·¼ ìĹĲ
íķĺìĺĢ ìľ¼ëĤĺ
ĠíĻĺê²½ ìĹĲ
ĠìĭľìĬ¤íħľ ìĿ´
Ġê·¹ ëĭ¨
ĠìĦ±ê³µ ìłģìľ¼ë¡ľ
Ġìħ °
Ġê²½ìŁģ ëł¥ìĿĦ
íķ´ì£¼ ê³ł
ĠìĬµ ëıĦ
Ġë°Ķëĭ¤ ìĿ´ìķ¼ê¸°
Ġëª¨ë¥´ ê²łëĭ¤
Ġìŀ¬íĮĲ ë¶ĢëĬĶ
ĠìłĦë°ĺ ìĹĲ
ĠìłĦë°ĺ ìłģìĿ¸
Ġìĺ¤ëŀľ ë§ĮìĹĲ
Ġê³¤ ëŀĢ
Ġì²Ńêµ¬ íķł
Ġï¼ ¼
Ġìĭ¤ì§Ī ìłģìĿ¸
Ġëĭ¹ë¶Ģ íĸĪëĭ¤
Ġëĭ¨ë°± ì§Ī
? âĢĻ
B A
a w
é ĥ
Ġê ¶
Ġí Ĥ¬
ê°Ģ ìłķ
ìĦľ ë²Ħ
ë© ´ë
ëł ¬íķľ
ĠìĪĺ ë¶Ħ
ĠëĮĢ ëĭ¤
Ġëª «
Ġíķľ íķ´
Ġíķľ ê³Ħë¥¼
íļĮ ê³Ħ
êµ¬ ë¡ľ
ĠìŀĲ ìĤ´
Ġì£¼ ìĭľ
Ġì£¼ ìĭĿìĿĦ
Ġê²½ íĸ¥ìĿ´
ĠìĿ¼ ì£¼ìĿ¼
Ġì¤ĳ íķĻêµĲ
Ġëª¨ ëĵľ
Ġëª¨ íĹĺ
ê³µ ìŀ¥
Ġë¹Ħ ì¹ĺ
ĠëıĦ ëĮĢì²´
Ġìĭ¤ ìłķ
Ġìĭ¤ ìĹħ
Ġìĭ¤ ëł¥ìĿĦ
Ġì§Ħ ìĭ¤
ìħ Ī
Ġ5 4
ĠìłĢ íķĺ
ĠìĽĲ ìłĦ
Ġê³Ħ ì¢Į
ĠëĤ¨ ìª½
an y
ê²° ìłľ
íĻĺ ëĭ¨ê³łê¸°
ĠìĿ´ìļ© íķ´ìĦľ
Ġëª» íķĺê²Į
al th
ë¦¼ ìĿ´
ĠìĨĲ ìī½ê²Į
Ġíİ¸ íķĺê²Į
Ġp er
Ġê´ĳ ìĹŃ
ìľĦìĽĲ íļĮìĿĺ
Ġë°ľìĥĿ íĸĪëĭ¤
Ġë³´ë Ŀ¼
ĠìĦ¤ëªħ íķĺê³ł
Ġìĸ» ëĬĶ
Ġëĸł ëĤľ
ĠëįĶìļ± ìĿ´
Ġìŀł ê¹Ĳ
Ġë¹Ħë¡¯ íķĺìĹ¬
ĠëĮĢíķľë¯¼êµŃ ìĿĺ
Ġst yle
ì´ī ì§Ħ
Ġë°ĶëĿ¼ ë³´ëĬĶ
Ġë°ĶìĿ´ ëŁ¬ìĬ¤
ĠìķĦë²Ħ ì§ĢìĿĺ
ĠCh rome
ëŃ ĩ
min al
Ġmeth od
8 1
9 2
b l
i er
p ro
é Ļ
ï »¿
Ġ mm
ìŀ Ń
ê³ł ëıĦ
ê² ģëĭĪëĭ¤
ë³ ´ë©°
ìĸ´ ì£¼
Ġíķĺ ìĭł
ì¹ «
ëį ±
ë©´ ìĹĲìĦľ
ë³´ ìķĪ
ëĵľ ëŁ¬
Ġë¶Ģ ìĦľ
Ġë¶Ģ ë¶Ģ
ìĦł ìľ¼ë¡ľ
ìĺģ ìĿĢ
Ġë°Ķ ëĭ·
Ġíķ´ íĤ¹
Ġë§Ĳ íķĺë©´
ĠëıĻ íĻĶ
Ġì§Ħ ì§Ģ
ìĭ¬ ìĿĢ
ëłĪ ìĿ¸
ëłĪ ëĵľ
Ġìŀ¬ ë°ľ
íĺķ íĥľ
ì§Ī ë¬¸
ë²Ħ ê·¸
ĠíķĻ ìĽĲ
Ġë¬¼ ë¦¬ìłģ
ĠìļĶ ìķ½
Ġíķ© ëıĻ
ë³µ íķ©
ì§ĳ ìĿ´
ĠìłĲ ìĪĺ
ĠëĨĴ ê²Į
Ġë©Ķ ìĨĮ
Ġëĵ¤ìĸ´ ê°Ķëĭ¤
Ġê·¼ ëĮĢ
Ġíļ Ł
íĺĳ ìķ½
ĠíĨł ìļĶìĿ¼
Ġê°ľë°ľ ìĹĲ
el op
ë²ł ìĿ´ìĬ¤
Ġê³łê°Ŀ ìĹĲê²Į
Ġê¸°ëĮĢ íķľëĭ¤
ĠíĮĲë§¤ íķĺëĬĶ
Ġì¡´ìŀ¬ íķľëĭ¤
Ġê³µëıĻ ì²´
Ġë¹ĦêµĲ íķł
ĠìĭľëĮĢ ê°Ģ
ë¥´ë ¹Ħ
Ġìķķ ì¶ķ
ì»´ íĵ¨íĦ°
Ġì°¨ëŁī ìĿĦ
Ġë°ĶëŀĮ ìĹĲ
Ġë°ĶëŀĮ ì§ģ
Ġê³łë¯¼ ìĿĦ
ĠìĦłë³´ ìĿ¸
Ġëı¼ ì§Ģ
Ġë§¥ ì£¼
ê³¼ìłķ ìĹĲìĦľ
Ġê°ĢëĵĿ íķľ
Ġìĥģê´Ģ ìĹĨìĿ´
ĠìĥģìĥĿ ë°©ìĨ¡
ĠìĤ½ ìŀħ
P A
o k
r ap
ª ¼
æ Ħ
ë¥ ´ë°Ķ
ë¦¬ íĶĮ
âĢ »
ê³¼ ê±°
ĠìĪĺ ì²ľ
ĠìĪĺ ìŀĪëĬĶ
Ġê·¸ ëĵ¤
ìŀ¥ íķľ
ìŀ¥ íĮĲ
Ġê²ĥ ìĿ¼ê¹Į
ìķĦ ëĵ¤
ë§Į ìĹ¬
Ġìĭľ íĬ¸
ĠìŀĲ ì¡´
Ġë³´ ì»¬
Ġì£¼ ê°Ħ
Ġê²½ ëł¥
ĠìĿ´ë ħĲ
Ġì¤ĳ ë°ĺ
ëĲĺ ëĬĶëį°
ê±° ë¦¬ê°Ģ
ìŀ¬ ìłķë¶Ģ
ìĥĿ ìĿ´
ê¸Ī ë¦¬
Ġìļ° ìĹ°íŀĪ
ĠìĦł ìĪĺê°Ģ
Ġë°Ķ ìģľ
Ġêµ¬ ê²½
Ġë¯¸ ìļ©
Ġë¯¸ ìĤ¬ìĿ¼
ìŀĳ ìĿĦ
ìĭ¬ ë¦¬
Ġìŀ¥ ìĿĦ
ì²Ń ëħĦ
Ġìŀ¬ ëĭ¨
Ġíķł ê¹Į
ĠìĤ¬ìļ© íķĺê¸°
Ġë°° ëĭ¹
íķ¨ ê»ĺ
ĠíķľêµŃ ìĿĦ
ë£¨ íĬ¸
Ġíĺ¸ ìĪĺ
ë°° ëĭ¹
Ġìķ½ ê°ĦìĿĺ
Ġê¸Ī ë©Ķëĭ¬
ĠP H
ĠìŀĦ ì§ģìĽĲ
Ġc ol
ë³Ģ íĻĶ
ëĨ Ģ
Ġê·¼ ëį°
Ġìļ© ìĿ´
Ġê°ľë°ľ ìŀĲ
Ġë°± ìĭł
Ġíı¬íķ¨ íķľëĭ¤
ĠíļĮìĽĲ ê°Ģìŀħ
Ġê²ĮìŀĦ ìĿĺ
ĠíķĻìĥĿ ìĿ´
ĠíĻľëıĻ ìĹĲ
Ġìĥī ìĥģìĿĢ
ìľĦìĽĲíļĮ ê°Ģ
ĠìľĦì¹ĺ íķĺê³ł
Ġì¦ī ê°ģ
ĠëĤĺìĺ¤ ì§Ģ
Ġëķ Ĳ
ĠìĤ¬ê±´ ìĿĺ
ĠìķĮìķĦ ìķ¼
Ġë°©ìĭĿ ìĿ´
ĠíĮĢ ìĿ´
Ġê¸°ë°ĺ ìĿĦ
ĠìĦ¸ìĥģ ìĹĲìĦľ
ĠìĿ´ê³³ ìĿĢ
ĠìĻĶ ìĬµëĭĪëĭ¤
Ġë¹¼ ìķĹ
äº ĭ
íħį ìĬ¤íĬ¸
Ġì¶ľìĭł ìĿĺ
ĠëĿ ł
ĠëĳĺëŁ¬ ìĭ¸
ov e
Ġë¬´ëį Ķ
ìĸ´ëĦ £
ãĥ»ãĥ»ãĥ»ãĥ» ãĥ»ãĥ»ãĥ»ãĥ»
Ġì¹ĺìĹ´ íķľ
Ġê°Ģë³į ê²Į
ª ©
ëĭ¤ ìĸĳ
Ġìŀ ¦
ê³ł ìĹĲ
Ġê² ģ
ë² ħ
ìļĶ ê¸Ī
íļĮ ê´Ģ
ĠìĿ¸ ìłģ
ĠìľĦ ì¶ķ
ĠìĿ¼ ìłķìĿĦ
ìĤ° ìĹĲ
Ġë¶Ģ ê°Ģ
Ġë¹Ħ ìľł
ë§Ī ë¦¬
ĠìĹĨ ëįĺ
Ġëħ Ģ
ĠìķĪ ê³ł
ĠìķĪ ëĲĺëĬĶ
ë°© ìķĪ
ìĹĲê²Į ìĦľ
ì°¨ ê²Į
ëĶ ª
in a
ĠìĤ¬ëŀĮ ìľ¼ë¡ľ
ì²Ń ìĹĲ
Ġ# ãĢĲ
Ġëĵ¤ ìĿĢ
ĠíĻķ ë¦½
ê°ķ ëıĻ
Ġìĺ¬ ëŀĲ
ĠìĥĿê°ģ íĸĪëĭ¤
Ġì§ģ ìĽĲìĿ´
at ive
ëŁī ìĹĲ
Ġë³¸ ëŀĺ
Ġì§ĳ ìľ¼ë¡ľ
ĠìĤ° íķĺ
Ġìłľê³µ ëĲĺëĬĶ
Ġë°ķ ìĬ¤
ĠìĨį ìľ¼ë¡ľ
ion s
Ġê¸°ìĹħ ìĹĲ
Ġê¸°ìĹħ ëĵ¤ìĿ´
ĠìłľíĴĪ ìĹĲ
Ġ0 8
Ġm ore
ìĹ¼ ìĥī
Ġì°¸ìĹ¬ ë¥¼
Ġê°Ģì¡± ê³¼
ĠìĻĢ ìĻĢ
Ġìľłì§Ģ íķĺê³ł
Ġë¯¿ ìĿĦ
Ġëĭµ ëĭµ
ê·¸ë£¹ ìĿĺ
ĠìĦłìĪĺ ëĵ¤ìĿ´
ĠìĿ´ê³³ ìĹĲìĦľ
ï½ ı
Ġë°Ķê¾¸ ëĬĶ
Ġíģ´ëŀĺ ìĬ¤
ë°Ģë¦¬ë¯¸íĦ° ë¡ľ
Ġìĭłìļ© ì¹´ëĵľ
íı´ ë¦¬
ĠìŀĲìľ¨ ì£¼íĸī
Ġíı´ ë¦¬
Ġê³³ê³³ ìĹĲ
Ġter minal
ĠíħĶ ëłĪ
) "
1 01
G M
è ¡
ĺ ¥
Ġìķ Īëĭ¤
íķ´ ì§Ħëĭ¤
ìĭľ íķĺëĬĶ
ìŀĲ ë©´
ĠìĪĺ ëĭ¨
Ġê·¸ ë¦ĩ
ëĮĢ ë§Į
Ġíķĺ ìĭ¤
Ġíķľ ê³Ħ
ĠìķĦ íĮĮ
ìłĦ íĺķ
ëĭĪ ëĬĶ
ĠìľĦ ìķĪ
Ġì¤ĳ ëıĦ
Ġì¤ĳ ìĹĲëĬĶ
ëŁ¬ ë¥¼
ìĥĿ ê°ģ
ĠìĿĺ ê²°
íĺ¸ ìĦł
Ġì¹ ´ë
Ġìĭł ë¹Ħ
Ġìĭł ì²ľì§Ģ
ĠêµŃ íļĮìĹĲìĦľ
ëŀĮ íļĮ
íĴĪ ìłĪ
Ġì§Ħ ë¦¬
ìĺĢ ì§Ģë§Į
ëª¨ ë¥¼
ë³¸ ì¡°
ĠíĽĦ ë°°
Ġëĭ¨ íĸī
Ġ6 2
ë²Ħ ë¦°
ê²ł ìĬµëĭĪê¹Į
ĠS T
ĠS ystem
ĠìĥĿê°ģ íķĺë©´
Ġ7 2
Ġì¦Ŀ ìĸ¸
Ġìļ´ íķŃ
al le
ĠìĹ´ ìĹĪëĭ¤
Ġì§ĳ íķĦ
ĠìłĲ ìĪĺë¥¼
Ġìķ½ ê´Ģ
Ġìķ½ ê´ĢìĹĲ
Ġìłľê³µ ìĿĦ
Ġìĭ¬ íĻĶ
ĠìķĦìĿ´ ëıĮ
ĠìĤ¬íļĮ ê°Ģ
ì»¤ ìĬ¤
Ġì§Ħíĸī ëĲĺê³ł
ĠíĨ ±
ĠíļĮìĤ¬ ìĹĲìĦľ
íĿ¬ ëĬĶ
Ġê¸°ìĹħ ìĿĦ
Ġìļ´ìĺģ ìĿĦ
Ġê´Ģê³Ħ ìĹĲ
ìĿ´ì§Ģ ìļĶ
ê²Ģ ì§Ħ
Ġêµ¬ìĦ± ìĽĲ
Ġë¶ģíķľ ìĿĢ
ĠíıŃ ëł¥
Ġë³´ìĹ¬ ì¤Ģ
Ġìĸ´ëł¤ ìĽĢìĿ´
Ġê°Ģì¡± ìĿĺ
ê·Ģ ì´Į
ê·¸ë£¹ ìĿĢ
ì¿ł ë²Ħ
Ġë¹¨ ê°ķ
Ġë¶Ļ ìĸ´
ĠìĦłìłķ ëĲľ
Ġê²½ì°° ìĿĢ
Ġë¹Ħì¦Ī ëĭĪ
Ġëĭ¹ìĹ° íķľ
Ġì½ľ ëĿ¼
Ġì¹Ń ì°¬
ĠìĿ´ëªħ ë°ķ
str ong
ìĸ´ëĸ ¤
ĠìĻł ì§Ģ
ëį¥ ì§Ģê·¼íķľ
íī ģ
Ġë¹Ħë¡ľ ìĨĮ
ĠìĿ´ëģĦ ëĬĶ
o T
â Ķ
Ġë Ŀ½
íķ ı
Ġê ¾
íķĺ ëĿ¼ëĬĶ
ìĿ¸ ëĭ¹
ìĿ¸ ëĵ¤ìĿĦ
ĠìĿ´ ìĿĢ
ë© ľ
ìĤ¬ ê¸°
ìĤ¬ ëł¹
ê²Į ìļĶ
ĠìĪĺ ë¹Ħ
Ġíķĺ ëł¤ê³ł
Ġê¸° ìĤ¬ë¥¼
ĠìķĦ ìī½
íĬ¸ ëŁ¼íĶĦ
ìĽĶ ë§Ĳ
Ġì£¼ ë°©
Ġê²½ ë§¤
ì§Ħ ëĭ¨
ëŁ¬ ìĭľìķĦ
Ġê³µ íķĻ
Ġìĥģ ìļ©
Ġë¶Ģ ì°©
Ġê³ł ìĪĺ
ìľĦ ìĿ¸
ìľĦ ìĹĲìĦľ
ê±° ë¦¬ë¥¼
ë¶Ħ ê»ĺ
Ġìľł ìłĦìŀĲ
Ġë§Ī ëķħ
ìĹ° ìĿĢ
ê·¸ ë¦°
Ġë§Ĳ íķĺë©°
ì¤ĳ íķĻêµĲ
ĠìłĢ ìĻĢ
Ġë¶Ī íķĦ
Ġê³Ħ ê³¡
Ġìłģ ëĭ¹
Ġê¹Ģ íķ´
Ġê¹Ģ ìļ©
Ġê¹Ģ ìĹ°
Ġì¶Ķ ì²¨
ĠíĽĦ ìĨį
ë°Ķ ìĿ´ìĬ¤
ë¥ĺ ìĿĺ
Ġ8 5
al ity
Ġìłľê³µ íķ´
Ġìķŀ ìĦł
ĠT echnolog
Ġì§ĢìĹŃ ìĿĢ
om e
ìĶ¨ ìĻĢ
ĠëĮĢíĨµëł¹ ìĿĦ
ĠìĤ¬ìĹħ ìĿĺ
ĠëĦ¤ ëįľ
ĠíĮ¨ íĤ·
Ġìļ´ìĺģ ìĹĲ
ìĤ¬ìĹħ ìĹĲ
ĠêµŃëĤ´ ìĹĲìĦľ
Ġì¡´ ê²½
íĮ¨ ìħĺ
ĠíķĻìĥĿ ëĵ¤ìĹĲê²Į
Ġê·¸ê²ĥ ëıĦ
Ġë§ī ê¸°
´ë° Ľ
Ġì¤Ģë¹Ħ íķĺëĬĶ
ĠíĻĺê²½ ìĹĲìĦľ
ĠíĦ ±
ĠìĤ¶ ìĿ´
ëĲĲ ëįĺ
ĠëĽ° ìĸ´ëĦ
Ġë§¡ ê³ł
ë¥´ë ħ¸
ê´Ģê³Ħ ê°Ģ
ĠìĦłë³´ ìĿ¸ëĭ¤
ĠìĽĢì§ģ ìĿ´ëĬĶ
Ġìŀ¬ë¯¸ ë¥¼
ĠíĶ¼ë¶Ģ ìĹĲ
Ġíļ¨ìľ¨ ìłģìĿ¸
Ġëĭ¤ëĭĪ ëĬĶ
Ġcom m
Ġì»¤ë®¤ëĭĪ ì¼ĢìĿ´ìħĺ
Ġë¶Īê°Ģ íĶ¼
íĪ °
Ġíķĺëĵľ ìĽ¨ìĸ´
Ġíķ¸ëĵľ íı°
ĠìĺģìĽĲ íŀĪ
R E
c re
¯ Ķ
¸ ìĿĦ
å Ľ
ì Į
ĳ ¼
Ļ ìĿĢ
ìĿĺ ìĭĿ
ê¸° ì¡´
íķ´ ê²°
íķ´ ìĻ¸
ìľ¼ ìĭ¤
ìŀĲ ë£Įë¥¼
ĠìĪĺ ë¥¼
ĠìĪĺ ëł´
ĠìĤ¬ ìĦľ
ĠëĮĢ ìĿĺ
Ġìĥ Ĳ
Ġê¸° ë¶ĦìĿ´
Ġê°Ģ ìļĶ
Ġ2 50
ĠìłĦ ê¹Įì§Ģ
Ġìĭľ ê³¨
ìĬµ ê¸°ê°Ģ
ĠìŀĲ ìĺģìĹħ
Ġë³´ ìĭľë©´
ĠìĿ¸ íħĶ
ì¹ĺ ë¡ľ
ĠìĿ¼ ëĭ¹
Ġëª¨ íĦ°
Ġë¶Ģ ëĶª
êµĲ ìĪĺ
ĠìĹ° ìĪĺ
ĠìĹ° ëıĻ
Ġë§Ĳ ìŀħëĭĪëĭ¤
ĠëĤ´ ëĭ¤
Ġë¶Ħ ìĿĢ
Ġê±° ì¹ľ
íķĺê²Į ëıĦ
Ġìĸ´ë ł
ĠìłĢ ë¥¼
ĠìłĢ ìĺ¨
ĠìĽĲ ë¦¬
ĠìĽĲ ë£Į
ë³¸ ëĭ¤
Ġìŀħ ìĪł
Ġë°° ìĽĮ
ëĶĶ ìķĦ
ì½Ķ ë¥´
ĠíĶ¼ ëĵľ
ĠC D
Ġëªħ ë°±
Ġíĺ¸ ê¸°
ĠA n
Ġì§ĳ ìķĪ
ĠìłĲ ìľł
Ġìĺ¨ ê°ĸ
Ġìĭľìŀĳ íķ´
Ġíģ¬ ë¦¬ìĹĲ
it t
ìķħ ìĿĺ
ĠíĸĪ ìĸ´ìļĶ
Ġíĥľ ëıĦë¥¼
Ġê¸°ìĪł ê³¼
ĠìĤ¬ìĹħ ìĿ´
ĠëĨį ë¯¼
ĠëĨį ìĤ°ë¬¼
ro up
ou l
Ġìĸ» ìĹĪëĭ¤
Ġëª° ëŀĲ
Ġì¹ľêµ¬ ëĵ¤ê³¼
ëĺĲ ëĬĶ
Ġì¶Ķì²ľ íķ©ëĭĪëĭ¤
Ġë¹Ħìļ© ìĿĢ
ì½ĺ íħĲì¸ł
ĠìĬ¬ ë¡ľ
íĺĪ ìķķ
Ġì§Ģìłķ ëĲľ
Ġë¶ĦìľĦ ê¸°ê°Ģ
ìķĪìłĦ íķľ
ëĶ° ëĿ¼ìĦľ
ĠìĺĪìķ½ íķĺë©´
ì¾Į íķľ
ĠíĶĮëłĪìĿ´ ìĸ´
íĳ¸ ëĵľ
ì¤ĳìķĻ ì§Ģ
Ġê³łíĨµ ìĿĦ
Ġê´ľì°® ìĿĢ
ĠëĬĺìĸ´ëĤĺ ê³ł
ĠíĿĲë¦Ħ ìĿĦ
ĠìĿ´ëĿ¼ ê³ł
ĠìĪĺìĺģ ìŀ¥
Ġì¢ģ ìĿĢ
Ġíĥĵ ìĹĲ
ĠëĤ´ëł ¸ëĭ¤
ê´Ģíķľ ë²ķë¥ł
ĠìķĦìĭľìķĪ ê²ĮìŀĦ
ĠìĿ¼íĻĺ ìľ¼ë¡ľ
. <
. â
M B
P P
] [
æ ±
ç Ħ
Ġí ĵ¨
Ġìł Ĭ
Ġê° ļ
ê¸° ìĹĲëĬĶ
ìĤ¬ ìĿ´ëĵľ
ĠìĤ¬ ë£Į
ëħ Ķ
ìķĦ ì§ģ
Ġíķľ ëį°
ĠìķĦ íĶĶ
ì£¼ ëıĦ
Ġìĭľ ìĹĲ
íĻĶ íķľ
.. ...
ë¬¸ ìĿĢ
Ġì° °
ĠìŀĪëĬĶ ê°Ģ
ĠíĮ ½
ìŀ¬ ë¡ľ
ìŀ¬ ìłķ
Ġìľł ìĿµ
ĠìĥĿ ìķł
ê¸Ī ìľ¼ë¡ľ
ëĭ¨ ìľĦ
ë¬´ ê°Ģ
ĠìĦł íĸī
ê·¸ ëĿ¼
ëŀĺ íĶĦíĬ¸
ìĿ´ëĿ¼ ìĦľ
Ġ5 1
ĠìĽĲ ìĿĺ
Ġê°Ĳ ëĭ¹
ë¡ł ìĿĢ
íĭ° ë¹Ħ
ĠíĿ ł
en g
Ġì» µ
êµ° ê³¼
Ġë§İìĿĢ ëį°
Ġê°ľìĿ¸ ìłģìĿ¸
ì´Ī ìĹĲ
ìĬ¤íĥĢ ìĿ¼
ĠíĴ ĢìĿ´
Ġë¯¸êµŃ ìĹĲ
Ġë²Ī ëıĦ
ĠëĤł ìķĦ
íĪ¬ íĳľ
ĠR GB
Ġb ase
Ġì²« ë²Īì§¸
Ġìĥī ìĨĮ
Ġë¶ĦìĦĿ íķľ
ĠìľĦì¹ĺ ìĹĲ
Ġìłķë§Ĳ ë¡ľ
ìº ¡
ĠíķĻêµĲ ìĹĲìĦľ
Ġìĥģíĥľ ëĭ¤
Ġëī´ ì§Īëŀľëĵľ
ĠíĻĪ íİĺìĿ´ì§Ģë¥¼
Ġì£¼ìŀ¥ íķĺëĬĶ
ĠìĤ¬ìĿ´íĬ¸ ë¥¼
ĠìĿ¸ë¥ĺ ë¥¼
ĠìĽ¨ ìĬ¬
Ġì£Ħ ë¥¼
ĠëĤĺëĪĦ ëĬĶ
ĠìĤ¬ìľł ë¡ľ
ëĨĴ ìĿĢ
yp e
Ġëħ¸íĬ¸ ë¶ģ
ĠëĤ¯ ìĦł
Ġ97 88
ĠíĻľìĦ± íĻĶë¥¼
ĠëĪĮ ëŁ¬
ĠëĦ¤ìŀĦ ëĵľ
ĠìĭľëĤĺ ë¦¬ìĺ¤
C O
c i
l o
m e
p s
å Ĭ
æ ³
ç ¾
ë ¤Ħ
ë ĮĦìĬ¤
ï ½ĥ
íķĺ ëĲĺ
ìĦľ êµ¬
ëıĦ ìĹĲìĦľ
ë¦¬ ìķĪ
ĠìĿ´ ê±¸
ĠìĿ´ ê°ĻìĿ´
ìĤ¬ ì±Ħ
Ġê·¸ ëĵ¤ìĹĲê²Į
ìłķ ê¸°
ĠëĮĢ ëŁī
Ġê°Ģ ìĬ¤
ìķĦ ë§Ī
Ġì§Ģ ìĿĢ
Ġíķľ ì°½
Ġëĭ¤ ë¬¸íĻĶ
Ġì£¼ ìŀ¥ìĿĦ
Ġì£¼ ìŀ¥ìĿ´
ĠìĿ¼ ì¶ľ
Ġëª¨ ë¥´ê²Į
Ġë¶Ģ ìĭ¤
Ġ3 000
ĠìķĬ ëĭ¤ëĬĶ
Ġê³ł ë°ľ
Ġìľł ìļ©íķľ
êµĲ íļĮìĿĺ
ĠìĹ¬ ê¸°ëĬĶ
ìĪ ²
Ġìĭł íĻĶ
Ġìĭł ìłľíĴĪ
Ġë°Ķ ìļ¸
Ġë°ľ ìĿĦ
ĠëıĻ íı¬
ìĭ¬ ìĹĲ
Ġê±° ëĿ¼ê³ł
íı¬ êµ¬
ĠìĽĲ ì²ľ
ĠìĽĲ ìĿ¸ìĿĦ
ìĦĿ ìĿĺ
Ġê³¼ ìĿ¼
Ġê²ĥìĿ´ ì£ł
ì» ·
ì¼ °
ĠìķĦëĭĪ ëĿ¼ê³ł
ë¥ĺ ê°Ģ
Ġë¡ ±
Ġëį° ëĭ¤
Ġìĭľìŀĳ íķĺìĹ¬
ê°Ŀ ìĿ´
Ġìĸ¸ ìłł
Ġì¤Ģ ê³µ
ĠìłķëıĦ ë¥¼
ĠìķĬëĬĶ ëĭ¤ë©´
Ġë²Ħ ë¦¬ê³ł
Ġì¤ĳêµŃ ìĿĢ
Ġìī Ĳ
Ġíĸ¥ ìĥģìĿĦ
ĠìĹĨëĭ¤ ë©´
Ġë¸Į ë¦¬
ê¹Ģ ëıĻ
Ġë¨¸ ë¦¿
Ġíİĺ ìĬ¤íĭ°ë²Į
ĠìĨĮë¹Ħ ìŀĲìĿĺ
ĠëıĮìķĦ ê°ĢëĬĶ
Ġê·¹ ëĮĢíĻĶ
Ġë©´ ìłľ
Ġì§Ģë°© ìĿĺ
Ġë°©ìĭĿ ìĿĺ
ĠìŀĲì²´ ë¥¼
Ġíĺķíĥľ ë¥¼
ĠìłĦìĭľ íļĮ
Ġëª¨ë¥´ ê²łì§Ģë§Į
ĠìĹ¼ ìĥī
Ġê·¼ê±° ë¡ľ
ëĨĵ ìĿĢ
ĠìļĶìĨĮ ê°Ģ
Ġìĥģíĺ¸ ìŀĳìļ©
ê°Ĵ ìĿĦ
ìĤ¬ìĿ´ ì¦Ī
ĠíĿ¥ë¯¸ ë¡ľìļ´
ä¹ ĭ
ĠìķĪíĥĢ ê¹Ŀ
íĽ ¼ìĨĲ
Ġê¸°ìŀĲíļĮ ê²¬
ìĸ´ë¦° ìĿ´
nn ews
ì¤ĳê³ł ì°¨
ĠíĬ¸ëŀĺ íĶ½
ë³¸ì¡° ìĭłìĦ¤
( -
B ike
¬ ë½ķ
Ġ {
ł ¥
Ġì Ń
ìľ Ĺ
ìĿ¼ ìĭľ
Ġë§ ĳ
ìĭľ ì²Ń
ëĵ¤ ê³ł
ĠìĤ¬ ëĤ´
ìłķ ë§Ĳ
ìłģ ìĿĺ
Ġíķĺ ë³´ëĤĺ
Ġê°Ģ ê³Ħ
ĠìłĦ êµĲ
ìłĦ ê³¼
êµŃ ê³¼
Ġìłķ ìĦľ
ìļ° ê°Ģ
ë¹Ħ ëĶĶìĺ¤
ìĨĮ ìľł
ĠëĤĺ ê³ł
Ġê³µ ëŀµ
Ġë¶Ģ ì±Ħ
ë¶Ħ ëĵ¤
ĠìĿĺ ê±°
ĠìĦľ ë©´
ìľł ìķĦ
Ġìĭł ëıĻ
Ġë°Ķ ì¹´ëĿ¼
Ġë°ľ ìĿĺ
ĠìķĪ ìĭ¬
ĠìĦ± íıŃëł¥
ìŀĳ íĴĪ
íĽĦ ìĹĲ
Ġë¬´ ìĥģ
ĠìķĮ ë¦¬ëĬĶ
Ġíķł ìĪĺ
Ġíķł ëĭ¹
Ġëĭ¨ ëĭ¨
íĮĮ ëĿ¼
ĠíĮĮ ìŀ¥ìĿĦ
ê²ł ì§ĢìļĶ
Ġíĸī ìĤ¬ê°Ģ
´ë³ ´ë
ĠA nd
ì¶ķ ìĤ°
Ġìķ½ ê´ĢìĿĺ
Ġë°ķ ìłķ
ĠìķĦìĿ´ ëĵ¤ìĿĦ
Ġê·¸ëŁ¬ íķĺì§Ģ
Ġì²´ íı¬
ĠëĶĶ ìĬ¤íģ¬
ĠíĸĪëĭ¤ ëĬĶ
ĠìĪľ ìľ¼ë¡ľ
Ġìĭ¶ ìĸ´ìļĶ
Ġì¤Ħ ìĹ¬
ĠíĨł ìļĶ
ĠK OD
ĠíķĺëĤĺëĭĺ ê»ĺìĦľ
Ġíĺĳ ì¡°
ĠíĶĮ ëŁ¬
ĠE d
Ġë§ĪìĿĮ ìĿĺ
ëħĲ ìĿĦ
Ġìķ¼ ê°Ħ
Ġê°Ī ìķĦ
ì´Ŀ íļĮ
Ġë²Į ê¸Ī
ĠìĿ´ëł ¥
Ġ17 0
Ġë²Ķ ìľĦë¥¼
ĠìĿ¸íĦ°ëĦ· ìĿĦ
Ġê¿ Ģ
Ġê°ľìĦł ìĿĦ
Ġê²½ìŁģ ìĿĦ
Ġë³´íĺ¸ ë¥¼
Ġëĥ īìŀ¥
ëĭ¤ìļ´ ë¡ľëĵľ
Ġê´ĳê³ł ë¥¼
ĠëĪĦêµ¬ ëıĦ
ĠíĺĦìĭ¤ ìĿĦ
Ġ199 8
Ġë³´ëĤ´ ê³ł
Ġê¹Į ëĭŃ
ĠìĭľìĦ¤ ìĿĦ
Ġë¹Ľ ìĿĦ
ë§Ľ ì§ĳ
Ġê¸įìłķ ìłģ
ĠìĿ¼ìľ¼ íĤ¤
ĠëĤļ ìĭľ
Ġê·¼ë³¸ ìłģìĿ¸
Ġë¡ł ì¹Ń
C M
p on
Â ®
ê°Ģ ìĥģ
ëĵ £
ë¦¬ ëĭĪ
ĠìĹ ´ëł¤
ê³¼ íĽĦ
ìĽĲ ëıĦ
ìķĦ ìļ¸ëŁ¬
Ġìĭľ ìĽĲíķľ
ìłĦ ìľ¼ë¡ľ
ìłĦ ë¶ĢíĦ°
ĠâĢ ¢
Ġìłķ ëł¬
êµ¬ ìĻĢ
Ġë³´ ê±´ë³µ
ëĭĪ ìĿĺ
ĠìĿ¸ ëĶĶ
ĠìľĦ ìĥĿ
ìŀĦ ëĮĢ
Ġë¶Ģ ëĭ¹
ëªħ ëł¹
Ġìĺ¤ ê³ł
Ġê³ł ì¡¸
ĠìĨĮ ì¹´
ìĹ° ê²°
ĠìĦł ì²ľ
íĹ ¨
Ġë°ľ ìĤ¬
Ġë¬¸ ìĦľë¥¼
Ġë¶Ħ íı¬
ĠêµĲ íļĮë¥¼
ëĶ ľ
ì²ľ ìĹ¬
ê¶Į ê³¼
Ġìŀ¬ ì§ģ
ĠëĤ¨ ë¶Ģ
Ġ6 00
ëĶĶ ìĬ¤íģ¬
ì¢ħ ìĿ´
íĮĮ ë¡ľ
ĠíķĺëĤĺ ëĭ¤
ĠíķĺëĤĺ ëıĦ
ê²ł ëĬĲëĥĲ
ĠS u
12 0
ìłĪ ì°¨
ĠíĻĶ ìĦ±
Ġê°ľìĿ¸ ìłķë³´ë³´íĺ¸
ĠI t
ëıħ ìĦľ
ĠëĤł ìĶ¨ê°Ģ
Ġìłķë³´ ìĿĺ
Ġì¤ĳêµŃ ìĿ´
Ġì¤ĳêµŃ ê³¼
Ġê¸°ìĹħ ìĿĢ
ĠìĿ´ìĸ´ ì¡Įëĭ¤
ĠëĤĺíĥĢ ëĤľëĭ¤
ë¨¸ ë¦¬
Ġw ww
Ġì°¾ìķĦ ê°Ģ
ìħĶ ì¸ł
Ġë§Ľ ìŀĪ
ĠìŀĳíĴĪ ìĿ´
ĠëĮĢë¶Ģë¶Ħ ìĿĢ
ĠìĿ½ ê¸°
ê±¸ ìĿ´
Ġëĭµ ìĿĦ
ĠìŀĲê¸° ìĿĺ
ê¸°ê°Ħ ìĹĲ
ĠëħĦ ê°Ħ
ĠìĹ¬ê¸° ìĹĲìĦľ
ëĲĲ ìľ¼ë©°
ãħĭãħĭ ãħĭãħĭ
Ġê±°ëŀĺ ë¥¼
ĠìłĦë¬¸ê°Ģ ëĵ¤ìĿĢ
Ġë°¤ ìĹĲ
Ġìłľìĭľ íķľ
ĠíĹĮ ìĭł
ðŁ ĺ
ëĸ ¼
Ġë¶ĢíļĮ ìŀ¥ìĿĺ
Ġch aracter
our ce
ĠëĵľëĿ¼ìĿ´ ë²Ħ
ĠëĳĲëł¤ ìĽĮ
ĠìĿ´ë³ ĳ
Ġê¸°ìŀĲíļĮ ê²¬ìĿĦ
Ġì§ĢìŀĲ ì²´
Ġëĭ¤ìĿ´ìķĦëª¬ ëĵľ
ĠKOD EX
S h
V D
Ĥ ľ
ì§Ģ ìłķ
ìķ ±
ê³¼ ëª©
ìĸ´ ì§Ģê³ł
íĺ Ķ
ĠëĮĢ ê±°
Ġíķĺ ëıĦë¡Ŀ
Ġì§Ģ ëĬĶ
Ġìĭľ íĤ¤
Ġìĭľ ë®¬
êµŃ ìŀ¥
Ġìłķ ìĦ±
ê¹ ¥
Ġê´Ģ ìłĪ
Ġë¹Ħ ê·¹
Ġë¹Ħ ìĭ¸
ìĭĿ ìĹĲìĦľ
ìĺ¤ ë¥¼
Ġìľł ì£Ħ
Ġìľł íĺ¹
ë§Ī ëĬĶ
ìĿĮ ìĹĲ
ëł¤ ìķ¼
ìĹ° ëĮĢ
ĠëĦ ī
Ġë¶Ħ ëĵ¤ëıĦ
Ġê±° ìłľ
Ġì´ Ľë¶Ī
er g
ìĺĢ ìľ¼ë©°
ĠíĬ¹ ì§ĳ
ì²ĺ ë¶Ħ
or g
Ġ7 00
ĠìĥĪ ëĪĦë¦¬
ĠíĶ¼ íķł
ĠíĶĦë¡ľ íĨł
ìĺĪ ìĪĺ
Ġê°ĢëĬ¥ íķł
Ġê·¸ëŁ¬ ëĭĪ
Ġì¹ĺ ëŁ¬
ĠìŀĪìĸ´ ìĦľëĬĶ
Ġë©Ķ ë¥´
Ġë©Ķ íĥĪ
íħĮ ìĿ´
Ġì°¾ ìķĺëĭ¤
ì¡Į ìĿĦ
Ġì§Ħíĸī íķľ
Ġì§Ħíĸī ëĲĲëĭ¤
Ġì´Ŀ ê´Ħ
ĠìĪľ ë³µ
Ġa b
ë°Ľ ì§Ģ
ĠìłľíĴĪ ìľ¼ë¡ľ
ĠìŀĪìĿĦ ê¹ĮìļĶ
ĠëĤĺíĥĢ ëĤł
ĠG M
Ġb ut
íĮĢ ìĿĦ
Ġì¶ķ ë³µ
Ġê±´ê°ķ ìĹĲ
ĠN H
Ġê¸°ëĬ¥ ìĿĢ
Ġíĺ¸íħĶ ë¶ĢíĦ°
ĠO ne
Ġë¶ĦìĦĿ íĸĪëĭ¤
ìĤ¬íļĮ ëĬĶ
ĠìŀĲëıĻ íĻĶ
ìľĦìĽĲíļĮ ë¥¼
ë§ģ ìĿĦ
Ġh as
ìĤ°ìĹħ ìĿĺ
Ġíķ´ê²° íķł
´ë§ Ŀ
Ġì§ĢëĤĺ ë©´
ìļķ ìĿĦ
ä¸ ī
ĠìĦĿ íĥĦ
Ġíĺģ ëªħ
ĠìĨĶ ë¡ľ
ĠíĬ¹ì§ķ ìĿ´ëĭ¤
ìĺģíĻĶ ìłľ
ĠìłĦëŀµ ìłģ
ĠìĦłë³´ ìĺĢëĭ¤
ĠìĿ´ë¤Ħ ì§Ħ
Ġìĭ¸ ìĽĢ
ĠìĬµ ëĵĿ
ìŀĶ ì¹ĺ
Ġë¬» ëĬĶ
Ġë¶Ģìłķ ìłģìĿ¸
Ġë¸ĮëĿ¼ ì§Ī
Ġê²Ģì°° ìĿĢ
Ġê³ĦìłĪ ìĹĲ
Ġì²łìłĢ íķľ
ĠìĤ¬íļĮë³µì§Ģ ìĤ¬
ìŀĲê²© ì¦Ŀ
Ġë¬´ë¦ İ
B D
¤ ĺ
æ µ
é Ģ
ë¡ľ ìĽĮ
ìļ ´ë§¤
´ë ª¨
ëıĦ ìłĦ
ìĿ¸ ë¯¼
ĠìĿ´ ëĵ¤ìĹĲê²Į
ìĤ¬ ê´Ģ
ìĤ¬ ë¡Ģ
ĠìĪĺ ë©´
ìĻ ģìĬ¤
ìķĦ ë¦Ħ
ìłľ ìĿ´
Ġíķľ ìª½
ìļĶ ìĨĮ
ìĪĺ ìłķ
ë³´ ìŀĲ
Ġê²½ íĸ¥
ĠìĿ¼ ìĿ¼
ĠìĿ¼ ëł¨ìĿĺ
Ġëª¨ ìĿĢ
ëĲĺ ì§Ģë§Į
ëĲĺ ëıĦë¡Ŀ
Ġìĺ¤ ì¼ĢìĬ¤íĬ¸ëĿ¼
ĠìĹĨ ìĸ´ìļĶ
Ġë§Ī ìĭľê³ł
ĠëķĮ ë³´ëĭ¤
ìķĪ ëĤ´
ìĹĪ ê¸°
ĠìĦ± ìĤ¬
ì¤ĳ ìĹĲìĦľ
ìħ ¨ìĸ´
íĭ Ī
ĠíļĮ ìłĦ
Ġìĸ´ë Ķ
ìķĺ ëĭ¤ëĬĶ
Ġìŀ¬ íķ´
ĠíĬ¹ ê²Ģ
ĠíĬ¹ ìłķíķľ
Ġê¹Ģ ë³ĳ
Ġíİ Į
ĠíĽĦ ìĹĲëıĦ
Ġê°Ĳ ìĪĺ
Ġìŀħ ìĽĲ
Ġë°° ê°Ģ
Ġ6 9
ĠìĥĿê°ģ íķĺì§Ģ
Ġì°¸ ìľ¼ë¡ľ
Ġì¢ħ ë¡ľ
Ġìĭ¬ ë¦¬ìłģ
ìĺ¨ ì¹´ì§Ģëħ¸
Ġê°ĢëĬ¥ íķĺê²Į
ĠíĮĲ ë¬¸ìłĲ
ĠëĿ¼ ìĿ´íĬ¸
Ġëĵ¤ìĸ´ ìĻĢ
íķ´ìķ¼ ë§Į
ì¡Į ì§Ģë§Į
ì¡Į ëĭ¤ëĬĶ
Ġë³µ ìĤ¬
Ġì´Ŀ íļĮ
Ġp re
ĠìĹ°êµ¬ ëĬĶ
Ġëĭ¤ìĿĮ ëĤł
ĠíĮ¨ ëĵľ
ĠíĤ ¹
ë·° íĭ°
ĠìļĶêµ¬ íķł
Ġë°ľìłĦ ìĹĲ
ĠìĦ±ê³µ ìĿĦ
íķ´ë ¶ĢíĦ°
Ġì¡°ê¸Ī ë§Į
ĠíĿĲ ë¥´ëĬĶ
Ġì°¨ëŁī ìĿĺ
åħ ¸
Ġë¬´ëĮĢ ë¥¼
ĠìĹ°ëĿ½ ì²ĺ
ĠìŀĲëŀĳ íķĺëĬĶ
Ġë» Ĺ
Ġëŀľ ëĵľ
Ġê³łêµ¬ ëł¤
etw ork
. *
I F
W S
a h
f nnews
ìĿ´ ëıĻ
ìĬ Ľ
ìĭľ ê¸¸
ìĸ´ ì´Į
Ġê¸° ë»Ĳ
ìĥģ ê¸°
ë² ¡
ì£¼ ì§Ģ
ëıĻ ê¸°
íĦ° ìĿĺ
Ġì£¼ ìĤ¬
ĠìľĦ ìķĶ
íĮ ½
Ġë¶Ģ ê°ģ
ê²½ ìĿĢ
ë§Ī ìĿĺ
ĠìĹĨ ëĬĶëį°
ê°ľ êµŃ
ìĿĮ ìĭĿ
ìľł ì¹ĺ
Ġë°Ķ ìĿ´ìĸ´
Ġíķ´ ê°Ģ
Ġë§Ĳ ìķĺëĭ¤
Ġë§Ĳ ìķĦìķ¼
ĠëĤ´ ìĿ¼
ì¶ľ ìĤ°
íİ Į
Ġì§Ħ ë¦¬ë¥¼
Ġê±° ìķ¼
íĽĦ ìĿĺ
Ġê°ķ íĻĶë¥¼
ìĨį ìľ¼ë¡ľ
ëª¨ ë°ĶìĿ¼
ìļ¸ ìĤ°
ĠëĤ¨ íķľ
ê°Ĳ ìľ¼ë¡ľ
ìłĢ ëĦĲ
Ġìĸ´ ë¦´
ì¹´ ë¥´íĥĢ
Ġìĺ¬ ë¦¬ëĬĶ
ĠìĥĿê°ģ ëıĦ
ĠíĶ¼ ìĭłì²Ń
ĠC E
Ġì¦Ŀ ìĥģìĿĦ
Ġë¦¬ ì¡°íĬ¸
ĠìĤ° ìłķ
íİ¸ ìĿ´
Ġìĸĳ ë§Ĳ
ĠìĨį ëıĦê°Ģ
ĠìķĦìĿ´ ìĬ¤
Ġì½Ķ ëĵľë¥¼
Ġ: )
Ġì¶© ì²Ń
Ġê±¸ ë¦°
201 0
Ġì¤Ħ ìĿ´ê¸°
ĠëĦĺ ê²¨
ï¼ ī
Ġíĺĳ ëıĻ
ì¹¨ ìĹĲ
Ġê¸¸ ìĿĢ
Ġê¸¸ ê²Į
Ġo ut
ìĹ´ ìĹĲ
ë²ł ë¦¬
ĠíķĻìĥĿ ëĵ¤ìĿĦ
Ġw as
Ġin ter
Ġê´Ģë¦¬ íķĺëĬĶ
Ġìłģìļ© íķľ
ë³´íĹĺ ë£Į
ĠìķĪìłĦ ìĿĦ
Ġë§ī ëĮĢíķľ
Ġíĺ¸íħĶ ìĬ¤ëĭ·ì»´
Ġë³´ìĹ¬ ì¤Ħ
ĠìĤ¶ ìĹĲ
ĠìĭľìĬ¤íħľ ìĿĺ
ë¬¸íĻĶ ìŀ¬
ĠêµĲìĪĺ ê°Ģ
Ġìĥģíĥľ ê°Ģ
Ġìłķì±ħ ìĹĲ
Ġë§Īëł¨ íķ´
Ġê³µê°ľ ëĲľ
ĠìĽĮ ìĭ±íĦ´
ĠíĽĦë³´ ê°Ģ
Ġì§ģìĽĲ ëĵ¤ìĿ´
ĠìĹ¬ë¦Ħ ì²ł
Ġëĭ´ëĭ¹ íķĺëĬĶ
ëłī ìĬ¤
Ġìŀĥ ìĿĢ
Ġë¹ĦíĮĲ íĸĪëĭ¤
ĠëĨĴìķĦ ì§Ģê³ł
Ġpro cess
ĠìĿ¸íĦ°ë·° ìĹĲìĦľ
ĠëģĿëĤĺ ê³ł
ĠíķľíĻĶ ì¦Ŀê¶Į
ĠìĿ¼ìŀĲ ë¦¬ë¥¼
ĠUS B
iel d
Ġë¦¬ìĦľì¹ĺ ë³¸ë¶Ģ
âĢĶ âĢĶ
Ġìĭ¤ë¦¬ ì½ĺ
ìļ´ë§¤ ìļ°
a ke
h t
s oft
ì ĳ
í ĵ
ìĿ´ ê¸°ìĹĲ
ĠìĿ´ ìĭĿ
ë° ĭ
ëĿ¼ ìļ°
Ġê·¸ ìķ¼ë§Ĳë¡ľ
Ġê°Ģ ì§ľ
Ġì§Ģ ëĤ´
ĠìłĦ ìĦ¸
ĠìłĦ ìĹĲëĬĶ
íĻĶ ë©´
ĠìŀĲ ë¶Ģ
Ġì£¼ ìľĦ
ĠìĿ¼ ëª°
íĮ ¸
íĸī ìĿ´
Ġê³ł ìĨĮ
Ġë¹Ħ ëĪĦ
ê²½ íĹĺ
ìĿĮ ìĿĢ
Ġë§Į ëĵľ
Ġë§Į ëĤ¬
Ġìĭł ê¸°
Ġë°Ķ ê¹¥
Ġë§Ĳ ëĿ¼
Ġë¯¸ ì¹ľ
ĠëĤ´ ìĭľê²½
Ġê±° ëĭ¤
Ġê±° ì¹ĺ
Ġìŀ¥ ë¡ľ
ĠìĽĲ ìŀ¥ìĿĢ
Ġíı¬ ì°©
Ġê¹Ģ ìĥģ
íĺĦ ìĿĢ
Ġê°Ĳ ìłķìĿĦ
Ġëĭ¨ íĮĮ
ê°ķ ìĿĦ
íĮĮ ìĿĺ
ĠìļĶ ìĿ¸
Ġì¦Ŀ ì§Ħ
ĠA D
ĠëĨĴ ìĿ¼
ĠëĨĴ ìķĺëĭ¤
ĠìĨį íķľ
Ġíģ¬ ì§Ģ
Ġë²ķ ìĽĲ
ĠìĿĮ ë¶ĢìĻĢ
it al
Ġíİ¸ ìĿ´ëĭ¤
Ġíİ¸ ìŀħ
Ġë©Ķ ìĿ´íģ¬
Ġë¶ģ ì¸¡
Ġë³µ ìĿĮìĿĦ
Ġì´Ŀ ìĪĺ
ĠëĤł ìĿ¸
Ġíĺķ ìĭĿìľ¼ë¡ľ
ëĳ ĳ
Ġê¸°ìĪł ë¡ľ
ĠíĶĮ ëŁ¬ìĬ¤
ĠìĿ´ìķ¼ ê¸°ëĬĶ
ĠìĬ¹ ë¦¬ë¥¼
ĠìĦ¤ëªħ íķ´
ĠëģĿ ìĿ´
Ġìĵ° ëŁ¬
Ġì²« ëĤł
ĠíĻľëıĻ ìĿ´
Ġì¶ķ ìłģ
Ġê³¨ ëª©
Ġê·Ģ íķĺìĿĺ
Ġìłģìļ© íķł
Ġìĥī ì¡°
ĠìĿ¸ê°Ħ ìĿĢ
Ġë¬¼ë¡ł ìĿ´ê³ł
ĠëıĮìķĦ ìĺ¤
ĠìĭľìĬ¤íħľ ìĿĢ
ĠíĤ¤ ìļ°ëĬĶ
ì§ĢëıĦ ìĤ¬
ĠíĿ¬ ê·Ģ
ĠëıĦìĭľ ìĿĺ
ĠìŀĲë£Į ìĹĲ
ĠíĶ¼íķ´ ê°Ģ
Ġëĵ¯ íķĺëĭ¤
Ġìĭ¤ìĭľ íķľ
Ġì£¼ë¯¼ ëĵ¤ìĿĺ
Ġï »¿
Ġìĭľíĸī ëł¹
ĠìĦ¤ë¦½ ëĲľ
åħ ¬
Ġê²ª ëĬĶ
Ġv ar
Ġíĳ¸ ëĵľ
ard s
Ġì°¸ê³ł ë¡ľ
Ġë¬´ëĮĢ ìĹĲ
ĠëĤĺíĥĢëĤĺ ê³ł
ĠëĴ· ë°Ľì¹¨
ë°Ģë¦¬ë¯¸íĦ° ìĿ´íķĺ
Ġìĺµ ìħĺìĿĦ
ĠìĨĶë£¨ ìħĺìĿĦ
Ġíĥģ ìĽĶíķľ
ĠìķĦìī¬ ìļ´
Â·Â· Â·
Ġëĭ¤ë£ ¬
ĠëĦ¤ìĺ¤ ê²½ìłľ
ĠëĬĲê¼ Ī
nb sp
Ġëĭ¤ì±Ħ ë¡ľìļ´
. âĹ
2 20
W M
p ut
Ġë ĮĦìĬ¤
ìĦľ ìķ¼
ë¦¬ ëĵľ
ìĭľ ëĮĢìĿĺ
ìŀĲ ë§ĪìŀĲ
ìĸ´ ì§ĢëĬĶ
ìłķ ìĽĲ
ìłķ íĻķ
ìłĦ ëıĦ
ìĹħ ìĹĲ
Ġì£¼ ìĨĮë¥¼
ĠìĿ¸ ìĦ±
ê³Ħ ì¸µ
Ġì¤ĳ ëıĻ
Ġì¤ĳ ëıħ
ëŁ¬ ê°Ģ
íķĻ ìĪł
ìĺ¤ íĶĦ
ìĪ ¨
íĨµ ìĥģ
Ġì§Ħ ê³µ
Ġë§İ ìķĦìĦľ
íĶĦ ëŀĳ
ĠíĺĦ ìĥģìĿĦ
in st
Ġê³Ħ ëŀĢ
íĺĦ ìĿ´
Ġì¢ĭ ìķĺìĬµëĭĪëĭ¤
ë¡ł ìĿ´
Ġìĸ´ ì¨Į
ëĶĶ ìĬ¤
ê²ĥ ìĿ´ëĭ¤
al m
Ġì²Ń íĥģ
ĠìĹĲ ì½Ķ
ëıħ ë¦½
ĠìĹ°êµ¬ ìĨĮ
Ġì¤ĳìļĶ íķ©ëĭĪëĭ¤
Ġìµľê³ł ê¸ī
ê¸°ìĹħ ìĿĺ
Ġê·Ģ ë¥¼
ìľµ íķ©
ĠíĻĪ ëŁ°
ĠìķĦì§ģ ê¹Įì§Ģ
Ġn m
ê¼ ½
Ġëħ¹ ìĿĮ
ĠìĬ¬ ë¡¯
Ġìĸ´ëłµ ê²Į
ess ion
ìĬ¤ëŁ½ ëĭ¤
ĠìŀĳìĦ± íķľ
Ġëħ¼ìĿĺ ê°Ģ
Ġë¯¼ì¡± ìĿĺ
Ġë¹Ħìľ¨ ìĿ´
Ġìĸ´ìļ¸ ë¦¬ëĬĶ
cl ud
Ġìļ°ìļ¸ ì¦Ŀ
Ġìĥģì²ĺ ë¥¼
Ġì²Ńìķ½ì²ł íļĮ
ìľłê³µ ìŀĲ
ĠíĬ¸ëŀľ ìĬ¤
1 000
e ed
Ń ëĭĪëĭ¤
ê³ §
íķľ ìĿ¸
ë§ µ
ĠìĿ´ ìľ¤
ìŀĲ ëĤĺ
ĠìĪĺ ìĭľ
ĠìĪĺ íĻķ
íĸ ĩ
Ġíķ ´ë§
Ġêµ ½
ìķĦ íģ¬
íĬ¸ ëłĪìĿ´
ìĪĺ ìĤ¬
ĠâĢ »
ĠìŀĲ ê¸°ê°Ģ
Ġì£¼ ëĲľ
Ġëª¨ ëįĺ
íĸī ëıĻ
Ġìĺ¤ ë¥´
Ġìĺ¤ íİĺëĿ¼
Ġê³ł êµĲ
ĠìĨĮ ë©¸
ìļ´ ëıĻìĿĦ
ĠìĹ¬ ì§Ģê°Ģ
ĠìĹ¬ ìĿĺëıĦ
ĠìĹ° ìĥģ
Ġìĭł ê²½ìĿĦ
ë¯¸ íķľ
Ġë§İ ìĿĦ
ĠìĤ¬ëŀĮ ìĹĲ
ĠìłĢ ìĨĮëĵĿ
ĠìķĮ íĮĮ
Ġë¶Ī ë§ĮìĿĦ
Ġìļ°ë¦¬ ëĤĺëĿ¼ëĬĶ
Ġê¹Ģ ì§Ģ
Ġê¹Ģ ê¸°
ĠìĤ¬ìļ© íķľëĭ¤
ëĶĶ ì§ĢíĦ¸
Ġê²ĥìĿ´ ê¸°
Ġì¶ľ ìĥĿ
ì½Ķ ëĶ©
ëĭ¬ ìķĦ
ĠC ol
al e
ì¦Ī ìĿĺ
ĠíķĦìļĶ ëĬĶ
ĠìĨį ëĪĪìį¹
Ġê¸Ī ë°©
ë³Ģ íĺ¸
Ġë¡ľ ìĬ¤
ëĿ½ ìĿĦ
Ġë²Ħ ìĦ¯
ĠìĹ°êµ¬ ê°ľë°ľ
ĠëĦ¤ ìĿ¼
ê·ł íĺķ
ĠG S
Ġê³łê°Ŀ ëĵ¤ìĹĲê²Į
Ġë¬¸íĻĶ ìľłìĤ°
Ġì±ħìŀĦ ìĿĢ
Ġì¹¨ ë¬µ
ut h
íķ´ë §
Ġë°Ģ ëł¤
Ġê²½ìŁģ ìĿ´
ĠìķĦëŀĺ ìĹĲ
ĠíĸīìĤ¬ ìĹĲ
ul l
Ġìłľì¡° ìĹħì²´
ìĬ¤ëŁ½ ê³ł
Ġìŀĥ ê³ł
ĠíĶĮëŀ«íı¼ ìĿĦ
ìķŀ ìĹĲ
Ġê°Ħëĭ¨ íŀĪ
Ġìį¨ ìķ¼
ĠëĬĲê»´ ì§ĢëĬĶ
Ġì²´ê³Ħ ìłģìĿ¸
ĠëĮĢì±ħ ìĿĦ
Ġì¶Ķìĸµ ìĿĦ
ĠìĿµìĪĻ íķľ
Ġform ed
Ġì¤Ħìĸ´ ëĵł
Ġìķ¡ìĦ¸ ìĬ¤
Ġìĸ´ëĸ¨ ê¹Į
ĠìĬ¬ëĿ¼ìĿ´ ëĶ©
yric s
. ]
7 8
L A
M C
P ro
Ã Ń
ĵ Ĵ
íķĺ ê°Ģ
íķĺ ëĵľ
ê°Ģ ëĵ¤ìĿ´
ìķ ¨
ìľ¼ ëĭĪê¹Į
ĠìĤ¬ ìļ°
ìĸ´ ëĬĲ
Ġ1 10
ĠëĮĢ ê°ľ
ëĮĢ ì¤ĳ
Ġíķĺ ìĪĺ
Ġê°Ģ íĨ¨ë¦Ń
ĠìķĦ ì¹´ëį°ë¯¸
ìļ° ë©°
ë¹Ħ êµĲ
íĸĪëĭ¤ ë©´
ì¡° ìłĪ
Ġê³µ ìłģ
ìŀĦ ìĿ´
íķĻ ê¸°
Ġê³ł ëĤľ
ê¹Į ì§Ģë§Į
ë¶Ħ ë¥ĺ
Ġìľł ìłģ
Ġìľł ëł¥
ë§Ī ìĬ¤íĦ°
Ġë§Ī ìĿ¼
ĠìĦľ ë¶Ģ
Ġë°Ķ ë¥´
Ġê¸ ´ë°Ģ
Ġë°ľ ëĿ¼
Ġë¯¸ ì¹ł
Ġë¯¸ ì¹ĺì§Ģ
ë°© ìĿĺ
Ġìĭ¤ ëł¥
ì°¨ ë³Ħ
ì°¨ ìĿ´ì¦Ī
Ġê±° ë¦¬ë¥¼
Ġë© ķìĭľì½Ķ
ìĸ´ë °
Ġê²° ìĭ¬
ì²Ń êµ¬
Ġê°Ĳ ì§Ģ
ì¸ Ħ
ê°Ĳ ëıĦ
Ġëĭ¹ íķľ
íĭ° ì§Ģ
ĠíĻķ ë¥łìĿ´
Ġíķ© ìĦ±
Ġíķ© ë²ķ
ĠëĳĲ ë£¨
Ġìĺ¬ ë¦¬ê³ł
Ġëį° ìĹĲ
Ġëĵľ ë¬¼
Ġíģ¬ ë¦¼
Ġìĭ¶ ì§Ģ
Ġì²ľ ìķĪ
ëī´ ìĸ¼
Ġë¸Į ëĿ¼ìļ´
íĮĢ ìĿĺ
ĠìĿĺë¯¸ íķĺëĬĶ
Ġ18 0
ĠíĻĺê²½ ìĿ´
ĠìĺĪìłķ ìŀħëĭĪëĭ¤
ĠìļĶêµ¬ ìĹĲ
Ġìĥģíĥľ ìĹĲ
ĠíĥĪ ëĿ½
ìĬ¬ ëŁ¬
ĠíĮĢ ìĿĺ
ê¼ Ń
Ġê¸°ìĸµ ìĿĦ
ĠìĶ¨ ê°Ģ
ĠìĤ¬íķŃ ìĹĲ
Ġê°ĳ ìĥģìĦł
ĠìļĶì²Ń íķł
Ġê¾¸ ë©°
ì¿ ¼íĦ°
Ġëĵ±ìŀ¥ íķľ
ĠíŀĪ íĬ¸
ĠìĬµ ê´Ģ
ê³Ħíļį ìĿĦ
ĠìłĬìĿĢ ìĿ´
ĠíĹĮë²ķ ìŀ¬íĮĲ
Ġìļ°ìĬ¹ ìĿĦ
Ġus ing
ĠìĹī ëį©
erv ice
Ã³ n
ìłķê·ľ ì§ģ
( )
7 9
H z
P D
S N
æ Ģ
ç Ł
Ġ up
íķĺ ë¥¼
ìĿ¼ ìľ¼
ê¸° ìĹĲìĦľ
ĠìĿ´ íĻĶ
ëł Ĳ
ìķĦ ëıĻ
ë§Į ëĭ¬ëŁ¬
ê¸ į
ì£¼ êµĲ
ìĽĶ ìĺ¤ìłĦ
Ġì£¼ ìĭľê¸°
Ġê²½ ë¥ľ
ì¡° ìĿ´
ì¡° ìĻĢ
Ġê³µ ìĿµ
Ġë¶Ģ ìłģ
Ġë¶Ģ ëĮĢ
Ġê³ł ìĭľ
ìľĦ íķ´
Ġë¹Ħ íıī
Ġìľł ë§Ŀ
ĠìĹĨ ëıĦë¡Ŀ
Ġë§Ī ìĬ¤íĦ°
Ġë°Ķ ìľĦ
Ġë§Ĳ ë¯¸
ĠìĦ¸ ìĥģìĿ´
Ġê¹ İ
ĠëĤ´ ë¦¬ëĬĶ
Ġìµľ ìĪľìĭ¤
ìĹŃ ìĿ´
ĠìĦ± ìłģìĿĦ
íĽĦ êµ°
íĽĦ ëį¥ì§Ģê·¼íķľ
Ġìŀ¥ ë¹Ħë¥¼
Ġê°ķ ìĤ¬
ĠìĽĲ ê²©
Ġíıī ëĵ±
ëĭ¬ ëĿ¼
ĠìĥĪ ëģ¼
Ġì¢ħ ìłĦ
ar m
Ġ19 70
ĠìĿ´ìĥģ ìľ¼ë¡ľ
Ġë°Ŀ ê¸°
íĶĮ ë¡ľ
Ġê²Ģ ì§Ħ
Ġc o
Ġp age
Ġë²ł ë¥¼
ĠìĦ¤ëªħ ìĿ´ëĭ¤
Ġë¹ł ë¥´ê³ł
ĠìĤ¬ì§Ħ ìĿĢ
ĠìĥĿìĤ° íķĺëĬĶ
Ġìĺģíĸ¥ ìľ¼ë¡ľ
ìĹ°íķ© íļĮ
ĠìŀĲìĹ° ìĿĺ
Ġn o
ay er
íĴį ìĿĦ
Ġê³łëł¤ íķ´
Ġê°ĳ ìŀĳ
ĠìľĦíĹĺ íķľ
ĠìĹ¬ëŁ¬ë¶Ħ ìĿ´
ìºĲ ìĭľ
ĠìĹ¼ ëł¤
íİľ íĮĶ
ìħĢ ëŁ¬
Ġë§ģíģ¬ ë¥¼
Ġì§Ģêµ¬ ì´Į
Ġì§ĢíĤ¤ ëĬĶ
ĠëĬĺìĸ´ëĤĺ ëĬĶ
æĹ ¥
7 4
E x
w it
¨ ¹
æ Ļ
ì ¥¬
ĺ ëĬĶ
ļ ê½ĥ
ëĭ¤ ì§Ģ
ìĦ ¹
íķĺ ëĵ¯
ì§Ģ ìĭĿ
ì§Ģ ê±°ëĤĺ
ëıĦ ìĤ¬
ìľ¼ ëł¤ê³ł
ëĵ¤ ìĹĲìĦľ
ĠìŀĪ ê²łëĭ¤
ĠìĪĺ ìĭľë¡ľ
ìĽĲ ìĿ¸
Ġìĸ ½
ëıĻ íı¬
Ġë³´ ìľ¡
ĠìĿ¸ ì¦ĿìĿĦ
ĠìĿ¼ ëĮĢ
ëĲĺ ìĹĪëįĺ
íĸī ìĿĢ
ì²´ ìłģ
Ġìľł íķ´
ê²½ ê¸°ëıĦ
ë¬´ ìĹĩ
ë¬¼ ë¥ĺ
íĨµ ìĿ´
ĠìĬ¤ íİĻ
Ġìµľ ëĭ¤
Ġìµľ ìļ°ìĪĺ
ë²ķ ìĥģ
ì¤ĳ ìĨĮ
Ġë¶Ħ ìĭ¤
ëĬ¥ ëł¥ìĿĦ
ĠìĺĪ ìĤ°ìĿĦ
ëĶ §
ĠìĤ¬ëŀĮ ëĵ¤ëıĦ
Ġë¬´ íļ¨
ë³¸ ìĿĦ
Ġë§¤ ë²Ī
Ġìłģ ê²Į
Ġëĭ¨ ìĨį
ë§¤ ìĪĺ
Ġë°° íĦ°
Ġìŀĳ ê°Ģê°Ģ
Ġì°¨ ìĽĲìĿĺ
ì¢ħ ìĿĢ
ë¦½ íĬ¸
Ġ8 00
ëĤ¨ ìŀĲ
Ġë¦¬ íı¬
Ġ19 60
Ġëį° ìĿ´íĬ¸
Ġìķ½ ê´ĢìĿĢ
Ġìĺ¨ ì¹´ì§Ģëħ¸
Ġì¹ĺ íĤ¨
Ġíİ¸ ìĿ´
Ġìĭľê°Ħ ë³Ħ
Ġì²´ ìłľ
Ġì²´ ì¤ĳ
ĠëĿ¼ ìĬ¤
Ġì¤Ħ ìĿ´ê³ł
Ġíĺĳ íļĮ
ĠìĿ´íĽĦ ë¡ľ
Ġê´Ģê³Ħ ìŀĲ
ìĹ´ ìĿ´
Ġíı¬íķ¨ íķĺìĹ¬
Ġë³´ë ŀĮ
êµĲìľ¡ ì²Ń
Ġìĵ° ì§Ģ
Ġê¸°ë¡Ŀ íķĺê³ł
Ġìĸ» ê²Į
Ġì¤Ģë¹Ħ ê°Ģ
ĠìĤ¶ ê³¼
Ġë°ľíĳľ ëĲľ
Ġìĺ¤ëĬĺ ëıĦ
Ġë©´ ìĦ¸
Ġíıīê°Ģ íĸĪëĭ¤
ìĿ´ìĸ´ ìķ¼
ëĵ¯ íķľ
Ġn ot
Ġê¸°ì¡´ ìĹĲ
Ġê·ľëª¨ ë¡ľ
ĠëĤĺëĿ¼ ê°Ģ
ĠìĬ¬ íĶĶ
Ġ199 7
Ġìĸ´ëĶĶ ìĹĲ
Ġì°¨ì§Ģ íķĺê³ł
Ġë¹Į ëł¤
ìķŀ ìĦľ
ob ile
Ġì¼ĢìĿ´ ìĬ¤
Ġê·ł íĺķìĿĦ
ĠíĽĪëł¨ ìĿĦ
Ġê±°ì£¼ íķĺëĬĶ
ĠìłľìĿ¼ ìķĪìłĦíķľ
Ġëįĺ ìł¸
ëļ ±
Ġìŀ¥ëĤľê°Ĳ ìĿĺ
ĠìĻĢìĿ´ íĮĮìĿ´
Ġë¶ķ ê´´
ĠìľłíĬľ ë²Ħ
Ġì¦Ĳê±° ìĽĢìĿĦ
Ġë¡ľê·¸ ìĿ¸
ĠìĿ´ìĬ¬ ëŀĮ
ë°Ģë¦¬ë¯¸íĦ°ìĿ´íķĺ ë¡ľëĬĶ
= +
S A
X L
i ed
l es
n ect
o le
â ĺ
ë ¿
Ġ he
ìĿ¸ ëĵ¤ìĹĲê²Į
ëł µ
ë³ ¶
ĠìĤ¬ ë¬¼
ĠëĮĢ ëª©
ë¶Ģ ê³łìĭľìłľ
Ġê°Ģ ìĤ°
íĻĶ ë¬¸
Ġìłķ íķ´ì§Ħ
Ġë³´ ìĥģìĿĦ
ìļ° ìĦ±
ĠìĿ¸ ìĬ¤íĥĢê·¸ëŀ¨
ê³Ħ ìĹĲìĦľ
ê³µ ìĤ¬ëĬĶ
ì§Ħ ë£Į
ìĺ¤ ëĭĪ
Ġìľł ëıħ
Ġë§Ī ëĶĶ
ìķĪ ìłķ
ìķĪ íĥĢ
ìĭ¤ ê³¼
ìľł ì§Ģ
ĠìķĪ ìĤ°
ĠìķĪ ìĸĳ
íģ¬ ë¦¼
Ġìŀ¥ ë¡Ģ
ĠíļĮ ìĿĺë¥¼
Ġë¬´ ì§Ģ
Ġíı¬ ë¥´
Ġì¶Ķ ëĿ½
Ġê°Ĳ ìĤ¬ìĿĺ
ĠìĤ¬ìļ© íķ©ëĭĪëĭ¤
Ġëĭ¹ ëĭ¹
Ġëĭ¹ ìĤ¬ìŀĲ
ê»ĺ ìĦľëĬĶ
ê²° êµŃ
ê²ł ìĸ´ìļĶ
Ġëĭ¬ íķľëĭ¤
Ġë¦¬ ìĬ¤íģ¬
Ġëį° ëĬĶ
ĠìĿ´ëŁ ´
Ġë¬¸ìłľ ìłĲìĿĦ
ë°ķ ê·¼íĺľ
ìĥī ìľ¼ë¡ľ
ĠìķĦìĿ´ ëĬĶ
ĠìķĦìĿ´ ëĵ¤ìĿĢ
Ġì¹ĺ ëªħ
ìŀĪ ìĸ´
Ġíİ¸ ë¦¬íķľ
Ġì½Ķ ëĦĪ
ë³´ëĭ¤ ëıĦ
ĠL TE
Ġê±¸ ê³ł
Ġê±¸ ë¦´
Ġìĭ¶ ëĭ¤ëĬĶ
Ġì¤ĳêµŃ ìĹĲìĦľ
ĠêµĲìľ¡ ìĿĺ
201 9
Ġì§ĢìĽĲ íķł
Ġì¤Ħ ìĿ¼
ìĹĨ ëĭ¤
Ġëħ¼ ìĿĺë¥¼
ĠìĿ¼ë³¸ íİľíĮĶ
Ġë§ĪìĿĮ ìĿĢ
êµĲìľ¡ ìĿĺ
Ġìŀ¡ ì§Ģ
ĠìŀĪìĹĪ ìĿĦ
Ġë¬¸íĻĶ ê°Ģ
ĠíĻľìļ© íķĺëĬĶ
Ġë¶Ħìķ¼ ë¥¼
ĠëıĮìķĦ ìĻĶëĭ¤
ĠíķĻêµĲ ìĹĲ
Ġê°Ģìŀħ ìŀĲ
ĠíĥĦ íĥĦ
Ġìĭ¤ìĭľ íķĺê³ł
ĠëĽ° ìĸ´ëĤĺ
oc um
Ġê²¬ ìĿ¸
Ġ199 6
Ġ199 9
Ġìĸĺ ê¸°ë¥¼
Ġì¢Į ìłĪ
ëĪĪ ìĹĲ
Ġëľ¨ ê²ģ
ëĲĺìĹĪ ìĿĦ
ĠìļĶì¦ĺ ìĿĢ
íİľ ìħĺ
Ġë¶Īíİ¸ íķľ
Ġì¤ĳê°Ħ ìĹĲ
ëĤ® ëĤ®
Ġë¹ĦíĬ¸ ì½ĶìĿ¸
íķĺìħ¨ ìĬµëĭĪëĭ¤
ĠëıĦìĦľ ê´Ģ
ì¾Įìłģíķľ ëĶ°ëľ»íķľ
Ġë» Ķ
res ent
enc y
Ġìłķì²´ ìĦ±ìĿĦ
Ġê·¼ì²ĺ ìĹĲ
Ġê¸īê²© íŀĪ
Ġì§Ģë°©ìŀĲì¹ĺ ëĭ¨ì²´
ìħ¨ìĸ´ ìļĶ
L C
e at
p or
t r
Ġ ]
Ġ }
Ġì ī´
Ġë Į
ë¡ľ ìĹĲ
ìĿ¼ ëª°
ê°Ģ ê²Į
ë§ ĳìĿĢ
íķ´ ìĻĶ
ìĭľ íģ¬
ĠìĿ´ ì¢ħ
ìĬ¤ íİĺ
ëĿ¼ ê°Ģ
ĠìĤ¬ ìķĪ
ëį §
Ġê°Ģ ëĿ¼
Ġì§Ģ ì§Ģë¥¼
ë§Į ê°Ħ
ì£¼ ìĤ¬
ìłĦ íĨµ
íķĺëĬĶ ë²ķ
Ġëĭ¤ íķ´
Ġëĭ¤ ìĬ¤
íĦ ±
ĠìĿ¸ êµ¬ê°Ģ
ìĨĮ ìħľ
Ġê°ľ ê´Ģ
Ġìĺ¤ ë©´
Ġìĺ¤ ìĬ¤íĬ¸
ĠìĨĮ ìķĦ
ìŀ¬ ê°Ģ
ĠìĽ ¬
íģ ´ëŀĺ
ìľł íĺķ
Ġë°Ķ ìĹĲ
ĠìĬ¤ ì½Ķ
ĠìĦ± íıŃ
ì°¨ ëŁī
Ġê°Ļ ìķĦìĦľ
íĸĪ ëĬĶì§Ģ
ì²ľ ìĿĺ
ĠìĽĲ ìŀĲ
ĠìĽĲ ìŀ¥
ê±´ ìĹĲ
Ġì¶Ķ ì¸¡
ê²ĮìŀĦ ìĤ¬ìĿ´íĬ¸
ĠìĤ¬ìļ© ìĿ´
Ġì°¨ ìĽĲ
Ġì¢ĭ ìķĺëĭ¤
ìłĢ ì¶ķìĿĢíĸī
Ġ6 8
ĠíķľêµŃ ìĺģíĻĶ
ĠS D
ëħ¸ íĬ¸
Ġëį° ëł¤
Ġìĸĳ ìĿĺ
ìĺĪ ìłķ
ĠìĨį ëıĦë¡ľ
Ġìĭľìŀĳ íķł
Ġê·¸ëŁ¬ ëĭ¤
Ġs erver
ì»¤ íĶ¼
Ġë²Ī ìĿĺ
Ġíĺķ ìĭĿ
ìłĳ íķľ
Ġëıħ ì°½
Ġì§Ī ìĿĺ
ĠëĮĢíĨµëł¹ ìĹĲê²Į
Ġíŀĺ ìŀħ
ĠíĶĮ ë¡ľ
ro ug
Ġë²ł íĥĢ
Ġë°± ìķħ
ĠêµŃëĤ´ ìĹĲ
âĢ¦ .
ĠíĶĦë¡ľê·¸ëŀ¨ ìľ¼ë¡ľ
Ġê³łê°Ŀ ìĿĦ
ĠìŀĪìĹĪëĭ¤ ëĬĶ
Ġìķ¼ ìĥĿ
Ġë¶ģíķľ ìĹĲ
Ġê¸°ì¤Ģ ìĹĲ
ê³¡ ìĿĦ
ê´Ģë¦¬ ìľĦìĽĲíļĮ
Ġìľłì§Ģ íķĺëĬĶ
íļ¨ ìľ¨
ë§ĮìĽĲ ìľ¼ë¡ľ
Ġìłľìŀĳ íķľ
un ction
ĠìĿ½ ìĿĦ
Ġëľ» ìĿ´ëĭ¤
ĠìĹ°ê²° ëĲľ
Ġìĭľë¯¼ ìĿĺ
ĠìĦľë¡ľ ìĿĺ
Ġìłľì¡° ìĹħ
Ġ199 4
Ġê²Įìĭľ ë¬¼ìĿĦ
Ġì§§ ê²Į
Ġë°ĺìĿĳ ìĿ´
ê²½ìĺģ ìŀĲ
Ġíĥĳ ìĬ¹
ë°¤ ë°¤
ĠìĤ¬ìľł ê°Ģ
Ġë¶ĢíļĮ ìŀ¥ìĿ´
Ġwh ich
ĠìĹĲëĦĪ ì§Ģë¥¼
ĠìłľìĻ¸íķĺê³ł ëĬĶ
ë¹¨ ë¦¬
ĠìĪĺíĹĺ ìĥĿ
Ġê°ĢëĤľ íķľ
Ġê°Ģë²¼ ìļ´
ĠëĦī ëĦī
G A
L E
j j
o int
s ion
£ ¨
ĳ ¹
ìķ µì»¤
Ġê° ĵ
ë§ Ļ
Ġë§ Īëĭ¤
ìĿ¸ ëĵ¤
Ġìĭ ¼
ĠìĿ´ ë¦¬
ĠìĿ´ ì§Ħ
ĠìĿ´ ìĪľ
ĠìĤ¬ ëªħ
ĠìĤ¬ ìľ¡
Ġíķĺ ìħ¨
Ġëĵ ŃëĭĪëĭ¤
ĠìłĦ ëıĻ
ĠìķĦ ê¹Į
ìĪĺ ì§Ģ
ĠìŀĲ ìĭĿ
ĠìŀĲ ìĻ¸ìĦł
ĠìŀĲ ì¹«
ë¬¸ ìľ¼ë¡ľ
ë¹Ħ ìĹĲ
ë¹Ħ ìłĦ
Ġê²½ ê¸°ê°Ģ
Ġê³µ ë¬´
Ġìĥģ ëĭ¨
Ġìĥģ íĻĺ
Ġë¶Ģ íĮ¨
Ġìĺ¤ ìĿ¼
Ġìľł íķĻìĥĿ
ë§Ī ìĿ´íģ¬
ĠìĹ¬ ê°Ŀ
ìĿĮ ë£Į
ìĹ° ê·¹
ëĭ¹ ê³¼
ĠìĦ¸ ìĿ´
Ġìĺģ ì£¼
ìĿ´ëĿ¼ ë©´ìĦľ
ĠëĲĺ ê²Į
ĠëıĦ ìĭ¬
Ġë¶Ħ ìĤ°
ĠëĨ Ī
ìĸ´ë Ŀ½
ĠìķĮ ëłĪ
ĠëĤ¨ ê¸´
Ġt r
Ġìŀħ ë§Ľ
Ġìŀĳ ê°ĢëĬĶ
ë¡ł ìĿĺ
Ġ6 7
Ġë¬¼ ìĸ´ë³´
ĠíĮĮ ëĬĶ
íķŃ ìłľ
Ġ8 2
Ġëª© ê²©
ĠìĨĲ ëª©
Ġìĭľê°Ħ ìĿĺ
ĠI M
ëŀľ ì°¨ìĿ´ì¦Ī
ëĨ Ī
Ġìĸ¸ ëįķ
ĠëĮĢíĳľ ìłģ
íıī ëĵ±
Ġìĭ¶ ëĭ¤ë©´
ĠìĹ°êµ¬ ìĿĺ
ĠëĦ¤ ìĿ´
Ġd ie
ĠëĨį ë¦¼
ro id
Ġê°ĸ ëĬĶëĭ¤
ĠìĿ´ìĸ´ ì§Ģê³ł
ì¸µ ìĿ´
ĠíĶĦë¡ľê·¸ëŀ¨ ìĿĺ
Ġê³łê°Ŀ ìĦ¼íĦ°
ê²Ģ ìĥī
ĠíħĮ ëŁ¬
Ġê³¨ ëĵł
Ġê°Ī ëĿ¼
íķĺìĺĢ ëĬĶëį°
ĠìĿ¸ê°Ħ ìĿĦ
ĠíıŃ ëĦĵ
ĠëıĮìķĦ ìĺ¨
ĠìĭľìĬ¤íħľ ìĹĲ
Ġê¸°ê°Ħ ìĿĢ
em b
Ġì¹ľêµ¬ ëĵ¤ìĿ´
ĠíĳľíĺĦ ìĿĦ
Ġì§Ģë°© ìĿĺíļĮ
ĠìĨĮê°ľ íĸĪëĭ¤
Ġëª¨ëį¸ ë¡ľ
Ġëª¨ëį¸ ìĹĲìĦľëĬĶ
íĭĢ ë¦°
ĠìĿ´ë£¨ìĸ´ ì§ĢëĬĶ
Ġìĭľë¯¼ ëĵ¤ìĿĺ
Ġê·ľëª¨ ëĬĶ
Ġì¡°ìĦł ì¡±
Ġì°¸ìĦĿ íĸĪëĭ¤
ĠìľĦíĹĺ ìĿĦ
Ġëŀ ©
ë³¸ë¶Ģ ìŀ¥
ĠìĨĮìŀ¬ ë¡ľ
Ġëı¼ ìļĶ
ĠìķĦì¹¨ ìĹĲ
Ġë§ĲìĿ´ ì£ł
âĪ Ļ
ĠìĺģìĹŃ ìĹĲìĦľ
Ġìºł íķĳ
ĠëĲĲ ìĬµëĭĪëĭ¤
ĠìĹĦë§Ī ê°Ģ
ĠíĻĶë©´ ìĿĦ
Ġë¹Ħìľ¨ ìĿĢ
ĠíĿ¡ ìĹ°
Ġëĭµë³Ģ ìĿĦ
ĠìĬ¤ìľĦ ì¹ĺ
åľ ¨
ì±ħìŀĦ ìŀĲ
ĠìĿ´ëĿ¼ ëĬĶ
ĠìĿ´ìĻ¸ ìĿĺ
âłĢâłĢâłĢâłĢ âłĢâłĢâłĢâłĢ
Ġíķĳ íģ¬
the Bike
na ver
Ġìķŀìŀ¥ ìĦľ
íĤ¬ë¡ľë¯¸íĦ°ìĿ´ ëĤ´ëĬĶ
C l
f ig
l t
l ine
æ ²
ë ĺĳ
ï §
ìĿ´ ì²ĺëŁ¼
íķĺ ëĦ¤ìļĶ
ìĭľ ìŀ¥ìĿĺ
ìĭľ ìŀ¥ìĹĲ
ìŀĲ ë¦¬ìĹĲ
ëĿ¼ ë¦¬
ĠìĪĺ ìĿĺ
ĠìĤ¬ ëĭ¤ë¦¬
ìĸ´ ìĻĢ
ĠëĮĢ ìĤ¬
ĠëĮĢ ëĮĢ
ìĽĲ ìłĦ
Ġíķĺ ìĭľê³ł
Ġê¸° ì§Ģ
Ġê°Ģ íķ´
Ġê°Ģ ëŁī
ìķĦ ë¥¼
íĻĶ ìŀ¥
ìĻĢ ìĿ´
ëħĦ ìĿĢ
ĠìľĦ ì£¼ë¡ľ
ê³Ħ ìĹ´
Ġì¤ĳ ê°ľ
Ġë¶Ģ ë¥¸ëĭ¤
ìĦł ê³¼
Ġë¹Ħ ìĦľ
Ġë¹Ħ ë¡Ģ
ì²´ ë¡ľ
ë¶Ħ íķł
ìĺ¤ ìĻĢ
ìŀ¬ íķ´
Ġì¡° ë¦¬
ëĦ Ľ
Ġë§Ĳ íĸĪìĬµëĭĪëĭ¤
ĠëĲĺ ê¸°ëıĦ
ĠìĦ± ë³Ħ
ì°¨ ìĿĺ
Ġìŀ¥ ìķħ
Ġë§¤ ìĽĶ
Ġíı¬ ëıĦ
ë°Ķ ìļ´ëĵľ
Ġë°ĺ ë°ķ
Ġìŀħ êµ¬
ĠíķľêµŃ ìĿ´
ĠíĮĮ ëŀĢ
ĠC ont
ì§ĳ ìĹĲìĦľ
Ġìłľê³µ íķĺìĹ¬
Ġë§ŀ ìĦľ
ĠìŀĲìĭł ë§ĮìĿĺ
Ġëĵľ ë¡ł
Ġëĵľ ë¦´
Ġíģ¬ ê¸°ê°Ģ
ì¡Į ìľ¼ë©°
Ġë³µ ìĪĺìĿĺ
ĠíĨ ¡
Ġì¹ľ ìłĪíķľ
ĠìĹ°êµ¬ ê°Ģ
Ġíħ ľ
ĠëĤ´ìļ© ìľ¼ë¡ľ
ï¼ ļ
Ġê°ľë°ľ íķĺê³ł
Ġë¨¹ ìľ¼ë©´
ĠìĽĶ ê²½
ëĭµ ë³Ģ
ĠêµŃë¯¼ ê±´ê°ķë³´íĹĺ
ĠìĤ°ìĹħ íĺģ
ĠO ff
Ġê³¼ìłķ ìĿĺ
Ġë°©ë¬¸ ê°Ŀ
ĠìĨĮë¹Ħ ìŀĲê°Ģ
am p
Ġìĺģíĸ¥ ëł¥ìĿĦ
ĠU I
Ġê°ľìĿ¸ìłķë³´ ëĬĶ
com e
Ġë§Īëł¨ ëĲľ
ĠìĪĺì¤Ģ ìĹĲ
ĠìĹħë¬´ ìĹĲ
ĠìĿ¸ìłķ íķĺê³ł
Ġì§ĢëĤĺ ì§Ģ
ĠìķĬìķĦ ìļĶ
Ġëĵ¯ ìĿ´
ì¤ Į
ĠìĹĶ íĦ°íħĮìĿ¸ë¨¼íĬ¸
Ġì¶ľìĭľ ëĲľ
ĠìŀĲìĦ¸ ë¥¼
Ġê²½ì°° ìĹĲ
ĠìĦłë³´ ìĿ´ëĬĶ
Ġê°Ģìł¸ ëĭ¤
ĠíĺĲ ìĿĺë¥¼
íĻĢ ìĹĲìĦľ
íķĻëħĦ ëıĦ
ĠìŀĲë³¸ ì£¼ìĿĺ
Ġëĺĳ ê°ĻìĿ´
Ġë¶ĪëŁ¬ ìĿ¼ìľ¼
ĠìĭłìĨį íķľ
ì²´ìľ¡ ê´Ģê´ĳ
ìºł íį¼ìĬ¤
ë°¸ ë¦¬
Ġëĭ¤ìĿ´ìĸ´ íĬ¸
ĠíĻ©íĺ¼ ìĿĺ
" (
( "
C S
K T
_ _
g et
ç İ
è ĩ
ë ¿Į
Ĩ ĳ
íķĺ ê¸´
ë¥ ´ëł
ì§Ģ ëĤĺ
ì§Ģ ìĹĦ
ê°Ģ ë©´ìĦľ
ĠìĿ´ íĥľ
ĠìĤ¬ íĽĦ
ĠëĮĢ ìŀħ
Ġêµ µ
Ġíķĺ ìļ°ìĬ¤
Ġì§Ģ ìłĲ
Ġíķľ ëĳĲ
ĠìķĦ ë¥´
ĠìķĦ íĶĪ
Ġìĭľ ëĵľëĭĪ
êµŃ íļĮ
êµ¬ ëĭĪ
êµ¬ ì²Ń
ĠìŀĲ ë¬¸
Ġì£¼ íĮĮ
ë¬¸ íĻĶë¥¼
ì¹ĺ ë©´
ê³Ħ ìĻĢ
ìŀĦ ìĬ¤
Ġìĺ¤ ë¡ľì§Ģ
Ġê³ł ìŀ¥
êµĲ ê³¼
ĠìĿĺ ìłķ
ĠìĥĿ ê²¼ëĭ¤
Ġì¡° ë§Įê°Ħ
Ġìĭł ìŀ¥
ëĦ Į
ê·¸ ëŁ¼
ĠêµŃ ìĸ´
Ġë°© ìĹĲ
ĠìĦ¸ ìļ°ê³ł
Ġìĺģ ìŀħ
Ġìµľ ìĦłìĿĺ
ĠëĲĺ ì°¾
ĠëıĦ ì¤ĳ
ĠëıĦ ë°ķ
Ġìĭ¤ ì¢ħ
ĠêµĲ íĽĪ
ëĤ´ ìĿĺ
Ġë© į
Ġë¬´ ê±°ìļ´
ĠìĽĲ íķĺìĭľëĬĶ
Ġê¹Ģ ì¹ĺ
ĠëĤ¨ ëĬĶ
Ġìŀħ ê¸Ī
Ġê³¼ ëıĦíķľ
ĠíķĦ íĦ°
ì¢ħ ìľ¼ë¡ľ
ĠíĿ ©
ĠìĿ´ìļ© ìĿĦ
ëħ¸ ìĿ¸
ĠA c
ĠíĹ ĺ
Ġì§ĳ ëĭĪëĭ¤
ë°ķ ë¬¼
ĠìķĦìĿ´ ëĵ¤ìĹĲê²Į
ëĥ ī
Ġì½Ķ ëĶ©
ĠI I
íĶĮ ëĿ¼
Ġëĵ¤ìĸ´ ê°Ī
Ġë¡ľ ìļ°
Ġë¡ľ ëĺĲ
ëłĪìĿ´ íĦ°
Ġì¡ Į
Ġì±Ħ ëıĦìĻĢ
ìłķë³´ ìĿĺ
Ġíĥľ êµŃ
ĠëĲł ê¹Į
ĠìłĦë¬¸ ìłģìĿ¸
ìĹĶ íĦ°íħĮìĿ¸ë¨¼íĬ¸
ëī´ ìļķ
ĠíĻķìĿ¸ íķĺëĬĶ
ĠH SL
ì¸µ ìĿĢ
Ġin clud
ĠìĤ¬ì§Ħ ìĿ´
ìĭŃ ëĭĪê¹Į
Ġê·Ģ ìĹ¬
il ity
Ġë¨¸ ë¬´
Ġì²ł ê°ķ
ĠìĿĳ ìĭľ
ĠíıŃ ë¡ľ
Ġê²½íĹĺ ê³¼
Ġê¸°ëĮĢ íķĺê³ł
Ġë³´íĹĺ ê³Ħìķ½
Ġëª° ëŀĺ
íķĳ íģ¬
Ġëª¸ ìĿĺ
Ġìľłì§Ģ íķł
ëľ °
ĠìĦ±ê³µ ìłģìĿ¸
Ġë§Īëł¨ íĸĪëĭ¤
ìĿĢíĸī ìĿĢ
Ġë¯ ¹
íķ´ë Ĥ
Ġë³Ģê²½ íķł
ì¼ĢìĿ´ ìħĺìĿĦ
Ġê²½ê¸° ìĹĲìĦľ
ĠìĤ¬ìĿ´íĬ¸ ìĹĲ
ĠìĪĺíĸī íķł
Ġíĸīë³µ ìĿĦ
Ġê°ĲìĨĮ íķľ
íĺĪ ê´Ģ
Ġê³µìľł íķĺê³ł
Ġê²½ì°° ìĿ´
Ġê¸°ëĭ¤ ë¦¬ëĬĶ
Ġê¸°íļį ìŀ¬ìłķë¶Ģ
Ġíŀĺëĵ¤ ëĭ¤
Ġë¹Ī ê³¤
ìĹĨëĬĶ ìĿĺ
ë©ĺ íĦ°ë¦¬
Ġíļ¨ìľ¨ ìłģìľ¼ë¡ľ
ĠíĥĲ ìĥī
Ġì»¬ ëłīìħĺ
Ġíĥľìĸĳ ëł¥
Ġë°ĸ ìĿĺ
Ġì¡°íķ© ìĽĲ
Ġì±ĦëĦĲ ìĿĦ
Ġë¬ĺ ìĤ¬
Ġìĥ¤ ìĽĮ
ĠëªħíĻķ íŀĪ
âĦ ¢
Ġcont act
Ġë°ĽìķĦëĵ¤ ìĹ¬
ĠëĤĺë¦Ħ ëĮĢë¡ľ
Ġpack et
Ġìºłíİĺ ìĿ¸
ĠìĥĮ ëĵľ
ĠìĿ´ë£¨ìĸ´ìł¸ ìŀĪìĬµëĭĪëĭ¤
Ġstud y
íį¼ëŁ° ìĬ¤
ĠìĬ¤íİĺìĿ´ìĬ¤ ìĹĲìĦľëĬĶ
ëĬ¦ ê²Į
Ġìĥīì¡° ìŀħëĭĪëĭ¤
D R
l and
p ar
y n
è ģ
Ġ art
ìĿĺ ìĿĺ
ë¦¬ ë©´ìĦľ
ìĿ¸ ëĵľ
ĠìĿ´ ìĦľ
ĠìĿ´ ë¥´
ìĬ¤ íĨ¤
Ġìĺ Ģ
Ġìľ Ĺ
ĠìŀĲ ìĤ¬
Ġëĵ± ê¸°
ê³Ħ ì¢Į
ĠìĿ¼ ëħĦ
ĠìĿ¼ ê°ģ
ëªħ ìĿ´ëĭ¤
Ġìĺ¤ íķ´
ê±° ì§Ħ
ìĺ¤ ëĶĶ
ìļ´ ìĨ¡
ĠìĹĨ ìĹĪê³ł
íģ ´ë§ģ
íŀĪ ì§Ģ
ìĿĮ ìľ¼ë¡ľ
Ġë§Į ëĤ¬ëĭ¤
ĠìĦľ ìĪł
ìľł ê¸°
Ġìĭł ì¶ķ
ĠêµŃ ìĤ°
Ġìµľ ìĥģìĿĺ
ĠíĬ ¼
ì¶ľ íĮĲ
ĠìĦ± íĸ¥
íģ¬ ë¦¬íĬ¸
ĠìłĢ ìĹĲê²Į
ĠìĽĲ íĺķ
Ġíı¬ ìĬ¤íĦ°
Ġíķł ê¹ĮìļĶ
Ġìłģ ìĸ´
Ġìłģ ëĭ¹íķľ
Ġê¹Ģ ìŀ¬
íĺĦ ìĪĺ
Ġìŀħ ìĭľ
íĮĮ ê°Ģ
Ġë¬¼ ìĹĪëĭ¤
ĠìļĶ ìĸĳ
ëĳĲ ë¡ľ
íĤ¤ ë¡ľ
ì¹´ ê³ł
or n
at or
ìĸµ ìĽĲìĿĺ
ìĭľê°Ħ ìĹĲ
ë§Ŀ ìĿ´
ë§Ĳ ìĿ´
Ġë¬¸ìłľ ìĻĢ
Ġìĸĳ êµŃ
Ġë§ŀ ì¶ĺ
Ġê°ĢëĬ¥ ìĦ±
ĠìĿ´ìĥģ ìĿĢ
ĠìŀĦ ê¸°
Ġë³µ ìłľ
ĠíĥĢ ìĿ¸ìĿĺ
íĿ¬ ê°Ģ
Ġì¤ĳêµŃ ìĹĲ
ĠìĹ°êµ¬ ìĹĲ
Ġë°ľìĥĿ íķĺê³ł
ë§ī ìĿĦ
Ġê¼ ´
ë¶Ģë¶Ħ ìłģìľ¼ë¡ľ
Ġìŀ¡ ëĬĶ
ĠíĻľìļ© íķĺìĹ¬
ĠëĤľ ë°©
ĠíĽ Ķ
Ġê²°ìłķ íķĺëĬĶ
íķ´ë Ĩĵ
ëłĮ ì§Ģ
ĠíĴĪ ê³ł
Ġê³µê°Ħ ìĹĲ
ĠíĦ° ëĦĲ
ê¸°ê°Ħ ìĿĦ
Ġê³łëł¤ íķĺìĹ¬
Ġëĥ Ī
ĠìĪĺíĸī íķĺëĬĶ
ĠìłĦëĭ¬ íķĺëĬĶ
Ġre g
ĠìĦłìĥĿ ëĭĺìĿ´
ĠìľłëŁ½ ìĹ°íķ©
ĠëĵľëŁ¬ ëĤĺ
Ġê¹Į ëĭ¤
Ġë¶Ģëª¨ ëĭĺ
Ġíķ´ë Ĥ
ĠëĤ© íĴĪ
ain t
ĠëĤĺëĪĦ ê³ł
Ġê°Ħëĭ¨ íķĺê²Į
~~ ~
ĠY ou
ĠëĮĢì¶ľ ìĿĦ
Ġíİ¸ìķĪ íķ¨
Ġìŀ¥ë©´ ìłĦíĻĺ
ĠëĿ¼ìĿ´ë¸Į ëŁ¬
ì§ĦíĿ¥ ìĽĲ
´ëŀ ľ
ëĳĺ ëŁ¬
pl ay
Ġìľłì¹ĺ ìĽĲ
Ġë¹Ħì¤ĳ ìĿĦ
Ġëį® ê¸°
íĪ ¼
ĠëĪĦêµ° ê°Ģ
ĠëªħìĺĪ íĽ¼ìĨĲ
ear ch
æ° ĳ
ë°´ ëĵľ
Ġë§¤ëĭĪ ìłĢ
Ġê¸īìĨį íŀĪ
. ^^
1 12
P I
t s
¬ ´
Ġ es
íķ ¸
ê°Ģ ë¦¬
íķ´ ì¤Ģ
ìĤ¬ íŀĪ
ìĤ¬ ëĵ¤ìĿĺ
ëĿ¼ ê¸°
ëĵ¤ ë§Į
ĠìĤ¬ ë¦½
ìłķ ìĺ¤ìĿ¼
Ġê°Ģ ìłķìĿĺ
ìĪĺ ìļĶ
ìĪĺ ì¦Ŀ
ë³´ íĨµ
ĠâĢ Ŀ
êµ¬ ë¦¬
ëıĻ ê³Ħìĺ¬ë¦¼íĶ½
ìĽĶ ëĭ¬
ë¬¸ ìĭł
ëĭĪ ìĻĢ
ĠìĿ¼ ì£¼
ĠìĿ´ë į
Ġíı ´ëįĶ
Ġë¶Ģ ì²ľ
Ġë¶Ģ ì´Ŀ
Ġëį ¤
ë§Ī ìĤ¬ì§Ģ
ĠìĥĿ ìĿ¼
ëĭ¨ ìĹĲìĦľ
íĺ¸ íĶĦ
ĠìĹ° ë³Ģ
ìľł ìĪĺ
ëĦ £
Ġë°© ìĺģ
ĠëĤ´ ìķ¼
ì¶ľ ìĿ¼ëª°
ĠëıĦ ëĤ´
ĠêµĲ íļĮê°Ģ
ĠëįĶ ë³´ê¸°
ĠëĶ° ë¥´ëĬĶ
íı¬ ìĬ¤
Ġìłģ ìłķ
ê²© ìĿ´
Ġt rans
Ġëĵ¤ ìĹĪìĬµëĭĪëĭ¤
Ġëĵ¤ ìĸ´ë³´
Ġëĭ¹ íĻ©
Ġ6 3
ì¹´ ìļ´
Ġ7 6
ĠíĶ¼ ê³¤
Ġ8 3
íĶ¼ ê³ł
ĠA T
ì¶Ķ ì§Ħ
ĠìłĲ ìĹĲ
ĠìĻ¸ íĻĺ
Ġëģ Ķ
Ġìķ½ íķľ
Ġë°ķ ë¬¼ê´Ģ
ĠM B
ĠìķĦìĿ´ íĮ¨
ìŀĪ ëįĺ
ĠìŀĪìĸ´ ëıĦ
ĠëĤł ìĿĦ
ĠìĦľìļ¸ ì¤ĳìķĻì§Ģ
Ġê±¸ ìĸ´ìĦľ
ĠìĪľ ìĦľ
Ġíĥľ ëıĦ
ĠêµĲìľ¡ ê³¼ìłķ
ĠB M
ï¼ Ĳ
Ġìļ© ìĹŃ
Ġê¸¸ ë¡ľ
ĠìĺģíĻĶ ê°Ģ
ĠíķĻìĥĿ ìĿĺ
ou d
Ġìĸ» ê¸°
Ġë³ĳ ìĽĲìĹĲ
Ġì§ģìłĳ ìłģìĿ¸
´ë° ±
Ġì¤Ģë¹Ħ íķľ
Ġë¶ĦìĦĿ íķĺê³ł
Ġê°Ģê²© ìĿĺ
Ġê°Ģê²© ìľ¼ë¡ľ
Ġë³´ìĹ¬ ì¤įëĭĪëĭ¤
ĠìļĶêµ¬ ë¥¼
Ġë°©ìĨ¡ ëĲľ
ĠíĥĦ ëł¥
ĠíĳľíĺĦ íķĺëĬĶ
ĠìķĮìķĦ ë³´ê³ł
Ġìľ¤ ë¦¬
Ġì¡°ìĤ¬ íķľ
ĠìłĦìŀĲ ì±ħ
ĠëŁ¬ ëĭĿ
Ġíľ´ ìĭĿìĿĦ
Ġ199 1
Ġë£¨ ëĤĺ
Ġì°į ìĸ´
ìłķì±ħ ìĿĦ
ĠìłĦê¸° ì°¨
ĠíĺĪ ìķķ
ĠìŀĲê²© ìĿĦ
Ġê±± ìłķìĿ´
ang e
ì»¨ ëĮĢ
Ġê½ ī
ê°Ĵ ìĿ´
ĠâĹ ĭ
ĠìłķìĥģíļĮëĭ´ ìĿĦ
íĿĲ ë¦°
Ġì½ĶìĬ¤ ëĭ¥
Ġë¹łìł¸ ëĤĺ
ĠìĬ¤ìľĦ ìĬ¤
ëĳ¥ ìĿ´
ĠìľłìĿ¼ íķĺê²Į
íĥľìĸĳ ìłķìĺ¤ìĿ¼
Ġë¹Ħíĸī ê¸°
ĠìĦ¸ìĽĶ íĺ¸
ëĲ¨ ìĹĲ
Ġìłķê·ľ ì§ģ
Ġìį¼ ëĭ¤
Ġê³łìĨį ëıĦë¡ľ
Ġê°ķìļ° ëŁī
Ġëĭ¨ë§Ĳ ê¸°
íĥľìĸĳìŀĲìłķ íĥľìĸĳìŀĲìłķ
Ġëª¨ìľ¼ ê³ł
´Ĳ ìķ¼
ĠìľĮ ë¦¬
vent ion
íĥľìĸĳìłķìĺ¤ìĿ¼ ì¶ľìĿ¼ëª°
íĥľìĸĳìŀĲìłķíĥľìĸĳìŀĲìłķ íĥľìĸĳìłķìĺ¤ìĿ¼ì¶ľìĿ¼ëª°
; </
E U
b s
t ext
Ã ¡
Ġ Î
ľ ¨
ìĿ¼ ê¹ĮìļĶ
ëıĦ ìĥī
ìĭľ ìŀ¥ìĿĦ
ĠìĿ´ ìĿĺ
Ġê³ ½
ëĵ¤ ê¸°
ĠìŀĪ ëĤĺìļĶ
ĠìĪĺ ëł¨
Ġê·¸ ë¡ľ
ĠëĮĢ ê²°
Ġìĥ ·
ëĤĺ ìĿ´íĬ¸
Ġíķĺ ëĦ¤ìļĶ
ë¶Ģ íĴĪ
Ġì§Ģ ê³ł
Ġì§Ģ ì§Ħ
ìĦ± ì§Ģ
ĠìłĦ ëĿ¼
Ġìĭľ ìłķ
Ġìĭľ ìĨį
íĻĶ ëĲĺê³ł
ìĪĺ ë¦¬
ìĪĺ íķĻ
ë³´ ìĦ¸ìļĶ
ë¬¸ ìłľë¥¼
ĠëĤĺ ìĦ¤
íĮ İ
ëªħ ìĹĲê²Į
íĸī ìĹĲ
Ġê°ľ ê°ľ
Ġê³ł ë¬´
Ġë¹Ħ ë§Į
ìļ´ ìĿĦ
Ġìļ° ì¦Ī
Ġì¡° ëĭ¬
ìĹ° ë£Į
Ġíķ´ ìļ´ëĮĢ
Ġê¸ Ģë¡ľ
Ġê¹ ĥ
ë¯¼ ìĿĢ
Ġìĭ¤ ê²ĮìŀĦ
er n
ìłĲ ìĬĽ
Ġë¬´ ìŀĳ
ê±´ ìľ¼ë¡ľ
ĠëĤ¨ ìĿĺ
Ġì¢ĭ ê²Į
Ġê³¼ ìŀ¥
ĠíķĦ ìŀĲëĬĶ
íĭ° ëĵľ
íĭ° ì¦Į
Ġ6 1
ì²ĺ ê°Ģ
ì¼ °ëĭ¤
ê·¼ ë¬´
ëįĶ ë¶Ī
Ġíķ© ì³Ĳ
Ġë¦ °
ĠìĥĪ ìļ°
Ġëĭ¬ ë¦°
ĠC N
Ġê°Ħ ìłĪ
Ġìĸĳ ìĿ´
Ġìĭ¬ ìĤ¬ë¥¼
ĠìĨį íķĺëĬĶ
Ġëĵľ ëłĪìĬ¤
Ġíģ¬ ê¸°ìĿĺ
ìĬ¹ ìĿ¸
ĠT e
Ġì°¾ ì§Ģ
ìĸ¸ ìĿ´
ĠëĶĶ ë°ĶìĿ´ìĬ¤
ĠíĥĢ ëĭ¹
íĺĳ ìłķ
ìķł íĶĮ
ì°° ìĿĦ
Ġìĭ¶ ìĹĪëĭ¤
Ġëª¨ëĳĲ ìĹĲê²Į
Ġê¸°ìĹħ ê³¼
Ġì§ĢìĽĲ ìĿ´
ì²ł ìĪĺ
ro w
Ġê²°ê³¼ ìłģìľ¼ë¡ľ
Ġì½ ¤
ë°± ìĿĦ
Ġë°± ìłľ
ë©Ķ ìĿ´ëĵľ
ĠíļĮìĽĲ ëĵ¤ìĿĺ
Ġêµ° ìĤ°
ëł¸ ê³ł
Ġë¬¸íĻĶ ìłģ
Ġë³ĳ ìĽĲìĿĦ
Ġíĺ¸íħĶ ìĿĢ
ê¸°ê´Ģ ìĹĲ
ĠìĤ¬ê±´ ìĿĢ
Ġë£ ¸
Ġê±´ë Ħ
ê¼ ´
íĶĦë¡ľ ìłĿ
âĸ ·
ìĽł ìĬµëĭĪëĭ¤
Ġë¶Ļ ìŀ¡
Ġëĵ±ë¡Ŀ ëĲľ
ĠìļĶì²Ń ìĿĦ
ĠìĿµ ìĬ¤
ãĢı (
Ġê°Ģê¹Į ìĽĮ
Ġê²Įìĭľ íĮĲ
ĠìĹħì²´ ê°Ģ
ĠìĦłë³´ ìĿ¼
Ġìŀ¬ë¯¸ ìŀĪê²Į
Ġìĸ¼êµ´ ìĿ´
ĠíĻĪíİĺìĿ´ì§Ģ ìĹĲ
ĠìĿ¸ë¥ĺ ê°Ģ
Ġíĺģìĭł ìłģìĿ¸
ĠíĺĲ ìĺ¤
ĠìĪĺìĥģ íķľ
Ġê²¨ìļ¸ ì²ł
Ġê°ĢìĬ´ ìĿ´
Ġë§Īì°¬ê°Ģì§Ģ ëĭ¤
Ġìłķê¸° ìłģìľ¼ë¡ľ
Ġë°¥ ìĿĦ
Ġê¹¨ëģĹ íķľ
Ġì§ĵ ëĬĶ
ĠìĭŃ ìŀĲê°Ģ
Ġë´¤ ìĿĦ
ĠëĤĺìĦł ëĭ¤
ĠìĦłíĺ¸ íķĺëĬĶ
ĠíĿĲë¦° íĿĲë¦°
âĻ ¡
Ġac c
ĠìĨĶì§ģ íŀĪ
ë£¨ë¯¸ ëĬĦ
íĵ °
Ġìĺ¨ì¹´ì§Ģëħ¸ ìĺ¨ì¹´ì§Ģëħ¸
Ġíŀĺìŀħ ìĸ´
C ìĹĲìĦľ
a e
p c
ç ī
Ġ ver
ê°Ģ ë©´
ê¸° ê¸Ī
ëıĦ ìĸ´ëĿ½
ìŀĲ ëĭ¤
ĠìĪĺ ëª©
Ġíķĺ ëł¤ë©´
Ġì§Ģ ëªħ
Ġì§Ģ ë¶Ħ
Ġì§Ģ ëª©
ë§Į ìķ½
ĠìłĦ íķĺëĬĶ
Ġìĭľ ìĿ¸
Ġìłľ ë¡ľ
ê± Ģ
Ġë³´ ì¶©
ĠìĿ¸ ë¬¸
ĠìĿ¸ ì¢ħ
ĠìĿ¼ ìŀħëĭĪëĭ¤
ĠìĿ¼ ìĸ´ëĤ¬
Ġëª¨ ìĿ¸
ìĤ° ë¦¼
Ġê´Ģ ìĹ¬
ìĭĿ ìĤ¬
ìŀ¬ ëĬĶ
ĠìĹĨ ìĿĮ
ê°ľ ë²½
Ġë§Į ë§Į
Ġì¡° íĻĶë¥¼
ìĺģ ìĿ´
ìĺģ ìĸ´
Ġìĭł ëĿ¼
Ġë°Ķ ìĻĢ
ë°© íķĻ
Ġìĺģ êµŃìĿĺ
ĠìĬ¤ íĭ¸
Ġë¬¸ íĹĮ
Ġì§Ħ ìĪł
Ġìŀ¥ ì¹ĺë¥¼
ì²Ń ì£¼
Ġë¬´ ìĤ°
Ġë°Ľ ìķĺìĬµëĭĪëĭ¤
Ġëħ¸ ëŀĢ
íĺĦ ì²ł
ĠìĦ¤ ìłķìĿĦ
Ġê°Ĳ ì¶Ķ
Ġëĭ¨ ìĹ´
Ġì¢ĭ ê²łìĬµëĭĪëĭ¤
ĠìĹŃ ìŀĦ
Ġíķ¨ ìĸĳ
Ġë³Ģ ìĪĺ
Ġì¦Ŀ ìĿ¸
ĠìĹ´ ìłķ
ĠíĹ Ĳ
ĠíĹ Ľ
Ġ9 1
ëĦ¤ ìĿ´ë²Ħ
ìĺĪ ìķ½
Ġê°ľìĿ¸ ìĿ´
Ġìķŀ ìĦ¸
ĠìĨĲ ìĭ¤
Ġì½Ķ ì¹ĺ
Ġë¶ģ ìª½
Ġë¶ģ ì½ĺìĦľíĬ¸
Ġë³µ ìĪĺ
Ġì´Ŀ ìŀ¥
is e
ìµľ ìłĢ
ĠìĦľìļ¸ ìĿĺ
Ġëıħ ìłĲ
ĠëĪĪ ë¬¼ìĿĦ
Ġë²Ħ ìĬ¤ë¥¼
Ġíĥľ íıīìĸĳ
Ġê¸°ìĪł ìĿĢ
ĠíĬ¸ ë¡ľ
Ġìłĳ ìĸ´ëĵ¤
ĠìĹ°êµ¬ ìĹĲìĦľëĬĶ
ê¸Ģ ëĿ¼ìĿ´
ĠíĮ¨ ëĦĲ
Ġë§ĪìĿĮ ê»ı
el y
Ġë²ł ê°ľ
ë©Ķ ìĿ¼
Ġëľ ¯
Ġ16 0
ĠìĦ¤ëªħ íķľëĭ¤
Ġìŀ¡ ìĿĦ
ĠìĿĺë¯¸ ëĬĶ
ëĨį ì´Į
Ġê³Ħíļį ìĿ´
Ġì°¾ìķĦ ë³¼
Ġì²ł ìĪĺ
ĠO n
Ġê¸°ëĮĢ ê°Ģ
ĠëĤľ ëĭ¤
ĠëıĮìķĦ ìĻĢ
ĠíķĻêµĲ ë¥¼
ì§ĢìĹŃ ìĹĲ
ĠìĶ ¹
ĠìĬ¤íĥĢ ìĿ¼ìĿĺ
Ġì£½ ìĿĮìĿĦ
Ġê°ľìµľ ëĲľ
ĠìķĦëŀĺ ë¡ľ
ĠìĿĮìĭĿ ìĿ´
âĸ ³
Ġìłķìĭł ìłģ
Ġë¹¨ ëĿ¼
Ġëª©ìłģ ìĿĢ
Ġì£¼ìĭĿ íļĮìĤ¬
ĠLG ìľł
eb ook
ĠìĤ¬ë¬´ ìĭ¤
ë®¤ ì§ģ
ĠìĺģìĹŃ ìĿĦ
ìĭľìĬ¤íħľ ìĿĦ
ĠëıĦì°© íķľ
Ġì¦ĿìĤ° ìĥģìłľ
æľ ¬
Ġì£¼ìĿ¸ê³µ ìĿ´
ĠìŀĲìłĦê±° ë¥¼
ĠìĿ¸íĦ°ë·° ë¥¼
íĬ¹ë³Ħ ìĭľ
ëĤ® ìĿĢ
ĠìķĦëĤ´ ìĻĢ
ĠìĿĺíĺ¹ ìĿĦ
eg u
Ġì£¼ì£¼ ì´Ŀ
Ġê¶Įíķľ ìĿĦ
æĺ İ
ĠíĬ¹ìĦ± ìĥģ
ĠìĽĲíĻľ íķľ
æĪ Ĳ
Ġê¶ ¤
3 60
I V
U E
V R
i et
i um
r id
r ess
t v
å ¿
æ ĥ
ë Ľ°
Ħ ë¦¬íĭ°
ìĿ´ ëŀĳ
ìł ĵ
íķĺ ê¸¸
íķľ ìĿĦ
ë¡ľ ìłľ
ìĿ¼ ìĹĲìĦľ
Ġìķ °
ê¸° ìĥģ
ê¸° ê¹Įì§Ģ
ëĤ ´ëł¤
Ġì§ ļ
ìłķ ì§Ģ
ë©´ ìĿ´
ĠìłĦ ìłľ
ĠìķĦ ëĵ¤ìĿ´
Ġìĭľ ê°Ģ
Ġìĭľ ê¸°ë¥¼
ìłĦ ë¶ģ
ìĹ¬ ë¶Ģ
ĠìĿ¼ ê°Ħ
ĠìĿ´ë ª¨
ìĨĮ ìĨį
Ġì¤ĳ ìĪľ
Ġëª¨ ë¥¸
ëŁ¬ ëĵľ
ëĲĺ ìŀĲ
Ġìĥģ ìĹĲ
ëªħ íĴĪ
Ġê³ł ìĬ¤
ìĦ¸ ìĻĢ
ĠìĨĮ ìĬ¤
ĠìĨĮ íĻĺ
ìĺ¤ ëĶĶìĺ¤
ìĺ¤ íĶĦëĿ¼ìĿ¸
ĠìĿĺ ìĤ¬ê°Ģ
Ġë§Ī ìļ°ìĬ¤
íĺ¸ íĿ¡
ìĹ° ëıĦ
Ġêµ¬ ìĥģ
Ġêµ¬ ë¯¸
Ġíķ´ ìĤ°
ëŀĺ ê³¤
ìĹĪ ì£ł
ĠìĦ± ì¶Ķ
Ġìĭ¤ ìĬµ
Ġì§Ħ ìĭ¤ìĿĦ
ĠìĺĪ ë§¤
Ġê±° ìļ¸
ĠìĤ¬ëŀĮ ìĿ´ëĿ¼ë©´
ìĨį ëĪĪìį¹
ìķĺ ìľ¼ë©°
ĠìĽĲ íĻĶ
Ġë¶Ī ëŁī
Ġëħ¸ ìĤ¬
ĠíĽĦ íļĮ
Ġt v
ĠíķĦ ìĤ¬
Ġ6 6
ĠìĹŃ ìĤ¬ëĬĶ
ì¦Ŀ ìĿĢ
ê²ł ì§Ģ
íĤ¤ ëĤĺìĻĢ
or s
ì½Ķ ìĺ¬
ì½Ķ ì½ĶíĮĢ
ìĻ¸ ë¡ľ
ĠíĶĦë¡ľ íķĦ
Ġìķ½ ë¬¼
Ġs ub
it s
Ġë©Ķ ê°Ģ
Ġíķĺê³ł ìŀĲ
ĠëĤ´ë °
ìŁģ ìĿ´
ĠìĦľìļ¸ ìĹĲìĦľ
ëłĪìĿ´ ìĭľìķĦ
ĠëĪĦ ë¦´
íĿ¬ ë§Ŀ
ĠíķŃ ìķĶ
Ġìļ© ê¸°ë¥¼
Ġì¤ĳìļĶ íķĺê²Į
Ġì¤ĳìļĶ ìĦ±ìĿĦ
ë¸Ķ ë£¨
ĠëĨį ê°Ģ
Ġê´Ģê³Ħ ìĹĨìĿ´
ro l
et er
ìĿĳ ëĭµ
Ġë³´ë ¬¼
ĠìŀĪìĹĪëĭ¤ ê³ł
Ġê±´ê°ķ íķĺê²Į
ë¥´ë©´ ìĦľ
ë°Ģ íķľ
Ġë³ĳ ìĽĲìĹĲìĦľ
ë§ŀ ìĿĢ
Ġëĸł ëĤĺëĬĶ
ec h
Ġë°©ë¬¸ íķĺëĬĶ
Ġh igh
ë¡Ń ëĭ¤
ĠìķĬìķĺ ìĿĦ
ĠìĤ´ìķĦ ìŀĪëĬĶ
ĠìĤ¬ê³ł ë¡ľ
íĭĢ ëŀľëĵľ
Ġê°ķíĻĶ íķĺê³ł
Ġì»´ íĵ¨
ĠìĹ¬ê¸° ìłĢ
ëĲĲ ì§Ģë§Į
Ġ& ;
Ġíİ¼ ì³¤ëĭ¤
Ġë§¡ ìķĺëĭ¤
Ġê°ĳ ëĭĪëĭ¤
ìĤ¬íķŃ ìĹĲ
Ġíį¼ ìł¸
Ġre ce
ĠíĬ¹ì§ķ ìľ¼ë¡ľ
if ic
ĠëĵľëŁ¬ ëĤ¬ëĭ¤
Ġë¶Ģëª¨ ìĿĺ
Ġì¢Į ìĦĿ
Ġëª¨ë¥´ ì§Ģë§Į
ĠíķĺëĬĶëį° ìļĶ
Ġê¶ģê¸Ī íķ´
ãĢĭ ,
ĠìłĦë°ĺ ìłģìľ¼ë¡ľ
Ġì¤ ĺ
ĠìĥĿê¸´ ëĭ¤
ëĵŃ ëĭĪëĭ¤
Ġê°¤ ëŁ¬ë¦¬
ëĪĪìį¹ ë¬¸ìĭł
ĠìķĶíĺ¸ íĻĶíıĲ
Ġíķ´ë§ Īëĭ¤
=+ =+
B R
N E
y m
¶ Ļ
Ġ qu
Ġê° ĩ
êµ ¿
íķ´ ìĥģ
ìĿ¸ ìĿ¸
ìĭľ ìŀ¥ìĹĲìĦľ
ĠìĿ´ ë¥´ëł
ìľ¼ë¡ľ ë§Į
ìłķ ë¹Ħ
íĺ Ĳ
Ġíķĺ ê¸°ëıĦ
Ġíķĺ ëł¤ëĬĶ
Ġì§Ģ íĳľ
Ġì§Ģ ì¹¨
ĠìłĦ ë¬´
ĠìķĦ ë²ł
Ġìłķ êµĲ
ìĹħ ìŀĲ
íķł ê¹Į
íķł ëķĮ
ìĭł ê³¼
ĠìľĦ ë²ķ
ĠëĤĺ ìĿ´ìĹĲ
Ġì¤ĳ ì¦Ŀ
ê³µ íĹĮ
ĠìĨĮ ì§Ģ
ĠìĨĮ ê°ĲìĿĦ
Ġìľł ìĦł
ĠìĹ¬ ë°°ìļ°
ìĥĿ íĥľ
ĠìĥĿ ë°©ìĨ¡
ìĭ¤ ìłľë¡ľ
Ġì¡° ìĥģ
Ġë°Ķ íĢ´
Ġë¯¸ ì¤ĳ
01 0
ĠëıĻ ìķĦìĭľìķĦ
ĠìķĪ íĮİ
ĠìĬ¤ ìºĶ
Ġíĥ ±
Ġìĭ¤ ìĨĲ
Ġê±° ëĿ¼
Ġì´ Į
Ġê°Ļ ê³ł
ĠìłĢ ìŀĲ
ĠìĽĲ ìĿ¸ìĿĢ
ìĦ¤ ìĿ´
íĺķ ìĹĲ
Ġíİ Ħ
ĠíĽĦ ê¸°
Ġëĭ¨ ìĸ´ë¥¼
Ġâ ĺ
ĠíķĻ ë¶Ģ
ëł¹ ìłľ
ëĳĲ ìĹĲ
Ġíķ¨ ìľ¼ë¡ľìį¨
Ġê²Į ìĿ´íĬ¸
at ing
ìłĪ ë¡ľ
ë³Ħ íķľ
Ġëª» íķĺë©´
ì§ĳ ìĹĲ
Ġê°Ħ íĺ¹
ĠìĤ° ì¶ľ
Ġìķ½ ê´ĢìĿĦ
Ġìĸĳ ì¸¡
ĠM V
ê´ĳ ìŀ¥
Ġì¹ĺ ê³¼
Ġëĵ¤ìĸ´ ìĺ¤ëĬĶ
Ġì§ĢìĹŃ ì£¼ë¯¼
ìĸ´ëĤ ¼
ĠìĭĿ ëŁī
Ġp uss
íĪ¬ ëį°ìĿ´
ĠëĦĪ ìĿĺ
Ġê¸°ìĹħ ìľ¼ë¡ľ
Ġìļ© ìĿĺ
Ġìļ© ìĦľ
Ġ0 7
ĠìĿ´íĽĦ ìĹĲëĬĶ
Ġê·¸ëŀĺ ìķ¼
ĠìĺģíĻĶ ìłľ
ë¦´ ê²ĮìŀĦ
Ġë³´ê³ł ìĦľë¥¼
Ġë§ī ìĥģ
Ġë²Į ìĸ´ì§Ħ
Ġíļ¨ê³¼ ëĬĶ
ĠìĿ´íķ´ íķĺëĬĶ
Ġì½ĺ ìĨĶ
ĠìĹŃìĤ¬ ìĥģ
ĠìĿ½ ìĸ´
Ġë³ĢíĻĶ ìĿĺ
em ic
ĠV R
Ġê°ľìµľ íķľëĭ¤
Ġëĭµ íĸĪëĭ¤
ê¸°ê°Ħ ìĿĢ
ì§ĢìĽĲ ìĦ¼íĦ°
ĠìĦľë¡ľ ë¥¼
Ġëħ¹ íĻĶ
ä¸ į
Ġì£¼ë¯¼ ëĵ¤ìĿ´
if y
Ġë¯¼ì£¼ ëħ¸ì´Ŀ
ĠíŀĪ ë¡ľ
ĠëĦ¤íĬ¸ìĽĮíģ¬ ë¥¼
íķ´ë³ ¸
Ġìĭ¤íĹĺ ìĿĦ
Ġê³µìłķ ê±°ëŀĺ
Ġìŀĩ ëĬĶ
IN G
Ġìŀħìŀ¥ ìĹĲìĦľëĬĶ
ìĬ¤ëŁ¬ ìĽĮ
ĠíĿĲë¦° ëĮĢë¶Ģë¶Ħ
ĠêµŃíĨł êµĲíĨµ
Ġìĵ°ëłĪ ê¸°
Ġê¿Īê¾¸ ëĬĶ
ĠëĥĦìĥĪ ê°Ģ
icro soft
ĠíĶĦë¡ľëª¨ ìħĺ
ë§ĳìĿĢ ëĮĢë¶Ģë¶Ħ
C EO
S e
o om
é Ľ
Ġ arr
Ġë ¿
íķĺ ëĬĲëĥĲ
íķĺ ìħĶìķ¼
ìĭ ¹
ì§Ģ ëĭ¤
ê°Ģ ëĭ¤
ê² Ł
Ġìķ µ
ë§ ·
ìľ¼ ëł¤
ìĭľ íĬ¸
ìĭľ ê°ģ
ìĬ¤ íĭ´
ĠìĪĺ ìĨĮ
ĠìĤ¬ ë§ī
ëĤĺ ëĭĪ
ìłģ ìĿ´ìĹĪëĭ¤
ëĮĢ ê¸°
Ġíķĺ ìĸĢ
Ġê¸° ê°Ģ
Ġê²ĥ ìŀĦìĿĦ
Ġì§Ģ ê°ĳ
Ġíķľ ëĤĺëĿ¼
ĠìłĦ ëł¥ìĿ´
ì£¼ ìĹĲìĦľ
Ġìĭľ ëĬĶ
ë³´ íĽĪ
íķĺê³ł ëıĦ
Ġì£¼ ìłľë¥¼
ĠìľĦ ê¸°ìĹĲ
ìķ¼ ê¸°
Ġì¤ĳ ê³Ħ
ë£ »
ì¡° ë¡ľ
Ġê³µ ì¤ĳ
Ġê³µ ìłķíķľ
Ġëį ¸
Ġê³ł ë§Ļ
ë¶Ħ ê³¼
êµĲ ìĭ¤
ĠìĹ¬ íĺ¸ìĻĢ
ĠìĿĺ ë¬¸
Ġë§Ī ë¥´
Ġìļ° ìķĦ
ìĿĮ ê³¼
ĠìĹ° ê¸°ë¥¼
ĠìĦł ì°©
ĠìĦ¸ ëĿ¼
ĠìĦ¸ ëł¥
ĠìķĪ ìĦ±
ĠìķĪ ëĲľëĭ¤
ë°© ìľĦ
ë°© ìķĪìĿĦ
Ġíĥ Ń
ĠëıĦ ë³´
Ġìĭ¤ ì¡´
ìŀĳ ìļ©ìĿĦ
ĠêµĲ ìĸĳ
ìħ Ģë¡ľ
ĠìĺĪ ìłĦìĹĲ
ĠëĺĲ ëĭ¤ìĭľ
ëĶ ¸
ĠíĺĦ ìķĪ
íĳľ ìĭľ
ìĺĢ ëĭ¤ê³ł
ë°ĺ ìĿĳ
ĠìķĮ ë¦¬ê³ł
ĠíĬ¹ íĻĶ
Ġìłģ ë°ľ
Ġì¶Ķ ìĤ°
ĠíĽĦ ì²ľ
Ġê°Ĳ ìĭ¸
Ġë°ĺ ìĤ¬
Ġëĵ¤ ì§Ģ
ë§¤ ê¹Ģ
Ġì¢ĭ ì§Ģë§Į
Ġìĸ´ ë¦¬
ĠS e
Ġì¶ľ íĺĦ
ĠìķĦëĭĪ ë©°
ĠìĥĿê°ģ íķ´ìļĶ
ëĬĶëį° ëıĦ
Ġëª© íļĮ
Ġíĺ¸ ì¶ľ
Ġìĸĳ ìľ¡
Ġì¹ĺ ê³ł
ë´ ħëĭĪëĭ¤
Ġëıħ ìĿ¼ìĿĺ
íĪ¬ ìĬ¤
ê·ľ ìłľ
ìĤ¬ìĹħ ìĿĺ
Ġëħ¼ ìĪł
ê¹Ģ ìłķìĿĢ
íļĮìĿĺ ìĹĲìĦľ
ë©Ķ ë¦¬
ĠìĦłíĥĿ íķĺëĬĶ
Ġb l
íĥĦ ìĿĦ
ëĿ¼ìĿ´ ìĸ¸
Ġë§ī ìķĦ
Ġì½ĺ ìħī
ĠíĮĲë§¤ ë¥¼
ĠìĹŃìĤ¬ ìĹĲ
Ġì£½ ìĿĦ
Ġì¹ľêµ¬ ìĻĢ
Ġë¸Įëŀľëĵľ ìĿĺ
ë°©ë²ķ ìĿĦ
ĠìŀĲë¦¬ ë§¤ê¹Ģ
oc ial
Ġíŀĺëĵ¤ ìĸ´
Ġíĺģìĭł ìĿĦ
Ġë¡¤ ëĮĢë¦¬
ud io
Ġëª¨ìĸĳ ìľ¼ë¡ľ
ë²¤ íĬ¸
ìĭľëĮĢ ìĹĲ
ĠìĬ¤íİĺ ìħľ
Ġì½ĶìĬ¤ íĶ¼
Ġëĭ¤ë£¨ ê³ł
Ġëıķ ê¸°
íı´ ë¦¬ìĺ¤
Ġë©ĶìĿ´ ì»¤
ĠëĤ´ëĨĵ ìĿĢ
ĠëªħíĻķ íķĺê²Į
Ġìĭ¤ìĭľê°Ħ ìľ¼ë¡ľ
ìĤ¬ë¬´ ìĨĮ
ĠìĹ´ëł ¸
Ġì¿ ¼
ĠëģĮìĸ´ ìĺ¬
Ġë§ĳìĿĢ ë¶Ģë¶Ħìłģìľ¼ë¡ľ
ê¶ Ĳ
êµŃíĨł ê´Ģë¦¬
Ġëļľëł· íķľ
ĠìĦ¸ëł¨ ëĲľ
ĠëıĻìĺģ ìĥģìĿĦ
Ġeduc ation
çĦ ¡
ĠíĶĮëŁ¬ ê·¸
roug h
C R
u le
¾ °
å ī
è Ī
é Ł
Ĺ ë´ĩ
íķĺ ìŀĲëĬĶ
íķĺ ì£ł
Ġìł ł
´ë ²
ìĿ¸ êµ¬
Ġìĭ ¹
ĠìĿ´ ìłł
ĠëĮĢ íĸī
ĠëĮĢ íķŃ
ĠìłĦ ìĿ¸
ìĪĺ ìĦĿ
Ġëĭ¤ ë¦¬ë¥¼
ëıĻ ê°ķ
ìĹħ ì¢ħ
ĠìĿ¼ ë¡ľ
ĠìĿ¼ íļĮ
ĠìĿ¼ íķĺê³ł
ìĨĮ ìĭľ
ĠëĤĺ ìĺµëĭĪëĭ¤
Ġì¤ĳ ëł¥
Ġê³µ ìĿĺ
Ġë¶Ģ ë¥¼
Ġìľł ìĤ°
Ġë§Ī ëĬĺ
ê¸Ī ìĹĲ
Ġë°Ķ ê°Ģ
Ġêµ¬ ëıħ
ìĹŃ ìľ¼ë¡ľ
ĠëĲĺ ê¸°ë¥¼
ĠëıĦ ë§Ŀ
ĠìĦ± íĺķ
íİ ł
ì¤ĳ ê°Ħ
íĶĦ ìĿĺ
in es
in ess
ìĸ´ë ĳĲ
Ġê³Ħ ìłķ
Ġíķł ë¶Ģ
ĠíĶĦ ëĿ¼ìĿ´
Ġëĭ¹ ì²¨
ìłĢ ëıĦ
Ġë¬¼ ê³ł
ì¼ Ī
Ġìĺ¬ ë¦´
ĠíĶ¼ ëĤľ
ĠíĻĶ ë¬¼
ĠíķĦìļĶ ìĦ±ìĿĦ
ĠíķĦìļĶ íķĺëĭ¤ëĬĶ
ĠëĨĴ ìĿ´ê¸°
Ġê°ĢëĬ¥ ìĦ±ìĿĢ
ĠP S
ĠìĿĮ íĸ¥
ĠI s
ë³ĳ ìĿĦ
Ġì·¨ íĸ¥
Ġthe ir
ĠìĦ¸ê³Ħ ë¡ľ
Ġì´Ŀ ë¦¬
Ġìĸ¸ ìĸ´ë¥¼
Ġì¶© ê²©ìĿĦ
Ġê´ĳ ëªħ
Ġd ocum
Ġo ther
ê¹Ģ ì¹ĺ
ĠìĿ´ìľł ëĭ¤
Ġìĵ° ê¸°
ĠíķĻìĥĿ ìĿĢ
ĠìĤ¬ëŀĳ ìĿ´
íĬ¹ ìłķ
ĠìĿĺë¯¸ ë¡ľ
ĠN o
Ġë¬¸íĻĶ ìĿĺ
Ġë³Ħ ëĭ¤ë¥¸
Ġê·Ģ ì°®
Ġì°¸ìĹ¬ íĸĪëĭ¤
ĠìľĦì¹ĺ íķ´
Ġìłķì±ħ ìĿ´
íļ¨ ê³¼ë¥¼
Ġìłľìŀĳ ëĲľ
Ġê·ľìłķ íķĺê³ł
ĠìķĬìķĺ ëĭ¤ëĬĶ
Ġì¶Ķì§Ħ íķĺëĬĶ
ĠìĥģíĴĪ ìĿĺ
ĠìĹŃíķł ìĿ´
Ġê°ľìµľ ëĲĺëĬĶ
ĠíĺĦëĮĢ ìŀĲëıĻì°¨
Ġëª¨ëį¸ ìĿ´
ìĭľìĦ¤ ìĿĦ
ĠìĿĮìĭĿ ê³¼
Ġê²¨ ëĥ¥
ĠìĦĿ ìľł
Ġíľ´ ìĭĿ
Ġì°¸ê°Ģ íķľ
Ġê³µìľł íķĺëĬĶ
ĠëĵľëŁ¬ ëĥĪëĭ¤
ĠìĿ´ìłĦ ìĿĺ
Ġíķ´ë ªħ
Ġê·¸ëħĢ ê°Ģ
ĠíĮ¬ ëĵ¤ìĿĺ
Ġì£¼ëª© íķł
Ġì¡°ê±´ ìĿ´
ìĹ¬íĸī ìĿĦ
ë¦¬ê¸° ìĤ¬
ĠëĶ¸ ìĿĦ
ĠìĿ´íķĺ ìĿĺ
Ġëĭ¤ìĿ´ ë¹Ļ
ĠìĭłìĨį íķĺê²Į
Ġcl a
Ġíļį ê¸°
ëĮĢë¦¬ ëŀŃíģ¬
ìĽĶëĵľ ì»µ
ĠìĿ´ë§ Į
Ġad d
ĠëĮĢë²ķ ìĽĲ
ĠìĦłì§Ħ êµŃ
ì£¼ìĿ¸ ìĪĺ
ì°¸ê³ł ë¡ľ
ì·Ħ ëĭ¤
Ġë¶ĪíĻķ ìĭ¤
Ġë¶ĪíķĦ ìļĶíķľ
ĠëģĶ ì°į
A D
C H
N O
l s
§ Ī
å Ł
Ġ %)
Ġì ª¼
ê³ł ë¯¼
ì§Ģ ëĮĢ
Ġê° ±
ë¦¬ ë¸Į
ìĿ¸ ìĽĲ
ìĭľ ìŀ¥ìĿ´
ĠìĿ´ ê°ĻìĿĢ
ê³¼ ëĮĢíķĻ
ĠëĮĢ ë¶Ģ
ëĤĺ ë¥¼
ëĮĢ êµĲ
ìĻ ¼
ì¹ ´ë©ĶëĿ¼
Ġê¸° ì¦Ŀ
ë©´ ìłĳ
ë©´ íĹĪ
Ġì§Ģ ê·¹
ĠìķĦ íĤ¤
íĬ¸ ìĻĢ
ìłĦ ëł¥
ë³´ ì¡°
ĠìŀĲ íļĮìĤ¬
Ġë³´ ëĵľ
Ġê³µ ìłľ
Ġìĥģ ìĭĿ
Ġë¶Ģ ê·¼
ìŀħ ëĭĪê¹Į
Ġê´Ģ ëĤ´
Ġê´Ģ ë¦¬ê°Ģ
Ġê³ł ëıĦìĿĺ
ìĦ¸ ì¢ħ
ì²´ ê³Ħë¥¼
ĠìĨĮ ìķ¡
ĠìĹ¬ ìĦ±ìĿĦ
Ġíĸ Ħ
íķ© ìĦ±
ĠìĦľ íķ´
ìĺģ êµ¬
ìľł ê°Ģ
Ġìĭł ëªħ
Ġìĭł ìĥĿ
ìĸĳ ìĿĢ
âĢĿ ,
ì¶ľ ì²ĺ
Ġ( -
Ġìĭ¤ íĥľ
ĠìłĢ ìŀĲëĬĶ
ìķ½ ê´Ģ
Ġì¶Ķ ëª¨
ë°Ķ ë§Ī
ĠëĤ¨ ìŀĲê°Ģ
ĠíĶĦ ëŀľì°¨ìĿ´ì¦Ī
an o
Ġì°¨ ìĿ´ëĬĶ
Ġìĸ´ ì§Ģ
ë²Ħ ë¦¬ì§Ģ
ê²ł ëĦ¤ìļĶ
íĻĺ ìŀĲ
ë£¨ ìħĺ
ë³µ ìĿĮ
Ġëĭ¬ ì½¤
Ġë³¸ ìĤ¬
ëĭ´ ìĿĦ
Ġë¦¬ ë³¸
ĠìĻ¸ ë©´
Ġì²ĺ ë¶Ħ
ìŀĪ ìĸ´ìĦľ
Ġíİ¸ ìĿĺë¥¼
íħĮ ìĿ¼
Ġì²´ ë¥ĺ
ic a
íĶĮ ë£¨
Ġë¯¸êµŃ ìĿĦ
ĠëĶĶ ëłī
ĠìĦ¸ê³Ħ ìłģ
Ġë²Ī ìĹĲ
ĠìĭĿ ìĤ¬ëĬĶ
Ġp art
ĠëĤł ë¡ľë¶ĢíĦ°
ìľĦìĽĲ ìŀ¥ìĿĢ
ì°½ ìĿĦ
ĠëĦĺ ëĤĺ
ï¼ °
Ġê¸¸ ìĹĲ
Ġëĭ´ ìŀĦ
ĠìĿ¼ë³¸ ìĹĲìĦľ
ĠìĿ´ìĸ´ ê°Ģê³ł
ĠíĻķìĿ¸ ìĿĦ
ĠF ig
ĠìĬ¹ ë¶Ģ
Ġê²ĮìŀĦ ìĿ´
ĠëĬĺ ìĸ´
Ġê¸°ë¡Ŀ íķĺë©°
ĠìŀĪìĹĪ ìĸ´ìļĶ
Ġêµ¬ìĦ± íķĺëĬĶ
íħĲ ëį°
ĠO pen
ĠìĿ¸ê°Ħ ê³¼
ĠìłĦì²´ ìłģìĿ¸
Ġê°ľìĿ¸ìłķë³´ ê°Ģ
Ġì¡´ìŀ¬ íķĺì§Ģ
Ġê²°ìłķ íĸĪëĭ¤
ĠìĪĺì¤Ģ ìĿ´
ĠíĳľíĺĦ ìĿ´
ĠìłĦìŀĲ ìļ°íİ¸
ä¸ Ĭ
Ġë§ĮëĤĺ ê³ł
Ġê³¼ê±° ìĹĲ
ãħĭãħĭ ãħĭ
ĠëŁ¬ ë¸Į
Ġìĥģëĭ¹ ìĿĺ
ĠìĪ¨ ìĿĦ
ìĭľì¼ľ ìķ¼
Ġíķ´ë ²ķ
ì½ľ ë¦¿
ĠëĤ´ë¶Ģ ìĿĺ
Ġê³µê²© ìĿĦ
Ġì°¬ ìĦ±
Ġë½ Ĳ
ĠìĤ¬ëĿ¼ ì§Ħ
Ġìľłíĺķ ìĿĺ
ĠëĲĺìĹĪ ìĿĦ
Ġë¡¯ëį° ê·¸ë£¹
Ġë¹Ħíķµ íĻĶë¥¼
êº¼ íĴĢ
;; ;
çĶ ²
ëļ ľ
ë¬ĺ íķľ
Ġìµľìłģ íĻĶ
éģĵ åħ¸
âĢĭ âĢĭ
Ġì¶Ķìļ´ ì¶Ķìļ´ìĦłìĦłíķľ
Ġë©ľ ë¡ľ
ĠìĨĮëª¨ ëĲľ
==== ====
ëĵľëł¤ ìļĶ
ĠíĻĺìĥģ ìłģìĿ¸
ê¸ĢëĿ¼ìĿ´ ì½ľ
Ġê³łìĬ¤ ëŀĢíŀĪ
> &
E F
a ir
å ¼
è ¨
Ġì ĳ
ìĿ´ ìŀ¬
íķĺ ëŁ¬
íķľ íĻĶ
ë¡ľ ë§Į
ĠìŀĪ ëĬĲëĥĲ
ê²Į ìĭľ
ĠìĤ¬ ëĵľ
ë¶Ģ ì±Ħ
Ġê¸° ì°¨
Ġê°Ģ ìłĦ
Ġíķľ ê°Ģì§Ģ
Ġíķľ ëĪĪìĹĲ
ĠìķĦ ìĿ¼ëŀľëĵľ
ìłĦ ê³µ
ë³´ ëıĦ
Ġìłľ ëĦ¤
ìĹ¬ ëĮĢ
ìļ° ìĿĺ
ĠìŀĪëĭ¤ ê°Ģ
ĠìĿ¼ ìļĶìĿ¼
Ġìĥģ ìĭľ
íĸī ìľĦë¥¼
Ġìĺ¤ ë¦¬ì§Ģ
Ġë¹Ħ ìłĦìĿĦ
ì²´ ìĻĢ
Ġìľł ëŀĺ
ê²½ ë¥ľ
ê°ľ ëħĲ
ĠìĹ° íıīê·ł
ë¯¸ ìķ¼
Ġíķ´ ê³ł
ĠêµŃ íķľ
ĠìĦ¸ ë¯¸
ĠìķĪ ëĲĺ
ë°© ìļ¸
ĠìĺĪ ë¡ľ
íģ¬ ë¥¼
Ġìŀ¥ ìłĲìĿĦ
Ġê°Ļ ìķĺëĭ¤
Ġê°Ļ ëĦ¤ìļĶ
ĠìĽĲ ë³¸
Ġìŀ¬ íĻľ
ĠíĬ¹ ìĦ±íĻĶ
ĠëĤ¨ ìĿĦ
Ġt est
an k
Ġâ Ķ
ĠëĳĲ ë²Īì§¸
ĠëĳĲ ëĵľëŁ¬
Ġê²Į ìĬ¤íĬ¸
ìłĪ ìĹĲ
ãĢ ģ
ĠíĻĶ ìĤ°
ìĸµ ëĭ¬ëŁ¬
ĠìĤ° ìķħ
ë¸Į ë¦¬
ë§Ŀ ìĿĺ
ĠíĻĺ ìŀĲë¥¼
Ġìĭ¬ íĶĮ
ìĿ´ëĿ¼ê³ł ëıĦ
Ġê¸Ī ìĹ°
Ġs ex
Ġíİ¸ ê²¬
íħĮ ìĿ´ëĦĪ
ëıħ íķľ
Ġì§Ī ìĦľë¥¼
ĠëĦĪ ëĬĶ
ĠêµĲìľ¡ ìĿ´
ï¼ Ń
Ġê¶Į ëł¥ìĿĦ
Ġë°ľìĥĿ íķľëĭ¤
ĠëĨį êµ¬
Ġ0 6
el f
ìĸ¼ ë§Ī
ĠìĤ¬ì§Ħ ê³¼
ĠêµŃë¯¼ ëĵ¤ìĿ´
íķľêµŃ ìĿĺ
Ġê°Ģì§Ģ ê²Į
us h
Ġëĳĺ ìĿ´
ĠëĨĢ ëŀį
ĠìĨĮê°ľ íķľëĭ¤
ĠìŀĲì²´ ìĿĺ
Ġê²°êµŃ ìĿĢ
Ġìĭľë¯¼ ëĵ¤ìĿ´
Ġë¸Įëŀľëĵľ ë¥¼
Ġìĸ´ëłµ ëĭ¤ëĬĶ
ĠìľĦìĽĲ ìŀ¥ìĿĺ
Ġê²¬ íķ´
um ber
ĠIn ter
ìłķì±ħ ìĿĺ
Ġcon s
ëıĪ ìĿĦ
iz ation
æľ ī
Ġë¶Īê³¼ íķĺëĭ¤
Ġìŀĩ ëĶ°ëĿ¼
ĠíķŃëª© ìĿĦ
Ġì¹´ë©ĶëĿ¼ ë¥¼
ĠíħĮìĬ¤íĬ¸ ë¥¼
íĻĪ íİĺìĿ´ì§Ģ
ĠìĿ´ìĻ¸ ìĹĲëıĦ
ĠìĿ´ë¡ľ ìį¨
ĠëĮĢëĭ¨ íķľ
ëĭĺê»ĺ ìĦľëĬĶ
ĠíĶĦë¦° íĮħ
ĠAP I
æĿ ±
Ġë·° íĭ°
Ġëħ¸íķĺìļ° ë¥¼
ê±´ì¡°íķľ ê±´ì¡°íķľ
ìĦ¸ë¬´ ìĦľ
ëĭ¤ìĸĳ íķľ
A d
T h
æ ī
ê ½
Ġë ±ħ
ìĿ¼ ìłĦ
ìĿ¼ ëĭ¨
´ë ¶Ģ
ìĽ °
ìĿ¸ ìĭĿ
ĠìĿ´ ë¥´ë
ĠìĪĺ ìĨ¡
ìĸ´ ìĹĲ
ëĤĺ ëĪ
Ġê°Ģ ëĬ
ĠìłĦ ìłģìľ¼ë¡ľ
ĠìķĦ ìĬ¤
Ġìĭľ ìķ¼
Ġìĭľ ìĹĲëĬĶ
Ġìłķ ë¦½
Ġë³´ ëĭĪê¹Į
ë¬¸ ê³¼
ë¹Ħ íķľ
ĠëĲ ¨
ĠìĿ¼ ëĵ¤ìĿ´
ĠëĤĺ ì§Ģ
ĠìķĬ ëĭ¤ê³ł
ĠìĨĮ ìĭĿìĿ´
ìĺ¤ íĭ°
Ġìľł ë¦¬íķľ
ê²½ ì£¼
ĠìĹ¬ ìĦ¯
ĠëĶ ¥
ìĭ¤ íķĺê²Į
ë¬´ ìĦł
ì¦ Ļ
Ġì¡° ë¡Ģ
Ġì¡° ìļ©íķľ
ìĺģ ìĹŃ
Ġìĭł ìĦ±
Ġìĭł ìĦ±íķľ
ëĦ ¬
ĠìķĪ ëĲ©ëĭĪëĭ¤
ĠìĬ¤ íĮ¸
ĠëıĦ ìķ½
ĠìĦ± ëĤ¨
Ġê±° ì°½
Ġê°ķ ëıĦ
Ġê°ķ ëł¬íķľ
ìĸ´ë ´¤
Ġë¬´ ìĦ±
Ġìŀ¬ íķĻ
Ġìŀ¬ ë²Į
ĠíĬ¹ ê°ķ
Ġìŀħ ì²´
Ġë°° ë¥¼
10 8
Ġíıī íĻĶë¥¼
íĤ¤ ì§Ģ
ì¹´ ë¥¼
íķĺì§Ģ ëıĦ
ĠìĥĿê°ģ íķ´ë³´
ĠìĿ´ìļ© ìĿ´
Ġì» ¸ëĭ¤
Ġëª© íı¬
ãĢ Ĭ
ìĻ¸ êµĲ
Ġíĺ¸ ë¥´ëª¬
íļ ¡
ĠíĹ Ŀ
Ġê°Ħ ìĦŃ
ĠìĻ¸ ìĭĿ
ĠìĻ¸ ëª¨
Ġ19 30
Ġëį° ë¦¬ê³ł
ëĦ¤ ìĬ¤ì½Ķ
ĠëĨĴ ìĺĢëĭ¤
íĻ© ìĿ´
ĠìĨĲ íĿ¥
ĠìĨĲ ê¼½
Ġì²´ ê³Ħë¥¼
ĠT o
ë³ĳ ìĿ´
Ġëıħ ì£¼
ing s
Ġì±Ħ íĮħ
Ġê³³ ìŀħëĭĪëĭ¤
ì°½ ì¡°
ĠëĦĪ ë¥¼
Ġê¸°ìĹħ ìĿ¸
ĠëĦĺ ì³Ĳ
Ġì²ľ ìŀ¬
Ġë¨¹ ê±°ë¦¬
Ġìłķë¶Ģ ìĹĲìĦľ
ĠíĹĪ ë¸Į
ë°± ë§Į
Ġë³´ë ĥĪ
Ġm e
Ġì¶ķ ìĤ°
ĠìĿĺë¯¸ íķ©ëĭĪëĭ¤
Ġìłģìļ© íķ´
Ġì¤ĳìĭ¬ ìĹĲ
Ġê¸Ģ ìĿĢ
ĠìĿ´íķ´ íķĺê¸°
Ġìĸ´ëĬĲ ìłķëıĦ
Ġëª° ìŀħ
Ġì¡´ìŀ¬ ë¥¼
ë§ĮìĽĲ ìĹĲ
Ġëį°ìĿ´íĦ° ë²łìĿ´ìĬ¤
Ġíķµ ë¬´
Ġì¹ĺë£Į ê°Ģ
Ġì¹ľêµ¬ ëĵ¤
ĠíĺĦëĮĢ ì°¨
ĠìŀĳìĹħ ìĿ´
Ġë°ľê²¬ ëĲľ
ĠìŀĲë¦¬ ìŀ¡
ĠíĺĦìĭ¤ ìĿ´
ĠìłĦíĨµ ê±´ì¶ķ
ìĽ¨ ìĿ´ë¸Į
Ġíĭ° ìħĶì¸ł
ĠíĬ¹ì§ķ ìĿĢ
Ġì°© ê°ģ
Ġê³¼íķĻ ìłģ
íĻľëıĻ ìĹĲ
ìĤ¬ì§Ħ ìĿĦ
ðŁ ı
Ġê·¸ëħĢ ë¥¼
Ġë°ĶëĿ¼ ë³´ê³ł
ì§Ģë°© êµŃíĨłê´Ģë¦¬
Ġë§¤ì¶ľ ìĿĦ
Ġë§¤ì¶ľ ìķ¡
Ġëª¨ìĸĳ ìĿĦ
ì»¨ ìĦ¤íĮħ
Ġíĩ´ ê·¼
ĠìĽĲì¹Ļ ìĿĦ
ib le
´ëŀ Ģ
íĺ¸íħĶ ìĹĲìĦľ
ĠìĹ°íķ© ëī´ìĬ¤
Ġan al
ĠêµŃë°© ë¶Ģ
´ëłĪ ìĿ´
Ġì¤ĳê³ł ì°¨
Ġë§ŀì¶Ķ ìĸ´
ëĬ¥ëł¥ ê°ľë°ľ
ê²½ìŁģ ìłĦ
Ġíİ¸ë¦¬ íķĺê²Į
Ġì´īêµ¬ íĸĪëĭ¤
å· Ŀ
Ġìĥĺ íĶĮ
ĠìķĪíĥĢê¹Į ìļ´
íĺĳëıĻ ì¡°íķ©
Ġê¾ Ģ
Ġëŀľëĵľ ë§Īíģ¬
Ġpuss y
e f
´ ħëĭĪëĭ¤
æ ´
íķĺ ìħĶìĦľ
Ġìŀ Ń
ìĿ¼ ë¡ľë¶ĢíĦ°
ê¸° ìĺ¨
´ë Ķ
ëĤ ´ë©°
ìĿ¸ íķľ
ìĭľ ìĹĲìĦľ
ĠìĿ´ ë¥¸ëĭ¤
Ġê·¸ ëĭ¤ì§Ģ
ìŀ¥ ëĤľ
ĠëĮĢ ëĳĲ
Ġíķ ´ë°ľ
ëĮĢ ë¦¬ê¸°ìĤ¬
Ġì§Ģ ìĸ´
ë§Į ì¡±
Ġëĭ¤ íķĺê³ł
Ġìłķ ë³´ë³´íĺ¸
êµ¬ ê¸Ģ
ëĵľ ë¦°ëĭ¤
ìĽĶ íĺ¸
ê¹ ĬìĿĢ
ĠëĤĺ ìĦ°
ì¡° ëªħ
Ġê³µ ìĭľ
Ġë² ļê½ĥ
ìľĦ ë°ĺ
Ġë¹Ħ ìłķê·ľì§ģ
ìĺģ êµŃ
Ġìĭł ìĤ¬
ë¯¸ ìĿĺ
ë¯¸ êµŃìĿĺ
ĠìķĪ ìľ¼ë¡ľ
íĨµ ìłľ
íĴĪ ìľ¼ë¡ľ
ĠëĲĺ ìĹĪëĬĶëį°
ĠìĤ Ĳ
Ġë¶Ħ ìĹ´
Ġì§Ħ ëĭ¨ìĿĦ
Ġë§İ ëĭ¤ëĬĶ
ëłĪ ìĿ¼
ĠëĶ° ìł¸
Ġê²° ë¡łìĿĦ
Ġë¬´ ì£Ħ
ĠìĽĲ ëıĻ
Ġë¶Ī ìĿĦ
ìĦ¤ ìłķ
Ġíİ ´
Ġë°ĺ ì§Ŀ
ê°Ĳ ìĿĺ
Ġì¢ĭ ëĭ¤ê³ł
íĮĮ ë¥¼
íĥľ ìĤ°
ë¦½ íĨł
ëįĶ ìļ±
ĠìĥĿê°ģ ê³¼
at es
ìłĪ ìĿĦ
ëĵ± íķľ
Ġìļ´ ìłĦìŀĲ
Ġê°Ħ íĮĲ
Ġì²ĺ ë¦¬ë¥¼
ĠíĻĺ ìŀĲëĵ¤ìĿ´
Ġíĳľ ì§Ģ
ĠëĿ¼ íĭ´
Ġì·¨ íķł
ëģ ½
Ġìłķë³´ ìĹĲ
Ġë¡ľ ì»¬
Ġì§Ī ìĿĦ
Ġì§Ī ìĦľ
Ġê³³ ìĿĺ
Ġíĥľ ìķĦ
ì½ ķ
Ġìłĳ íķł
ìĽĢ ìĹĲ
Ġëĭ¤ìĿĮ ëĭ¬
ĠìĿ´íĽĦ ìĿĺ
Ġë°± íĻĶìłĲ
Ġê·¸ëłĩ ê¸°
ĠF A
ĠëĬĺ ìĸ´ëĤł
ë²ł ìĿ´íĦ°
ĠìŀĪìĹĪ ê¸°
ëĭµ ê²Į
ëĨį êµ¬
íķĺìĺĢ ìĿĦ
ëĿ¼ìĿ´ íĶĦ
ec ond
ĠìĤ¶ ìĿĢ
ĠìĨĮë¹Ħ íķľ
ĠíĴį ìļĶ
Ġìĺģíĸ¥ ìĿ´
ë¬¸íĻĶ ìĿĺ
ë¡Ń ì§Ģ
un t
ìĪĻ íķľ
ĠìĤ¬ê±´ ìĹĲ
Ġê³µê°ľ íķľ
íĤ¨ ëĭ¤
ĠíĻķëĮĢ ë¥¼
Ġìĩ¼ íĬ¸
ĠëĩĮ ì¡¸
op e
Ġìī¬ ëĬĶ
ĠìĽĥ ìĿĮìĿĦ
ë¨¹ ê³ł
Ġë¹Ľ ìĿ´
ĠíĮĮìķħ íķĺê³ł
Ġê°ĢìĬ´ ìĿĦ
ĠìĨĮìĨį ìĤ¬
ĠíĭĢ ìĿĦ
ìľ¼ë©´ìĦľ ëıĦ
ĠíĺľíĥĿ ìĿ´
Ġì²´ê²° íķľ
ĠìĿ´ìĤ¬ íļĮìĿĺ
ĠìĿ´ëģĮ ê³ł
ĠìºĲë¦ŃíĦ° ë¥¼
Ġì§ĢíĤ¤ ê³ł
Ġì°¨ë³Ħ íĻĶëĲľ
ëĵľë¦¬ ê²łìĬµëĭĪëĭ¤
Ġê°ķëĤ¨ êµ¬
ëŃ Ĳ
ĠìķĦìĿ´íħľ ìĿĦ
ĠìĿ´ëĿ¼ íģ¬
Ġì§Ĳ ìŀĳ
ĠìĦ±ê²© ìĿ´
ĠìĿ´ìĻ¸ ìĹĲ
ĠëĿĦ ëĬĶ
Ġë°Ķëĭ¥ ìĹĲ
ê·¸ëłĩ ëĭ¤ë©´
ĠíħĲ ëį°
ë¹¼ ë¡ľ
ĠìĨĲíķ´ë°° ìĥģ
ĠTechnolog y
Ġë¸Įë¦¬ íķĳ
ĠëĤ´ë° Ģ
3 000
L S
l ication
ã Ħ
å İ
å ĳ
ìĹ ī
ì§Ģ ëĿ¼
ê°Ģ ìĦľ
ìķ ĬìĿĢ
íķ´ ëĭ¹
ìŀĲ ëħĢ
ĠìĤ¬ ëĭ¨
ĠìĤ¬ ê°ģ
Ġíķ ı
ìĦ± íĺķ
Ġíķľ ê°ķ
ĠìłĦ ë¦½
Ġìłľ ìĿ´
Ġìłķ ìłľ
ìĹ¬ ê³ł
ìĹħ ìĿ´
ê°Ħ íĺ¸
ìļ° ë¦¬ìĿĺ
ë¹Ħ ìĸ¸
ĠìľĦ ì£¼ìĿĺ
ì¹ĺ ìĪĺ
ĠìĿ¼ ì²´
Ġì¤ĳ êµ¬
íĸĪëĭ¤ ê°Ģ
Ġê³µ ìĤ¬ë¥¼
ìĤ° ì§Ģ
Ġê°ľ ìĭł
Ġê³ł ìľłìĿĺ
ê±° ë¥¼
ìĺ¤ ë¦¬
ìĺ¤ ë²Ħ
ê²½ ìļ°
êµĲ íļĮëĬĶ
ĠìĿĺ ìŀ¥
Ġë§Ī ìĭľëĬĶ
Ġë§Į ëģ½
íĥĢ ì§Ģ
Ġìĭł ìĦ¸ê³Ħ
Ġêµ¬ ëĳĲ
Ġë§Ĳ íķĺìŀĲë©´
ĠìĬ¤ íĶĦë§ģ
ì¤ĳ ëıħ
Ġë§İ ì§Ģë§Į
Ġê±° ë£©
ë°ľ ìĥĿ
ìĺĢ ìĸ´ìļĶ
ĠìĽĲ ìłķ
Ġë§¤ ì§Ħ
Ġíı¬ ìĿ¸íĬ¸ë¥¼
ëĭĺ ëĵ¤
ĠëĤ¨ ì§Ģ
ĠëĤ¨ ì¸¡
Ġë°ĺ íĴĪ
ĠëĬ Ļ
ê°Ĳ íķĺê²Į
Ġìŀħ ë¬¸
ê°ķ ëĤ¨
ê²° íĺ¼
ì¦Ŀ ìĿĺ
Ġì¶ľ ìłľ
ëįĶ ìĬ¤
ĠëĳĲ êº¼
ĠìĥĿê°ģ íķľ
Ġëĭ¬ ê±Ģ
íĶ¼ ìĨĮ
Ġíĺ¸ íĻĺ
ĠM ar
Ġìĺ¨ ëĭ¤
ĠìŀĲìĭł ê³¼
ĠP r
ĠìĨĲ ìĿ´
ëĥ ħ
ê°Ŀ ëĵ¤ìĿ´
íħĮ ìĬ¤íĬ¸
Ġëĵ¤ìĸ´ ìĦł
ĠíĥĢ ëĬĶ
ĠìłķëıĦ ëĭ¤
ĠíķŃ ìĥĿ
Ġì¤Ħ ìĿĦ
ĠíĨł ìĿµ
ìį ¸
ac i
ac he
íį¼ ìĦ¼íĬ¸
Ġëľ ¬
Ġë³´ë ł¤
ĠF or
ì¸µ ìĿĦ
Ġw ere
ê²Ģ ìĤ¬ë¥¼
Ġê·Ģ êµŃ
Ġì°¾ìķĦ ê°ĢëĬĶ
Ġìĥī ëĭ¤ë¥¸
Ġì¤ĳìĭ¬ ìĿ´
ĠìĦ¤ì¹ĺ íķĺê³ł
ìħ¨ ëįĺ
Ġìľłì§Ģ ë³´ìĪĺ
ì§ĢìĹŃ ë³¸ë¶Ģ
ĠìĬ¤íĥĢ ìĿ¼ìĿĦ
Ġìĸ¼ë§Ī ëĵłì§Ģ
Ġêµ¬ë§¤ íķľ
ĠìłĦêµŃ ìĿĺ
ĠìĹ°ê²° ëĲĺìĸ´
ĠëĤ¨ë¶ģ ê´Ģê³Ħ
Ġìĭ¤ìĭľ íĸĪëĭ¤
Ġë¥ ´ë
âĸ Ī
Ġìĸ´ëłµ ìĬµëĭĪëĭ¤
Ġëŀ Į
ĠìĬ¤ìĬ¤ë¡ľ ë¥¼
Ġ199 5
Ġì°© íķľ
Ġê°ľëħĲ ìĿ´
Ġë³´ëıĦ ìŀĲë£Į
ĠìĬ¤ë§ĪíĬ¸íı° ìĿĦ
ĠìĤ¬ë¬´ ì´Ŀ
Ġê·¼ê±° ê°Ģ
ìĭłì²Ń ìĿĦ
Ġì¡¸ìĹħ íķĺê³ł
Ġê°Ģë¥´ ì¹ĺëĬĶ
Ġëĭ¬ëŁ¬ ë¥¼
Ġìĸµ ìļ¸
ĠìłĦìŁģ ìĿĦ
Ġìŀ¥ë©´ ìĿ´
Ġëĭ¤ê°Ģ ìĺ¤ëĬĶ
ìĸ´ë§ Ī
Ġëĵł ëĵł
ëŃ Ħ
Ġë½ĳ ìķĦ
Ġêµ¬ë¦Ħ ìĿ´
tern ational
Ġstud ents
ĠêµŃê²½ ìĹĨëĬĶìĿĺ
Ġëĭ¤íģĲ ë©ĺíĦ°ë¦¬
ĠíĪ ´
Ġë§Ĳë¯¸ ìķĶ
! "
2 11
C om
D B
G C
¹ ìĭľ
ç ľ
Ġ u
ìĿ¼ ìĪĺë¡Ŀ
ê°Ģ ê³µ
ìľ¼ ìĭľ
ìĭľ ìĬ¤íĬ¸
ĠìĿ´ ìĤ°
ë© §
ìĤ¬ ìłĦ
ëĿ¼ ë£¨
ĠìĪĺ ìĤ¬ë¥¼
ĠìĪĺ íıī
ĠëĮĢ ì¡¸
Ġìĥ ´
ë¶Ģ ìĦľ
ìķĦ ì¹´ëį°ë¯¸
Ġì§Ģ ìłģìĿ´
ìłľ ì¡°
ìļ© ëŁī
Ġíķľ ëıĦ
Ġíķľ ëķĮ
ĠìłĦ ìĭł
Ġìĭľ íĭ°
ìĪĺ íĸī
ìĪĺ ëŁī
ë³´ ìĹĲ
ë³´ ìĥģ
Ġìłķ ëĭ¹íķľ
êµ¬ ì§Ī
ĠìŀĲ ì¹´ë¥´íĥĢ
ìĹħ ìĿĺ
Ġì£¼ íķľë¯¸
ĠìĿ¼ ê³±
Ġëª¨ ë°ľ
Ġëª¨ ë²Ķ
Ġìĺ¤ ìĭł
Ġìĺ¤ íĤ¤ëĤĺìĻĢ
Ġê³ł ìĿ¸
ìľĦ ìķĪ
Ġì¹ ©
ĠìĦł ìłĦ
Ġìĭł ìĥģ
ê·¸ ê°Ģ
ê·¸ ëłĩê²Į
Ġë°ľ ëłĮ
Ġë°© ìĿĦ
íĨµ ìĿ¼
ĠìĬ¤ íĤ¨
Ġë¬¸ ëªħ
ĠëıĦ ìłĢíŀĪ
Ġìĭ¤ ìĪĺë¥¼
ì¤ĳ ê°ľ
ì°¨ ëĭ¨
íĳľ íĺĦ
Ġìŀ¥ íİ¸
Ġì¦ Ī
ĠìłĢ ëŁ°
ì²Ń ê³µê³łìłľ
ĠìĽĲ ìĭľ
Ġë¶Ī ìĸ´ëĦ£
Ġìłģ ëıĦ
Ġê¹Ģ íı¬
Ġê¹Ģ íĺľ
ìĦ¤ ë¹Ħ
ì§ģ ìŀĲ
Ġê³¼ ìłľë¥¼
Ġê³¼ ìŀī
íĥľ ìĽħ
ë¹ Ķ
ĠìĿ´ìļ© ìĹĲ
Ġê±´ ìĿĺ
Ġì» ¸
Ġ8 9
he ck
Ġíĺ¸ ìĿĺ
ĠíĻĶ ìłľ
Ġì§ĳ ìĿ´
Ġì§ĳ ì°©
ĠìłĲ ìĪĺëĬĶ
ĠìĹĲ ìĿ´ìĬ¤
Ġì½Ķ ì½Ķ
Ġë¶ģ íķµ
ë³Ģ ìĿĦ
Ġìłķë³´ ìĻĢ
ĠìĻĦ ê³µ
Ġë¯¼ ê°Ĳíķľ
Ġê±¸ ë¦¬ëĬĶ
íķĻêµĲ ë¥¼
Ġë²Ħ ë¦°
ĠíĬ¸ ëŁŃ
Ġê¸°ìĹħ ëĵ¤ìĿĺ
ì§¸ ë¡ľ
Ġìļ© ëŁī
ĠìĤ¬ìĭ¤ ìĹĲ
ê¸Ģ ëŀľëĵľ
Ġë¨¹ ìĿĢ
Ġíı¬íķ¨ íķĺê³ł
ĠF l
ĠìĬ¹ ê³Ħ
Ġê²ĮìŀĦ ìĿĢ
Ġb ab
Ġm od
Ġìŀ¡ íĺĢ
íĥĦ ìĨĮëħĦ
ĠN ew
ĠãĢ Ĳ
Ġë¬¸íĻĶ ì²´ìľ¡ê´Ģê´ĳ
ĠìĨ¡ íĮĮ
Ġë§Įëĵ¤ìĸ´ ìķ¼
ĠìķĦëĭĮ ì§Ģ
Ġì¤Ģë¹Ħ ëĲĺìĸ´
Ġê¸°ì¤Ģ ìĿ´
ëıĮ ìķĦ
ĠìĨĮë¹Ħ ìŀĲìĹĲê²Į
Ġì¶Ķê°Ģ ìłģìĿ¸
Ġto y
ĠëĨĵ ì¹ĺì§Ģ
Ġì¹¨ ìŀħ
ĠìĿ¸íĦ°ëĦ· ìĹĲ
Ġë§ĲìĶĢ íķĺìĭľ
Ġê³µê°Ħ ìĿĺ
ĠìĨĮê°ľ íķ´
Ġì²ĺë¦¬ íķĺëĬĶ
Ġì²ĺë¦¬ íķł
Ġëħ¸ëıĻ ì¡°íķ©
Ġê¸°ìĸµ ìĹĲ
ir st
íĺĪ ìĿĦ
Ġêµ¬ì¶ķ ìĿĦ
ĠIn t
ĠìĽĢì§ģ ìŀĦìĿĦ
Ġìĸĺ ê¸°ê°Ģ
ðŁ ĳ
ì½ľ ê±¸
ë¨¹ ëĬĶ
ĠìĤ¬ë§Ŀ íķľ
Ġìłľì¶ľ íķľ
NS U
Ġë¡¤ ëĮĢë¦¬ê¸°ìĤ¬
Ġëª¨ìĸĳ ìĿĺ
Ġìĸ¸ê¸ī íĸĪëĭ¤
ë°¥ ìĿĦ
Ġëıħë¦½ ìļ´ëıĻ
Ġíķľíİ¸ ìľ¼ë¡ľëĬĶ
Ġìĺ® ê¹Ģ
ĠíĸīìľĦ ê°Ģ
ĠëĤĺìĻĢ ìĦľ
Ġìŀ¥ë©´ ìĿĦ
Ġê·¸ëķĮ ëĬĶ
ëĸ ¨ìĸ´
ail y
Ġìĸĺê¸° ëĭ¤
ĠìĿĺë¬´ ë¥¼
EC D
Ġê¸°ìĹ¬ íķł
åľ ĭ
ĠíĶĦë¡ľìĦ¸ ìĬ¤
ìĺµ ìħĺ
ĠíķĺëĬĲ ëĭĺìĿĺ
ĠëĮĢë³Ģ ìĿ¸ìĿĢ
ê±´ë ¬¼
Ġë²ķìłķ ëĮĢë¦¬
ann el
Ġì¡°ìļ© íŀĪ
Ġìĸ´íĶĮ ë¦¬ì¼ĢìĿ´ìħĺ
Ġëª½ ê³¨
ë§ĪìĿ¼ ì¦Ī
Ġê» į
ash ion
Ġìĺ¤ë²ĦìĽĮì¹ĺ ê²½ìŁģìłĦ
alle y
Ġìĸ´ì¨Į ëĵł
Ġìĺ¤ë²ĦìĽĮì¹ĺê²½ìŁģìłĦ ëĮĢë¦¬ëŀŃíģ¬
C on
D I
F O
b a
n er
r it
Ġ est
ìł ĸ
ìĿ¼ ìŀĲë¦¬
ê² Ķ
êµ īìŀ¥íŀĪ
ìĬ¤ ìķĦìĿ´
ìĤ¬ ìĥģ
ìĤ¬ íĥľ
ĠìĪĺ ì§ģ
ë¶Ģ ì¡±
Ġê¸° ìĸ´
Ġê¸° ë¬´
ìļ© ìĿĢ
ĠìłĦ ìĿĺ
ĠìłĦ ìĪĺ
íĬ¸ ìĽį
ìĪĺ ê¸ī
ë³´ ë¦¬
ĠìŀĲ ìĽĲìĿĦ
ìĹħ ìĨĮ
ëħĦ ìłĦ
Ġì£¼ ìĿĺë¥¼
íķł ìĿ¸
ĠìľĦ ìŀ¥
ê³µ ìĭĿ
ê³µ ìľł
ìĤ° ê³¼
Ġìĥģ íĳľ
Ġìĥģ íķĺìĿ´
Ġìĺ¤ ë¥´ëĬĶ
Ġê³ł ìĬ¤íĨ±
ìľĦ íĹĺ
ë¶Ħ íķľ
Ġìľł íķľ
Ġìľł ìĿ¸
ĠìĹ¬ ëĬĶ
ĠìĹ¬ ìĭł
ĠëĶ ´
ë¬´ ì§Ģ
Ġìĭł ëħĲ
ë¯¸ ëĶĶ
íĴ ĭ
Ġêµ¬ ë¦¬
Ġêµ¬ íķł
Ġíķ´ êµ°
ì¶ľ ìĿĦ
ì°¨ ìĽĲ
ĠìĺĪ ìģĺ
Ġê±° ëĴ
ĠíĺĦ ìłĢíŀĪ
ëĤ´ ìĹĲìĦľ
ê±´ ì§Ģ
Ġíı¬ ì§Ģ
Ġê¹Ģ ìĨĮ
Ġëĭ¨ ê³Ħë¥¼
Ġë°ĺ íķ´
ì²ĺ ë¥¼
ê°ķ ìķĦì§Ģ
ĠìĹŃ ìĦ¤
ĠìķĦëĭĪ ëĥĲ
ĠëķĮë¬¸ ìĿ´ìĹĪëĭ¤
ĠìĥĪ ë§ĪìĿĦ
ëħ¸ ìĿ´
ìłĪ ìĿ´
ëŀĳ ìĿ´
íĶ¼ ë¥¼
ì¦Ī ë¹Ħìĸ¸
ì¶Ķ ìļ´ë§¤ìļ°
Ġìķ½ ìĿĦ
Ġ11 9
Ġê°ĢëĬ¥ íķ´
íĻ© ìĿĦ
Ġs ystem
ĠìĹħ ë¡ľëĵľ
íİĺ ìĸ´
ĠìĦľë¹ĦìĬ¤ ìĻĢ
Ġì½Ķ íĮħ
ĠëıĮ ìĿ´
Ġp h
ëĦĪ ìĽĲ
Ġê±¸ ë¡ľ
ĠíĸĪ ìľ¼ë©°
ĠíĸĪ ìľ¼ëĤĺ
Ġì¤ĳêµŃ ìĿ¸
Ġíĺĳ ìĥģìĿĦ
ĠìłĦë¬¸ ê¸°ìĹħ
ĠìłĪ ëĮĢë¡ľ
Ġë°©ë²ķ ìŀħëĭĪëĭ¤
ac ebook
ĠìĿ¼ë³¸ ìĿĢ
ĠìĿ´ìĸ´ ìĦľ
íļĮìĿĺ ë¥¼
ìĿ´íĦ° ìĬ¤
ĠìĥģíĻ© ìĿĢ
Ġë¸Ķ ë¡ľ
êµĲìľ¡ ê³¼
Ġì²ĺìĿĮ ìĹĲ
Ġw ork
ĠíĻľëıĻ íķĺê³ł
ĠìĿĺë¯¸ ìĹĲìĦľ
ĠíħĮ ëĭĪ
Ġê³¨ ë°ĺ
ĠW h
ĠìķĪìłĦ ëĨĢìĿ´íĦ°
ĠìķĮëł¤ ì£¼ëĬĶ
Ġì°¾ìķĦ ìĦľ
ì·¨ ë¥¼
ĠëĲĺìĸ´ ìĦľ
íľ ł
Ġëª° ëĿ¼
Ġëĭ¹ìĭľ ìĹĲëĬĶ
Ġë°ľìłĦ ê³¼
ĠìĹŃìĤ¬ ìłģìĿ¸
Ġl yrics
ĠìĦ±ê³µ íĸĪëĭ¤
ĠìĥĿíĻľ ìĹĲ
ĠìŀĲìľł ë¥¼
ĠìŀĲìľł ë¡ľìļ´
Ġëĳĺ ëłĪ
Ġê³µê°Ħ ìĹĲìĦľ
ĠìĿĺë£Į ê¸°ê¸°
ĠìĿ´ë£¨ìĸ´ ì§Ī
Ġìĸ´ëłµ ê³ł
ĠìĦĿ ìĤ¬
ìĽ¨ ëĶ©
og rap
Ġ199 3
Ġë§Ŀ ìĦ¤
ĠëģĮ ìĹĪëĭ¤
Ġê°ľìłķ ìķĪ
Ġì¡°ê±´ ìľ¼ë¡ľ
Ġë¹Ľ ëĤĺëĬĶ
Ġì°¬ ìĸĳ
ĠíķĺëĬĺ ìĿĦ
ëĨĵ ìĿĦ
ĠìĿ¼ìĸ´ëĤĺ ê³ł
ĠìĿ¼ìłķ íķ©ëĭĪëĭ¤
Ġê¶ģê¸Ī íķľ
Ġíıīìĸĳ ê³µëıĻ
ĠìłĢíĿ¬ ëĬĶ
Ġíĥľìĸĳ ê´ĳ
Ġê°ķìĽĲ ëŀľëĵľ
Ġë°´ ì¿łë²Ħ
Ġêµ°ìĤ¬ ìłģ
Ġë²¤ ì¹ĺ
ĠëªħíĻķ íķľ
ĠëĶĶìŀĲ ìĿ¸ìĿ´
ĠCom p
ĠíĿ° ìĥī
Ġse lect
ĠíŀĲ ë§ģ
âħ ł
Ġë©ĶìĿ´ìłĢ ë¦¬ê·¸
Ġê¸°ìĺ¨ ìĿĢ
ĠíĮ¨ëŁ¬ ëĭ¤
ë¥´ë°Ķ ìĿ´íĬ¸
ìķ¨ ë²Ķ
ë°¤ë°¤ ëĤ®ëĤ®
ĠìľĮë¦¬ ìĹĦ
ëĤĺëĪ Ķ
I ON
R C
T C
o x
Ã Ĺ
ë ¼Ī
ìĿ´ ìłĦ
ìĿ´ ê±°ëĤĺ
ê° ±
íķĺ íĤ¤
ê³ł ìĤ¬
ĠìĹ ´ë
ìĭľ ëıĦ
ìĭľ ìķĪ
ĠìĿ´ ì§ĳ
ĠìĿ´ ê¸¸
ìĥ Į
ìĤ¬ ìĬ¤
ĠìŀĪ ê¸°ë¥¼
ĠìĪĺ ìĬµ
Ġë³ ¶
ì² ´ëĲĺ
ìłģ ìĿ¼
Ġíķĺ ìĺĢê³ł
ë¶Ģ ìĿ¸
Ġê²ĥ ëĵ¤
ë§Į ìĽĲìĿ´
íĻĶ ë¬¼
ìĪĺ ìĺģ
Ġìłķ ëĭµ
ëıĻ ìĿĢ
ëıĻ ìĹĲìĦľ
Ġì£¼ ëĭ¹
ë¬¸ ìłľëĬĶ
ëĭĪ ë¥¼
ìĭł ìłĢ
ĠìĿ¼ íķł
ìĨĮ ë¦¬ë¥¼
Ġì² ´ë
ĠëĤĺ ê°Ħ
ê³µ ìĹ¬
Ġìĥģ ìĿĳ
Ġìĥģ ë´ī
Ġë¶Ģ ë¶Ģê°Ģ
Ġê°ľ ìĭľ
Ġê°ľ ë²½
ê´Ģ ë¦¬ë¥¼
Ġìĺ¤ ìħĺ
Ġê³ł íĺĪìķķ
ìĺ¤ ë¥¸
Ġìľł ë°©
Ġë§Ī ì³¤ëĭ¤
ìĭ¤ ìłģ
ĠìĦľ ëĳĺëŁ¬
ë¬¼ ìĿ´ëĭ¤
ĠìķĪ ë©´
ĠëĤ´ ë¦´
ĠëĲĺ ê¸¸
ìŀĳ ìľ¼ë¡ľ
íĶĦ ëłĪìĬ¤
Ġìŀ¥ ë²½
Ġìŀ¥ ìĨĮë¥¼
Ġë© ´ëª¨
ì²ľ ìĿĦ
ì²ľ ë§ĮìĽĲ
ĠìķĮ ë£¨ë¯¸ëĬĦ
Ġìŀ¬ ê³ł
Ġê³Ħ ìĬ¹
Ġê¹Ģ ìĿĳ
Ġê°Ĳ ì¶ķ
ĠìĤ¬ìļ© ëĲĺê³ł
Ġê³¼ ìĦ¸
íĭ° ëĤĺ
ëĳĲ ëĬĶ
ĠëķĮë¬¸ ìĿ´
ĠëĳĲ ëĬĶ
ĠìĥĿê°ģ ëĲ©ëĭĪëĭ¤
Ġ7 3
ĠìĿ´ìļ© ìŀĲëĵ¤ìĿĺ
Ġì¦Ŀ ëĮĢ
ĠA s
ĠíĻĶ ìłľê°Ģ
Ġë³¸ ë¶Ģ
ĠìĻ¸ ìĹĲëĬĶ
ĠíĻĺ ìŀĲëĬĶ
ëĦ¤ ìĿ´
ĠM ark
Ġìĺ¨ ëª¸
Ġìĭľìŀĳ íĸĪìĬµëĭĪëĭ¤
Ġì±ħ ìłķ
Ġì§ĢìĹŃ ìĿ´
Ġë²Ī íĺ¸ë¥¼
íĿ¬ ìĿĺ
íıī ìĥĿ
Ġíĥľ ê¶ĮëıĦ
Ġì¤ĳêµŃ ìĿĦ
ĠêµĲìľ¡ ìĿĢ
Ġê·¸ëŁ° ì§Ģ
Ġíŀĺ ìľ¼ë¡ľ
ĠD ata
Ġê²°ê³¼ ë¡ľ
Ġê·¸ê²ĥ ìĿĺ
Ġë¶Ģë¶Ħ ìĹĲìĦľ
ĠíħĮ ëĭĪìĬ¤
ĠëĮĢíķĻ ìĹĲìĦľ
Ġì¦Ŀê°Ģ íķĺëĬĶ
ĠO r
ĠìłĦì²´ ê°Ģ
´ëĿ¼ ê³ł
ĠìĺĪìłķ ìĿ¸
ĠìĤ¼ìĦ± ê·¸ë£¹
ë¬¸íĻĶ ìĺĪìĪł
Ġíıīê°Ģ ê°Ģ
íķ´ë ²Ħ
Ġëī´ ìĬ¤ë¥¼
ì¹´ì§Ģëħ¸ ìĤ¬ìĿ´íĬ¸
Ġìķħ ìĦ¸
ĠìĤ´ìķĦ ìķ¼
Ġíķ´ê²° ìĿĦ
ĠëĶĶìŀĲìĿ¸ ìĿĺ
Ġëª¨ëį¸ ìĿĢ
ĠíĮĲëĭ¨ ìĿĦ
ĠìĽĮ ì¹ĺ
Ġíŀ Ļ
íĻĺê²½ ìĿĦ
Ġë¥ ´
Ġìłķìĭł ê±´ê°ķ
ĠìĤ¬ìĿ´íĬ¸ ìĹĲìĦľ
ul ar
ìĸ´ë³ ´ë©´
Ġìĸ¸ë¡ł ìĿĺ
Ġë°ĶëŀĮ ìĿĦ
Ġë³´ëıĦ ìĹĲ
Ġìı Ł
Ġëľ¨ ê±°
av a
ĠìĺĪë°© ìĿĦ
íĢ ĺìĸ´
Ġê°Ģë¥´ ì¹¨
Ġë°ĺëĮĢ íķĺëĬĶ
ĠìŀĲëħĢ ìĿĺ
Ġê°Ĵ ìĿ´
ì¶ľìŀ¥ ìĥµ
Ġìķ½ìĨį ìĿĦ
Ġì²´ê³Ħ ìłģìľ¼ë¡ľ
ë¹Į ëĶ©
Ġcl ass
Ġì°½ìĿĺ ìłģìĿ¸
ĠìĿ¼ìĭľ ìłģìľ¼ë¡ľ
ĠìłģìłĪ íŀĪ
ĠëĬĲê¼ Īëĭ¤
Ġë°¸ ëŁ°
ĠìĽĲëĤ´ëĮĢ íĳľëĬĶ
Ġì´Īëĵ± íķĻìĥĿ
Ġë®¤ì§ģ ë¹ĦëĶĶìĺ¤
ê³µíĻĶ êµŃ
Ġê¹ĢìĹ° ìķĦ
Ġíı¬ë¥´ íĪ¬
ìĻ¼ ìª½
( %)
L ED
R L
S M
U N
a ut
n g
ç ¦
é ķ
Ġ et
ìĹĲ ê²Ĳ
ìĿ¼ ìļĶ
ìĦľ ë¦¬
ëıĦ ìĸ´
Ġë§ µ
ìľ¼ ëŁ¬
ĠìĿ´ ëĭ¨
ĠìĿ´ ìĹĪëĭ¤
ĠìĿ´ ìĥī
ë³ ´ëĮĢ
ĠëĤ ¡
ĠìĪĺ ì£¼
Ġê·¸ ë¦½
ĠëĮĢ ìĥģìĿĦ
ëĮĢ ìĭľ
ëĮĢ ìļ°
ëĮĢ ìĿĳ
Ġíķĺ ëĤ¨
Ġê¸° ìŀĲê°Ģ
Ġê¸° ì¹¨
ë§Į ìĽĲìĿĺ
ìĦ± ë¶Ħ
Ġëı Ķ
ĠìłĦ ìķ¡
íĻĶ ê³¼
íĻĶ íķł
êµŃ ìłķ
Ġìłľ ìķĪìĿĦ
ĠìŀĲ ê¸ĪìĿĦ
Ġë³´ íĸī
ëħĦ ìłľ
Ġì£¼ ìĦĿ
ìĭł íķĻ
ĠìĿ¸ ìŀ¬ë¥¼
ĠìĿ¼ ìłķìĿ´
ĠëĤĺ ëħ¸
Ġê³µ ìĺģ
Ġê³µ íĹĮ
íķĻ ìĿ´
Ġìĺ¤ ë¦Ħ
ëį° ìĬ¤
ìĺ¤ ì§Ģ
ìĺ¤ ë©´
ìĥĿ ìĿĢ
ĠìĿĺ ìĽĲìĿĺ
ĠìĿĺ ìķ½íĴĪ
ìĿĮ íĮĮ
íĺ¸ ë¡ľ
ìĺģ ìĪĺ
ĠìĹ° ëĭ¤
ĠìĦł ìĿĦ
Ġìĭł ê¸°ìĪł
Ġë¯¸ ìĬ¤íĦ°
ĠëıĻ ê²½
ĠìĦ¸ ìħĺ
Ġìµľ ìĥģ
ë²ķ ë¬´ë¶Ģ
ĠëĲĺ ê²łìĬµëĭĪëĭ¤
íİ «
Ġë¶Ħ ê¸°
ëĵł ê°Ģ
ìĸ´ë ¹Ħ
ê¶Į ìľ¼ë¡ľ
ĠìĽĲ ìĿ¸ìľ¼ë¡ľ
Ġë¶Ī ìĿ´
Ġë¶Ī íĸī
Ġë°Ľ ìľ¼ë©´
ĠìĦ¤ êµĲ
Ġëĭ¨ íĴį
Ġê³¼ ëĭ¤
ìłĢ ëŁ°
ë²Ħ ìłĦ
Ġë¬¼ ìĸ´
ĠíĮĮ ê³ł
Ġíķ© ìĿĺë¥¼
Ġëĭ¬ íĸĪëĭ¤
11 4
Ġëªħ ë¬¸
al ign
Ġíĺ¸ ìĬ¤íĬ¸
ĠA m
ëĭ´ íķľ
ì¦Ī ê°Ģ
ĠìĤ° íķĻ
ĠìĻ¸ ë¡ľ
íİ¸ ì§ĳ
ĠíĻĺ ìŀĲìĹĲê²Į
ĠìĨį ì´Ī
Ġíģ¬ ëłĪ
Ġíģ¬ ë£¨
it ed
ìĸ¸ ëįĶ
Ġê·ľ ìłľë¥¼
Ġì§ĢìĹŃ ìľ¼ë¡ľ
ĠìĭĿ ìĿĺ
ĠëĤł ì¹´
re am
ĠìķĬëĬĶ ëĭ¤ê³ł
Ġê±¸ ìĿĮ
ëĤł ìĿ´
Ġì¤Ħ ìĹĪëĭ¤
Ġë°©ë²ķ ê³¼
Ġíļ¨ ëĬ¥
Ġd if
Ġê¸¸ ìĿ´ê°Ģ
ĠëłĪ ìĿ´ìĬ¤
ĠìĿ´ìĸ´ ì§Ħ
ĠíĻķìĿ¸ ëĲĲëĭ¤
ĠëĬĺ ëł¤
Ġëª¨ìĬµ ìĹĲ
Ġëª¨ìĬµ ìĿ´ëĭ¤
ou se
Ġê²½ìłľ ê°Ģ
ìĤ Ĳ
Ġê¸°ëĬ¥ ê³¼
Ġë¨¸ ë¦¬ê°Ģ
Ġë§ī ê³ł
ĠìĤ°ìĹħ ìļ©
ĠìķĦëĭĮ ëį°
ë¦Ń ìĬ¤
Ġê°Ģì¡± ìĿĦ
Ġìŀł ìĭ¤
ĠíķĻêµĲ ê°Ģ
ĠìŀĳíĴĪ ìľ¼ë¡ľ
Ġíķĺë£¨ ë¥¼
em ber
ĠìķĬìķĺ ëĭ¤ê³ł
ì¶© ë¶ģ
ëįķ ê·ľ
Ġì¡°ê¸Ī ìĿĢ
Ġìĭłì²Ń íķł
ĠìĿ´ëĤ ĺ
ĠìĿ¸ìłķ íķĺì§Ģ
Ġë³Ģê²½ ëĲľ
ëĲĺìĹĪëĭ¤ ëĬĶ
ĠìĿ´ëıĻ íĨµìĭł
ĠìłĦë§Ŀ íĸĪëĭ¤
Ġëª©íĳľ ëĬĶ
Ġë²Īì§¸ ëĬĶ
Ġê¸Īìľµ íĪ¬ìŀĲ
Ġìľłëªħ íķĺëĭ¤
Ġë§ĮëĤĺ ê²Į
ãİ ľ
Ġìĸ´ëłµ ëĭ¤ê³ł
Ġíĭ° ìĬ¤íĨłë¦¬
Ġìłľìĭľ íķĺëĬĶ
Ġë¹Ī ë²Ī
Ġì± Ĺë´ĩ
Ġì´ī ì´ī
Ġë¡¤ ìĹ¼ìĥī
ìķŀ ìľ¼ë¡ľëıĦ
ĠíıīíĻĶ ìĻĢ
ĠëĤĺëĪ Į
Ġë¯¼ì¡± ì£¼ìĿĺ
Ġëļ Ŀ
ĠíĻķìĭ¤ íķĺê²Į
Ġíİ¸ìĿĺ ìłĲ
ê¸°ì¤Ģ ìĿĦ
Ġê·¼ë¡ľ ìŀĲ
ìĿ´ìĹĪ ì§Ģë§Į
ĠìĿ¼ìľ¼ íĤ¤ëĬĶ
ast ic
ĠíĢ ´
ĠíĢ µ
ĠìĪĻë°ķ ìĭľìĦ¤
Ġíģ¬ë¦¬ìĬ¤ ë§ĪìĬ¤
Ġë¬´ìĹĩë³´ëĭ¤ ëıĦ
ìĭ¶ ìĿĢ
íĶĦëłĪ ìŀĦ
ĠìłĦíĺķ ìłģìĿ¸
ĠëĮĢëĭ¨ íŀĪ
Ġë²ķìłģ ì¹´ì§Ģëħ¸
Ġìºłíİĺ ìĿ¸ìĿĦ
ĠëĲĺëıĮ ìķĦ
Ġê·ĢëĨį ê·Ģì´Į
Ġìĸĩ ìĿĢ
Ġíı¬íĬ¸ íı´ë¦¬ìĺ¤
èĢ ħ
Ġíĺ¸ìĿĳ ìĿĦ
Ġcol or
Ġë²łë¥¼ ë¦°
ì§Ģë°©êµŃíĨłê´Ģë¦¬ ì²Ńê³łìĭľìłľ
& ;
? '
G V
O K
T T
g ram
o ot
r al
è »
ë¡ľ ë¡ľ
ê°Ģ ë°©
ëĵ Ĳ
ìĭľ ê¸°ë¥¼
ìĭľ ìŀ¥ìĿĢ
ìĬ¤ ì¹´ì§Ģëħ¸
ĠìŀĪ ëĤĺ
ĠìŀĪ ëĭµëĭĪëĭ¤
ĠìĪĺ ìĺ¨
ëŀ ´
ĠëĮĢ ê°Ģ
ĠëĮĢ ì¶©
ĠëĮĢ ê¸ĪìĿĦ
ëĤĺ ìĦľ
ìłģ ìĿ´ì§Ģ
Ġê¸° ëĵĿ
Ġê°Ģ ë§Į
ìĥģ ìĬ¹
ìķĦ ëĭĪ
ĠìłĦ ìĹŃ
Ġìĭľ ë¥¼
Ġëĭ¤ ëĭĲ
ëĵľ ë¦¼
Ġë³´ ì¢Į
ëħĦ ëıĻìķĪ
Ġì£¼ ëĭĺìĿĺ
ĠìĿ¼ ìĸ´ëĤł
ìĨĮ ë¦¬ê°Ģ
ĠëĤĺ ë§ĮìĿĺ
Ġì¤ĳ ìłĲìĿĦ
Ġëª¨ ìĿĺ
ê³µ íķĻê³¼
ëŁ¬ ìĽĮ
ì¡° íļĮ
ìŀħ ë²ķ
ĠìķĬ ê±°ëĤĺ
Ġìĺ¤ ëĦĪ
ê±° ëĿ¼
ìļ´ ëĵľë¥¼
ĠëķĮ ìĻĢ
ìķĪ ìĹĲìĦľ
ìĭ¤ ìŀ¥
ìĺģ ìĿĦ
Ġìĭł ìĿĺ
ĠíĨµ ì§Ģë¥¼
ë¯¸ ìĻĢ
ë¯¸ ìĤ¬ìĿ¼
Ġêµ¬ ìĤ¬
Ġêµ¬ ëıĻ
Ġë¯¸ ë£¨
ë°© ì¹¨
ĠëĤ´ êµ¬
ìĹĪ ëĬĶì§Ģ
Ġìĺģ ìĸ´ë¥¼
ĠìĬ¤ íĮĮìĿ´
Ġìµľ ìķħìĿĺ
Ġìĭ¤ ìłĦ
ì°¨ ìłģìľ¼ë¡ľ
ìĸ´ë ¶Ļ
Ġìļ°ë¦¬ ëıĦ
Ġíı¬ ì¼ĵ
Ġíİ ł
ê²© ìľ¼ë¡ľ
ëł¨ ìĿĦ
ê°ķ ìĤ¬
ê°ķ íĻĶ
Ġê²ĥìĿ´ ëŀĢ
ĠìļĶ íķľ
ĠìļĶ ë¦¬ë¥¼
ì¹´ íĶĦ
ì¹´ ëĵľë¥¼
ĠC S
ë³Ħ ë¡ľëĬĶ
íĮĲ ìĹĲìĦľ
Ġë¦¬ ëĵ¬
Ġìŀĺ ëĿ¼
Ġê°ģ íĺ¸ìĿĺ
íİ¸ ìĹĲ
ë°° ê°Ģ
ĠíĶĦë¡ľ ëĵĢ
Ġìķ½ ìłķ
Ġë¬¸ìłľ ìłĲ
Ġìĭľìŀĳ ëĲĲëĭ¤
Ġê°ľìĿ¸ ìłģ
Ġíĳľ ì¶ľ
Ġì½Ķ íĭĢë¦°
Ġ- >
íĪ¬ ë¥¼
íĪ¬ ëªħ
Ġê±¸ ì¹ľ
ĠëĪĪ ë¬¼
Ġê´ĳ íĻĶë¬¸
Ġì¤ĳìļĶ íķĺëĭ¤ê³ł
ê¸Ģ ìĿĦ
ì£¼ìĿĺ ìĿĺ
Ġìłķë¶Ģ ìĹĲ
Ġë²ł íĮħ
Ġê²ĮìŀĦ ìĹĲ
ĠìĦłíĥĿ ìĿ´
ê³³ ìĹĲ
ĠìĿ´ë£ °
ê²Ģ ì¦Ŀ
ol ic
Ġê°Ī ëĵ±ìĿĦ
ìĭľíĤ¤ ì§Ģ
ìĨĲ íķ´ë³´íĹĺ
Ġëĭ¹ìĭľ ìĹĲ
ĠêµĲìĪĺ ìĿĺ
ĠìŀĲìĹ° ìĿĦ
ê¸°ê´Ģ ìĿ´
Ġê°Ģìŀħ íķľ
od y
ĠV alley
Ġë°©ìĭĿ ìĿĢ
ĠìĨĮê°ľ íķĺëĬĶ
ìĬ¤íģ¬ ë¦°
Ġê³łëł¤ íķľ
ĠìłĦë§Ŀ ìĿ´
ĠìłĦë§Ŀ ëĲľëĭ¤
ĠíĺĦìĭ¤ ìłģìĿ¸
ìķĦìĿ´ ì½ĺ
Ġìĸ´ëłµ ì§Ģ
ĠìĿµ ëªħ
íķ´ë³´ ê³ł
Ġì§ĳì¤ĳ ìłģìľ¼ë¡ľ
ë§Įíģ¼ ìĿĢ
ĠìĦłë³´ ìĿ´ê³ł
ĠìľłëŁ½ ìĿĺ
Ġìĸ¼êµ´ ìĹĲ
Ġì¹¼ ìĬĺ
ĠíĥĲ êµ¬
ìĵ° ê³ł
ĠíĻĶë©´ ìĹĲ
Ġë¸Ķë¡ľê·¸ ìĹĲ
ĠëĲĺìĹĪ ìľ¼ë©°
Ġpro vid
ĠíķĦìĪĺ ìłģìĿ¸
Ġìĭľë¦¬ì¦Ī ìĿĺ
IS T
Ġì§ĢíĤ¤ ê¸°
ĠìĿ´ë© ´
ĠêµŃìłķ ëĨįëĭ¨
ĠëĦĪíĿ¬ ê°Ģ
Ġë°ĳ ìĹĲ
ê³µëıĻ ì²´
Ġì§ĳíĸī ìľł
ord er
ES T
ĠìĤ´íİ´ë³ ¼
Ġì§Ĳ ìĿĦ
ĠëĤĺìĿ´ íĤ¤
ĠíķľìĿ¸ íļĮ
Ġë°ľìĸ¸ ìĿĦ
Ġìĭ¤ì§Ī ìłģìľ¼ë¡ľ
Ġíĺ¸íĿ¡ ê¸°
ĠìĹ¬ìľł ê°Ģ
ë¯¼ì¡± ìĿĺ
Ġle ar
Ġì¿ ¨
Ġê°Ģìĥģ íĻĶíıĲ
Ġì²´ìľ¡ ê´Ģ
ĠíĬ¸ëłĮ ëĵľë¥¼
fer ence
ĠKore a
Ġë¬´ìĦľ ìļ´
ĠMan ag
Ġìĸ´ëĶ ĺ
Ġì»´íĵ¨ íĮħ
! âĢĻ
H O
á Ĩ
ç Ĳ
ç Ļ
é ĸ
í ĳ¼
Ġ que
Ĩ ¨ëĭ¤
ìĹĲ ìĸ´
ë¡ľ ìĦľëĬĶ
íķ´ ì¤Ħ
ĠìĿ´ ìŀĲ
ĠìŀĪ ëĵ¯ìĿ´
ĠìĪĺ ê³ł
ìļ© ìĿ´
ĠìłĦ ìłľë¡ľ
ĠìķĦ ë¥´ë°ĶìĿ´íĬ¸
ì£¼ ë©´
Ġëĭ¤ ê°Ģê°Ģ
Ġìłķ ìľł
ëıĻ ìĺ¤
Ġì£¼ ìłĢ
ĠìĿ¸ ìĽĲ
ĠìľĦ ë°°
ĠìĿ´ë ª©
ëĲĺ ë¯Ģë¡ľ
Ġìĥģ ë¬´
Ġìĥģ ë°ĺ
Ġë¶Ģ ëĭ¹íķľ
Ġê°ľ íĨµ
Ġìĺ¤ ë¹ł
Ġë¹Ħ ë¹Ħ
ìĭĿ ë¬¼
ĠìĨĮ ê·ľëª¨
ë¶Ħ ëĵ¤ìĿ´
ë¶Ħ ë§ĮìĹĲ
ìĺ¤ íĨł
íķ© ìĿĦ
ëĭ¨ ëĭ¤
ìĭ¤ ìĨĲ
Ġì¡° íĺķ
ĠìĦľ ìĭĿ
ĠìĦľ ë¥ĺë¥¼
ìľł íķĻ
ë¯¸ ë¡ľ
ĠìĦ¸ ìļ°
ë°© ìĭĿìĿĦ
ĠëĤ´ ìĪĺ
Ġíĥ ķ
ĠìĦ± ê²©ìĿĦ
ì°¨ ìłĦ
ĠêµĲ ëĭ¨
ìłģìľ¼ë¡ľ ëıĦ
ĠíĺĦ ìŀ¥ìĿĺ
in al
ìĨį ëıĦ
íĸĪ ìĹĪëĭ¤
ìĸ´ë ľ¨
ë°ĺ ìĿĦ
íĤ µ
ĠìłĢ ìĪł
Ġë¶Ī ìĿ´ìĿµ
Ġìłģ íıĲ
Ġì¶Ķ íĽĦ
íķĺê¸° ìĹĲëĬĶ
Ġê°Ĳ ìĤ¬ë¥¼
Ġê°Ĳ ëıĻìĿĦ
ĠëĤ¨ ê¸°
ĠëĤ¨ ìĦ±ìĿ´
ĠëĤ¨ ëĭ¤ë¥¸
Ġt e
ë§¤ ë¥¼
Ġìĸ´ íķĻ
Ġë¬¼ íĴĪìĿĦ
ê²° íķľ
ĠíĮĮ ê²©
ì¦Ŀ ìĹĲ
Ġì¶ľ íĴĪ
ĠìķĦëĭĪ ê¸°
Ġíĸī íĥľ
en a
Ġ8 6
Ġëª» íĸĪìĬµëĭĪëĭ¤
ê²ĥ ìľ¼ë¡ľ
ë²Ī ìĿĺ
ĠíĻĶ ìĦĿ
ĠìĹ´ ìķħíķľ
Ġì¢ħ ì¡±
Ġëĭ¤ìĭľ ê¸Ī
Ġë°ķ ë¬¼
Ġë°ķ ìĤ¬ëĬĶ
Ġìĸĳ íķ´
Ġìĭ¬ íķĺê²Į
Ġê°ĢëĬ¥ íķĺëıĦë¡Ŀ
ĠM us
ĠìķĦìĿ´ ë¦¬ìĬ¤
Ĥ´ ëĬĶ
ì´Ī ë¥¼
ìŀĪ ëĬĶëį°
Ġë²ķ ìĽĲìĿĢ
ĠìĿ´ìĥģ ìłģìĿ¸
Ġë¬´ë ł¥
ĠìĦľìļ¸ íĬ¹ë³Ħìĭľ
ĠëĮĢíĳľ ìĿ´
Ġì¹´ ëĵľë¥¼
Ġê¸°ìĪł ìĹĲ
Ġëª¨ëĳĲ ë¥¼
Ġìļ© ê¸°
Ġìļ© ëıĦë¡ľ
Ġë°©ë²ķ ìĿ´ëĭ¤
ë¸Ķ ë¡ľê·¸
el come
ĠìĿ´ìĸ´ ìł¸
ĠíĻķìĿ¸ íķľ
Ġë°Ķë¡ľ ê°Ģê¸°
Ġë°± ëĤ´
Ġë°± ëĳĲ
íļĮìĿĺ ìĭ¤ìĹĲìĦľ
ĠG re
ĠìĤ¬ëŀĳ ìĬ¤ëŁ¬ìļ´
Ġìŀ¡ ìķĺëĭ¤
Ġìķ¼ ëĭ¹
Ġë¬¸íĻĶ ìĻĢ
Ġê´Ģë¦¬ ìĹĲ
ĠW orld
Ġìłģìļ© íķĺëĬĶ
ĠìĿ¸ê°Ħ ìľ¼ë¡ľ
íķľêµŃ ìĭľê°Ħ
ìĭľíĤ¤ ë©°
Ġê²½íĹĺ íķľ
Ġìĺ¬íķ´ ìĿĺ
Ġë°©ë¬¸ íķĺìĹ¬
Ġìĸ´ëĬĲ ìĥĪ
ĠìļĶêµ¬ íķľ
ìŀ¡ ìĿ´
ĠìŀĳíĴĪ ìĿ´ëĭ¤
ĠëĨĵ ìĿ¸
us iness
Ġë¯¿ ì§Ģ
Ġëľ» ìľ¼ë¡ľ
ĠìĿ´ë£¨ìĸ´ ì§Ģ
Ġìĭľë¯¼ ëĭ¨ì²´
Ġìĭ¤ìĭľ íķĺëĬĶ
Ġìĭ¤ìĭľ íķľëĭ¤
Ġê¿Ī ê³¼
Ġì¡°ìĤ¬ ëĲĲëĭ¤
ìĿ´ë¸Į ë¦¬ëĵľ
ĠëĤĺëĿ¼ ìĹĲìĦľ
Ġì¡°ì§ģ ìĿĦ
Ġì¡°ì§ģ ìĿĺ
ĠìłĦëĭ¬ íĸĪëĭ¤
ìĵ ´
ĠíĬ¹ì§ķ ìĿ´
ĠëĵľëŁ¬ ëĤ´
Ġ* *
Ġë¶Ģëª¨ ê°Ģ
ĠíĿ¥ íĸī
Ġë¶Ħëªħ íķľ
ĠíĺĪ ê´Ģ
ìķ¤ ìĹĲìĬ¤
Ġìĭłê³ł ë¥¼
Ġë©Ķëī´ ë¥¼
ĠíĮ¨íĤ¤ ì§Ģë¥¼
ĠìłĢíĿ¬ ê°Ģ
ìĿĺë£Į ìĭ¤ë¹Ħë³´íĹĺ
ìĬ¤íħĮ ìķĦ
Ġê³¤ ì¶©
å® ī
Ġëıķ ê³ł
Ġcl ient
Ġê±· ëĬĶ
íİĺìĿ´ ìĺ¤
Ġë²¨ ê¸°ìĹĲ
æĺ ¯
Ġê³ĦìĹ´ ìĤ¬
Ġê±°ì§ĵ ë§Ĳ
Ġê±°ê¸° ìĦľ
ìĸ´ëĸ »ê²Į
ĠìĬ¤íĬ¸ëłĪ ìĬ¤ë¥¼
ìĬ¤ì¹´ íĶĦ
Ġë¹Ħë°Ģë²Īíĺ¸ ë¥¼
íĹ¬ ìĬ¤
etw een
Ġë¡ľë§¨ ìĬ¤
Ġíķľë§ĪëĶĶ ë¡ľ
íģ´ë¦¬ ëĭī
ê¸Ģë¦¬ ìĦ¸
Ġíģ´ëĿ¼ìĿ´ìĸ¸ íĬ¸
Ġê´ĳë²Ķ ìľĦíķľ
ë§ĪìĿ´íģ¬ ë¡ľ
´ëŀľ ëĵľ
C ëĤ®ìĿĢ
N D
T BC
_ -
c ur
m g
w ay
ä ¿
æ Ķ
è ĥ
ë ±
ë ĺ¥
Į ë¦°
ìĿ´ ìļĶ
ìĿ´ ë¯¼
ìĿ´ ë¦Ħ
ê³ °
ìĹĲ ìĿ´ëĭ¤
ì§Ģ ì¹¨
ì§Ģ ìĽĲìĿĦ
ê°Ģ ì§Ĳ
ìĦľ ìĸĳ
ëĤ Į
ĠìĹ ®
ìĿ¸ ëĵ¤ê³¼
Ġìĭ £
Ġì§ ±
ë© ĭ
ë³ ķ
ìĤ¬ ìĽĲ
ë° ĳ
ëĵ¤ ìĹĪëĭ¤
ìĺ Ľ
ĠìĤ¬ ìłķ
ĠìĤ¬ ìĽĲ
ĠìĤ¬ ìĸĳ
Ġê·¸ íĨłë¡Ŀ
ìŀ¥ ê¶Į
ìłģ ìĿ´ëĿ¼ëĬĶ
Ġíķĺ ì£ł
ë¶Ģ ì§Ģ
Ġê°Ģ ëł¹
Ġê°Ģ ëŃĦ
ìļ© ìĿĺ
Ġíķľ ë³µ
ĠìķĦ ëĤĺ
ìłĦ ì²´
êµŃ ìłģ
Ġëĭ¤ ëħĶ
Ġìłľ ë²ķ
Ġìłľ ë°ĺ
ĠìľĦ ìĻĢ
ê¹ ģëĭĪëĭ¤
ĠëĤĺ ëĮĢ
ĠëĤĺ ê°Ģê³ł
Ġì¤ĳ ìłĲ
Ġì¤ĳ ë¦½
ë£ ¬
Ġê³µ ìŀ¥ìĿĦ
Ġìĥģ ìĿĦ
Ġìĥģ íķ´
Ġê³ł ëŀĺ
ĠìĨĮ ìĥģê³µ
ê· ¤
Ġìľł ìĺĪ
ê²½ ìłķ
ĠìĹ¬ ëĵľ
ĠìĹ¬ ë¶ĢìĹĲ
Ġë§Ī ë²ķ
Ġë§Ī ì¹´ìĺ¤
Ġë§Ī ìĿ´ëĦĪ
ë¬´ íķľ
Ġì¡° ì¢ħ
íĥĢ ëĬĶ
ìĺģ ë¦¬
Ġë°Ķ ê¾¼
Ġêµ¬ íĺ¸
ëĦ ´
ĠëıĻ íĸī
Ġìĺģ ëĵ±
Ġìĺģ ìĥģìĿ´
ĠìĬ¤ ìĬ¹
ĠêµĲ ì°¨
íģ¬ ë¦½íĨł
Ġìŀ¥ ë¯¸
ëłĪ ëĬĶ
Ġê°ķ ë°ķ
ëĤ´ ìħĶëĦĲ
ìĺĢ ëĭ¤ëĬĶ
ëª¨ ê°Ģ
ĠìĽĲ ìľ¼ë¡ľ
ë¦° ìĭľíģ¬
Ġê¹Ģ ìŀ¥
ĠëĤ¨ ìŀĲëĬĶ
Ġìŀħ ìŀ¥ìĿ´
Ġì°¨ íĬ¸
ĠìĥĪ íķ´
Ġëĭ¬ ëĿ¼ê³ł
íĶ¼ íĬ¸
íĮĲ ìľ¼ë¡ľ
ìĻ¸ ìĿĺ
Ġì§ĢëĤľ ì£¼
ĠìĹ´ ë¦¬ê³ł
Ġìĸĳ ì§ĪìĿĺ
ĠìĹĲ ëĶĶ
ĠM P
Ġìĺ¨ ëıĦê°Ģ
Ġë¶ģ ìķĦ
ĠìŀĦ ìĿĺ
íĶĮ ëŀĺ
íĶĮ ëŀ«íı¼
Ġì·¨ íķĺê³ł
ëĦĪ ëĬĶ
Ġì¹´ íĨ¡
ĠìĪľ ìĪĺíķľ
ìĽĢ ìĿĢ
Ġì¤Ħ ê¸°
ĠíķĺëĤĺëĭĺ ê³¼
Ġê¶Į ë¦¬ê°Ģ
ĠìĿ´ë²Ī ìĿ´
Ġê°ľë°ľ ëĲľ
ĠíĮ¨ ìĬ¤
Ġë¨¹ íĬĢ
Ġ0 3
Ġf ile
Ġì½ §
ê¹Ģ ìĺģ
ĠìĦ¤ëªħ íķĺëĬĶ
ĠìĦ¤ëªħ íķł
Ġìī½ ëĭ¤
ĠìĹ¬ìĦ± ìĿĢ
Ġê³Ħíļį íķĺê³ł
ë³´íĹĺ ìĿĢ
ë§ŀ ì¶¤
Ġë¶ĦìĦĿ ìĿ´
ĠíıŃ íĸī
ìĤ¬íļĮ ê°Ģ
Ġê¸°ëĮĢ íķł
Ġëª° ëĿ¼ëıĦ
ĠëıĮìķĦ ëĭ¤ëĭĪ
ĠíĤ¤ ìĽĮëĵľ
Ġê°ľìĿ¸ìłķë³´ ê´Ģë¦¬
ĠìĿ¼ë¶Ģ ëŁ¬
ĠëĨĵ ìĹ¬
Ġìłķì±ħ ìĿĺ
un ication
Ġë¬´ìĹĩ ìĿ¼ê¹Į
ê±¸ ìĿĮ
ê¸°ìĪł íĳľì¤Ģ
Ġëį°ìĿ´íĦ° ê°Ģ
ê³¨ ëĵľ
Ġì¶Ķì§Ħ íķł
Ġì»¨ ìħī
ĠìĥģíĴĪ ìĿĢ
Ġìķħ ê¸°
ĠìķĦì§ģ ìĿĢ
Ġêµ¬ë§¤ íķł
Ġìľ¡ ìķĦ
ĠíĮĲëĭ¨ ëĲľëĭ¤
ĠíĽĦë³´ ìŀĲ
Ġìłķìĭł ìĿ´
ĠìŀĲë¦¬ íķľ
íķ´ì£¼ ìĭł
ìķĦìĿ´ íı°
ĠíĿĶ íķľ
ĠìłĦíĨµ ìĿĦ
ëħĦê°Ħ ìĿĺ
ĠìłĦë¬¸ê°Ģ ëĵ¤ìĿ´
ì¿ ¡
ĠìĿ´ë¤Ħ ì§Ī
ĠëĦĵ ê²Į
Ġê²ª ìĿĢ
Ġê³µìĭĿ ìłģìľ¼ë¡ľ
Ġê³µë¶Ģ íķĺëĬĶ
Ġì£¼ëª© ëĲľëĭ¤
Ġê·¸ë¦¬ìĬ¤ ëıĦë¥¼
Ġë¡¤ ìľ¡ìĦ±
ìĦłê±° ê´Ģë¦¬ìľĦìĽĲíļĮ
ĠëĶ± ëĶ±
Ġë²łìĿ´ ë¹Ħ
Ġë¶ģë¯¸ ìłķìĥģíļĮëĭ´
Ġê³³ê³³ ìĹĲìĦľ
Ġëĸłìĺ¤ ë¥´ëĬĶ
Ġê¸°ìģ ¨ìĿĦ
ĠìĿ´ë° Ķ
ĠìĤ¬ìĦ¤ ë°°íĮħ
ìĿ¼ë¶Ģ ê°ľìłķ
Ġê¹Ģì£¼ íĺĦ
Ġê¹Ģì£¼ íĺģ
ĠApp le
Ġì§ĳê³Ħ ëĲĲëĭ¤
ìĤ¬ìĿ´ë²Ħ ë§ĪìĿ¼ì¦Ī
íĢĢ íħĢ
ë§Īì§Ģë§ī ìľ¼ë¡ľ
ĠëĮĢëĭ¤ ìĪĺ
ĠìľłìĿµ íķľ
ìĺ¤ëĶĶ ìĦ¸ìĿ´
ĠìĿ´ìĤ° ê°Ģì¡±
CëĤ®ìĿĢ ëĨĴìĿĢ
" )
B l
C V
C OM
R e
S p
r on
æ Ľ¸
ìĿ´ ëıĦ
ìĿ´ ë²¤íĬ¸
ë¡ľ ëĿ¼
Ġìł ¸
ê°Ģ ìĪĺ
ëıĦ êµ¬
ĠìĿ´ ìĨ¡
ĠìĪĺ íĺ¸
ĠìĪĺ íĺľ
ĠìĤ¬ ìŀ¥ìĿ´
ĠìĤ¬ ìłķìĿ´
ìĸ´ ê±°
ĠëĮĢ ê¸Ī
ë¶Ģ ëıĦ
ë¶Ģ ì²ĺ
Ġê¸° ìŀĲëĬĶ
Ġê²ĥ ëĵ¤ìĿĢ
ìĦ± ìłģ
ì£¼ ìĭľë©´
Ġìłľ êµŃ
Ġìłķ íĺķ
ĠìĨ ľ
Ġì° ¢
ì¹ĺ ë£Įë¥¼
ĠìĿ¼ ëĵ¤ìĿĦ
ìĨĮ ìĪĺ
Ġëª¨ ìķĺëĭ¤
ê³µ ìłľ
Ġê³µ ë£¡
ëĲĺ ëįĺ
Ġê°ľ ë¥¼
Ġìĺ¤ ì¹´
ĠìĨĮ ìĿĮ
ìĺ¤ ê³µ
ê²½ ìĿĺ
ĠìĹ¬ ìŀĲê°Ģ
ĠìĥĿ ë¦¬
ìĭ¤ ìłľ
ìľł ëĭĪ
Ġìĭł ë¶Ģ
Ġêµ¬ ìłľ
Ġë¯¸ ì£¼
ĠëıĻ íķ´
Ġìĺģ ë¦¬
Ġìĺģ ë¬¸
Ġìĺģ ìŀ¬
Ġìĺģ íĨł
ë¯¼ ì£¼ëĭ¹
ĠâĢľ (
íģ¬ ëĬĶ
in s
Ġê°Ļ ì§Ģë§Į
íı¬ ë¡ľ
ĠëĮĢíķľ íķŃê³µ
ë°ĺ ìĺģêµ¬
ëª¨ ëĦ¤
ì²Ń ìĻĢ
Ġë¬´ ëĭ¨
Ġìŀ¬ ê³Ħ
Ġë°Ľ ìķĺëįĺ
ê±´ ìĿĢ
Ġê¹Ģ ìĬ¹
Ġì¶Ķ ìĥģ
Ġëħ¸ ìĦł
íķĺê¸° ë§Į
Ġëĭ¨ ìĹ°
ĠìľĦíķ´ ìĦł
Ġë°ĺ ìĨ¡
Ġt ag
an s
ìłĢ ëħģ
Ġìĸ´ ìĥī
ê²° ìĿ´
ê²° ê³¼ë¥¼
ëł¹ ìĿ´
ĠíĮĮ ìļ´ëĵľ
ĠS F
íĻĺ ìĿĢ
Ġ7 1
Ġë¦ ¼
ì½Ķ íĬ¸
Ġì§ģ ìĽĲìĿĢ
ĠC B
al k
ëª© íĳľ
ĠA R
ĠìĹ´ ìłķìĿĦ
ĠíĹ ¨
Ġ19 88
ëĦ¤ ìĬ¤
íķĺëĭ¤ ë©´
Ġë¬¸ìłľ ëĭ¤
Ġìłľê³µ íķĺì§Ģ
Ġìĸĳ ë³´
ĠìĨį ìĦ±
ìŀĪ ìĹĪëĭ¤
ìĬ¹ ì§Ħ
Ġëĭ¤ìĸĳ íķĺê³ł
Ġì²´ ê°Ĳ
ĠI NSU
ĠìŀĦ ì§Ħ
Ġì§Ħíĸī íķ´
ëģ Į
Ġë¯¼ ìĦł
ĠëĮĢíĳľ ìĿĺ
Ġê´ĳ ìŀ¥
Ġíĥľ ê·¹
ĠK im
Ġìļ© ìĸ´
Ġëĭ¤ìĿĮ ìľ¼ë¡ľ
ĠìłĦë¬¸ ìĿĺ
ĠëĴ¤ ëĬ¦ê²Į
Ġ0 4
Ġf l
ê¹Ģ ìĹĨìĿ´
ĠëĤĺíĥĢ ëĤ´
Ġë³´ë Ł¬
ĠìĺģíĻĶ ìĹĲ
Ġìĵ° ìĿ´ëĬĶ
ë²ł ë¦¬ìķĦ
ĠìĤ¬ëŀĳ ìĹĲ
íĬ¹ íĹĪ
ĠìĹ¬ìĦ± ëĵ¤ìĿĺ
Ġìłģìļ© ëĲĺëĬĶ
ìłľë¡ľ ìĹĳìĬ¤
ĠíĻľìļ© íķĺê³ł
ìĤ¬íļĮ ìĹĲ
Ġìĺ¬íķ´ ëıĦ
ĠìŀĲìĹ° ìĬ¤ëŁ¬ìļ´
Ġë§Īëł¨ íķľ
ĠìĦ±ìŀ¥ íķł
ì¹´ì§Ģëħ¸ ì¶Ķì²ľ
Ġëľ» íķĺëĬĶ
ĠìĹ°ê²° íķĺëĬĶ
ìĬ¬ ëĿ¼
íıĲ ê¸°
ap e
ëĲĺìĹĪëĭ¤ ê³ł
Ġê³łëł¤ íķ´ìķ¼
ëĲĲ ìĬµëĭĪëĭ¤
Ġì£¼ìŀ¥ íķľëĭ¤
ìĻĦ ë£Į
Ġíİ¼ ì¹ĺëĬĶ
Ġê±´ì¶ķ ê°Ģ
ìĹĺ íĶĦ
Ġre l
Ġ199 2
ĠëĩĮ ë¬¼ìĿĦ
Ġê¸°ëĭ¤ ë¦¬
ĠìĦłìĥĿ ëĭĺìĿĺ
ĠìĿ´ë¤Ħ ì¡Įëĭ¤
ĠìķĪìłķ ìłģìľ¼ë¡ľ
ĠìĨĮìŀ¬ ë¥¼
ĠìĿ´ê³³ ìĿĦ
Ġëĭ¨ê³Ħ ìĹĲìĦľ
Ġë°Ķëĭ¤ ë¥¼
Ġë§¤ì¶ľ ìĿ´
ĠíĶĦë¡ľìłĿíĬ¸ ìĹĲ
ĠìŀĲê²© ìĿ´
ĠìĪĺìĥģ íĸĪëĭ¤
Ġì¢ħêµĲ ê°ľíĺģ
ĠíķĺëĬĺ ê³¼
ìŀĶ íĬ¸
ë¹Ľ ìĿĦ
ĠìĹĦë§Ī ëĬĶ
Ġì°½ì¡° ì²´
ĠëĤĺìĦľ ê³ł
Ġë³Ģíĺ¸ ìĤ¬ëĬĶ
ĠìĿ´ìĤ¬ ìŀ¥
ĠìķĦëıĻ ìĿĺ
Ġì§ĵ ê³ł
ì²¨ ëĭ¨
ĠíĻĶìŀ¥ ìĭ¤
Ġï¼ ¢
ìł¤ ëłĪìĬ¤
ĠìĽĢì§ģìŀĦ ìĿ´
Ġê³łëĵ± êµĲìľ¡
ĠìķĦë¹ł ê°Ģ
Ġì¶¤ ìĿĦ
ĠìĹĶì§ĢëĭĪ ìĸ´
ĠíĨµì¹ĺ ìŀĲ
ĠSU V
ĠìŃ ī
ĠìĥĪëĪĦë¦¬ ëĭ¹
ìķµì»¤ ë©ĺíĬ¸
fig ur
íĵ° ëŁ¬ìĬ¤
ĠìĹ¬ê¸°ìłĢ ê¸°
Ġdocum ent
ëĿ¼ë£¨ ë©ĺ
ĠINSU RA
A l
S W
d f
m s
p ect
u ff
è ®
ĺ ĺ
ìĿ´ ìĺ¤ìĬ¤
ìĹĲ íĨłìĬ¤
ê³ł ì¹´
ìĿ¼ ìĹ¼
ê¸° íĶĦ
ĠìĹ ´ë§Ŀ
ìĿ¸ ì§Ģë¥¼
ìĤ¬ ë²ķ
ìĤ¬ ì¹´
ĠìĪĺ ì§Ī
ĠìĤ¬ íĩ´
ìĸ´ ì£¼ê³ł
ìłķ ëĭ¹
Ġ1 12
ĠëĮĢ ì¡°
ìĽĲ ê³łìĭľìłľ
Ġë¶ Ĳ
ëĮĢ íĺĳ
ë¶Ģ ëĮĢ
ìķĦ ëĭĪìķĦ
Ġì§Ģ ëĤ¬
Ġíķľ ê²°
Ġíķľ ìŀĶ
ĠìķĦ ë©Ķë¦¬ì¹´
íĬ¸ ìºĲìĭľ
ìłĦ ìļ©
Ġìłľ ì²ľ
ĠìŀĲ ë¦¬ê°Ģ
ìĽĶ íĬ¼
íĦ° ìĹĲ
íĦ° ëĭĪíĭ°
ê°Ħ ìĿ´
ê°Ħ ìĿĦ
ë¹Ħ ìĹĲìĿ´ì¹ĺ
ìĭł ëĮĢ
ĠìĿ¼ ìĿ¼ìĿ´
ĠëĤĺ ë¹ł
ĠëĤĺ ê°Ķëĭ¤
Ġì¤ĳ ìŀ¬
ì§Ħ ìĹĲ
ĠìŀĪëĬĶ ì§Ģë¥¼
Ġë¶Ģ íĿ¥
ìĺ¤ ë¯¸ìĦ¸
Ġë§Ī ìķ½
ìĭ¤ ë¦¬
Ġì¡° ìľ¨
Ġì¡° ì¹ĺê°Ģ
íĥĢ ìĿĺ
íĥĢ ê¸°
íĥĢ íĨłíģ°
ĠìĦľ ìª½
ĠìĦł ëªħ
ĠìĦł ë¬¼ìĿĦ
Ġë§Ĳ ëłĪìĿ´ìĭľìķĦ
ĠìĦ¸ ìĿ¼
ĠìķĪ ìĿĺ
ĠëĤ´ ìħĶëĦĲ
ìĹĪ ìľ¼ëĤĺ
Ġìĺģ ìĸ´ë¡ľ
Ġìµľ ìļ°ìĦł
ë²ķ ìĽĲ
ĠìĦ± ì°°
Ġë¶Ħ ëĵ¤ìĿĦ
Ġì§Ħ ìĥģ
ĠíĺĦ ìĹŃ
ĠíĺĦ ì§ģ
ëĵł ëĦ¤íĬ¸ìĽĮíģ¬íĨłíģ°
in i
Ġê°ķ ì²ł
íı¬ íĦ°
íı¬ íĨł
íı¬ ì§ĢìĹĦ
Ġë¬´ ë¦¬ê°Ģ
ì¤Ģ ìĦŃ
Ġìłģ ê³ł
Ġëħ¸ ë²¨
ĠëĤ¨ ìĦ±ìĿĺ
Ġì°¨ ìĿ´ëĤĺ
ë¡ł ê°Ģ
ëĶĶ ë¥¼
ë²Ħ íĬ¸
íĮĮ íĵ°ëŁ¬ìĬ¤
Ġê²ĥìĿ´ ì§ĢìļĶ
ëł¹ ìĿĦ
ì¦Ŀ ìĤ°ëıĦ
ë£¨ ì²´ìĿ¸
ë£¨ íĶĦë§ģ
ĠëĳĲ ëĩĮ
ĠìĥĿê°ģ ìľ¼ë¡ľ
Ġ7 8
ĠìĿ´ìļ© íķĺë©´
ĠíĶ¼ ìŀĲ
Ġëª» íķ©ëĭĪëĭ¤
ëŁī ê³¼
íĮĲ ìĦĿ
ĠA ìĶ¨ëĬĶ
ëŀĢ ìĿĦ
Ġì´Ī ê¸°ìĹĲ
Ġë°ķ ì¢ħ
Ġë°ķ íĥĪ
ĠìĹĲ íĶ¼ìĨĮ
ĠìķĦìĿ´ ëĵ¤ê³¼
ĠìŀĲìĭł ìĿĢ
Ġìĭľìŀĳ ëĲĺëĬĶ
ĠìĿ´ìĥģ ìĿ¸
ĠìĹħ ê³ĦìĿĺ
Ġë°Ŀ íŀĪê³ł
ĠI oT
Ġë¶ģ êµ¬
ĠíĪ¬ ìĪĺ
ëıħ ìĿ¼
Ġëĵ¤ìĸ´ ìĺ¨
Ġëĵ¤ìĸ´ ìĻĶëĭ¤
ĠëĤ´ë ¹Ħ
ĠìĦľìļ¸ ìĹĲ
ĠëĪĦ ìĽĮ
ĠíļĮìĤ¬ ìĻĢ
ìķł íĦ°ëĭĪíĭ°
Ġë²Ħ ëł¤
Ġë²Ħ ìłĦìĿĦ
Ġìĭ¶ ìĿĦ
Ġa ct
ĠB er
Ġì¤Ħ ìĿ´ëĬĶ
ĠëĦ¤ íĭ°ì¦Į
Ġìļ© ìĤ°
Ġë°ľìĥĿ íķĺì§Ģ
ìĤ¬ìĹħ ë¶Ģ
ĠE X
ë²Ķ ìľĦ
Ġì¦Ĳ ê¸°ê³ł
Ġìĵ° ìĹ¬
ë²ł ìŀĶíĬ¸
ĠíķĻìĥĿ ë¶Ģ
ĠìĤ¬ì§Ħ ìľ¼ë¡ľ
ĠêµŃë¯¼ ìĿĦ
Ġì°¸ìĹ¬ íķĺê³ł
ì¸¡ ìłķ
ĠW est
Ġìłģìļ© ëĲ©ëĭĪëĭ¤
ë§ŀ ìĿ´
Ġì¦Ŀê°Ģ íķł
íħĲ ìĹĳìĬ¤
Ġê¸°ëĮĢ ê°ĲìĿĦ
Ġë³´íĹĺ ë£Įë¥¼
Ġê·¹ ìĭ¬íķľ
ĠìŀĳíĴĪ ìĹĲ
Ġë§Īëł¨ íķĺê³ł
Ġë§Īëł¨ ëĲĲëĭ¤
ĠëĤĺìĺ¤ ë©´
ê³¨ ëłĺ
ĠìĹŃíķł ìĹĲ
ĠV is
Ġíķ´ê²° íķĺëĬĶ
Ġëľ» ìĿ´
ĠíĳľíĺĦ íķľ
íıŃ ìĿ´
ê·Ģ íı¬
ĠìĨĮê°ľ íķĺê³ł
Ġn on
ĠìŀĲì²´ ëĬĶ
Ġëħ¸ëł¥ íķĺê²łëĭ¤
ĠìŀĳìĹħ ìĹĲ
ì°¸ ê°Ģ
ĠíĮĢ ìĿĢ
Ġê°ķì¡° íķĺëĬĶ
íĶĦë¡ľ ê³¨íĶĦ
Ġê°ĲìĤ¬ ëĵľë¦½ëĭĪëĭ¤
Ġíİ¼ ì¹ĺê³ł
ìķĦìĿ´ ìĺ¤íĭ°
ĠìĶ¨ ìĿĺ
ĠìĶ¨ ìķĹ
íĻį ë³´
ê·¸ëŀĺ ëıĦ
Ġï ĥ
Ġê½ĥ ìĿ´
Ġìĸ¸ë¡ł ìĿĢ
Ġì°į ëĬĶ
Ġíķµìĭ¬ ìĿĢ
Ġë²ķë¥ł ìĹĲ
ĠìĿ¸ìĭĿ ìĿ´
ĠìĿ¸ìĭĿ íķĺê³ł
pp ort
ĠX SL
Ġìĸ´ë¦°ìĿ´ ì§ĳ
Ġê±´ë¬¼ ìĿĦ
Ġë°ĶìĿ´ ì¹¼
íĶĦë¦¬ ë§ĪìĬ¤
ĠíĸīìľĦ ëĬĶ
ì²´ìĿ¸ ë§ģíģ¬
ë³´íĺ¸ ìĹĲ
ĠìĹĦì²Ń ëĤĺê²Į
íĶĮëłĪìĿ´ ì½ĶìĿ¸
Ġì¤ ¬
Ġì·¨ëĵĿ íķľ
ĠìłĦìļ© ëª¨
ìĬ¤íħĮ ìĿ´íĦ°ìĬ¤
Ġëĺĳ ê°Ļ
Ġë°ĶëĢĮ ëĬĶ
ê¸°ëĬ¥ ìĿĦ
ëłĽ ìłĢ
ë£¸ ëĦ¤íĬ¸ìĽĮíģ¬
Ġëªħëł¹ ìĿĦ
íĮĮìĽĮ ëłĽìłĢ
Ġê°Ħíĺ¸ ìĤ¬
Ġë°ĽìķĦëĵ¤ ìĿ¼
ìŀĲìĤ° ìļ´ìļ©
Ġë¬´íķľ íķľ
Ġë²ķëł¹ ìĹĲ
ìĬ¤íĬ¸ëĿ¼ íĭ°ìĬ¤
Ġé ©¬æĸ¯åħĭ
Ġì¦Ĳê²¨ ì°¾
ĠëĤ¬ ëĭ¤
ĠìĹ°ìĺĪ ìĿ¸
Ġê°Ħíİ¸ íķĺê²Į
ĠìħĶ ì¸ł
ĠìĹĦê²© íķľ
ìĹĲìĿ´ì¹ĺ ìīĲ
ìİĦ íĥĢíĨłíģ°
ìĹĶì§Ħ ì½ĶìĿ¸
Ġì°¨ê°Ģ ìļ´
Ġë°ĿíĺĶ ìĬµëĭĪëĭ¤
ìĬ¤íħĶ ëĿ¼ë£¨ë©ĺ
Ġì§Ģë¦¬ ìĤ°
Ġê¸°ì¶ľ ë¬¸ìłľ
ë¯¸ìĬ¤ ë¦´
ì½Ķë¥´ íħįìĬ¤
Ġíģ¬ë¦¬ìĹĲ ìĿ´íĦ°
íĶĦëŀĳ ìĬ¤
ìķĦíģ¬ ë¸Ķë¡Ŀ
Ġìŀ¥ë¡Ģ ìĭĿ
Ġì£¼íĮĮ ìĪĺ
íĶĦë¡ľìłĿ íĬ¸
Ġê°ĢëĬ ł
íģ¬ë¦½íĨł ëĭ·ì»´
ĠìĤ¬ìĦ¤ë°°íĮħ ìĤ¬ìĿ´íĬ¸ì¶Ķì²ľ
ìĽĶíĬ¼ ì²´ìĿ¸
ë¹ĦìĹĲìĿ´ì¹ĺ íĶ¼
ìĬ¤íħĮìĿ´íĦ°ìĬ¤ ëĦ¤íĬ¸ìĽĮíģ¬íĨłíģ°
F i
T AR
a u
d is
k y
s o
u x
v al
å £
ë¥ µ
ìľ Ļ
ì§Ģ ìĹĲìĦľëĬĶ
ì§Ģ ê¸°ëıĦ
ê°Ģ ì§Ģê³ł
ë¦¬ ì¼ĢìĿ´ìħĺìĿĦ
ìĭľ ë§Ī
ìĬ¤ ì¿¨
ìĤ¬ ìľł
ëĿ¼ ì§Ģ
ëĵ¤ ê°ķìķĦì§Ģ
ìĽĲ ë£¨íĬ¸
ëĮĢ íļĮë¥¼
Ġíķľ ìĥģ
Ġìĭľ ëª½
ìļĶ ìĸĳ
ìĪĺ ìļķ
ë³´ ìľ¡
Ġìłľ ìŀ¬ë¥¼
Ġìłķ ë³µ
ìĬµ ê´Ģ
ëıĻ ìķĦ
Ġë³´ ìķĺìĬµëĭĪëĭ¤
ë¬¸ ìŀĲ
ë¹Ħ ì²´ìĿ¸íĬ¸
Ġê²½ íĴĪ
Ġê²½ íĿ¬
ĠìľĦ ê¸°ë¥¼
ì¹ĺ ìĹĲ
ì¹ĺ ìĻĢ
ĠìĿ¼ ì»
ĠìĿ¼ ê´Ħ
Ġì¤ĳ íĻĶ
Ġëª¨ ìĿĮ
ê³µ ë¶Ģ
ê³µ ëª¨
íĮ į
ëĲĺ ìĹĪëĬĶëį°
Ġê°ľ íĹĮ
ĠìķĬ ëįĶëĿ¼ëıĦ
Ġìĺ¤ ë¥¼
Ġê³ł ë¬¸
Ġìľł ëĭĽ
ĠìĹĨ ìľ¼ëĭĪ
ĠìĥĿ ëªħìĿ´
Ġì¡° íĺĦ
Ġíķ´ ìĦ¤
Ġë¯¸ ìĦ±
Ġë¯¸ ìħĺ
Ġë¯¸ ëĦ¤
ĠìĦ¸ ê·ł
íĨµ ì¦Ŀ
ë¯¼ ê°Ħ
ĠëĲĺ ì§Ģë§Į
ĠëıĦ êµ¬ë¥¼
ĠìĦ± ìĦľ
ĠìĺĪ ê¸Ī
Ġê°ķ ëıĻ
ì²ľ êµŃ
ĠìķĮ ìķĺ
Ġìŀ¬ ìĻ¸
ĠíĬ¹ íĻĶëĲľ
íĨł ì§Ģ
Ġìłģ íĺĢ
Ġê¹Ģ ìĦł
Ġê°Ĳ ìŀĲ
Ġëĭ¨ ìĽĲ
Ġë°ĺ ê°Ģ
Ġt ime
ë¡ł ìĹĺíĶĦ
ì¢ħ ìĿ¼
Ġâ ľ
ë¹ ¡
ĠìĹŃ ìĿĦ
Ġë¬¼ ê³łê¸°
ëĳĲ ê°Ģ
ĠS erver
íķŃ ë§Į
Ġì¶ľ ëıĻ
ìĽĮ ìļĶ
ë£¨ íĶĦ
íĥĿ ì¤ĳ
ë¥ĺ ìĹĲ
íĿ Ļ
Ġëĭ¬ ë¦¬ëĬĶ
ĠC P
at ure
íĶ¼ ìĿĺ
Ġëªħ ìĹĲ
ĠìĹ´ ë¦´
ëĤ¨ íĽĪ
Ġê°Ħ ë¶Ģ
ĠìĤ° ëĭ¤
ĠìłĲ ëł¹
ì±ħ ìĿ´
Ġë°ķ ì§Ħ
Ġìĸĳ ìĭĿ
ĠìŀĲìĭł ëĵ¤ìĿ´
Ġê·¸ëŁ¬ ìŀĲ
Ġë²ķ ìĽĲìĿĺ
Ġì½Ķ íĬ¸
íĶĮ ë¦¿
Ġëĵ¤ìĸ´ ê°Ķ
Ġc re
ì»¤ íŀĲ
ìķħ ìĿĦ
ĠìĤ¼ êµŃ
íĿ¬ ë¡±
Ġë²Ħ ëĵ¤ê°ķìķĦì§Ģ
ìľĦìĽĲ ìĿĢ
ĠêµĲìľ¡ ë¶Ģ
Ġì§ĢìĽĲ ìĹĲ
ĠíķŃ ìĿĺ
Ġì¤Ħ ë¦¬
ĠìĤ¬ìĹħ ìľ¼ë¡ľ
Ġì²ľ ìĤ¬
Ġë³¼ ìĪĺ
ë°± íĺ¸
Ġë°Ķë¡ľ ìŀ¡
ĠìĦłíĥĿ íķ´ì£¼ìĦ¸ìļĶ
ĠìĦ¤ëªħ ìĿ´
Ġì²ĺìĿĮ ìĿ´ëĭ¤
ë²ł íĤ¤ìĬ¤íĥĦ
íĮĢ ìĬ¤íĬ¸ëĿ¼íĭ°ìĬ¤
ĠíĻľëıĻ íķĺëĬĶ
Ġìĸ» ì§Ģ
íĺľ íĥĿ
Ġê³¨ ëĿ¼
ĠêµŃë¯¼ ëĵ¤ìĿĺ
Ġê·Ģ ìĹĲ
Ġìłģìļ© ëĲľ
íľ ¼
ĠëıĮìķĦ ê°Ī
ĠíĮĲë§¤ ê°Ģ
ĠìĤ¼ìĦ± ìĿĺ
Ġê²°ìłķ ìłģìĿ¸
ĠìĪĺì¤Ģ ìĿ´ëĭ¤
Ġìľ¡ êµ°
ìĬ¨ ìĿĢ
Ġê³łëł¤ íķł
Ġê¿Ī ìĿ´
Ġëħ¸ëıĻ ëĭ¹
ìĿ¸ê°Ģ ìļĶ
ë°©ë²ķ ìĿĢ
Ġìį ©
Ġê·ľëª¨ ë¥¼
ëĲĲ ëĭ¤ëĬĶ
ĠëĽ° ìĸ´ëĵ¤
Ġíľ´ ê°Ģë¥¼
ìĺģìĥģ ìŀĲë£Į
Ġë£¨ ë¹Ħ
Ġth ere
Ġth rough
Ġìłľìĭľ íĸĪëĭ¤
Ġê°Ģì¹ĺ ìĻĢ
Ġíģ´ ë¦°
ĠëĦ£ ìĿĢ
ë³´ë ł¤
ĠLG ìłĦìŀĲ
ĠëĬĲëģ¼ ì§Ģ
ĠìĦłê±° ìĹĲ
ĠëĦ¤íĬ¸ìĽĮíģ¬ ê³¨ëłĺ
ĠëĦ¤íĬ¸ìĽĮíģ¬ íĶĮëłĪìĿ´ì½ĶìĿ¸
Ġì§Īë¬¸ ìĿ´
ìºĲ ìĭľíĶ¼
ĠìĹ¼ ëĳĲìĹĲ
Ġê·¼ê±° íķĺìĹ¬
ĠìĺģìĹŃ ìĹĲ
ìĨĶ íĬ¸ëłĪìĿ´
ĠíķŃê³µ ê¸°
Ġê·¸ë¦¬ íķĺìĹ¬
ĠìļĶìĨĮ ëĬĶ
ĠìµľìłĢ ê°Ģ
ë²¤ ìħĺ
ĠìĹĦë§Ī ìĿĺ
ĠíĽĮ ì©į
ĠëĤ¨ìķĦ ìŀĪëĬĶ
Ġëĭ¤ë¥´ ì§Ģ
ĠëĬ¦ ìĿĢ
Ġíİ¼ì³Ĳ ì§Ħ
ìĹĳìĬ¤ ë§¨
ê²½ì°° ìĦľ
ast er
ĠíķĺìĿ´ íį¼
ë¹ĦíĬ¸ ì½ĶìĿ¸ìĿ´ëįĶë¦¬ìĽĢ
ĠQ u
Ġê³¨ëĵľ ìĿ´ìĺ¤ìĬ¤
ìĺ¤ëĬĺ ìĿĢ
Ġ36 5
ĠíĢ Ħë¦¬íĭ°
ĠìĪĻë°ķ ìĿĦ
ust om
ëĤ´ë ħĦ
Ġì£¼ê´Ģ íķĺëĬĶ
ĠìĤ´íİ´ë³´ ê³ł
Ġë©Ī ì¶°
Ġit s
ì¾Įìłģíķľ ì¾Įìłģíķľ
ë¦¬ì¹´ ìĹĲíĨłìĬ¤
ëĿ¼ìĿ´íĬ¸ ì½ĶìĿ¸ìĿ´ëįĶë¦¬ìĽĢ
ìĦłìĪĺ ê¶Į
ĠíĻľë°ľ íŀĪ
ĠìķĦë¦Ħëĭ¤ ìĽĢìĿĦ
Ġíıīì°½ ëıĻê³Ħìĺ¬ë¦¼íĶ½
Ġìĥģìłľ ëĭĺê»ĺìĦľ
ĠíĶĦëłĪìŀĦ ìĽĮíģ¬
ë½ Ģ
Ġê°ĲìķĪ íķĺë©´
Ġíģ´ëŀĺìĭĿ ë¦¬íĶĮ
Ġìĺģê´ĳ ìĿĦ
Ġ01 0
íĨłìĬ¤ íĮĢìĬ¤íĬ¸ëĿ¼íĭ°ìĬ¤
ê³łìĨį ëıĦë¡ľ
ìĸ´ì§Ī ë¦¬ì¹´ìĹĲíĨłìĬ¤
åĮ Ĺ
ĠìºĲìĭľ ëª¨ëĦ¤
Ġdev elop
ì²´ìĿ¸íĬ¸ ë£¨ì²´ìĿ¸
ater ial
ëĤļ ìĭľ
ĠëĦ¤ëįľ ëŀĢëĵľ
ì¶ķìĤ° ìĭĿíĴĪ
Ġëĭ¤ìĿ´ìķĦëª¬ëĵľ ë²łìŀĶíĬ¸
ìĻģìĬ¤ íĮĮìĽĮëłĽìłĢ
ë²¡ ìĬ¤ìķĦìĿ´
íģ´ëŀĺ ìĬ¤
ë¡ľìłľ íĬ¸ìºĲìĭľ
ĠìĦ±ì¶Ķ íĸī
ĠìĽĲíĻĶ ë¹ĦíĬ¸ì½ĶìĿ¸ìĿ´ëįĶë¦¬ìĽĢ
Ġrece iv
ìĽ¨ìĿ´ë¸Į ì²´ìĿ¸ë§ģíģ¬
Ġë§Ĳë¯¸ìķĶ ìķĦ
ëĮĢìĭľ ëĿ¼ìĿ´íĬ¸ì½ĶìĿ¸ìĿ´ëįĶë¦¬ìĽĢ
ìķĦìĿ´ì½ĺ ë¹Ħì²´ìĿ¸íĬ¸
ìķ¤ìĹĲìĬ¤ ë¹ĦíĬ¸ì½ĶìĿ¸
ìĹĲìĿ´ëĭ¤ íĮĮíĵ°ëŁ¬ìĬ¤
ëĦ´ ìĬ¤íħĮìĿ´íĦ°ìĬ¤ëĦ¤íĬ¸ìĽĮíģ¬íĨłíģ°
ìĤ¬ìĿ´ë²Ħë§ĪìĿ¼ì¦Ī ìİĦíĥĢíĨłíģ°
íĢĢíħĢ ë¹ĦíĬ¸ì½ĶìĿ¸
ìĸ´ê±° ìķłíĦ°ëĭĪíĭ°
ìłľë¡ľìĹĳìĬ¤ ìĸ´ê±°ìķłíĦ°ëĭĪíĭ°
ê³łì¹´ ìĿ´ë²Ħ
ê¸°íĶĦ íĨłìĬ¤íĮĢìĬ¤íĬ¸ëĿ¼íĭ°ìĬ¤
ìĺ¤ë¯¸ìĦ¸ ê³łì¹´ìĿ´ë²Ħ
ëĵłëĦ¤íĬ¸ìĽĮíģ¬íĨłíģ° ë£¸ëĦ¤íĬ¸ìĽĮíģ¬
ë£¨íĶĦë§ģ ê¸°íĶĦíĨłìĬ¤íĮĢìĬ¤íĬ¸ëĿ¼íĭ°ìĬ¤
íħĲìĹĳìĬ¤ ìĻģìĬ¤íĮĮìĽĮëłĽìłĢ
ìķĦìĿ´ìĺ¤íĭ° ì²´ìĿ¸íĬ¸ë£¨ì²´ìĿ¸
íĶĦë¦¬ë§ĪìĬ¤ ìĨĶíĬ¸ëłĪìĿ´
ìĹĲìĿ´ì¹ĺìīĲ ìĸ´ì§Īë¦¬ì¹´ìĹĲíĨłìĬ¤
ìĹĶì§Ħì½ĶìĿ¸ íĶĦë¦¬ë§ĪìĬ¤ìĨĶíĬ¸ëłĪìĿ´
ìĬ¤íħĶëĿ¼ë£¨ë©ĺ ìĺ¤ëĶĶìĦ¸ìĿ´
ë¯¸ìĬ¤ë¦´ íģ¬ë¦½íĨłëĭ·ì»´
ì½Ķë¥´íħįìĬ¤ ìĤ¬ìĿ´ë²Ħë§ĪìĿ¼ì¦ĪìİĦíĥĢíĨłíģ°
ìķĦíģ¬ë¸Ķë¡Ŀ ìĽĲë£¨íĬ¸
ìĽĶíĬ¼ì²´ìĿ¸ ìķĦìĿ´ìĺ¤íĭ°ì²´ìĿ¸íĬ¸ë£¨ì²´ìĿ¸
ë¹ĦìĹĲìĿ´ì¹ĺíĶ¼ ìºĲìĭľíĶ¼
ĠìĿ¼ì» «
ë¡łìĹĺíĶĦ ë¯¸ìĬ¤ë¦´íģ¬ë¦½íĨłëĭ·ì»´
ĠëĦ¤íĬ¸ìĽĮíģ¬ê³¨ëłĺ ìĹĲìĿ´ì¹ĺìīĲìĸ´ì§Īë¦¬ì¹´ìĹĲíĨłìĬ¤
ĠëĦ¤íĬ¸ìĽĮíģ¬íĶĮëłĪìĿ´ì½ĶìĿ¸ ìĽ¨ìĿ´ë¸Įì²´ìĿ¸ë§ģíģ¬
Ġê³¨ëĵľìĿ´ìĺ¤ìĬ¤ ìķĦìĿ´ì½ĺë¹Ħì²´ìĿ¸íĬ¸
Ġíģ´ëŀĺìĭĿë¦¬íĶĮ ë¹ĦíĬ¸ì½ĶìĿ¸
ĠìºĲìĭľëª¨ëĦ¤ ë¡ľìłľíĬ¸ìºĲìĭľ
Ġëĭ¤ìĿ´ìķĦëª¬ëĵľë²łìŀĶíĬ¸ ìĬ¤íħĶëĿ¼ë£¨ë©ĺìĺ¤ëĶĶìĦ¸ìĿ´
ë²¡ìĬ¤ìķĦìĿ´ ìķ¤ìĹĲìĬ¤ë¹ĦíĬ¸ì½ĶìĿ¸
ĠìĽĲíĻĶë¹ĦíĬ¸ì½ĶìĿ¸ìĿ´ëįĶë¦¬ìĽĢ ëĮĢìĭľëĿ¼ìĿ´íĬ¸ì½ĶìĿ¸ìĿ´ëįĶë¦¬ìĽĢ
ìĹĲìĿ´ëĭ¤íĮĮíĵ°ëŁ¬ìĬ¤ ì½Ķë¥´íħįìĬ¤ìĤ¬ìĿ´ë²Ħë§ĪìĿ¼ì¦ĪìİĦíĥĢíĨłíģ°
ëĦ´ìĬ¤íħĮìĿ´íĦ°ìĬ¤ëĦ¤íĬ¸ìĽĮíģ¬íĨłíģ° ìĹĲìĿ´ëĭ¤íĮĮíĵ°ëŁ¬ìĬ¤ì½Ķë¥´íħįìĬ¤ìĤ¬ìĿ´ë²Ħë§ĪìĿ¼ì¦ĪìİĦíĥĢíĨłíģ°
ìłľë¡ľìĹĳìĬ¤ìĸ´ê±°ìķłíĦ°ëĭĪíĭ° ëĦ´ìĬ¤íħĮìĿ´íĦ°ìĬ¤ëĦ¤íĬ¸ìĽĮíģ¬íĨłíģ°ìĹĲìĿ´ëĭ¤íĮĮíĵ°ëŁ¬ìĬ¤ì½Ķë¥´íħįìĬ¤ìĤ¬ìĿ´ë²Ħë§ĪìĿ¼ì¦ĪìİĦíĥĢíĨłíģ°
ëĵłëĦ¤íĬ¸ìĽĮíģ¬íĨłíģ°ë£¸ëĦ¤íĬ¸ìĽĮíģ¬ ë¹ĦìĹĲìĿ´ì¹ĺíĶ¼ìºĲìĭľíĶ¼
ë£¨íĶĦë§ģê¸°íĶĦíĨłìĬ¤íĮĢìĬ¤íĬ¸ëĿ¼íĭ°ìĬ¤ ìłľë¡ľìĹĳìĬ¤ìĸ´ê±°ìķłíĦ°ëĭĪíĭ°ëĦ´ìĬ¤íħĮìĿ´íĦ°ìĬ¤ëĦ¤íĬ¸ìĽĮíģ¬íĨłíģ°ìĹĲìĿ´ëĭ¤íĮĮíĵ°ëŁ¬ìĬ¤ì½Ķë¥´íħįìĬ¤ìĤ¬ìĿ´ë²Ħë§ĪìĿ¼ì¦ĪìİĦíĥĢíĨłíģ°
íħĲìĹĳìĬ¤ìĻģìĬ¤íĮĮìĽĮëłĽìłĢ ë£¨íĶĦë§ģê¸°íĶĦíĨłìĬ¤íĮĢìĬ¤íĬ¸ëĿ¼íĭ°ìĬ¤ìłľë¡ľìĹĳìĬ¤ìĸ´ê±°ìķłíĦ°ëĭĪíĭ°ëĦ´ìĬ¤íħĮìĿ´íĦ°ìĬ¤ëĦ¤íĬ¸ìĽĮíģ¬íĨłíģ°ìĹĲìĿ´ëĭ¤íĮĮíĵ°ëŁ¬ìĬ¤ì½Ķë¥´íħįìĬ¤ìĤ¬ìĿ´ë²Ħë§ĪìĿ¼ì¦ĪìİĦíĥĢíĨłíģ°
ìĹĶì§Ħì½ĶìĿ¸íĶĦë¦¬ë§ĪìĬ¤ìĨĶíĬ¸ëłĪìĿ´ ëĵłëĦ¤íĬ¸ìĽĮíģ¬íĨłíģ°ë£¸ëĦ¤íĬ¸ìĽĮíģ¬ë¹ĦìĹĲìĿ´ì¹ĺíĶ¼ìºĲìĭľíĶ¼
ìĽĶíĬ¼ì²´ìĿ¸ìķĦìĿ´ìĺ¤íĭ°ì²´ìĿ¸íĬ¸ë£¨ì²´ìĿ¸ ìķĦíģ¬ë¸Ķë¡ĿìĽĲë£¨íĬ¸
ë¡łìĹĺíĶĦë¯¸ìĬ¤ë¦´íģ¬ë¦½íĨłëĭ·ì»´ ìĺ¤ë¯¸ìĦ¸ê³łì¹´ìĿ´ë²Ħ
ĠëĦ¤íĬ¸ìĽĮíģ¬ê³¨ëłĺìĹĲìĿ´ì¹ĺìīĲìĸ´ì§Īë¦¬ì¹´ìĹĲíĨłìĬ¤ íħĲìĹĳìĬ¤ìĻģìĬ¤íĮĮìĽĮëłĽìłĢë£¨íĶĦë§ģê¸°íĶĦíĨłìĬ¤íĮĢìĬ¤íĬ¸ëĿ¼íĭ°ìĬ¤ìłľë¡ľìĹĳìĬ¤ìĸ´ê±°ìķłíĦ°ëĭĪíĭ°ëĦ´ìĬ¤íħĮìĿ´íĦ°ìĬ¤ëĦ¤íĬ¸ìĽĮíģ¬íĨłíģ°ìĹĲìĿ´ëĭ¤íĮĮíĵ°ëŁ¬ìĬ¤ì½Ķë¥´íħįìĬ¤ìĤ¬ìĿ´ë²Ħë§ĪìĿ¼ì¦ĪìİĦíĥĢíĨłíģ°
ĠëĦ¤íĬ¸ìĽĮíģ¬íĶĮëłĪìĿ´ì½ĶìĿ¸ìĽ¨ìĿ´ë¸Įì²´ìĿ¸ë§ģíģ¬ ìĹĶì§Ħì½ĶìĿ¸íĶĦë¦¬ë§ĪìĬ¤ìĨĶíĬ¸ëłĪìĿ´ëĵłëĦ¤íĬ¸ìĽĮíģ¬íĨłíģ°ë£¸ëĦ¤íĬ¸ìĽĮíģ¬ë¹ĦìĹĲìĿ´ì¹ĺíĶ¼ìºĲìĭľíĶ¼
Ġê³¨ëĵľìĿ´ìĺ¤ìĬ¤ìķĦìĿ´ì½ĺë¹Ħì²´ìĿ¸íĬ¸ ë¡łìĹĺíĶĦë¯¸ìĬ¤ë¦´íģ¬ë¦½íĨłëĭ·ì»´ìĺ¤ë¯¸ìĦ¸ê³łì¹´ìĿ´ë²Ħ
ĠìºĲìĭľëª¨ëĦ¤ë¡ľìłľíĬ¸ìºĲìĭľ íĢĢíħĢë¹ĦíĬ¸ì½ĶìĿ¸
ĠëĦ¤íĬ¸ìĽĮíģ¬ê³¨ëłĺìĹĲìĿ´ì¹ĺìīĲìĸ´ì§Īë¦¬ì¹´ìĹĲíĨłìĬ¤íħĲìĹĳìĬ¤ìĻģìĬ¤íĮĮìĽĮëłĽìłĢë£¨íĶĦë§ģê¸°íĶĦíĨłìĬ¤íĮĢìĬ¤íĬ¸ëĿ¼íĭ°ìĬ¤ìłľë¡ľìĹĳìĬ¤ìĸ´ê±°ìķłíĦ°ëĭĪíĭ°ëĦ´ìĬ¤íħĮìĿ´íĦ°ìĬ¤ëĦ¤íĬ¸ìĽĮíģ¬íĨłíģ°ìĹĲìĿ´ëĭ¤íĮĮíĵ°ëŁ¬ìĬ¤ì½Ķë¥´íħįìĬ¤ìĤ¬ìĿ´ë²Ħë§ĪìĿ¼ì¦ĪìİĦíĥĢíĨłíģ° ìĽĶíĬ¼ì²´ìĿ¸ìķĦìĿ´ìĺ¤íĭ°ì²´ìĿ¸íĬ¸ë£¨ì²´ìĿ¸ìķĦíģ¬ë¸Ķë¡ĿìĽĲë£¨íĬ¸
ĠëĦ¤íĬ¸ìĽĮíģ¬íĶĮëłĪìĿ´ì½ĶìĿ¸ìĽ¨ìĿ´ë¸Įì²´ìĿ¸ë§ģíģ¬ìĹĶì§Ħì½ĶìĿ¸íĶĦë¦¬ë§ĪìĬ¤ìĨĶíĬ¸ëłĪìĿ´ëĵłëĦ¤íĬ¸ìĽĮíģ¬íĨłíģ°ë£¸ëĦ¤íĬ¸ìĽĮíģ¬ë¹ĦìĹĲìĿ´ì¹ĺíĶ¼ìºĲìĭľíĶ¼ ë²¡ìĬ¤ìķĦìĿ´ìķ¤ìĹĲìĬ¤ë¹ĦíĬ¸ì½ĶìĿ¸
P O
k ore
p m
´ ¤ëĭ¤
å »
ç Ľ
Ġë £Į
ìĿ´ íĺĦìĪĺ
ëĭ¤ ë³´ë©´
Ġí ĳ¹
ìĹĲ ë¦°ìĭľíģ¬
íķĺ ìĪĺ
íķĺ ì§Ħ
ìĿĺ ìĤ¬
íķľ ì§Ģ
ì§Ģ ìłĲ
ë¦¬ ìĹĲìĦľ
ëĿ¼ ë¹Ħ
ëĵ¤ ìĿ¸
ĠìĤ¬ ëĥ¥
ìłķ ìļ°ìĦ±
ĠëĮĢ ìŀĲìĹ°
Ġêµ ¿
Ġê¸° ìĤ¬ê°Ģ
Ġê¸° ìģĺ
Ġíķľ ëıĻìķĪ
ĠìłĦ ìķķ
ĠìķĦ ê°Ģ
ìłĦ ìŀĲëĬĶ
íķĺëĬĶ ê³³
ìĪĺ ì¶ľ
íļĮ ë³µ
Ġìłķ íķĺê³ł
Ġìłķ ìĥģìĿ´
ĠìŀĲ ë§¤
ëħĦ ë§ĮìĹĲ
ë¬¸ ìĹĲìĦľ
ë¹Ħ ìļ©ìĿĦ
ĠìĿ¼ ëŁ¬ìĬ¤íĬ¸
ĠëĤĺ ëŀĢíŀĪ
00 1
ì¡° ë¦¬
íķĻ ë¶Ģ
Ġìĥģ ê¸Ī
Ġë¶Ģ ìŀ¬
Ġë¶Ģ ë¥¸
Ġë¶Ģ ë¥´ê³ł
Ġìĺ¤ ìĦ¸
Ġìĺ¤ íĶĦ
Ġìĺ¤ ëłĮì§Ģ
Ġìĺ¤ ë°Ķë§Ī
Ġê³ł íĴĪ
Ġê³ł íĴĪì§Ī
ìĦ¸ ë¯¸ëĤĺ
Ġë¹Ħ íķĺë©´
ĠìĿĺ ë¬¸ìĿ´
Ġì¡° ìĦ¸
íĺ¸ ìŀ¥
ìĹ° ìŀ¥
ĠìĹ° ìŀ¬
Ġêµ¬ ìĽĲìĿĦ
Ġíķ´ ì£¼ê³ł
ĠìĦ¸ ë¸Ĳ
ĠìķĪ ê²¨
ĠìķĪ ëĲł
ë¯¼ ìĿĦ
ĠëĲĺ ìŀĲ
ĠëıĦ ìłĦìĿĦ
ëįĺ ê°Ģ
ĠâĢľ âĢĺ
ĠêµĲ íļĮëĬĶ
íģ¬ ëĿ¼
íģ¬ ë¦¬ìĬ¤
ĠíļĮ ìĪĺ
ĠíļĮ ê°ľ
ë°ľ ìĿĺ
íı¬ ë¹Ħëĵł
Ġê²° ìĦ±
ëª¨ íĦ°
ĠìķĮ ë¦¼
ĠìĽĲ ë¦¬ë¥¼
Ġë¶Ī íķ©
Ġìŀ¬ ìķĻ
Ġìŀ¬ ìĤ°ìĿĦ
Ġíı¬ ë¥´ëħ¸
Ġëħ¸ íĻĶ
Ġëħ¸ ìĪĻ
ĠëĤ¨ ìŀĲìĿĺ
Ġë°ĺ ëĵ±
ĠíĶĦ ë¡ł
ë²Ħ íĦ°
ĠíķĻ ìĹħ
Ġë¬¼ ëł¤
ĠS ant
Ġê±´ êµŃ
ĠíĶ¼ ë¶Ģê°Ģ
Ġëª© ìĤ¬ê°Ģ
ãĢ ī
ĠA ut
Ġëĭ¤ìĭľ ëĬĶ
Ġ9 3
ĠìĻ¸ ìĿĺ
íİ¸ ìĿĢ
Ġ19 50
ëŁ° íĬ¸
ĠìĤ´ ê¸°
Ġì²Ń ì·¨
Ġë©Ķ ìĭłìłĢ
Ġëĭ¤ìĸĳ íķĺëĭ¤
ĠìĦľë¹ĦìĬ¤ ë¡ľ
Ġë¬´ë Ĥľ
ĠíĪ¬ ìŀĲê°Ģ
Ġì§ĢìĹŃ ê³¼
Ġíĺķ ìĥģ
ĠL e
Ġì§Ī ìłģ
Ġë²Ħ íĭ°
Ġìłĳ ì°©
ĠK ë¦¬ê·¸
Ġê¶Į ìľĦ
Ġê°ľë°ľ íķĺëĬĶ
ĠíĹĪ ê°Ģë¥¼
Ġì»¤ ë¦¬
ĠêµŃê°Ģ ìĻĢ
Ġì¡´ ìĨį
ĠëģĿ ëĤ´
ĠëģĿ ëĤł
Ġìĵ° ë©´
ĠëĮĢìĥģ ìĿĢ
Ġê±´ê°ķ ê³¼
íķĺìĺĢ ëĭ¤ê³ł
ĠìĨ¡ íĥľ
Ġìĺ¬íķ´ ë¡ľ
Ġëªĩ ê°Ģì§Ģ
Ġê°Ģì§Ģ ê°Ģ
ĠëĦĪë¬´ ëıĦ
íķĦ ìĪĺ
ëı¼ ì§Ģ
Ġë¿Ĳ ìŀħëĭĪëĭ¤
ĠìĿ½ ìĸ´ë³´
ag es
Ġë³ĢíĻĶ ìĻĢ
ot e
ur n
Ġì¶Ķì§Ħ íķ´
ĠìĥģíĴĪ ìľ¼ë¡ľ
Ġë°©ìĭĿ ìĹĲ
ĠìĪĻ ëł¨
Ġëĭ¹ìĭł ìĿĦ
ĠìĿĺë£Į ìĭ¤ë¹Ħë³´íĹĺ
ap t
ĠëħĦ ì¤ĳ
ĠìĺĪìĥģ ëĲĺëĬĶ
ìĻĦ ìłĦ
ĠìĿµ ìĤ°
ë¥´ë ĶĶ
Ġì£¼ë¯¼ ëĵ±ë¡Ŀë²Īíĺ¸
Ġë°¤ ìĿĦ
Ġëķħ ìĿĺ
ĠìĦ¸ìĥģ ìĿĢ
íĩ´ ê·¼
ĠìĤ´íİ ´ë
Ġê³łë¯¼ ìĿ´
Ġê²Ģìĥī íķĺê³ł
Ġëĭ´ëĭ¹ ìŀĲ
Ġg o
ĠìĬ¤íĬ¸ ë¦¬íĬ¸
Ġêµ¬ìŀħ íķł
Ġì§ĢëıĦ ìŀĲ
ĠíĿ¬ë§Ŀ íķĺëĬĶ
ìĵ° ëĬĶ
Ġë°ĺë©´ ìĹĲ
ĠìĦ±ëĬ¥ ìĿ´
Ġìį¨ ìĦľ
ĠìŀĲëħĢ ë¥¼
Ġíİ¸ìķĪ íķĺê²Į
ĠìĨĮíĨµ ìĿĦ
ĠìĨĮìĦ¤ ìĿĦ
Ġê²ĢíĨł íķĺê³ł
Ġi acute
Ġë¹Ħìľ¨ ìĿĦ
ĠëĶ± íŀĪ
Ġê²¸ ìĨĲ
ìĤ¬ëŀĳ ìĿĺ
å® ®
ak a
Ġë²Įìĸ´ ì§ĢëĬĶ
Ġê´ĢëŀĮ ê°Ŀ
ĠëĪĦêµ° ê°Ģê°Ģ
ĠìŀĲìĽĲ ë´īìĤ¬
ĠíĻľë°ľ íķľ
åŃ Ĳ
Ġê¸īê²© íķľ
ĠëĤ¯ ìĦ¤
ĠìĹĶì§ĢëĭĪ ìĸ´ë§ģ
Ġë¦½ ìĬ¤íĭ±
ĠìĤ¼ìĦ±ìłĦ ìŀĲëĬĶ
ìŃ ī
Ġì§Ģë£¨ ìĦ±
Ġìĺ¹ íĺ¸
íĶ¼ë¶Ģ ìĹ¼
Ġìķĵ ê³ł
ê²Ģì°° ì²Ń
ĠìķĪê²½ ìłĦ
erg y
ĠCE ìĿ¸ì¦Ŀ
Ġì¢ħìłĦ ìĦłìĸ¸
ĠíĥĦíĥĦ íķľ
ðŁı »
' )
) ]
D M
L O
T D
T F
f l
u it
è ¦
Ŀ ¤
íķ į
ìĿĺ ë¬´
ê³ł ëŀĺ
ìĿ¼ ëŁ¬
ìĦľ íĥľìĽħ
ê¸° ëĤĺ
ìĸ Ħ
íķ´ íķĺëĬĶ
ìľ¼ ë¦¬ëĿ¼
ìĬ¤ ì¼Ģ
ìľ¼ë¡ľ ìĿĺ
ëĵ¤ ë³´ëĭ¤
ĠìĪĺ íķĺ
Ġë³ ´ë³µ
Ġê·¸ ê±°
ìłķ ìĿĮ
ìłķ ìĦ±êµ¬
ĠëĮĢ ì°¨
ëĮĢ íĺķ
Ġíķĺ ìĹĲ
Ġíķĺ ëĬĲëĥĲ
ìķĦ ëĤ´
Ġíķľ ì¤ĳ
ĠìłĦ ê²©
ĠìķĦ ë¦¬
Ġìĭľ ìłĲìĹĲ
Ġìĭľ ëģĦ
ìłĦ íķŃìĿĺ
Ġëĭ¤ ë¦ħëĭĪëĭ¤
ĠâĢ Ķ
Ġìłľ ìŀĦìĬ¤
ëĵľ ëĿ¼
ëıĻ ìĥĿ
ëħĦ ìľ¼ë¡ľ
Ġì£¼ ë©´
ìļ° ì£¼ìĿĺ
ë¹Ħ íĸī
ìĭł íĺĦì²ł
ìĭł ì¤ĢìĦŃ
ĠìĿ¸ ëĤ´
ĠìĿ´ë ¶Ħ
ìŀĦ íĥĿì¤ĳ
Ġìĥģ ì£¼
Ġìĺ¤ ìħĶìĦľ
Ġê³ł ì¶Ķ
ìĦł êµĲ
Ġë¹Ħ íķĺ
ĠìĨĮ ëĤĺ
ìĺ¤ ë¸Į
Ġìľł ëŀĢ
ìļ´ ëĭ¤
ĠìĹĨ ì§Ģ
ĠìĹĨ ìĿĮìĿĦ
ĠìĿĺ ì§Ģê°Ģ
Ġë§Į íķĺëĭ¤
Ġìĭł ìĿ´
ë¯¸ ìļ©
ê·¸ ë¡ľ
ê·¸ ëĦ¤
ĠëıĻ íĸ¥
ĠëıĻ ë§¹
âĢĿ .
ĠìĬ¤ ì¹´ìĿ´
Ġë¬¸ ëĵĿ
ĠëıĦ ë©ĶìĿ¸
Ġì§Ħ ìłĦ
ĠëĺĲ ëŀĺ
ë°ĺ ë©´
ëª¨ ìĿĺ
ëª¨ ë¡ľ
ĠìłĢ ì¶ķ
ê¸ī ìłģ
ĠìĦ¤ ìłķíķľ
Ġëĭ¨ ìľĦë¡ľ
Ġìŀħ ìĸĳ
Ġìŀħ ìłĲ
ì²ĺ ë²Į
ê°ķ ë°±íĺ¸
Ġìĸ´ ëĵľ
ë²Ħ ëĵľ
íĮĮ íĭ°
ĠìļĶ ê±´ìĿĦ
ĠS S
ĠS an
Ġì¶ľ êµŃ
ĠìķĦëĭĪ íķĺëĭ¤
ëįĶ ë¥¼
Ġì°¸ ëĲľ
Ġ7 9
Ġ8 1
Ġì¦Ŀ ìĹ¬
Ġëªħ ìĦ±
Ġë¦¬ ëĵľ
ìĸµ ìĽĲìĿ´
Ġì´Ī ì½ľë¦¿
Ġì²ĺ ë¦¬ê°Ģ
ë°ķ ìĿ´
Ġìĸĳ ìª½
ĠìĹĲ ë³¼
ĠíĮĲ ìłķ
íĻ© íĥľìĤ°
Ġê¸Ī ìļĶìĿ¼
Ġíĳľ ê¸°
Ġë©Ķ ë¦¬
Ġì½Ķ ëĶĶ
ìĸ¸ ìĬ¤
ĠìĤ¬íļĮ ì£¼ìĿĺ
ë³Ģ ëįķê·ľ
Ġë²Ī ìĶ©
ĠëĤł ìĹĲ
Ġíĺķ ë²Į
Ġë¡ľ ì¦Ī
Ġë¡ľ íħĮìĿ´ìħĺ
ìµľ ëıĻìĺ¤
Ġê±¸ ë¦¼
ĠíķŃ ìĤ°íĻĶ
ĠB C
ĠB I
Ġëĭ¤ìĿĮ ìĿĢ
ìĤ¬ìĹħ ìĿ´
ĠëłĪ ì¦Īë¹Ħìĸ¸
ĠìĿ¼ë³¸ ìĹĲ
ê¹Ģ íĮĲìĦĿ
ĠR ep
ë°± íĻĶìłĲ
ĠêµŃê°Ģ ëĮĢíĳľ
Ġë°± ìĹħ
and ard
ĠìĬ¹ ë§Ī
ì±Ħ ì¹ĺìĪĺ
Ġb etween
ì¼Ģ ìĿµ
ê³³ ìĿ´
ĠëģĿ ìľ¼ë¡ľ
Ġm an
Ġê²½ìłľ ìĦ±
ĠìŀĪìĹĪ ìľ¼ë©°
Ġìķ¼ ì±Ħ
ëł¸ ìĿĦ
Ġã Ħ
200 5
Ġë§ī ëĬĶ
íĺ¼ íķ©
Ġì½ĺ íĥĿ
Ġë°ĽìķĦ ìĦľ
ĠíĴį ê²½ìĿĦ
ĠìĦ¤ì¹ĺ íķľ
ĠìŀĳíĴĪ ìĿĺ
ê¸°ê´Ģ ìĿ¸
Ġì¹¨ ìĪĺ
ê³¨ ìĿĦ
ëłĮ ì¦Ī
Ġì»¨ íħĲ
Ġì¡°ê¸Ī ìĿ´ëĿ¼ëıĦ
Ġìķħ ìĦ±
ĠìĽ¹ íĪ°
ìĻĶ ê³ł
ìľ¤ ëĮĢíĺĳ
ì¼ĢìĿ´ ìĬ¤
ĠíĴĢ ê³ł
Ġì£¼ë³Ģ ìĹĲìĦľ
ĠíĸīìĤ¬ ìĹĲëĬĶ
ĠìĦĿ ë°©
Ġìķķ ëł¥
Ġìļ°ë¦¬ëĤĺëĿ¼ ìĹĲìĦľ
ìĸ´ë³ ¼
Ġìĸ¸ë¡ł ìĹĲ
ë³´ê³ł ìĦľ
Ġíģ´ ë¦¬
Ġëĵ±ìŀ¥ íĸĪëĭ¤
ĠìĭľìĦ¤ ìĿ´
Ġst r
ëłī íĬ¸
Ġìŀĥ ìĸ´ë²Ħ
Ġêµ¬ì²´ ìłģ
ĠëıĻìĿ¼ íķĺê²Į
Ġê·¼ê±° ë¥¼
ĠìĪĺìĹħ ìĿ´
ĠëŃĲ ê°Ģ
Ġìºł íĶĦ
Ġê½ Ĥ
ĠíĮĮìķħ íķł
Ġê°ĢìĬ´ ìĹĲ
ëįĶëĭĪ ì¦ĺ
ĠìłĦìŁģ ìĿ´
ìĤ¬ìĿ´ íģ´
Ġë³Ģíĺ¸ ìĤ¬ìĿĺ
Ġi P
ff ect
Ġíİ¼ì³Ĳ ì§Ħëĭ¤
Ġìŀ¬íĻĶ ëĵ±ìĿĺ
Ġê¾¸ì¤Ģ íķľ
ĠìĹ°ëĿ½ ìĿ´
ĠëĶ°ëľ» íķĺê²Į
ĠëĿ¼ìĿ´ë¸Į ëŁ¬ë¦¬
ìĿ´ìĤ¬ ìŀ¥
ĠíĨłë¡ł íĨł
ord ing
ide o
íķĺìħ¨ ëĭ¤
ĠKBS TAR
ĠíĺĦíĻ© ìĿĦ
ĠìĪ« ìŀĲ
ĠìĥĿíĥľ ê³Ħ
Ġëħ¼ëŀĢ ìĿĦ
ĠìĿ´ëªħ íĹĮ
Ġê°Īëĵ± ìĿ´
ĠëĮĢë¶ģ ìłľìŀ¬
Ġê³łëĵ± íķĻìĥĿ
tern al
ĠíĶĦë¡ľê·¸ëŀĺ ë¨¸
ë¯¸ìĪł ê´Ģ
ĠìķĦë¦Ħëĭµ ê²Į
Ġê°ķìļ° ëŁīìĿĢ
Ġsu ch
Ġê¹ĢìĪĺ ê²¸
ĠìĨĲíķ´ ìĹĲ
å¸ Ŀ
ìĦ±íĺĦ ì¤Ģ
Ġíľł ì²´
Ġìĸ´ëĳ ł
ê°ķëıĻ ì¤Ģ
ëĮĦìĬ¤ ë³µ
ê¹ĢëıĻ ìĭĿ
ìĿ¼ìĭľ íĴĪìłĪ
ĠíĶĦë¡ľíĨł ì½ľ
Ġë©ĶìĿ´íģ¬ ìĹħ
ì¤ĳìĨĮ ê¸°ìĹħ
Ġê·ĢìĹ¬ ìļ´
ìµľìłĢ ìŀĦê¸Ī
ê³łë¯¼ êµ¬
ìŀ¥ê¶Į íĺģ
ĠëĤĺëĮĢ ë£¡
figur ation
ĠìĨ¡íĥľ ìĦŃ
) >
. </
8 15
G o
H T
L P
L PGA
p x
t o
u y
å ĸ
æ ¥
ç ¶
ç ½
è ¬
Ġ ä¹
ìĿ ½
ìĿ´ ë¡ł
ìĿ´ ëĭĿ
ê°Ģ ìĹĲìĦľ
Ġê° ¯
ê¸° ìķĦ
ê¸° ì´Ī
ĠìĹ ĩ
ĠìĿ´ ìŀ¥
ĠìĪĺ ìĿĮ
Ġ1 01
ĠëĮĢ ë©´
ëĤĺ ëıĦ
ëĮĢ ìŀ¥
Ġê°Ģ ìłķìĿĦ
ìķĦ ë¬´
Ġì§Ģ ìľĦë¥¼
ìļ© ì°¨
ìĦ± ìĿ¸
ĠìłĦ ì§Ģ
ĠìłĦ ëħĲ
ì£¼ ì£¼
íĻĶ íķ´
ìłĦ ìłģ
Ġìĸ ¹
ë³´ ê²Į
ĠìĨ ŁìķĦ
ìĹ¬ ëħĦ
ĠìŀĲ ìĤ¬ìĿĺ
ëĵľ ëŀĺê³¤
ëıĻ ìľ¼ë¡ľ
ìĽĶ ìĿ´
ìĽĶ ìĿĢ
Ġë³´ ì¡
Ġë³´ ìķĦìķ¼
Ġì£¼ ìĭľëĬĶ
Ġì£¼ ìħĶìĦľ
ë¹Ħ ëĵľ
ĠìĿ¸ ìĭĿìĿĦ
ê³Ħ ìĨį
ìķ¼ ë§Į
ê¹ Ĭ
Ġì¤ĳ ê¸°
ê³µ ìĤ¬ê°Ģ
íķĻ ìĿĢ
Ġë¶Ģ ìĤ¬
ëªħ ìĹĲìĦľ
Ġìĺ¤ ëĿ½
Ġê³ł ê°Ģ
Ġë¹Ħ ëĭĲ
ĠìĨĮ ë¬¸
Ġìľł ê´Ģ
ĠìĹ¬ ìĪĺ
ĠìĹ¬ ê±´
ĠìĹ° ìĦ¸ëĮĢ
Ġìĭł ìŀĳ
ê·¸ ë§Ī
Ġë¯¸ íĿ¡
ĠìĦ¸ ê¸ĪìĿĦ
ĠìĦ¸ ì²Ļ
Ġë¬¸ ìŀ¥
ĠìĦ± ìŀ¥ìĿ´
ĠìĦ± ë¶ĦìĿ´
Ġë¶Ħ ìŀĲ
ëĵł ëĭ¤
Ġìŀ¥ ìĿ´
Ġê°Ļ ëĭ¤ê³ł
ì²ľ ìĤ¬
ìĸ´ë ĥĪëĭ¤
Ġê²° íķµ
ëª¨ ë¦¬
ì²Ń ìĿĺ
Ġìļ°ë¦¬ ìĻĢ
ĠëĤ¨ ê¸°ê³ł
Ġë°ĺ ìĦ±
Ġë°ĺ ê°ĳ
Ġt em
ê°ķ íķľ
Ġê²ĥìĿ´ ì§Ģ
Ġê²ĥìĿ´ ë¯Ģë¡ľ
ĠìļĶ ìĿ¸ìĿ´
ĠíĮĮ ìĨĲ
íķŃ ëª©
ĠìķĦëĭĪ ìĹĪ
ĠíĶ¼ ê²¨
ĠíĻĶ ìłľë¥¼
Ġë³¸ ëĬ¥
ëŀĢ íķľ
es ign
ĠìĤ´ ìĿ´
Ġìĭ¬ ëıĦ
ĠM S
ĠM ed
ĠìŀĲìĭł ê°ĲìĿĦ
Ġì¹ĺ ëĬĶ
Ġì¹ĺ ì¦Ī
ëĥ ĦìĥĪ
ìĸ¸ ìĿĦ
ì»¤ ë®¤ëĭĪ
Ġì´Ŀ ë¦¬ëĬĶ
Ġp resent
ê²¬ ìĿ´
Ġì¶© ì£¼
ĠëĮĢíĳľ íĮĢ
ĠìĤ¼ ê³ł
ëĵ¤ìĹĲê²Į ëıĦ
íıī ìĨĮ
Ġê¸°ìĹħ ëĵ¤ìĿĢ
Ġì§ĢìĽĲ íķľëĭ¤
Ġì¤Ħ ìĿ´
Ġê°ľë°ľ íķ´
ĠìĿ´ëŁ° ìłĢëŁ°
Ġo pt
Ġë¨¹ ê¸°
ĠìĿ¼ë³¸ ìĸ´
ĠD NA
ĠíĻķìĿ¸ íķ¨
ì±Ħ ìļ©
ĠìĦłíĥĿ íķ´
ìĿ´ìĬ¤ íĦ°
ìĦ¼íĦ° ê°Ģ
Ġêµ° ëĮĢ
ĠN G
Ġê·Ģ íķľ
íĽĪ ìĿ´
íķĺìĺĢ ëįĺ
ëĿ¼ìĿ´ ëĵľ
ĠìķĪìłĦ ìĤ¬ê³ł
ĠìķĮëł¤ ì§Ģì§Ģ
Ġë§Įëĵ¤ìĸ´ ìĦľ
Ġëĸł ëĤł
ec ial
´ëĿ¼ ëĬĶ
Ġë²Į ìĿ´ê³ł
ìĤ¬íļĮ ìłģ
Ġìŀł ìłķ
ĠìĿ´ëłĩ ëĭ¤
Ġl ight
ìĿĢíĸī ìĿĺ
ê¸°ìĪł ìĿĦ
Ġì»¨ íħĮìĿ´ëĦĪ
Ġìķħ ìĿĺ
ĠíĳľíĺĦ íķł
ê²½ìłľ ìĿĺ
ìłĦìŀĲ ìĥģê±°ëŀĺ
ĠìĨĮê°ľ íķ©ëĭĪëĭ¤
Ġëĸ¨ìĸ´ ì¡Įëĭ¤
Ġëĸ¨ìĸ´ ì§Ħëĭ¤
ĠìĿ¸ìłķ íķĺëĬĶ
ì¤Ħ ìĿĦ
Ġì§ĢëĤĺ ì¹ľ
ĠìŀĲë£Į ëĬĶ
Ġê³łëł¤ íķĺë©´
Ġìį °
íļĮìĤ¬ ìĹĲ
ĠìĿĮìĭĿ ìłĲ
ĠíĸīìĤ¬ ë¡ľ
Ġë°ľê²¬ íķł
ìĹĦ ë§Ī
ĠìľĦíĹĺ ìĹĲ
ĠëĮĢë¹Ħ íķ´
Ġê¸°íĥĢ ìĿĺ
ìĸ´ë³ ¸
Ġì§Ģê¸ī íķł
Ġìĸ´ëĶĶ ìĹĲìĦľ
ĠíĨµìĭł ìĤ¬
Ġê·¸ë¦¼ ì±ħ
if ication
ë³´ë Ĳ
Ġì°¨ì§Ģ íķľ
ì¿ ¼
ê¿ Ģ
ĠìĦ¤ë¦½ íķľ
ĠëıĦìŀħ ìĿĦ
Ġê°Ģìł¸ ìĺ¬
Ġë§ĪìĿĦ ìĹĲ
ĠìĽ¨ ìĿ´
ĠìĽ¨ ìĬ¤íĬ¸
Ġê¸°ëħĲ íķ´
Ġê±´ë¬¼ ìĿĺ
ĠìĽĥ ìĿĮ
Ġê¹Ĭ ê²Į
ĠìĮĵ ìĹ¬
Ġê±± ìłķìĿĦ
Ġíĩ´ ì§ģ
Ġê¶ģê¸Ī íķ©ëĭĪëĭ¤
Ġë½ Ģ
Ġë¸Ķë¡ľê·¸ ë¥¼
ĠìĽĲì¹Ļ ìłģìľ¼ë¡ľ
Ġi OS
ĠìĿ¼ìĥģ ìłģìĿ¸
ĠìĿ¼ìľ¼ íĤ¬
Ġê²Ģì°° ìĿ´
Ġìĥģì§ķ íķĺëĬĶ
Ġch annel
ĠíĮĲê²° ìĿĦ
Ġë¬´ìĦł ëŀľ
ĠìħĢ íĶĦ
íĻĪ ëŁ°
ĠìĹĺë¦¬ ë²łìĿ´íĦ°
åı ²
Ġëĭ¤ëħĢ ìĺ¨
ìŀĸ ìķĦ
ĠìŀĪê²ł ëĬĶê°Ģ
ĠìĪ« ìŀĲê°Ģ
Ġê°ĢìĿ´ëĵľ ëĿ¼ìĿ¸
ì£¼ìĭĿ íļĮìĤ¬
ì¹´ë Ŀ½
ĠìĥĿê¸° ë©´
ĠìľłëĭĪ íı¼
ĠíİĢ ëĵľ
ĠìĽĮíģ¬ ìĪį
Ġãħĭãħĭ ãħĭ
íļ¨ê³¼ ê°Ģ
ĠìķĦë¦Ħëĭµ ê³ł
ĠíİĺìĿ´ ì§Ģë¥¼
ĠìĥĿìĥĿ íķľ
Ġë§Īêµ¬ ìĹĶ
Ġê°Ģë§¹ ìłĲ
Ġke y
.â Ĩĳ
æ³ ķ
ìłķíĻķ íķľ
ĠìĽĶê²½ ì»µ
ìŀ¥ëĤľ ê°Ĳ
ĠìľłëŀĢ ìĭľìķĦ
M BC
N ET
d e
n o
w o
y z
å ĭ
å Ĵ
è §
Ġì ·
íķ ´ë°©
ìĿ´ ëħ¸
ìĹĲ ëĦĪ
ê° ±ìĭł
ê³ł ëĵ±
ì§Ģ ê¸ī
ì§Ģ ê¸ĪìĿĢ
ë¦ ´ëŁ¬
ê°Ģ ì§Ģë¥¼
´ë ¬¼
ìĭľ ìĪł
ĠìĿ´ ê°Ģ
ĠìĪĺ ì¶ķ
ĠìĤ¬ ìĿĢ
ĠìĤ¬ ìłģ
ĠìĤ¬ ìĨĮíķľ
ìłķ ëıĦë¡ľ
ĠëĮĢ íļĮë¥¼
Ġì§Ģ ê°ģ
Ġì§Ģ ìĽĮ
Ġì§Ģ ìłķíķľ
Ġì§Ģ ëĥĪ
ìłľ ìķ½
ìłľ ëıĦë¥¼
Ġìĭľ ìľĦ
Ġìĭľ ë¦¬ìķĦ
ìłĦ ëĤ¨
êµŃ ìĿ¸
ìĪĺ ì§ĳ
Ġëĭ¤ íķĺê²łëĭ¤
ë³´ ìĿ´
ë³´ ìľł
ìĹ¬ ê¸°ìĹĲ
ĠìŀĲ ëŀĢ
ëĵľ ë¦°
Ġì£¼ ë¦Ħ
ìĭł ìĹĲ
ĠìĿ¸ ê²©
ĠìĿ¸ ìłķíķľ
ĠìĿ¸ ë§¥
Ġê²½ ìľł
ĠìľĦ ìŀĦ
ìĨĮ ìŀ¥
Ġëª¨ íħĶ
Ġëª¨ ìĬ¤íģ¬
Ġê³µ ìĹħ
âĢĻ )
Ġê³ł ì¡°
Ġê³ł ì°°
ìĦ¸ íĥģ
ìĭĿ ëĭ¹
ĠìĹ¬ ìŀĲëĬĶ
ëł¥ ë°ľìłĦ
ĠìĥĿ ì²´
ĠìĦľ ì¤Ģ
ìľł íĬľ
Ġìĭł ì´Į
Ġìĭł ì£¼ìĿ¸ìĪĺ
Ġë°Ķ ë¥¼
ĠíĨµ ìĺģ
Ġêµ¬ ë¹Ħ
Ġë¯¸ ìĨĮ
Ġë°© ì¶ľ
ĠëĤ´ ì£¼
ĠìĬ¤ íĥľ
ĠëĲĺ íĴĢìĿ´
ì¤ĳ ìĿ´ëĭ¤
ĠêµĲ ë¥ĺë¥¼
ĠìĺĪ ìĦł
ĠìĺĪ ë»Ĳ
ĠíĺĦ ì¡´
Ġê°ķ ìłķ
Ġê°Ļ ì§Ģ
Ġê°Ļ ëĭ¤ëĬĶ
ĠíļĮ ìĥī
íı¬ íķ¨
ĠìłĢ ë§Īëĭ¤
ĠìĽĲ ìĹĲ
Ġë¶Ī ë¦°ëĭ¤
ì¤Ģ íĳľ
Ġìłģ ë²ķ
íĺķ ê³¼
Ġê°Ĳ ë¦¬
Ġê³¼ ëıĦ
Ġê³¼ ìĸ¸ìĿ´
Ġìĸ´ ìħĪ
ì¢ħ ìĸĳ
ì¢ħ ë¥ĺ
Ġâ ĵĴ
ĠíķĻ ìľĦ
íķŃ ê³¼
íĻĺ ìĿ´
ĠìķĦëĭĪ íķĺëĬĶ
ĠìķĦëĭĪ ëĥĲëĬĶ
ë¦½ ìĿĦ
ëįĶ ëŁ¬
Ġíķ© ì°½
ëĭ¬ ëĿ¼ëĬĶ
at ic
Ġì¦Ŀ ìĥģìĿĢ
êµ° ìĤ¬
Ġì¢ħ ìĿ¼
Ġ9 4
Ġê°ģ ê´ĳ
Ġë§ŀ ë¬¼
Ġìĺ¨ ìłĦíŀĪ
ĠìŀĲìĭł ëıĦ
Ġìĭľìŀĳ íķ©ëĭĪëĭ¤
Ġìĭľìŀĳ ëĲľëĭ¤
Ġëĵľ ë¦¬ëĬĶ
Ġíģ¬ ëŀĺíĶĦíĬ¸
ĠìĨĲ íķ´ê°Ģ
Ġíĳľ ë°©
Ġë©Ķ ìĦľ
Ġì²´ ìĿ¸
ĠëĿ¼ ìļ´ëĵľ
Ġê²Ģ ìłķ
Ġê·ľ ê²©
ĠìĤ¬íļĮ ëĬĶ
Ġp ort
Ġê·¼ ìłĳ
ëĦĪ ë¬´
ĠëĮĢíķ´ ìĦł
Ġê±¸ ê¹Į
ĠëĪĦ ë¥´ë©´
ìĦ¼ ìĬ¤
Ġê¸°ìĪł ê°ľë°ľ
ĠêµĲìľ¡ ìĹĲ
Ġì§ĢìĽĲ íķ´
Ġëħ¼ ë¬¸ìĿĦ
ì³Ĳ ìĦľ
ĠìĿ´íĽĦ ìĹĲëıĦ
ro ll
Ġë§ĪìĿĮ ê°Ģì§Ĳ
Ġf ur
Ġë²ł íĴĢ
ĠìĿ´ìĸ´ ì§Ħëĭ¤
Ġíľ ´ë
ê³³ ìĿĦ
Ġê³łê°Ŀ ëĵ¤ìĿ´
ĠëıĻìķĪ ìĿĺ
ĠìĤ¬ëŀĳ ê³¼
Ġê¸°ë¡Ŀ ìĿ´
ìĹ¼ ìĿ´
Ġê³¨ íĮĲ
Ġì¸¡ ìĿ´
Ġì§ģìłĳ ìłģìľ¼ë¡ľ
ê°Ī ë¹Ħ
Ġìłģìļ© ìĿĦ
ĠìķĪìłĦ íķĺê³ł
ĠìĿĳ ëª¨
Ġ14 0
ìľĦìĽĲíļĮ ìĹĲìĦľ
ì·¨ ìĨĮ
ĠìĺĪìłķ ìĿ´ë©°
Ġëª° ê³ł
ĠíĴį ê²½ìĿ´
ë¬¸íĻĶ ìŀ¬ëĭ¨
ĠíķĻêµĲ ìĿĺ
.âĢĿ (
ĠìĿ¼ë¶Ģ ê°Ģ
Ġê¸°ë³¸ ìľ¼ë¡ľ
Ġë°©ìĨ¡ ìĹĲìĦľ
Ġë³ĢíĻĶ ëĬĶ
Ġìłķìĥģ ìłģìľ¼ë¡ľ
ĠëıĪ ìľ¼ë¡ľ
Ġìľ¡ ë°ķ
Ġë³´íĺ¸ íķĺê¸°
íĴį ìĿ´
!! !!
Ġìķŀìľ¼ë¡ľ ëĬĶ
ĠëĲĺìĹĪëĭ¤ ëĬĶ
Ġë°ľê²¬ íķľ
Ġë°ľê²¬ íķĺê³ł
ĠìĤ¬íķŃ ìĿ´
ĠìŀĲëıĻì°¨ ë¥¼
Ġê°ĳ ì§Ī
ĠìļĶì²Ń ìĿ´
ĠìļĶì²Ń ìĹĲ
Ġë´ī íĪ¬
Ġê³µìĹ° ìĿ´
ë¹ł ë¥¸
if ied
ë³´ë ħ¸
ĠìŀĶ ìĹ¬
ĠìŀĶ ìŀĶ
Ġì»´íĵ¨íĦ° ë¥¼
íĻľëıĻ ìĿĺ
ê³Ħìķ½ ìĿĺ
ðŁ Ĵ
ĠìĤ¬ë¡Ģ ëĬĶ
Ġìłĳê·¼ íķł
Ġë°ĶìĿ´ ëŁ¬
å¤ ª
ìĨĶ ë£¨ìħĺ
ĠìĻĶ ëįĺ
ĠìĿ¼ìłķ ìľ¼ë¡ľ
Ġê¸į íľ¼
ìĿ´ìķ¼ ë§Ĳë¡ľ
Ġë°ĶëĢ Ĳ
ĠëĤĻ ì°°
Ġëĵ¤ìĸ´ê°Ģ ìĦľ
ĠíĭĢ ë¦¼
Ġì¶ľìĹ° íķľ
ĠìľĦë°ĺ íķľ
Ġë°ľíĸī íķĺëĬĶ
Ġë¶Īê°ĢëĬ¥ íķĺëĭ¤
Ġìŀĩ ëĶ°
Ġëĺĳ ëĺĳ
ìĸ´ëĤ´ ê³ł
Ġì§ĢìĭĿ ê³¼
ĠìĦłìĥĿëĭĺ ìĿĢ
Ġë§º ê³ł
Ġë¬´ìĹŃ ìłĦìŁģ
Ġì²łìłĢ íķĺê²Į
ĠìĤ¬íĥľ ê°Ģ
ĠíĻĶìĿ´íĬ¸ íķĦ
ĠíĮ¨íĦ´ ìĿĦ
ĠïĤ ¡
ĠìĹ¬ë¡ł ì¡°ìĤ¬
ëĵ±ìĹĲ ê´Ģíķľë²ķë¥ł
ĠìħĶ íĭĢ
ĠìĽ° ì»´
å¹ ´
ĠKore an
ìĸ¸ìĸ´ íķĻ
Ġë©ĶìĨĮ ëĵľ
ĠìĥĲ ëŁ¬ëĵľ
Ġìĭľë®¬ ëłĪìĿ´ìħĺ
ĠìĿ¼ë³¸íİľíĮĶ ìĿ´ìķ¼ê¸°
ĠíĬ¼ íĬ¼
ĠìłĦë¦½ ìĦł
ê¸°ìĪłíĳľì¤Ģ ìĽĲê³łìĭľìłľ
Ġì¤Ħë¦¬ ìĹ£
. /
4 50
6 000
8 000
E n
I B
U LìĿ¸ì¦Ŀ
f ace
l in
v iew
â ¦ģ
å ł
ç »
è Ĭ
ï ¥
Ġë ĮĦ
íķĺ ê²ł
ĠìĿ į
Ġìŀ £
ìĿĢ íĺľ
ê¸° ë³´ëĭ¤
´ë ķĮ
ë¦¬ ìļ°ëĵľ
ë¦¬ íı¬íĬ¸
ĠìĹ ´ëĮĢ
ìĿ¸ íķĺ
ìŀĲ ë¦¬ë¥¼
ëĿ¼ íĨ¤
ĠìĪĺ ë§Į
Ġê·¸ ëłĪìĿ´
ìłķ ë¦¬
ìŀ¥ ìĨĮ
ëĮĢ ìĤ¬
Ġíķĺ ëĿ¼
Ġíķĺ ìĦ¸ìļĶ
ì¹ ´ë°Ķ
ë¶Ģ ë¶Ģ
ìĨ Ł
Ġê°Ģ ë°©ìĿĦ
Ġì§Ģ ëĤ¸
ë§Į ëĵ¤ê¸°
ĠìłĦ ê³¼
ĠìłĦ ì§ģ
Ġìĭľ ê³Ħë¥¼
íĻĶ ìĿ´íĬ¸
íļĮ ì§¸
ĠìŀĲ êµŃ
ĠìŀĲ ê¶ģ
ëıĻ ë§¹
Ġë³´ íĽĪ
íĦ° ì¹´
Ġì£¼ ë¬¸ìĿĦ
ĠìĿ¸ ì²´
Ġëĵ± ìŀ¬
ĠìŀĪëĭ¤ ë©°
Ġëª¨ ìĪľ
Ġëª¨ ë¦ħëĭĪëĭ¤
ëŁ¬ ë¸Į
Ġê³µ ì£¼
Ġìĥģ íķĺ
Ġë¶Ģ ìĿĺ
Ġìĺ¤ íĶ¼
Ġê³ł ì§ĳ
ìľĦ ìĥĿ
ĠìĨĮ ëł¨
ĠìĨĮ íıŃ
ĠìĿĺ ìĭĿìĿĦ
ê¸Ī ìĨį
Ġìļ° ë¦°
ëĭ¨ íķľ
ìĭ¤ ìĭľê°Ħ
ĠìĹ° ìĿ¼
ĠìĹ° ìĤ°
Ġìĭł ì¡°
ë¯¸ ìĺ¤ìĻĢ
Ġíķ´ ë¥¼
ê·¸ ë¦¬
Ġê¸ ģ
Ġë¯¸ ëĵľ
Ġë°© ê³¼íĽĦ
ĠëıĻ ì°½
ĠëıĻ ìª½
ìĸĳ ëĮĢ
Ġë¬¸ ê²½
ìĹŃ ìĿĢ
Ġìĭ¤ ê°Ĳ
ìŀĳ ìĦ±
Ġë¶Ħ ë°°
ë¥´ ìĿĺ
ë¥´ ëıĦ
ĠëĺĲ ëĭ¤ë¥¸
íĸĪ ì£ł
ĠìłĢ ê°Ģ
ĠìłĢ ìĦľ
ĠìłĢ ëłĩê²Į
ì²Ń ìĤ°
ì²Ń ìķ½
Ġë¬´ ìĦŃ
Ġë¶Ī ê±°
Ġê¹Ģ ìľ¤
ĠìĦ¤ íĥķ
ĠëĤ¨ ìĸĳ
ĠëĤ¨ ê²¼ëĭ¤
ĠìĤ¬ìļ© íķ´ìķ¼
ĠíĻķ ì¶©
ëĶĶ ìĽĢ
Ġê²ĥìĿ´ ì§Ģë§Į
ĠíķĻ ê¸°
ĠìĹŃ ëıĻ
ĠíķľêµŃ ìľ¼ë¡ľ
íķŃ ìĿĦ
íĻĺ ìĿĺ
Ġíĸī íķĺëĬĶ
Ġíĸī ìľĦìĹĲ
Ġ10 5
ĠìĥĪ ìĤ¼
ĠíĶ¼ ê°Ģ
ĠA S
Ġë³¸ ëĭ¤ë©´
Ġìŀĺ íķĺëĬĶ
ĠíķĦìļĶ ìĹĲ
Ġëį° ìĿ¼ë¦¬
Ġì²Ń êµ¬ë¥¼
Ġë§ŀ ëĮĢ
Ġëĵľ ë¦¬ê³ł
Ġíģ¬ ëĭ¤ëĬĶ
Ġs ign
Ġë²ķ ìķĪ
ĠíĴ ĭ
ĠI BM
ĠìŀĦ ì°¨
ë³ĳ ìĽĲìĹĲìĦľ
ĠëĿ¼ ë©´
ĠìĤ¬íļĮ ê³µíĹĮ
ĠìĤ¬íļĮ ìĸ¸ìĸ´íķĻ
Ġë²Ī ê±°
Ġì´Ŀ ìĦł
ê¸¸ ëıĻ
Ġëıħ ë³´
ĠëĪĪ ìķŀìĹĲ
Ġë²Ħ ë¦¬
Ġìĭ¶ ëĦ¤ìļĶ
Ġìĭ¶ ìĸ´ìĦľ
ë¶Ī ìĿĦ
ï¼ Ī
ĠìłľíĴĪ ìŀħëĭĪëĭ¤
ìį ©
Ġd o
Ġìļ´ìĺģ íķł
ì£¼ìĿĺ ìłģ
Ġë¨¹ ì§Ģ
ĠD ev
Ġë²ł ëĦ¤
ĠëĤĺíĥĢ ëĥĪëĭ¤
.... ...
ĠìĺģíĻĶ ìĹĲìĦľ
ĠìĬ¹ ì§Ħ
Ġë¹ł ì¡Įëĭ¤
ĠìĿ´ìľł ëıĦ
ĠìĤ¬ëŀĳ íķĺê³ł
Ġw av
íĥĦ ìĺ¬
ĠíħĮ ëĿ¼
ĠëĮĢíķĻ ìĿĦ
ĠíĤ ¨
ë³´íĹĺ ìĹĲ
Ġì¦Ŀê°Ģ íķĺë©°
ation s
Ġëĸł ëĤ¬ëĭ¤
Ġê²½íĹĺ íķł
ì·¨ ê¸ī
Ġì½ĺ íģ¬ë¦¬íĬ¸
Ġë³´íĹĺ ìĿĦ
ĠìļĶêµ¬ ê°Ģ
ĠìļĶêµ¬ ëĲĺëĬĶ
ë¶ĢìĬ¤íĥĢë¹Ĺë¶ĢìĬ¤íĥĢë¹Ĺ ë¶ĢìĬ¤íĥĢë¹Ĺ
ĠU LìĿ¸ì¦Ŀ
ĠìºĲ ìĬ¤íĮħ
Ġë©´ íĹĪ
ĠìŀĲìĹ° ê³¼
Ġì§ĢìĨį ëĲĺë©°
Ġì¹¨ íĪ¬
os s
ur ing
ìĦľìļ¸ ìĭľ
Ġìĭłì²Ń íķľ
ĠëĶĶìŀĲìĿ¸ ê³¼
Ġn umber
Ġì¡°ìĤ¬ ìĹĲ
Ġê¸Īìľµ ê°Ĳëıħ
Ġì¶ľìĭľ íĸĪëĭ¤
Ġê°ĲìĨĮ íĸĪëĭ¤
Ġëŀ ¨
Ġëŀ Ģ
Ġíľ´ ê²Į
Ġëª©ìłģ ìĹĲ
Ġê²¬ ëĶĶ
Ġëĵ£ ì§Ģ
Ġìĸ´ëĶĶ ê¹Įì§Ģ
Ġì°į ê³ł
-------- --
ĠëĮĢíķľë¯¼êµŃ ìĿĦ
ĠìĿ´ë¤Ħ ì§Ģì§Ģ
ĠëĦĵ íĺĢ
ĠìĪ¨ ê¹Ģ
ĠìĨĮìŀ¬ ìĿĺ
Ġì²´íĹĺ ìĿĦ
Ġê²Ģìĥī ìĿĦ
ĠíĻķë³´ ë¥¼
ĠëĶĶì§ĢíĦ¸ ëıĦìĸ´ëĿ½
Ġë¶Ħëªħ íķĺëĭ¤
ĠìĤ¬ë§Ŀ ìŀĲ
ĠìķĦë²Ħ ì§Ģê°Ģ
Ġì¢ħêµĲ ìłģ
ĠëĮĢìĿĳ íķĺëĬĶ
ĠíĸīëıĻ ìĹĲ
Ġì¡¸ìĹħ íķľ
Ġíĩ´ ìłģ
ĠëıĦìłĦ íķĺëĬĶ
Ġëĵ¤ìĸ´ê°Ģ ë©´
Ġê³łìļ© ëħ¸ëıĻ
Ġë°ĺë³µ ìłģìľ¼ë¡ľ
Ġì§ķ ê³Ħ
ëĸ ł
Ġi he
Ġìĭ¤íĮ¨ íķľ
Ġíİ¼ì³Ĳ ì§ĢëĬĶ
Ġë°ĸ ìĹĲìĦľ
ĠìĹ°ëĿ½ ìĿĦ
ĠíķŃëª© ìĹĲ
Ġìŀħìŀ¥ ìĿ´ëĭ¤
ĠíĮĲê²° ìĿ´
ust ify
ĠíĿ¥ë¯¸ ë¥¼
ĠëıĻìŀĳ ìĿĦ
Ġë¨¸ë¦¬ ì¹´ëĿ½
ëĵ¬ íķ´
ĠëıĦìĻĢ ì£¼ëĬĶ
ìºł íĶĦ
ëª¨ëį¸ ë§ģ
Ġ198 9
ĠíķĺëĬĲ ëĭĺ
ì§Ģê¸Ī ê¹Įì§Ģ
Ġal ign
Ġê´´ ë¡Ń
ìŀĲìľł íķľêµŃëĭ¹
ê±´ë ¹Ħ
ann a
ĠìłģìłĪ íķĺê²Į
Ġìłķë³´íĨµìĭł ë§Ŀ
ĠíĶĮëŀĺ ê·¸
ìĭľíĸī ëł¹
ëģĪ íķľ
ê°¤ ëŁŃìĭľ
ĠìķĦëģ¼ ì§Ģ
Ġìĸ¸ìłł ê°Ģ
pon s
íĨµìĥģ ìŀĲìĽĲ
ĠìĬ¬ë¡¯ ë¨¸ìĭł
Ġë§ĪìĿ¼ ë¦¬ì§Ģ
ĠíıŃëĦĵ ìĿĢ
çİ ĭ
ĠìĦłì°© ìĪľ
Ġì§Ģê·¹ íŀĪ
ĠíŀĻ íķ©
P M
Q u
d er
i ous
å ¥
é ©¬æĸ¯åħĭ
ë ĮĦ
ï ¤
Ġ çĶ²
ł ¹
Ġë µ
Ġë ¾°
ìĿĺ ìķ½íĴĪ
íķľ ë²Ī
ì§Ģ ìĥģ
ì§Ģ íĸ¥
ì§Ģ ëĿ¼ëıĦ
ìĿ¼ ë³´ëĬĶ
ìĦľ ìĬ¤
ìĭľ ì§Ģ
ìĭľ ê³Ħ
ìĭľ ë¸Į
ĠìĿ´ ìĤ¬ëĬĶ
ĠìĪĺ ìłľ
ĠìĪĺ ìĽĶ
ìĸ´ ê°ĢëĬĶ
ĠëĮĢ ìĿ¸
ĠëĮĢ íļĮìĹĲìĦľ
ĠëĮĢ ìĿĺìĽĲ
ìĽĲ ì¹Ļ
Ġë¶ ī
Ġìĥ Ģ
ìłģ ëıĦ
ìłģ ìŀħëĭĪëĭ¤
ëĮĢ íļĮìĹĲìĦľ
Ġíķĺ ëł¤
ì¹ ©
Ġê°Ģ ìĦ±
Ġê°Ģ ê¾¸
ëħ Ķëĭ¤
ìĥģ íķľ
ìĥģ ê¸Ī
ìķĦ ëıĦ
ìķĦ ëĭĪëĿ¼
ìłľ íĴĪìĿĦ
Ġ2 12
ĠìłĦ ëĿ½
ĠìłĦ ìĹ¼
íĬ¸ ëŀĻ
Ġìĭľ ìłĲìĹĲìĦľ
ìĪĺ ëĭ¨
ë³´ ì§Ģ
Ġìłķ ë¡Ģ
ëĵľ ë¦¬ëĬĶ
Ġë³´ ìĭ¤
Ġë³´ ìĿ´ë©°
Ġë³´ ìĿ´ì§Ģë§Į
ìĹħ ê³ĦìĿĺ
ëĭĪ ì¦ĺ
ĠìĿ¸ êµ¬ìĿĺ
ĠìľĦ ìķ½
ì¹ĺ ëĭ¤
Ġì¤ĳ ìĿ´ë©°
Ġëª¨ íĭ°ë¸Į
ê³µ ìĿ´
ì§Ħ ì§ľ
ëŁ¬ ìĿĺ
Ġê³µ ì²ľ
Ġë¶Ģ ìŀĦ
Ġë¶Ģ ìľĦ
ĠìķĬ ëĤĺ
Ġë¹Ħ ë°©
ìĭĿ ê°ĦìĹĲ
ĠìĨĮ ê·¹
Ġìľł ëĦ¤ìĬ¤ì½Ķ
ê²½ íĻĶ
ë§Ī ëĭ¹
ĠìĿĺ ìĻ¸ë¡ľ
ĠìĥĿ ì¤ĳê³Ħ
Ġìļ° ì²´
ìĭ¤ ì²ľ
ĠìĦł ìłľ
ĠìĦł ë°ĺ
ĠíĨµ ì¦ĿìĿ´
Ġë°ľ ëªħ
Ġë¯¸ êµ°
Ġë°© ëĮĢíķľ
ĠëıĻ ê³Ħìĺ¬ë¦¼íĶ½
ĠëĤ´ ìĸ´
ĠëıĦ ëĬĶ
ĠëıĦ ìŀ¥
ì°¨ íĶ¼
ìŀĳ ìĹħìĿĦ
Ġë¶Ħ ëĭ¹
Ġë¶Ħ ëĵ¤ìĹĲê²Į
íģ¬ ìĿĺ
íĶĦ ë¦°
er ing
Ġìŀ¥ ê´ĢìĿ´
in o
Ġê°ķ ìĦ¸
ìĸ´ë ĶĶ
Ġë¬´ ìĪł
Ġë¬´ ê²ģ
Ġë¬´ ìłľíķľ
ĠìķĮ ìķĺëĭ¤
ĠìķĮ ëłī
ë³¸ ë¶ĢëĬĶ
Ġìŀ¬ ë£Įë¥¼
Ġë§¤ ìŀ¥ìĹĲìĦľ
Ġê¹Ģ íĿ¥
Ġëĭ¨ ìĸ´ê°Ģ
ĠìĤ¬ìļ© ìĹĲ
ĠìĤ¬ìļ© ëĲł
Ġìŀħ êµŃ
Ġê³¼ ë°ĺ
ë¡ł ìĹĲ
ĠíķĦ ìĤ¬ìŀĲ
ì¢ħ ëª©
Ġê²ĥìĿ´ ëĤĺ
ê²° ìĿĺ
ëĳĲ ë¥¼
Ġíķ© ë¦¬ìłģ
Ġíķ¨ ìĿĢ
Ġíķ¨ ë¶Ģë¡ľ
Ġì¦Ŀ ìĿ¸ìľ¼ë¡ľ
Ġëªħ ìĥģ
ĠíĻľ ì§Ŀ
íĮĲ ìĿĢ
ëª© ìĤ¬
ĠA l
Ġë³¸ ë¬¸
ëĤ¨ ë¶Ģ
ì¶Ķ ìĦĿ
Ġê°Ħ ì§ģ
Ġì´Ī ë³´
ĠìĻ¸ ì¶ľ
ë°° ìĹĲ
Ġìĸĳ ê·¹
Ġìĸĳ ëħĲ
Ġê°ĢëĬ¥ íķĺê³ł
ĠM art
Ġìĭľìŀĳ íķĺë©°
Ġëĵľ ë¬¸
Ġìķŀ ëĭ¹
Ġë²ķ ìłľ
ĠT op
ic t
íĺĳ ìķ½ìĿĦ
ĠëĪĦ ëĿ½
ĠëĪĪ ëĨĴ
Ġë²Ħ ëł¸ëĭ¤
ĠíĬ¸ ë¦¬
ìĽĢ ìĿĺ
ĠìķĦëĭĪëĿ¼ ë©´
ĠìĹ°êµ¬ ìĹĲìĦľ
ĠB e
ê·¹ ìĿĺ
Ġìļ© ëĤ©
Ġë°ľìĥĿ íķ©ëĭĪëĭ¤
Ġê°ľë°ľ ê³¼
Ġë°©ë²ķ ëıĦ
Ġíļ¨ ëł¥ìĿ´
Ġì¤ĳìļĶ ìĭľ
Ġd el
Ġìķł ë¡ľ
Ġê´Ģê³Ħ ë²ķëł¹
ë§ī ìĿ´
ĠìĿ´ìķ¼ ê¸°ëıĦ
Ġê·¸ëłĩ ê³ł
Ġê·¸ëŀĺ íĶĦ
ĠìĬ¹ ê°Ŀ
ĠìĽĶ ìļĶìĿ¼
Ġm ay
ĠíĻľëıĻ ìĿĢ
Ġì¸¡ ìĿĺ
Ġê°Ī ë¦¼
Ġê°Ī ìĥī
Ġë¬´ë£Į ì¿łíı°
ĠìķĪìłĦ ê´Ģë¦¬
Ġâĳ ¤
ìĤ¬íļĮ ìĹĲìĦľ
ĠìĿ´íķ´ ê´Ģê³Ħ
am es
íķĦ ë¦¬íķĢ
ìĤ¬ìĿ´íĬ¸ ë¥¼
Ġë§Ľ ê³¼
Ġì¡´ìŀ¬ ê°Ģ
Ġì¢ĭìķĦ ìĦľ
Ġê·ľìłķ ìĿ´
Ġì£½ ìĿĮìĿĺ
ur g
ĠëıĦìĭľ ë¡ľ
ĠìķĮìķĦ ë³´ê¸°
Ġê°ľìĦł ìĿ´
ĠìĹ°ê²° ëĲĺëĬĶ
Ġn ew
ĠíĮĲëĭ¨ íĸĪëĭ¤
ĠìŀĲë£Į ê°Ģ
ì¼ĢìĿ´ ë¸Ķ
ĠìĿ´ë£¨ìĸ´ ì§Ģì§Ģ
ĠìĥģëĮĢ ê°Ģ
Ġìłķìĭł ê³¼
ì§ĢëĤľ ëĭ¬
ĠíĺĦìĭ¤ ìłģìľ¼ë¡ľ
ãİ ı
Ġì§ĳì¤ĳ íķĺê³ł
Ġëĵ£ ê¸°
Ġì°¨ëŁī ìĹĲ
Ġìłľìĭľ íķĺê³ł
ë²¨ íĬ¸
Ġì°© ìĪĺ
Ġë°ĶëŀĮ ì§ģíķľ
ĠìĦłìĪĺ ëĵ¤ìĿĺ
ìŀĪëĭ¤ ëĬĶ
ĠìĺĪìķ½ ìĿĦ
ìºĲ ëĤĺëĭ¤
Ġìłĳê·¼ ìĿĦ
Ġêµ¬ìŀħ íķľ
ëħĦëĮĢ ìĹĲ
Ġë¹ĦíĮĲ ìĿĦ
ĠìķĦë²Ħ ì§ĢëĬĶ
Ġë¹¼ ê³ł
Ġê²°íĺ¼ ìĭĿ
ĠëıĻìĿĺ íķľ
Ġíļ¨ìľ¨ ìĦ±ìĿĦ
ĠìĿ´ìĿµ ìĿ´
ĠìĬĪ íĮħ
Ġìłľê±° íķĺëĬĶ
Ġë°ľíĸī íķľ
Ġì§Ħì¶ľ ìĿĦ
ĠëĭĪ íĬ¸
ĠíĥĿ ìĭľ
ĠìĿ´ìŀ¬ ëªħ
Ġê¼½ íŀĪëĬĶ
Ġê¼½ íŀĮëĭ¤
êº¼ ë²ĪìĹĲ
Ġëĥī ê°ģ
Ġê°ľíĺģ ìĿĦ
Ġcom pr
ĠìĹ°ê³Ħ íķ´
ĠìĹħëį°ìĿ´íĬ¸ ë¥¼
uc k
Ġex am
Ġìłľëª© ìľ¼ë¡ľ
Ġwh en
Ġì£¼ìµľ íķĺê³ł
ĠìĦłêµĲ ìĤ¬
Ġíĺ¸íĿ¡ ìĿĦ
uct or
Ġê¹Ģìłķ ìĿ¼
Ġus ed
ĠìĿ´ìłķ íĻĺ
ĠìĿ´ë° ©
ĠëĵĿ ìłĲ
ĠëĤ´ëł ¸
Ġì§ĢëĬ¥ íĺķ
ĠìĿ¼ë°© ìłģìľ¼ë¡ľ
Ġì¤ĳë³µ ì¿łíı°
Ġê¹¨ëĭ« ê²Į
Ġëıĭë³´ ìĿ´ëĬĶ
Ġë¯¸ëŀĺìĹĲ ìħĭ
ĠìĬ¤íĭ° ì»¤
Ġëļ« ê³ł
az on
ĠëĵĢ ìĸ¼
ãħ¡ãħ¡ãħ¡ãħ¡ ãħ¡ãħ¡ãħ¡ãħ¡
ĠĠ ĠĠ
ĠìĿĮì£¼ ìļ´ìłĦ
ĠíķŃìĨĮ ìĭ¬
æĦ Ľ
ĠëĳĺëŁ¬ìĭ¸ ê³ł
âĶ Ģ
Ġë³´ê±´ë³µ ì§Ģ
wit ch
ĠIM F
ĠëĮĢëĮĢ ìłģìĿ¸
íķ¸ ëĵľ
Ġê³łìĿ¸ ëıĮ
ĠìĹĲë³¼ ëĿ¼
åĴ Į
E E
Q L
R O
j s
u f
ç «
ç ģ
è ª
ë Įĵ
ê³ł ìĸĳ
ê¸° ìĿ¸
ê¸° íĥĢ
ë¦¬ ëĿ¼ê³ł
ĠìĿ´ ëĵĿ
ìĤ¬ ë§Ŀ
ëĿ¼ ë¥¼
ĠìĤ¬ ë§Ī
Ġíķĺ ë£»
Ġê°Ģ ì¶ķ
Ġì§Ģ ì¹ľ
ĠìłĦ ìĦ±
ĠìłĦ ëł¥ìĿĦ
ĠìłĦ ìĽĲìĿ´
ì£¼ ë¬¸
Ġìĭľ íĿ¥
íĻĶ ëĲĺìĸ´
íĻĶ ëĲł
ìłĦ ì£¼
ìĪĺ ê°ķ
Ġëĭ¤ ì¤ĳ
Ġìłķ íķĺìĹ¬
Ġìłķ ìĿĺë¥¼
ìĹ¬ ë¶Ģë¥¼
ĠìŀĲ ìłľ
ëıĻ íĸ¥
Ġì£¼ ë©°
Ġì£¼ ìĿ¸ìĿ´
ë¬¸ ìłľê°Ģ
ëĭĪ ìĬ¤íĬ¸
ĠìĿ¸ ë¬¼ìĿ´
Ġê²½ ë¹Ħ
ĠìĿ¼ ëªħ
Ġê³µ êµ°
íķĻ ëł¥
Ġìĥģ ìĿ´
Ġìĥģ ìĨį
Ġë¶Ģ ìŀ¥íĮĲ
ê´Ģ ë¦¬ìĹĲ
íĺ¸ ì£¼
íĺ¸ íĻĶ
ìľł íķľ
Ġë°Ķ ìģĺ
Ġíķ´ ì¤Ģëĭ¤
ê·¸ ë¦¬ìĬ¤
Ġë§Ĳ íķĺê¸°
ë°© ìĹĲìĦľ
ĠëĤ´ ë¥Ļ
Ġë¬¸ ìĭł
íĨ °
ĠìĦ± ìĪĺ
ĠìĦ± íĴĪ
Ġë¶Ħ ìĿĺ
ë¥´ ëĭ¤
ĠêµĲ ìŀ¬
ìħ °
Ġê±° ëĳĶ
Ġìŀ¥ ë§Ī
... ]
ìĺĢ ìľ¼ëĤĺ
Ġë© ´ë°Ģ
ĠìĽĲ íķĺì§Ģ
Ġë¶Ī ê½ĥ
Ġ201 40
ìĦ¤ íĦ´
Ġ" (
ĠíĽĦ ìĿĺ
ĠìĤ¬ìļ© ìŀĲëĬĶ
ĠìĤ¬ìļ© ëĲ©ëĭĪëĭ¤
Ġë°° ê²½ìĿĦ
Ġìŀĳ ê³ł
ì¦Ŀ íĽĦêµ°
ĠìķĦëĭĪ íķľëĭ¤
íĤ¤ ìĬ¤
íĤ¤ ëĤĺ
Ġ7 4
ĠíĶ¼ ìĸ´
Ġ8 8
Ġëª© ìļķ
ĠíĻľ ëł¥ìĿĦ
ĠíĻĶ íķ´
ĠìĹ´ ì°¨
Ġ9 2
ë¶ģ ë¯¸
ë°° ì¶Ķ
ë§Ĳ ìĿĺ
Ġìĸĳ íĮĮ
Ġë§Įëĵ¤ ìĸ´ëĤ´ëĬĶ
ĠP art
ìĬ¹ ë¬´
Ġì½Ķ ìĹĳìĬ¤
Ġë¶ģ ìľłëŁ½
ic on
Ġì±ħ ìľ¼ë¡ľ
ĠìŀĦ ë¬´
ë³ĳ ìĹĲ
Ġê·ľ ëªħ
ĠëĶĶ ìłĢ
ê¸¸ ëŀĺ
ĠíĥĢ ìĿ¸
Ġë¯¼ ì¤ĳ
ĠìłķëıĦ ìĹĲ
Ġëł ī
Ġì±Ħ ë¬´
Ġ20 22
ĠëĪĪ ì¹ĺ
ĠìĪľ íļĮ
Ġìĭ¶ ëĭ¤ê³ł
ìķ¡ ìĹĲ
ê²¨ ìł¸
ĠK OS
ĠìłľíĴĪ ê³¼
ĠìłĪ ë§Ŀ
ĠëĨį ìĤ°
ĠìĿ¼ë³¸ ìĿĦ
Ġê´Ģê³Ħ ë¡ľ
ĠH e
ĠìĤ¬ìĿ´ íģ´
ĠìĽĶ ê°Ħ
Ġê³łê°Ŀ ëĭĺìĿĺ
Ġìķ¼ ê¸°
Ġìµľê·¼ ìĿĺ
Ġê·Ģ ìĨį
Ġë¬´ë£Į ìĿ´ë©°
Ġê³Ħíļį ìĹĲ
ig u
Ġê³¼ìłķ ê³¼
Ġê°Ģê²© ëıĦ
Ġê¸°ì¤Ģ ìĿĢ
Ġh ave
ĠíĻ© ëĭ¹
ë¬¸íĻĶ ìľłìĤ°
Ġì¢Ģ ì²ĺëŁ¼
ĠU X
ìħ¨ ìľ¼ë©´
Ġë©´ ìłģ
ëľ ¸
ĠëĬĲëĤ Ģëĭ¤
Ġê·ľìłķ íķľ
Ġì¹¨ ì°©
Ġì¹¨ ëŀµ
ëłĮ ê¸ĢëĿ¼ìĿ´ì½ľ
ê°ľìĽĶ ìĿ´
Ġì¹ľêµ¬ ë¥¼
Ġíķ´ìĻ¸ ìĹĲìĦľ
Ġìļ¸ íĬ¸ëĿ¼
Ġëĸ¨ìĸ´ ì§Ī
ĠíĮĲëĭ¨ íķĺëĬĶ
Ġì§ĢëĤĺ ê°ĢëĬĶ
ĠëĤ¨ë¶ģ íķľ
ĠíĽĦë³´ ë¥¼
ĠíĺĦìĭ¤ ìĹĲ
Ġë§ĮëĤĺ ëŁ¬
ãİ Ŀ
ĠìĿµ íŀĪ
íĺ¹ íķľ
íķ´ë³´ ìĦ¸ìļĶ
Ġre le
ĠìĹ¬ëŁ¬ë¶Ħ ìĿĢ
Ġì§ģìĽĲ ëĵ¤ìĿĺ
Ġì°į ìĿĦ
ĠìŀĶ ëľ©
ĠëģĮ ëł¤
ĠëĦĵ ê³ł
ĠìĪ¨ ê²¨ì§Ħ
Ġg roup
Ġê°Ģìł¸ ìķ¼
Ġìłĳê·¼ ìĿ´
âĳ £
âĪ Ĵ
Ġì¢ħë¥ĺ ìĻĢ
Ġê·¸ë£¹ ìĿĺ
ĠíĥĢìĿ´ ë°į
Ġìºł íį¼ìĬ¤
Ġê³¡ ìĿĦ
Ġìłľê¸° íķľ
Ġì¶ľìĭł ìľ¼ë¡ľ
ĠëĮĢì¤ĳ êµĲíĨµ
Ġê¸Īìķ¡ ìĿ´
Ġì§Ģì¼ľ ìķ¼
ĠìĿ´ë¡ł ìĿĦ
ì¯¤ ìĿĢ
Ġìĵ´ ëĭ¤
Ġê¹¨ëģĹ íķĺê²Į
Ġë²Ĺìĸ´ëĤĺ ì§Ģ
âĹ ı
Ġìĸ´ë¨¸ëĭĪ ìĿĺ
Ġì§Ģíĺľ ë¥¼
ĠìĿ´ë³ ´ëĭ¤
Ġëĸ¨ ìĸ´ëľ¨
Ġë²ĶìľĦ ìĹĲìĦľ
ìĿ¼ë°ĺ ìłģìľ¼ë¡ľ
ire ct
Ġë· Ķ
Ġëĭĺ ìĿ´
ĠìłĪì°¨ ìĹĲ
Ġìŀ¥ë¥´ ìĿĺ
ĠìĥģìĦ¸ íķľ
ĠHT TP
Ġê³° íĮ¡
ĠìĹ°ë£Į ìłĦì§Ģ
ĠëŀŃ íĤ¹
ê²¹ ìĤ´
ĠìĦľì´Ī êµ¬
Ġë©Īì¶Ķ ì§Ģ
Ġdes ign
Ġíı¼ íİĺìĿ´ìĺ¤
ĠìķĦë¥´ íĹ¨
ĠìĿ´ë¥´ë Ł¬
ĠìĿ´ë°Ķ ì§Ģ
Ġwav egu
" >
I L
M P
U C
V C
a ìĿĺ
e ak
m an
~ !
å ½
æ ģ
ç ©
ì «
Ġ Ã
Ġ ro
Ġ ãħł
Į ìŀ¥
ìĿ´ ê²ĥìĿĢ
ëĬĶ ì§Ģë¥¼
ëı ĭ
ì§Ģ íķĺ
êµ ½
ìĭľ ìĿĺíļĮ
Ġì§ ¬ë½ķ
ìŀĲ ê²©ìĿĦ
ëĵ¤ ìŀħëĭĪëĭ¤
ê²Į ëĬĶ
ê²Į ìĿ´íĬ¸
ĠìĪĺ ë°ĺ
íĻ ī
Ġê·¸ íķ´
ìłķ ëĮĢë§Į
ìŀ¥ ê¸°ê°Ħ
ëĮĢ ì¡°
Ġíķĺ ìĿ´ëĵľ
Ġíķĺ ìĿ´ë¸Įë¦¬ëĵľ
ë¶Ģ ìłķ
ëį ®
Ġê°Ģ ëĭ¤
Ġê°Ģ ìĤ¬
Ġê°Ģ ì§Ģë¥¼
ìĥģ íĴĪìĿĦ
ìķĦ ëĿ¼
ìķĦ ìĻĢ
Ġì§Ģ ìĭĿìĿ´
ë² Ĺ
Ġíķľ êº¼ë²ĪìĹĲ
ĠìłĦ ìŀ¥
ì£¼ ìļĶ
Ġìĭľ íĤ¤ëĬĶ
ìłĦ íĺ¸ìŀ¥
Ġìłķ íķ´
êµ¬ ë¯¸
ĠìŀĲ ìĦĿ
ëıĻ íĺ¸
Ġì£¼ ì¶ķ
Ġì£¼ ìľĦìĹĲ
ĠìĿ¸ ê±´ë¹Ħ
Ġê²½ ëł¥ìĿĦ
ĠìľĦ íĤ¤
ĠìľĦ ì´ī
ĠìĿ´ë ¬¼
ê¹ ħ
ê¹ ľ
Ġì¤ĳ ìĭľ
ì§Ħ ìľ¼ë¡ľ
ì§Ħ ëĭ¤ëĬĶ
Ġê³µ ìŀĳ
ìĤ° ìľ¼ë¡ľ
Ġìĥģ ê¸ī
Ġë¶Ģ ëĬĶ
íĸī ìĤ¬ë¥¼
ĠìķĬ ìľ¼ë©´ìĦľ
Ġìĺ¤ ê²Į
Ġë¹Ħ ì¤Ģ
ìĺ¤ ëŀĺ
Ġìľł ì¡±
Ġìľł ë¨¸
ê°ľ ìĹĲ
ĠìĥĿ ìĦł
ìķĪ êµ°
Ġë§Į ê¸°
ë¬´ ìŀ¥
ĠìĦľ ë¸Į
íĺ¸ íķľ
íĺ¸ ë¥´ëª¬
Ġìĭł ëıĦ
Ġìĭł ëıĪ
Ġë°ľ ëª©
Ġë§Ĳ ê³¼
íĨµ ìĹĲ
íĨµ ìĿĺ
ìĹĪ ìľ¼ë©´
ĠìĬ¤ íı¬
ë¯¼ ê³¼
ĠëıĦ ëĤľ
Ġìĭ¤ ìĿĢ
ì¤ĳ ìĭ¬ìĿĺ
ë£Į ëĬĶ
Ġìŀ¥ êµ°
Ġê°ķ ìķĦì§Ģ
ĠìĤ¬ëŀĮ ìĿ´ëĭ¤
ëĤ´ ìļ©ìĿĦ
Ġë¶Ī íıī
Ġë¶Ī ì°¸
Ġë§¤ ìŀ¥ìĿĦ
Ġë§¤ ëī´ìĸ¼
ĠíĬ¹ ìĦ±ìĹĲ
ìķ½ íķľ
Ġìłģ ìŀĸ
Ġê¹Ģ ìĿĢ
Ġê¹Ģ ìĶ¨
Ġëĭ¨ ìłķ
Ġëĭ¨ ìłĲ
ë°Ķ íĢ´
ì§Ī ìĹĲ
ì§Ī ë¡ľ
Ġì°¨ ëł¤
Ġì°¨ ëĿ¼ë¦¬
ê°ķ ìĹĲ
ëĶĶ ìĹĲ
Ġê²ĥìĿ´ ëĭĪ
íĥľ êµŃ
ĠìĹŃ ìłĦ
Ġë¬¼ ê°Ģ
ì¦Ŀ ìľ¼ë¡ľ
ì¦Ŀ ì§Ħ
Ġíĸī ìłķë¶Ģ
ĠìĥĿê°ģ ìĿ´ëĭ¤
ĠíĶ¼ ë¥¼
ìłĪ ì°¨ë¥¼
íĶ¼ ëĬĶ
Ġëªħ ìĭ¬
Ġëªħ ìĦ±ìĿĦ
Ġë¦¬ íĶĦ
ĠìłĲ íı¬
íİ¸ ìľ¼ë¡ľ
ë°° ëĭ¬
ë¦¼ ìĿĢ
ëĦ¤ ìĿ¼
ë°ķ ìĤ¬
Ġìĸĳ ìŀĲ
Ġíģ¬ ê¸°ë¥¼
ĠP ark
Ġíİ¸ íķľ
Ġíİ¸ ì§Ģ
íİĺ ìĬ¤íĭ°ë²Į
ĠI C
Ġì±ħ ìĹĲìĦľ
ĠìŀĦ ì§ģ
Ġc or
Ġc heck
ìłĳ ìĪĺ
ìĪľ ìĿ´ìĿµ
Ġì±Ħ ë¡ľ
ëĤł ë¡ľê·¸
ì°½ íķľ
Ġìº Ħ
Ġ[ ...]
ĠE l
ĠE BS
ĠE SF
ĠëĨį ìĸ´ì´Į
ĠìĿ¼ë³¸ ìĿ´
Ġìķł êµŃ
Ġê´Ģê³Ħ ëĬĶ
Ġf il
Ġë¸Ķ ëĿ¼
Ġb ig
ìĦ¼íĦ° ìĹĲ
ĠìĤ¬ëŀĳ ìĿĢ
Ġìŀ¡ íŀĮ
íĬ¹ ë¡Ģ
Ġê±´ê°ķ ê´Ģë¦¬
ĠN etwork
Ġì¸¡ ìĹĲ
ĠíĻį ìĪĺ
ê¸°ìĹħ ìĿ´
Ġë³ĳ íķ©
ĠìĹ¬ìĦ± ëĵ¤ìĿ´
ĠW i
Ġíĺ¸íħĶ ìĹĲ
Ġíĺ¸íħĶ ê¹Įì§Ģ
Ġë¶ģíķľ ìĿĦ
ìķĶ ìĿĺ
ĠìĹ¬íĸī ê°Ŀ
ĠíĤ¤ ë³´ëĵľ
Ġê²°ìłķ ìĹĲ
Ġê²°ìłķ íķł
ì§ĢìĹŃ ìĿĦ
ì§ĢìĹŃ ìĹĲìĦľ
Ġë§Īëł¨ ëĲĺìĸ´
Ġë¯¿ ìĸ´
ĠíĴĪ ì§ĪìĿĦ
Ġêµ¬ë§¤ ë¥¼
Ġê³µê°Ħ ìľ¼ë¡ľ
Ġë°Ģ ìĸĳ
Ġë°°ìļ° ê¸°
Ġë³´íĺ¸ íķĺê³ł
ĠìĿ´ìķ¼ê¸° ëĭ¤
ìĬ¨ ìĿĺ
Ġì¶Ķì²ľ íķ´
ĠìĿĺë£Į ê¸°ê´Ģ
Ġê°ķì¡° íķĺê³ł
íĶĦë¡ľ ìķ¼êµ¬
ĠëĲĺìĹĪëĭ¤ ê³ł
ce pt
Ġì¡°ìĦł ìĿĺ
Ġì¶ľìĭľ ë¥¼
Ġíĸīë³µ íķĺê²Į
ĠíĮĶ ëłĪ
ĠìļĶì²Ń íĸĪëĭ¤
Ġì¿ł íį¼
íķ´ë³´ ëĭĪ
Ġì§Ģê¸ī ìĿĦ
Ġì°¸ê°Ģ íķ´
um b
Ġê½ĥ ìĿĦ
Ġëķħ ìĹĲìĦľ
qu o
Ġê°ľëħĲ ìľ¼ë¡ľ
ĠìķĪìłķ ëĲľ
ĠíĿ¥ ë¶Ħ
ĠíĻķë³´ íķł
Ġg ener
ĠìĪľê°Ħ ìĿĦ
ì¡°ìĦł íķ´ìĸĳ
Ġì´¬ìĺģ íķľ
ĠëĮĢìĿĳ íķł
ĠìĮĵ ìĿ¸
ĠíķŃê³µ ìĤ¬
ĠíĸīëıĻ ìĿ´
ĠìļĶìĨĮ ë¡ľ
ìĵ° ëłĪ
Ġê½ ģ
ĠíĶĮëłĪìĿ´ ìĺ¤íĶĦ
Ġë²½ ëıĮ
Ġìŀ¥ìĨĮ ìĹĲ
Ġë¶Īíİ¸ ìĿĦ
ĠìłĪëĮĢ ìłģìľ¼ë¡ľ
ìĤ¬ìĿ´ íģ´ë§ģ
Ġì¶ľìĹ° íķ´
ëħ¸ëıĻ ìŀĲ
ë³´ë©´ ìĦľ
Ġíķ´ë³ ¼
ĠìĺĪìĪĺ ëĭĺìĿĺ
Ġì°¨ë³Ħ íĻĶ
ë¹Į ë¦¬íĭ°
Ġë§º ìĿĢ
ìĬ¤íı¬ì¸ł ì¡°ìĦł
ãİ¡ (
ĠÂ »
Ġì£¼ëıĦ íķĺëĬĶ
ë¯¸ëĶĶìĸ´ íĮĮìĿ¸
Ġìµľìłģ íĻĶëĲľ
ĠìĪĺìĪĺ ë£Įë¥¼
Ġì¢ģ ìķĦ
ĠíĮĮìĿ´ íĶĦëĿ¼ìĿ¸
ëĭ¤ìĭľ íĶ¼
ĠìĿĢíĺľ ë¥¼
Ġë¶ĢìĬ¤íĥĢë¹Ĺ ë¶ĢìĬ¤íĥĢë¹Ĺ
ĠìĿ¼ê´ĳ ìĿ´
Ġë¶Ħëĵ¤ ê»ĺ
ê·¸ëŀĺíĶĦ ê²ĮìŀĦ
ĠìĹ°ê´Ģ ëĲľ
ï¼Ķ ï¼
Ġê°ľìĦ± ê³µëĭ¨
ĠíĴįìĨį ìĿĢ
Ġê¹ĶëģĶ íķľ
Ġê¹ĢìĿ¼ ìĦ±
ĠêµŃë¬´ìľĦìĽĲ ìŀ¥ìĿ´
Ġíķľë°ĺ ëıĦìĿĺ
gl ish
Ġë¬´ìĸ¸ ê°Ģë¥¼
ĠìķķëıĦ ìłģìĿ¸
ĠìĭĿë¯¼ ì§Ģ
Ġíį¼íı¬ë¨¼ ìĬ¤
Ġìĭ¤ìłķ ìĿ´ëĭ¤
íĮĮëĿ¼ ëĭ¤ìĿ´ìĬ¤
¤ĺ ëĭ¤
Ġìĥ´ íĳ¸
Ġë¸Ķë¡ľ ê±°
ĠìķħìĦ¸ ìĤ¬ë¦¬
Ġë¯¸ìĦ± ëħĦ
Ġê³¨íĮĲ ì§Ģ
A n
H S
T H
W AR
r ay
s c
¥ ¿
æ Ĭ
Ĺ ê²Į
ìł ¼
ìĿ¸ ìĥģ
ìĿ¸ íĶĦëĿ¼
Ġì§ ¤
ìŀĲ ë¬¸
ìŀĲ ìŀ¬
ëĵ¤ ìĹ¬
ĠìŀĪ ìĿĮìĹĲëıĦ
ĠìĪĺ íĥģ
ĠìĪĺ ìĹĨìĿ´
ìłķ ê¶Į
ìŀ¥ íķĻ
Ġê¸° ìĦ±
Ġê¸° ìļ´ìĿ´
Ġê°Ģ ìĥģìĿĺ
Ġ2 30
Ġíķľ ëĿ¼
Ġíķľ íķĺìĹ¬
Ġíķľ ë°©
Ġíķľ ë¥ĺ
ĠìłĦ ëĭ¹
ĠìłĦ ëĬ¥
ĠìłĦ ê´ĳ
íļĮ ìłĦ
ëıĻ ëĦ¤
ëıĻ ì¶ľìŀ¥ìķĪë§Ī
ëħĦ ìĹĲëıĦ
Ġì£¼ ìľł
Ġì£¼ ìĭľë©´
ìļ° ìĻĢ
ë¹Ħ ë°Ģ
ĠìĿ¸ êµ¬ëĬĶ
Ġê²½ ìŀĳ
Ġê²½ ëł¥ìĿ´
ĠëĤĺ ëĿ¼ëĬĶ
ĠëĤĺ ìĦľëĬĶ
Ġì¤ĳ ë¶Ģ
Ġì¤ĳ ìĹĲëıĦ
ëŁ¬ ëĬĶ
ì¡° ëĭ¬
Ġë¶Ģ ì¶Ķ
Ġë¶Ģ ëĵĿ
Ġë¶Ģ ì¹ľ
Ġë¹Ħ ëĭ¨
ĠìĨĮ íĻĢ
ìĺ¤ ìħĺ
Ġìľł íı¬
ĠìĦľ ê·Ģíı¬
ìĹ° ìĬµ
ìĺģ ìĸĳ
Ġë§Ĳ ì²ĺëŁ¼
ĠëĤ´ ëĭ¬
íĨµ íĻĶ
Ġìĺģ ì¶ĺ
ĠëıĦ ìļ°
ĠìĦ± ìľ¡
Ġë¶Ħ ìĩĦ
ë¥´ ìĭľ
Ġë§İ ìķĺ
Ġê±° ë¦¬ëĬĶ
Ġìŀ¥ ê¸°ê°Ħ
ëłĪ ìłĢ
Ġìĸ´ë ¯¸
ĠìķĮ ë°Ķ
Ġë§¤ ì¹ĺ
ìķ½ ì²ĺ
ê±´ ì¡°
ĠìĦ¤ ìĤ¬
Ġê°Ĳ ìĦ±ìĿĦ
Ġt ype
ì§Ī ìĿĢ
ì§Ī ê³¼
Ġìŀħ ìĹĲ
Ġì°¨ ìĹĲ
Ġì¢ĭ ìķĺìĸ´ìļĶ
ìłĢ ê²ĥ
ê°ķ ì¢Į
ĠìļĶ ìĥĪ
íķ¨ ìĿĺ
ì¼ Ħ
Ġì¶ľ ìŀĲ
íĤ¤ ì¦Ī
ĠìĥĿê°ģ íķĺë©°
ĠC PU
ĠC enter
ì§ĳ íĸī
ê²ĥ ê°Ļ
ĠíĻĶ íķ©
ĠìĹ´ ê´ĳ
Ġì´Ī ìĿĮíĮĮ
Ġì§ĳ ìĿĢ
ĠìĻ¸ ëŀĺ
ãħ ĩ
ëĦ¤ íĬ¸ìĽį
Ġë¬¸ìłľ ëıĦ
Ġìłľê³µ ëĲ©ëĭĪëĭ¤
Ġìĸĳ ìĤ°
Ġìĭ¬ ì¸µ
Ġìĭ¬ íı¬ì§ĢìĹĦ
Ġë§ŀ ìķĺëĭ¤
Ġíģ¬ ë¡ľìĬ¤
Ġë²ķ ê·ľ
Ġë²ķ ìĽĲìĹĲ
Ġìĭľê°Ħ ìĦ±ìŀ¥
ĠìĦľë¹ĦìĬ¤ ëıĦ
ĠI m
16 0
ĠëĿ¼ ìĿ¸ìĿĦ
Ġì°½ ê³ł
Ġê·¼ ìĽĲ
ĠíĥĢ ìĽĮ
Ġ: :
ĠìĹĨëĬĶ ì§Ģ
Ġê±¸ ê·¸ë£¹
Ġì±Ħ ìĨĮ
ĠìĤ¼ ìĤ¼
Ġ/ /
ĠëĪĪ ë¶Ģ
ĠëĪĪ ìį¹
ëĳ ¬
ĠìĪľ ìĭĿê°ĦìĹĲ
Ġê³³ ëıĦ
Ġê¸°ìĪł ëł¥ìĿĦ
Ġëª¨ëĳĲ ìĿĺ
Ġì§ĢìĽĲ íķľ
Ġì§ĢìĽĲ íķĺê¸°
ĠíĨł ëª©
ĠëĤ´ìļ© ìĿ´ëĭ¤
ĠìłĪ ìłľ
Ġì¤ĳìļĶ íķĺëĭ¤ëĬĶ
Ġìļ´ìĺģ íķľëĭ¤
Ġë¸Į ëŀĺ
Ġë¸Į ëłĪìĿ´íģ¬
Ġë²ł ë¥´
íį¼ ëĭĪ
ĠH P
ì±Ħ ë¬´
ë²ł ë¥´
íĮĢ ìŀ¥
ĠìĿ´ë£ ©
Ġë¶Ģë¶Ħ ìĿ´ëĭ¤
ĠìŀĪìĹĪ ìľ¼ë©´
Ġê±´ê°ķ ê²Ģì§Ħ
ĠëĮĢíķĻ ìĹĲ
Ġë¨¸ ìĬ¤íģ¬
ĠìķĮëł¤ ì£¼ìĦ¸ìļĶ
Ġëĸł ëĤ¬
Ġë¶ĦìĦĿ ìĿ´ëĭ¤
ĠëįĶìļ± ëįĶ
ĠíıŃ ìĿ´
Ġë°©ë¬¸ ìĿĦ
Ġë°ľíĳľ ë¥¼
Ġë³´íĹĺ ìĹĲ
ĠíĤ¤ ìļ°
ĠìĦ¤ì¹ĺ íķ´
ĠìļĶêµ¬ íķĺê³ł
Ġë§Ľ ë³¼
ëĤĺëĿ¼ ìĿĺ
ĠëĮĢë¶Ģë¶Ħ ìĿĦ
ut ion
ĠëıĦìĭľ ìŀ¬ìĥĿ
Ġë§ĲìĶĢ íķĺìĭł
Ġì£¼ìļĶ íķľ
ĠìĿ´ìķ¼ê¸° íķĺëĬĶ
ĠìĿ¸ìłķ íķł
ĠíĮĲëĭ¨ ëĲĺëĬĶ
ì¤Ħ ìĿ´
Ġê±´ë Ħ¤
Ġê¸°ë°ĺ íķľ
ĠëĤ¨ë¶ģ ìĿ´
ĠíĽĦë³´ ë¡ľ
ĠJ TBC
ver n
Ġê±°ëŀĺ ìĨĮ
ìĤ¬íķŃ ìĿ´
Ġì§Ģìłģ ìŀ¬ìĤ°
ĠëĤ´ëł¤ ëĭ¤
ĠìĦłìłķ ëĲĲëĭ¤
Ġê¸Ģë¡ľë²Į íĺ¸íĶĦ
ĠìĤ´íİ ´
Ġíģ´ ë¡ľ
ĠìĦłìĥĿ ìĿĺ
Ġëĵ±ìŀ¥ íķľëĭ¤
ĠìŀĶ ëĶĶ
Ġê¸°ê´Ģ ìĿĺ
ĠìķĦì¹¨ ìĭĿìĤ¬
Ġìķ± ë¶ģ
Ġíŀĺëĵ¤ ê²Į
ĠìłĦíĻĺ ìĿĦ
** *
Ġëįķ ìĹĲ
ĠìĺģìĹŃ ìĿĺ
ĠìĬ¤íı¬ì¸ł íĨłíĨł
Ġëĭ¬ëĿ¼ ì§Ī
ĠìłĢìŀ¥ ëĲľ
Ġë¶Īíİ¸ íķ¨ìĿĦ
Ġìķī ìķĦìĦľ
ĠëĤĺë¬´ ë¥¼
Ġê¸Īìķ¡ ìĿĢ
ĠìĪĺìļĶ ë¥¼
Ġëĭ¤ëĭĪ ìĹĺ
Ġì²¨ ê°Ģ
íĶĦëĿ¼ ìŀĲ
ĠíĻĺìŀĲ S
Ġë°Ľìķĺ ê³ł
ĠìĿĺë¬´ ê°Ģ
ĠìĨĮíĶĦíĬ¸ìĽ¨ìĸ´ ë¥¼
ê²½ì°° ì²Ń
Ġê´Ģê°Ŀ ìĿĦ
ĠëĦĪíĿ¬ ìĿĺ
ĠíĥĦìĥĿ íķľ
Ġê¸°ìŀ¬ íķľ
ES S
ĠìķĦìī¬ ìĽĢìĿĦ
ĠëĤĺìĻĶ ìĬµëĭĪëĭ¤
Ġsh ow
Ġëĸłìĺ¬ ëŀĲëĭ¤
ĠëªħìĺĪ ë¥¼
Ġë§ĮëĤ¨ ìĿĦ
Ġì¶©ê²© ìłģìĿ¸
ĠëĤŃ ë§Į
ĠìĤ¬ìĹŃ ìĿĢ
å¤© åľ°
ĠìĿ¸íħĮ ë¦¬
Ġê³łìľĦ ê¸ī
ĠëĨĢëĿ¼ ê²Į
Ġìļ´ëªħ ìĿĦ
ìłķë³´íĨµìĭł ë§Ŀ
ĠëĤĺëī ĺ
Ġdev ice
Ġê¼¼ê¼¼ íŀĪ
Ġêµ¬ìĦĿ êµ¬
Ġ---------------- ----------
Ġìŀ¦ ìĿĢ
Ġë¹Ħì¦ĪëĭĪ ìĬ¤ë¥¼
ĠëĦ¤ìĿ¼ ì¼Ģìĸ´
ì¸Ħ ëŁ´
Ġë©´ìĦ¸ ìłĲ
Ġëľ¨ê²ģ ê²Į
Ġìĺ¤ìĬ¤íĬ¸ ë¦¬ìķĦ
Ġê°ľìĭł êµĲ
Ġíı¬ë¥´íĪ¬ ê°Ī
Ġwavegu ide
( '
2 10
A ëĬĶ
C J
h am
j e
m ìĿĺ
r ation
Ġ ãħİ
ľ ëĭ¤
Ġì ¯¤
ìĿ´ ëĵ¤
ìĿ´ ê²ĥìĿ´
ëĬĶ ëĭ¤ëĬĶ
íķĺ ë¦¬ëĿ¼
Ġìł ¤
ì§Ģ ë¦¬
ìĿ¸ íĬ¸ë¡ľ
ìľ¼ ëĭĪê¹ĮìļĶ
ĠìĿ´ ìģľ
ìŀĲ ëĵ¤ëıĦ
Ġëĭ ī
ĠìŀĪ ê¸´
ĠìŀĪ ìĬµëĭĪê¹Į
ĠìĪĺ ì²©
Ġë³ ´ëįĶ
Ġê·¸ ëĬĺ
Ġ1 11
ĠëĮĢ ìłĳ
ĠëĮĢ ëıĦìĭľ
ëĤĺ ê°Ī
Ġíķĺ ëŁ¬
Ġíķĺ ëĭĪê¹Į
Ġíķĺ ìĭľë©´
ë¶Ģ ì²ľ
Ġê°Ģ ê¸īìłģ
Ġê²ĥ ìĹĲìĦľ
Ġê²ĥ ë§Įìľ¼ë¡ľëıĦ
ìķĦ ìĿ´ê°Ģ
íĥ ł
ìĦ± ìĿ´ëĭ¤
ĠìłĦ íķľ
ĠìłĦ íķĺê³ł
ĠìķĦ íģ¬
Ġìĭľ ê¸°ê°Ģ
Ġìĭľ ëıĦë¥¼
êµŃ íļĮìĿĺ
Ġëĭ¤ ëĭĮ
íļĮ ìĽĲìĿĺ
ë³´ ëĭ¨
Ġìłķ ì¹ĺë¥¼
ëıĻ ê³¼
Ġë³´ ëĭµ
íĦ° ë¡ľ
ê°Ħ ìłĳ
ìļ° ëįĶ
ĠìľĦ íķ¨
ì¹ĺ ì¦Ī
ê³Ħ ë¡ľ
ê³Ħ ê³¡
ĠìĿ¼ ìĽĲ
Ġì¤ĳ íĺķ
Ġëª¨ íĺķ
Ġê³µ ë¡ł
íķĻ ìłĲ
Ġë² ¡
Ġë¶Ģ ìĨį
Ġëį ¥
ĠìķĬ ê²łëĭ¤
Ġìĺ¤ ê¸°
Ġê³ł ìķĪ
ĠìĨĮ ê¸Ī
Ġìľł ë¬¼
ê²½ ê³¼
êµĲ ìłķ
ĠìĹĨ ìĿ´ëĬĶ
ìĥĿ ë°©ìĨ¡
ĠìĥĿ ëŀµ
ĠìĥĿ ê¸°ê³ł
ĠëķĮ ë©´
Ġìļ° íĺ¸
ë¬´ ëĬ¬
Ġìĭł íĺ¼
Ġìĭł íĿ¥
ĠêµŃ ìłģìĿĦ
Ġë°© íĥĦìĨĮëħĦ
Ġìĺģ ìĦ¸
Ġìĺģ ìłģìĿ¸
Ġìĺģ ëĨį
Ġë¬¸ ìŀ¬
ê°ģ ìĿ´
Ġìĭ¤ ìłģìĿĦ
ì°¨ ê¸°
Ġë§İ ëĭ¤ê³ł
Ġìŀ¥ ëł¤
Ġìŀ¥ ìłĲìĿĢ
ĠíļĮ ìŀ¥ê³¼
íĸĪ ìľ¼ë©´
íı¬ ëĵľ
ìĸ´ë ¨¸ëĭĪ
Ġê²½ìļ° ìĿĺ
ĠìłĢ ìłĪë¡ľ
Ġë¶Ī ì¾Į
ê» į
ë¦° ëĭ¤ëĬĶ
Ġìłģ ìĭľ
ìĦ¤ ìĿĢ
íĺĦ ìĿĺ
ĠíĽĦ ìĨĲ
Ġìŀĳ ëħĦìĹĲ
ìłĢ ë¦¬
ê°ķ ìĽĲ
Ġìĸ´ ê¸ĭ
ĠíķĻ ëł¥
Ġíıī ìķĪ
ĠíķľêµŃ ìłĦìŁģ
ĠíķľêµŃ ëħ¸ì´Ŀ
Ġì¶ľ íĺĪ
Ġì» ·
ĠíĶ¼ ìĿĺ
ĠíĶ¼ ë¶Ģë¥¼
Ġë³Ģ íķ¨
ĠC F
ĠC GV
Ġëª» íķ´ìĦľ
ĠìĹ´ ëĵ±
Ġë¦¬ ìĽĮëĵľ
Ġì´Ī ìĹĲ
Ġì²ĺ íķľ
ìĿ´ëĤĺ ë§Ī
ëĦ¤ ë§Ī
Ġë§ŀ ëĭ¤
ĠM ac
Ġë§Įëĵ¤ ìĸ´ëĤ¸
Ġìĺ¨ ìłĦ
Ġëĵľ ë¦¼
ĠìĨĲ ìĭ¤ìĿĦ
Ġë²ķ ìĹĲ
it a
Ġíĳľ ëªħ
Ġë°Ŀ íŀĪëĬĶ
Ġì²´ ìĺ¨
Ġì±ħ ìĿ´ëĭ¤
ìĬ¤íĬ¸ ë¦¬íĬ¸
ìľ¨ ìĹĲ
ĠëıĮ ìŀĶì¹ĺ
le x
24 0
Ġp c
re d
ĠíĥĢ ìĿ¸ìĹĲê²Į
Ġì¶© ìĭ¤
íķĻêµĲ ìĹĲìĦľ
Ġê´ĳ ë³µ
ĠìĪľ ìĿ´ìĿµ
Ġë²Ħ ë¦¬ëĬĶ
ì°½ ìĿĺ
Ġìłĳ ëĬĶ
Ġê¶Į ìľł
ĠìĤ¬ìĭ¤ ìŀħëĭĪëĭ¤
ì£¼ìĿĺ ê°Ģ
ĠëłĪ ëª¬
Ġëĭ´ ìķĺëĭ¤
Ġ0 5
ĠD VD
Ġë¸Į ë£¨
Ġì»¤ ëĦ¥
ëĵ¤ê³¼ ëĬĶ
ĠíĻķìĿ¸ íķ´
ĠêµŃê°Ģ ë¥¼
ĠêµŃê°Ģ ê¸°ë¡Ŀ
ĠìĤ¬ìĿ´ ëĵľ
ĠF DA
ë²ł íģĲ
Ġm aterial
ou ld
ĠìĿĺë¯¸ ìĿĺ
Ġin vention
ĠãĢ Ī
Ġíķ´ëĭ¹ íķľëĭ¤
Ġê·Ģ ê°Ģ
ĠW atch
ĠìĤ°ìĹħ ìĿĦ
ĠO ECD
ìĤ´ ë¡ł
ĠíıŃ íı¬
ĠìĥĿìĤ° ìĦ±
ĠíĻĺê²½ ê³¼
ìĤ¬íļĮ ë¥¼
ì·¨ ëĵĿ
ì°¬ ìĿĦ
Ġê°ľìĿ¸ìłķë³´ ìĹĲ
ì§ĢìĹŃ ìľ¼ë¡ľ
Ġì£¼íĥĿ ìĿĦ
Ġê°Ģìŀħ ìĿĢ
ĠìĤ¬ê±´ ìľ¼ë¡ľ
ur al
ĠìĹŃíķł ê³¼
ìŀĲìĹĲê²Į ëĬĶ
ĠíĺĦëĮĢ ìłģìĿ¸
ìĸµìĽĲ ìĹĲ
ĠìŀĲì²´ ìĹĲ
ì¹Ń ì½Ķ
ĠìĿ´ëıĻ íķł
Ġíŀ Į
Ġíĺķíĥľ ê°Ģ
ìĦľë¹ĦìĬ¤ ìĿĺ
íĻį ì½©
Ġê²¬ ìłľ
ê±°ë¦¬ ìĹĲìĦľ
Ġì£¼ìĭĿ êµĲíĻĺ
ê·¸ëŁ¬ ë©´ìĦľ
Ġìļ°ìĦł ìłģìľ¼ë¡ľ
Ġë§Ŀ ìĽĲ
ĠëıĦìŀħ íķľ
ìŀĪëĭ¤ ê³ł
Ġë²ķë¥ł ìĿĺ
ĠìĪĺì§ĳ íķĺê³ł
Ġì§Ģì§Ģ íķĺëĬĶ
Ġì¡°ê±´ ìĹĲ
Ġìĭ¤ìłľë¡ľ ëĬĶ
Ġìŀ¬íĮĲ ìĿĦ
Ġë¡¤ ìĥģëĭ´
Ġìļ°ëł¤ ë¥¼
Ġíķ©ìĿĺ íĸĪëĭ¤
ang u
ìķ¤ ìł¤ëłĪìĬ¤
Ġë°ĺìĺģ íķľ
ĠëĿ¼ìĿ´ ìĦł
ìĤ¬ëŀĮ ìĿ´
ĠìĤ¬ëĿ¼ ì§Ģê³ł
ĠìłľìķĪ íĸĪëĭ¤
Ġë¬´ëĮĢ ìĹĲìĦľ
ĠâĹ Ĩ
ìħĢ íĶĦ
Ġìĭľë¦¬ì¦Ī ëĬĶ
Ġê·¼ë¡ľ ìŀĲìĿĺ
Ġê¼¬ ë§Ī
Ġì£¼ìĿĺ íķ´ìķ¼
Ġë°Ľìķĺ ëĭ¤ê³ł
Ġíĺ¼ìŀĲ ìĦľ
ëĮĢìĥģ ìŀĲ
Ġì¿łíĤ¤ ë¥¼
ĠíĢ ¸
Ġê±· ê³ł
íĶĦë¡ľê·¸ëŀ¨ ìĿĦ
ĠëĤ¨íİ¸ ìĿ´
ĠìĿ¸ê·¼ ìĹĲ
íĪ ´
ĠìŀĪê²ł ëĬĲëĥĲ
ìłľìŀĳ ìĤ¬
ĠPro ject
ëĭ¤ëĭĪ ëĬĶ
Ġìĭ¬ìĤ¬ ìľĦìĽĲ
ĠëĦĪë¬´ëĤĺ ëıĦ
ĠëĤĺìķĦ ê°Ī
ĠíĮĮìĿ´ íĶĦ
Ġë©¸ ì¢ħ
Ġë¹µ ìĿĦ
ëħ¹ ìĥī
Ġë°ĽìķĦëĵ¤ìĿ´ ê³ł
ĠCom m
Ġíķ´ë³Ģ ê°Ģ
âĻ ¥
Ġë§ĪìĿ´ íģ´
ë¯¹ ìĬ¤
Ġì¾Į ìłģíķľ
ĠUnivers ity
Ġê²ĮìĿ´ ë°į
âĦĥ ,
Ġìĸ´ëĶĶìĦľ ëĤĺ
Ġim port
ĠìĭľìĽĲ íķĺê²Į
Ġë¬´ìļ© ìĪĺ
Ġì±ĶíĶ¼ìĸ¸ ìĭŃ
Ġê³łìľł íķľ
Ġê°ľì²´ íĻĶ
ìı ĺ
Ġë§ĪëĿ¼ íĨ¤
ĠëıĻë¶ģ ìķĦ
Ġë°©ìĤ¬ ìĦł
Ġë¶Ģìŀĳìļ© ìĿ´
Ġíľ© ìĭ¸
ĠìŀĲë°ľ ìłģìľ¼ë¡ľ
ĠíĶĦëĿ¼ ìŀĦ
ï½ı ï½į
ĠëĽ°ìĸ´ëĦ ĺëĬĶ
Ġìĸ´ëł ¸ìĿĦ
æ± Ł
ĠAnd roid
ëĶ§ ë¶Ī
ë³¶ ìĿĮ
ĠìĦ±íıŃ íĸī
ĠìĦ¸ëĿ¼ ë¯¹
éŁ ĵ
ìĨĮìĭľ ìĹĦ
Ġëĭ¬ì½¤ íķľ
Ġë§ĲìĶĢíķĺìĭľ ê¸°ë¥¼
Ġê±°ëĴ Ģëĭ¤
Ġíıīìĸĳê³µëıĻ ìĦłìĸ¸
ĠëĤ¡ ìĿĢ
Ġê°Ģë§Į íŀĪ
Ġì§ĳíĸīìľł ìĺĪ
Ġíķĺë£» ë°¤
" ><
. âĢ»
3 50
M D
U n
W C
W elcome
d o
k o
r en
v e
æ ¯
é «
Ġ z
ħ ìĭľëĭ¤
ìĹĲ ëĭ¤
ìĿĦ ëķĮ
ê³ł ëł¹
ë¥ ´ë§Ī
´ë ¹Ħ
ìĿ¸ ìłķ
ìĿ¸ ì§ĢëĬĶ
ìĭľ ìŀĳ
ìŀĲ íĿĲ
ĠìŀĪ ìĿĢ
ĠìŀĪ ê¸°ëĬĶ
Ġê·¸ ë³´ëĭ¤
Ġê·¸ ì³¤ëĭ¤
ìŀ¥ êµ°
ìĽĲ ëĵ¤ìĿĺ
Ġíķĺ íĸ¥
Ġíķĺ ê²łëĭ¤ëĬĶ
ë¶Ģ ìĹ¬
Ġê¸° ìłģ
Ġê¸° íĥģ
ìķĦ íĶĦë¦¬ì¹´
ĠìłĦ ìĤ°
ì£¼ ìħĶìĦľ
êµ¬ ê°Ħ
ëıĻ ìĸĳ
Ġë³´ ìķĺ
ê°Ħ ëĭ¤ëĬĶ
ìĭł ëıĦ
ĠìĿ¸ íķ´ìĦľ
ĠìĿ¸ ë²ĦìĬ¤
ĠìĿ¸ ìĹ°ìĿĦ
Ġê²½ ë³µ
ĠìĿ¼ ê³¼
ĠìĿ¼ ìĿ´ìĹĪëĭ¤
ĠìĿ¼ ìĸ´ëĤ¬ëĭ¤
ìĨĮ ë§¤
ĠëĤĺ ê°Ķ
ì¡° ì¹ĺë¥¼
Ġìĥģ ìłĲ
Ġìĥģ íĸ¥
ĠìŀĪëĬĶ ìĬµê¸°ê°Ģ
Ġê°ľ ìŀ¥
Ġê°ľ ì¡°
Ġê´Ģ íĸī
Ġìĺ¤ ëĶĶ
Ġìĺ¤ ê°ĢëĬĶ
ìĦł ìłĦ
ìĦ¸ ë¯¸
ë¶Ħ ìĸĳ
ë¶Ħ ê¶Į
ìĺ¤ ê°Ģ
ìĺ¤ ê¸°
ìĺ¤ ëŀľ
Ġìľł ìĥģ
ĠìĹ¬ ê¶Į
ĠìĿĺ ë¬¸ìĿĦ
íģ ĺ
Ġë§Ī íĬ¸
ĠëķĮ ìĹĲëıĦ
Ġìļ° ìľł
ĠìĹ° ë£¨
Ġìĭł ëŀĳ
Ġíķ´ ì¤Ģ
Ġë¯¸ ëģĦ
ĠëıĻ ë¬¸
ĠìĦ¸ ìĬµ
ĠìĦ¸ ë°Ģ
ĠìĦ¸ ìĿ¸íĬ¸
ĠìķĪ ìĿĦ
ĠìķĪ ìłķìĿĦ
ĠìķĪ ìª½
íĨµ ìĿĢ
Ġìµľ ìĶ¨
ĠëıĦ ì²Ń
ë¡Ŀ ìĿĦ
ĠìĦ± ê²½ìĿĦ
ĠìĦ± íĿ¬ë¡±
ì¤ĳ ìĿĢ
ë¥´ ë¥´
Ġê±° ë¶ģ
Ġ4 000
ĠíĺĦ ìłĢ
ĠíĺĦ ëªħíķľ
ëłĪ ë¯¸ìķ¼
ëĤ´ ìĹŃ
ĠíļĮ íĶ¼
ë°ľ ìłĦìĿĦ
ìĸ´ë ĮĢ
ë°ĺ ìĿĺ
Ġë¬´ ìĿĺ
Ġë¬´ ëĬ¬
Ġë¬´ ìĿĺìĭĿ
ĠìķĮ ëľ°
Ġìŀ¬ íķĻìĥĿ
Ġë°Ľ ìĬµëĭĪëĭ¤
Ġë§¤ ë¦½
Ġíı¬ ì²ľ
Ġê³Ħ ìłķìĿĦ
ì¤Ģ ìĿ´
íĨł ìĿĺ
Ġìłģ ìĿĦ
íķĺê¸° ê¹Įì§Ģ
ĠíĽĦ ì¿ł
Ġê°Ĳ íŀĪ
Ġê°Ĳ ìłķìĿ´
Ġëĭ¨ êµ°
ë°Ķ ìľĦ
ĠëĤ¨ ìĽĲ
ĠëĤ¨ ì§ĵ
Ġìŀħ ìĨĮ
ë²Ħ ê±°
ĠíķĻ ìľĦë¥¼
ĠíķĺëĬĶ ê°Ģ
ĠíĮĮ íĤ¤ìĬ¤íĥĦ
ĠìķĦëĭĪ íķĺê³ł
ĠëĳĲ ê°Ģì§Ģ
ĠìĿ´ìļ© íķĺê±°ëĤĺ
Ġ8 7
Ġì¦Ŀ íıŃ
íĶ¼ ëĵľ
Ġëªħ ìĨĮ
Ġ9 00
Ġì´Ī ìĽĶ
ĠìĤ° ìĿĦ
Ġê°ģ êµŃìĿĺ
ĠìłĲ ì§Ħ
ĠìĻ¸ ë²½
Ġìĭ¬ ìĭ¬
ìĺĪ ìļ°
ĠìĹĲ ë°ĺ
ĠM O
ĠM odel
ĠìķĦìĿ´ ìĹĲê²Į
Ġìĺ¨ ìĭ¤
Ġìĺ¨ íĨµ
it er
it ies
Ġíĳľ ë³¸
Ġíİ¸ ì§Ģë¥¼
Ġìĭľê°Ħ ëıĦ
íħĮ ëĭĪ
ĠíĪ¬ ìĹ¬
íĶĮ ëŀľ
Ġì·¨ ìĹħìĿĦ
Ġíĺķ íİ¸
ĠìĦľìļ¸ ëĮĢíķĻêµĲ
íĺĳ ìĥģ
ing le
ĠìĤ¼ ê°ģ
ĠíĸĪ ìĹĪëĭ¤
ĠìĹ°êµ¬ íĮĢìĿĢ
ĠëĲł ì§Ģ
Ġíĺĳ ìĥģìĿ´
Ġìļ´ìĺģ ì²´
Ġì²ľ ìĿ¼ìĹ¼
Ġê¸¸ ëŁ¬
ìĤ¬ìĹħ ìĿĢ
Ġf act
ĠìĿ´ìķ¼ ê¸°ë¡ľ
ĠíĻķìĿ¸ ìĿ´
ë©Ķ ëī´
mm er
ĠìĿ´ë¯¸ ì§Ģê°Ģ
íĮ¨ ìĬ¤
ê³³ ìĹĲìĦľ
ĠëģĿ ëĤ¬
ë²ł íĬ¸
ou n
Ġë¶Ģë¶Ħ ëıĦ
Ġêµ¬ìĦ± íķ´
Ġêµ¬ìĦ± íķĺê³ł
200 2
Ġì°¾ìķĦ ìĺ¨
Ġë¶ĦìĦĿ íķ´
Ġê¸Ģ ê¼´
íķĦ ëĵľ
ĠìĤ¼ìĦ± íĻĶìŀ¬
Ġìŀł ìĿ´
ĠìºĲ ì£¼ìĸ¼
ìĿ¸ëį° ëıĦ
ĠìŀĲìĹ° ìĬ¤ëłĪ
ĠëĤĺìĺ¤ ê¸°
ĠìĿ½ ìĿĢ
ëĶ© ìĿĦ
íķ´ë ĳĲ
íķ´ë ´¤
ĠëıĦìĭľ ìĹĲìĦľ
Ġë¯¿ ëĬĶëĭ¤
ĠíĥĦ ìĦ±
Ġë°Ģ ì§ĳ
ĠìłĦêµŃ ìĹĲìĦľ
ad ing
Ġë°©ìĭĿ ìĿ´ëĭ¤
Ġê°Ĳëıħ ìĿĦ
Ġê°Ĳëıħ ê³¼
ĠíĮĲëĭ¨ ìĿ´
Ġëħ¸ëł¥ íķĺëĬĶ
Ġê³Ħìķ½ ìĿ´
Ġìĭľë¯¼ ëĵ¤ìĹĲê²Į
Ġê³łëł¤ ëĮĢ
ĠíĻķëĮĢ íķ´
ĠëĪĦêµ¬ ìĹĲê²Į
ĠìĻķ ë³µ
Ġë¶Ļ ìĿĢ
Ġíľ´ ìĸĳ
Ġêµ¬ì¶ķ íķĺê³ł
Ġìĸ´ëĶĶ ë¡ľ
Ġìĸ¸ë¡ł ìĿ´
ĠëĦĺìĸ´ ìĦł
ĠIn ternational
Ġë¯¼ì£¼ íĻĶ
íľ´ ê°Ģ
ĠíĻķë³´ íķĺê³ł
ers on
ìļ´ëıĻ ìĿĺ
ĠìĪĺì§ĳ íķĺëĬĶ
ìºĲ íĶ¼
Ġì´¬ìĺģ ìĿĦ
Ġìŀ¬íĮĲ ìĹĲ
Ġëª¨ìĸĳ ìĿ´ëĭ¤
ĠëĲĲ ëĭ¤ê³ł
ĠìĿ´íķĺ ë¡ľ
Ġì¸¡ë©´ ìĿ´
´ëł¤ ê³ł
ub l
Ġê³łê¸ī ìĬ¤ëŁ¬ìļ´
ì¢ĭ ìķĦ
ĠìĬ¤íĨł ë¦¬ì§Ģ
Ġë°ĶëĢĮ ìĹĪëĭ¤
çĶ °
ĠKT ëĬĶ
pr ess
ìĤ¬ìļ© ìŀĲ
ĠìĪĻë°ķ ê¶ĮìĿĦ
ond uctor
ĠìĤ´íİ´ë³ ¸
Ġì£¼ì°¨ ìŀ¥
Ġwh ere
ĠìŀĲê·¹ ìĿĦ
ĠíĬ¸ëłĪìĿ´ ëĭĿ
ĠìĿ´ë³ Ħ
ĠìĬ¤íħĮ ìĿ´íģ¬
Ġal so
ë§ĪìłĢ ëıĦ
ĠëĿ¼ìĿ¸ ìĹħ
ĠíĮĮíĬ¸ëĦĪ ìĭŃ
ĠTh is
ĠíĬ¸ëłĮ ëĵľ
Ġì£¼ê¸° ìłģìľ¼ë¡ľ
Ġì§Ģíĸ¥ íķĺëĬĶ
ĠìĺĪìĻ¸ ë¡ľ
Ġë§ĺ ìĹĲ
Ġíİ¸ìĿĺìĭľìĦ¤ ìĿĦ
ìĬ¤ë§ĪíĬ¸ íı°
ĠKB O
æŃ £
Ġê°¤ëŁŃìĭľ S
åĮ ĸ
ìµľê³ł ê¸ī
Ġìĸ´ìļ°ëŁ¬ ì§Ħ
Ġìĸ´ìļ°ëŁ¬ ìł¸
Ġê¸Īê°ķ ìĤ°
Ġê¼¼ê¼¼ íķĺê²Į
Ġë§¤íĬ¸ ë¦¬ìĬ¤
Ġë¨¸ìĭł ëŁ¬ëĭĿ
ìĻ¸êµŃ ìĿ¸
Ġë¶ĢëĵľëŁ½ ê²Į
ãĥ»ãĥ»ãĥ»ãĥ»ãĥ»ãĥ»ãĥ»ãĥ» ãĥ»ãĥ»ãĥ»ãĥ»ãĥ»ãĥ»ãĥ»ãĥ»
cre en
ĠëĤ´ëĭ¤ ë´¤ëĭ¤
ht ml
ĠìĤ¬ëĭ¤ë¦¬ íĥĢê¸°
Ġê°ľê°ľ ìĿ¸ìĿĺ
Ġë§Įë§Į ì¹ĺ
Ġlear ning
íĤµ ëĭĪëĭ¤
ìŀĲíĿĲ ìĬ¤íĥĦ
4 000
M ark
S an
b ook
c c
o ard
t y
u an
w e
æ º
è ĭ
ìĿ´ ìĭł
ìĿ´ ìĥģìĿĺ
ê° ĵ
ì§Ģ ëįĺ
ì§Ģ ìĨį
ë¦ ´ëĿ¼
ĠìĹ İ
ìĿ¸ ë¬¼
ìĭľ ìłģ
ìĭľ ê»ĺ
ĠìĿ´ ë¥´ê²Į
ĠìĿ´ ëĵ¬íķ´
ìĺ ´
ĠìĪĺ ì¡±
ĠìĤ¬ ìĺ¥
ìĽĲ ì£¼
ëĤĺ ê°ĢëĬĶ
Ġíķĺ ìĸ
Ġíķĺ ìĿ´ëĿ¼
Ġíķĺ ìĭŃìĭľìĺ¤
Ġê¸° ê¸°ìĿĺ
ë©´ ê³¼
ìķĦ ìĿ´ìĬ¤
Ġì§Ģ ë¶ĦìĿĦ
ë§Į íĻĶ
ë§Į ëĤ¨
Ġ2 40
ĠìłĦ ìŀĦ
Ġìĭľ ìĿ¼
Ġìĭľ ì§ĳ
ìļĶ êµ¬
íļĮ ìĤ¬ë¥¼
ë³´ ìĿĺ
Ġìłķ ì¤Ģ
ĠìŀĲ ëĿ¼ëĬĶ
Ġë³´ ìĬ¤
Ġë³´ ìĿ´ìĬ¤
Ġë³´ ìĤ´
Ġì£¼ ìĹ°
Ġì£¼ ë¨¸ëĭĪ
ì° ¡
ëĭĪ ìłĢ
ìĭł ìķĻ
Ġê± ´ëį°
ìĨĮ ìĭĿ
ê³µ ìĭľ
ê³µ ëŀµ
Ġìĥģ ìŀĲë¥¼
Ġ3 50
Ġê°ľ ê°Ģ
Ġê´Ģ ëħĲ
Ġê³ł ê³ł
Ġê³ł ìĤ¬
Ġê³ł ê¸°ë¥¼
ìĺ¤ ëĿ½
ĠíĮ į
Ġìľł ëĤľ
Ġë§Ī ì³¤
ëł¥ ëıĦ
Ġì¡° ìłķìĿĦ
íĥĢ ê°Ģ
ĠìĦľ ìļ°
ĠìĹ° ìĿ´ìĸ´
ìľł ë¦¬
Ġêµ¬ ìĦ±ìĿ´
Ġíķ´ ì²´
Ġë°ľ ê±¸
Ġë§Ĳ íķĺì§Ģ
Ġë¯¸ ë§ĮìĿĺ
ĠëıĻ êµ´
ĠìķĪ ëĤĺ
ĠìķĪ ëıĻ
ĠìķĪ ìĭĿ
ĠìķĪ íĭ°
ĠìĬ¤ íĭ°ë¸Į
ë¯¼ ëĵ¤ìĿĺ
ĠëĲĺ ìĥĪ
Ġìĭ¤ ëł¥ìĿ´
ìŀĳ ë¬¼
ëĬ¥ íķľ
ĠêµĲ ìĽĲ
ĠêµĲ ìĹŃ
ĠëįĶ íķľ
ĠëįĶ ìĿ´ìĥģ
Ġê±° ìĦ¸
Ġìŀ¥ ìĭľê°Ħ
Ġê°ķ íĺ¸
ëª¨ ëĵĪ
ĠìłĢ ëĦĲ
ĠìĽĲ ìĿ´
Ġë¶Ī ëłĢ
ĠíĬ¹ íĺľ
Ġìłģ ëĮĢ
Ġê¹Ģ ëªħ
Ġê¹Ģ ìĦĿ
Ġê¹Ģ ì°½
ìĦ¤ ë¦½
íĺĦ ìĥģ
ĠëĤ¨ íķ´
ĠìĤ¬ìļ© ëĲľ
ì§Ī ëŁ¬
ê°Ĳ ìĭľ
ê°Ĳ ìĹ¼
Ġë°° ì¶Ķ
Ġë°° íĮħ
Ġì°¨ ë¡Ģë¡ľ
Ġëĭ¹ ê¸°
ìłĢ ìĬ¤
íĭ° ì¼ĵ
Ġìĸ´ ì°¨íĶ¼
ì¢ħ ìĹĲ
íĮĮ ë¦¬
íĮĮ ìĤ°
ĠíķĻ ë¹Ħ
ĠìļĶ ìĿ¸ìľ¼ë¡ľ
ĠíĮĮ ìĿ¼ìĿĺ
íķŃ ìĿ´
Ġìĺ¬ íķ´ë¶ĢíĦ°
Ġì§ģ ë¬´ë¥¼
Ġê±´ ìłĦíķľ
Ġê²Į ìľ¼
Ġëĭ¬ ìĹĲ
Ġë³Ģ íķĺì§Ģ
ëħ¸ ëŀĺ
Ġìļ´ ìĿ´
ĠA ss
ĠíĻĶ ë¥¼
ëŀĢ íĬ¸
ĠëĨĴ ìĿĦ
ë°ķ ëŀĮíļĮ
Ġë°ķ ìĦ±
ìĺĪ ê³ł
ĠìĹĲ ëĶĶìħĺ
ĠíĮĲ ë¡Ģ
Ġìĭľìŀĳ ìĿĦ
Ġê·¸ëŁ¬ ëįĺ
ĠP h
ĠìĨĲ ìĪĺ
ĠìĨĲ íĨ±
ĠìĨĲ ìĺ¤ê³µ
íħĮ ìĿ´íĬ¸
ĠíĪ¬ ê¸°
ì¡Į ëĬĶëį°
ĠëĶĶ íħĮ
ì»¤ ë²Ħ
ëĨ Ģë¡ľ
Ġìĸ¸ ìĸ´ë¡ľ
ìµľ ê³łìĿĺ
ìĪľ ê°Ħ
ĠìĤ¼ ì²ľ
Ġì¹´ ìĿ´
Ġìĭ¶ ê³ł
Ġìĭ¶ ìĹĪëįĺ
ĠëĦĪ ë¨¸
ĠëĤ´ìļ© ëıĦ
ì¹¨ ëĮĢ
Ġê°ľë°ľ ìĿ´
ì²ł ìĿĦ
ĠëłĪ ìĭľíĶ¼
st yle
ê¹Ģ ëĤĻ
íį¼ ë¥¼
ĠêµŃê°Ģ ìĹĲìĦľ
Ġë°± ì¢ħ
ĠìĥģíĻ© ê³¼
ĠG U
ĠG DP
ĠF il
Ġë¹ł ì§Ī
ëķĮ ë§Īëĭ¤
ë²ł íĬ¸ëĤ¨
Ġw ill
Ġê²½ìłľ ìĿĺ
Ġê²½ìłľ ìłģìĿ¸
ĠìŀĪìĹĪ ìľ¼ëĤĺ
ëł¸ ëĬĶëį°
Ġë³ĳ ìĹŃ
Ġêµ¬ìĦ± ëĲľëĭ¤
Ġê¸°ëĬ¥ ìĹĲ
ëĿ¼ìĿ´ íģ¬
Ġìłģìļ© ìĿ¼ìŀĲ
ĠìĨ¡ ëıĦ
Ġë§Įëĵ¤ìĸ´ ìł¸
Ġìĥī ìĿĦ
Ġìĥī ì±Ħ
ĠìĤ°ìĹħ ìĿ´
ĠìĤ°ìĹħ íĨµìĥģìŀĲìĽĲ
ĠìĿ´ë¦Ħ ìĿĺ
Ġë²Į ìĿ¸
id ent
ĠìĿ´íķ´ ìĻĢ
ĠìĺĪìłķ ëĲľ
ĠìĨĮë¹Ħ ìŀĲëĵ¤ìĿ´
Ġëª° ëĳĲ
ê´Ģë¦¬ ë³¸ë¶Ģ
ĠìĭľìĬ¤íħľ ìľ¼ë¡ľ
Ġê°Ģì§Ģ ë¡ľ
ĠìĦ¤ì¹ĺ íķĺëĬĶ
Ġê°Ģì¡± ëĵ¤ìĿ´
ìħ¨ ëĤĺìļĶ
Ġíıīê°Ģ íķĺëĬĶ
Ġì§ĢìĨį ëĲĺëĬĶ
Ġê·ľìłķ íķ¨ìĿĦ
ĠìĶ Į
ĠìĤ¬ê±´ ê³¼
ĠìķĬìķĺ ëĬĶëį°
Ġì¶Ķì§Ħ íķľëĭ¤
íĹĪ ë¸Į
ĠëıĦìĭľ ë¥¼
Ġëĳĺ ìĿĢ
ĠìĤ´ìķĦ ê°Ī
Ġêµ¬ë§¤ ìĭłì²Ń
Ġë°Ģ ë¦¬
ĠìĿ´ê²ĥ ìłĢê²ĥ
ê·Ģ ë¥¼
ĠìķĮìķĦ ë³¼
ĠíĦ° ìł¸
Ġë³´íĺ¸ íķĺëĬĶ
ĠìķĦëŀĺ ìĹĲìĦľ
ĠìĿ¸ìłķ ë°Ľ
Ġëħ¸ëł¥ ìľ¼ë¡ľ
Ġëħ¸ëł¥ ê³¼
Ġë£ °
ìĻķ ìĿĺ
ìĻķ ìĿĢ
ĠëħĦ ìĿĺ
Ġì²ĺë¦¬ íķĺê³ł
Ġë¶ĢìĤ° ìĹĲìĦľ
ĠìŀĪìĸ´ìĦľ ëıĦ
ë°©ë²ķ ìĹĲ
ĠìĺĪìĥģ íĸĪëĭ¤
ä¸ ĸ
Ġì£¼ìŀ¥ íķľ
Ġíİ¼ ì¹ł
Ġê±´ì¶ķ ë¬¼
ĠìŀĲëıĻì°¨ ìĿĺ
ĠìĤ¬ìĿ´íĬ¸ ìĿĺ
Ġê³¼ê±° ìĹĲëĬĶ
Ġë¶Ģì¡± íķĺëĭ¤
Ġê³µê¸ī íķĺê³ł
Ġst ep
Ġì²´íĹĺ íķł
Ġê°Ģìł¸ ìĺ¨
pp ly
Ġìŀ¥ìķł ë¥¼
ĠíĶĦëŀĳ ìĬ¤ìĿĺ
Ġìĭłë¢° íķł
Ġì± Įë¦°
Ġë¶Ħëªħ íķĺê²Į
Ġê³µë¶Ģ íķĺê³ł
ĠTV ë¥¼
ì§Ģë°© ê²Ģì°°ì²Ń
Ġìŀĥ ì§Ģ
ĠìĺĪìĪł ìĿĺ
ĠìŀĲê²© ì¦ĿìĿĦ
ĠíķĺëĬĺ ìĿĺ
Ġëª¨ìĸĳ ìĿ´
ĠëĤ© ëĵĿ
ìĤ¬ëŀĮ ëĵ¤ìĿĢ
ĠìĽĲì¹Ļ ìľ¼ë¡ľ
ì¤ĳìķĻ íļĮ
Ġë©Ķìĭľ ì§Ģê°Ģ
ë°ĺëıĦ ì²´
Ġëĭ¤ëĭĪ ë©°
Ġê¸įìłķ ìłģìľ¼ë¡ľ
ĠìĿ¼ìľ¼ íĤ¨
ĠìĬ¤íĨł ë¦¬ë¥¼
ĠíĴĪì§Ī ìĿĺ
å® ¶
ĠìĭłìķĻ ìĿĺ
ìĦ¬ ìľł
Ġì°½ì¶ľ ìĿĦ
Ġë¸Ķë¡Ŀ ì²´
Ġæ Ĺ
Ġíı¬ê¸° íķĺê³ł
Ġì¼Ģ ìĸ´
ĠìĨĮìħľ ë¯¸ëĶĶìĸ´
Ġëª¨ì§ĳ íķľëĭ¤
Ġê´Ģê´ĳê°Ŀ ìĿ´
ê²½ë§Ī ìĺĪìĥģ
Ġíķ´ë³´ ê³ł
Ġì£¼ìµľ íķĺëĬĶ
ĠëģĬìŀĦ ìĹĨëĬĶ
ëłĺ ë°©
ĠëĮĢê¸° ìĺ¤ìĹ¼
ĠíĭĪ ìĥĪ
ìĸ´ëĨĵ ê³ł
Ġëĭ¤ë£ ¬ëĭ¤
ĠëıĻìķĦ ìĿ¼ë³´
Ġìŀī ê¸Ģëŀľëĵľ
Ġëĵľë¦¬ ê²łìĬµëĭĪëĭ¤
Ġì«ĵ ìķĦ
Ġê°Ģëł¤ ìĽĢ
ì§ģìĹħ ëĬ¥ëł¥ê°ľë°ľ
éĩ ĳ
Ġíľ© ìĵ¸
ìĤ¬ì±Ħ ìĿĺ
Ġë©Ķë¥´ ìĬ¤
æĢ §
Ġë¹Ħíıī ê³¼
Ġìļ°ì¦Ī ë²łíĤ¤ìĬ¤íĥĦ
ëįĶë¶Ī ìĸ´ë¯¼ì£¼ëĭ¹
Ġarr ay
ĠëģĶì°į íķľ
ìĬ¹ë¬´ íĮ¨
A r
B ëĬĶ
F I
G S
H ope
] ,
b i
e pp
i ìĹĲìĦľ
o ff
p y
w h
w p
å ³
ìĿ´ íķ´
ëĭ¤ ë¥¼
ìł ¯
íķĺ ëª¨
íķĺ ê³¤
ìĿĺ íķĻ
íķľ ìĿ´
ì§Ģ ìĦ±
ì§Ģ ë§Ī
ìĿ¼ ê¸°
ìĦľ ë¶Ģ
ëıĦ ì¿Ħ
ë¦¬ ëįĶ
ë¦¬ ê±°ëĤĺ
íķ´ ì§Ģë©´ìĦľ
ìĿ¸ ìŀ¬
ìľ¼ ë¡ł
ĠìĿ´ ê²½
ĠìĿ´ íķ´ëĲ
ë³ ´ëįĺ
ìĤ¬ ìłģ
ê³¼ ìłķìĿĺ
ĠìĪĺ ê°Ĳ
ĠìĤ¬ ëıĦ
ĠìĤ¬ ì°°
ĠìĤ¬ ìłķìĿĦ
Ġê·¸ ì¹ĺì§Ģ
ĠëĮĢ ëªħ
ìłģ ìĿ´ëĿ¼ê³ł
Ġê¸° ìłĲìľ¼ë¡ľ
Ġê°Ģ ëĤĺ
Ġê°Ģ ëĵł
ìķĦ ì¹¨
Ġì§Ģ ì¹Ń
ĠìłĦ ìĿ´
ĠìłĦ ê¸°ë¥¼
ĠìķĦ ëĵ¤ìĿĦ
íĬ¸ ëŁŃ
Ġìĭľ ëĦĪì§Ģ
Ġìĭľ íĢĢ
ìļĶ ìĨĮë¡ľ
Ġëĭ¤ ìļ
Ġëĭ¤ ë¦¬ê°Ģ
Ġìłķ ê´ĢìĹĲ
êµ¬ ì¶ķ
ëıĻ ë¶Ģ
Ġë³´ íĬ¸
ëħĦ ë§Į
Ġì£¼ ê°Ģê°Ģ
ĠìĿ¸ ë¬¸íķĻ
ê³Ħ ìłĪ
ìĨĮ íĻĶ
Ġëª¨ ê¸Ī
ìŀĦ ìĿĺ
íķĻ ìĤ¬
Ġë¶Ģ ìŀ¥
Ġìĺ¤ ëĶĶìħĺ
ìĦ¸ ìĬ¤
ìĦ¸ ë²ķ
Ġë¹Ħ ìĺģë¦¬
ìĭĿ ë³Ħ
Ġìľł ìĿ¼ìĿĺ
ê°ľ ëĬĶ
ê°ľ êµĲ
íĥĢ ìŀħ
Ġì¹ ´ëĿ¼
ĠìĦł íĴį
ìľł ëĬĶ
ë¯¸ ìķĪ
Ġêµ¬ ìĹŃ
Ġë¯¸ ìĤ¬
Ġë¯¸ ì¹ĺ
Ġë¯¸ ìĨĮë¥¼
ĠëıĻ íĺ¸
ë°© ìĿĢ
ë°© ìľ¼ë¡ľ
ĠëĤ´ ê±¸
ĠìĬ¤ ë©°
ĠìĬ¤ íı°
ĠìĬ¤ ëĥħ
Ġìµľ ê°ķ
Ġë¬¸ ë²ķ
ĠìĦ± ë§¤ë§¤
ì°¨ ìĿ´
ĠìĤ ´ë©´ìĦľ
Ġë¶Ħ íķ´
Ġë¶Ħ ëĭ¨
Ġë¶Ħ ëĵ¤ìĿĺ
ĠêµĲ íĻ©
ĠêµĲ ìĦŃ
Ġìŀ¥ ìĪĺ
ëłĪ ë°©
Ġê°ķ ìłľë¡ľ
Ġìĸ´ë §Ī
Ġë¬´ ìŀ¥
ĠìķĮ ì½Ķìĺ¬
Ġìŀ¬ íĻķìĿ¸
ĠíĬ¹ ìĿ´íķľ
íĨł ë¦¬ìķĦ
Ġìłģ íŀĮ
Ġê¹Ģ íĿ¬
íĺĦ ì¶©
ĠíĽĦ ìŀĦ
Ġê°Ĳ íĥĦ
ë°Ķ ë¥¸
ì§Ī ë³ĳ
ë§¤ ê°Ģ
ë§¤ ì¶ľ
an a
Ġëĭ¹ êµŃ
ìłĢ íĿ¬
íĭ° ìķĦ
ë²Ħ íĬ¼
íĥľ ìĽĲ
Ġíıī ìĿ¼
ĠíķĺëĤĺ ìŀħëĭĪëĭ¤
ĠíķľêµŃ ìĺģìĥģìŀĲë£Į
íķŃ ìĹĲìĦľ
Ġì¶ľ ì¡°
Ġíķ© ê³Ħ
Ġíķ© ìĤ°
ĠëĳĲ ìĸ´
ĠìĥĿê°ģ íķĺê¸°
ĠìĿ´ìļ© íķĺê²Į
ĠìĿ´ìļ© íĽĦê¸°
´ë³ ĳ
Ġëĭ¬ ëŀĺ
Ġì¦Ŀ ê°ķ
ĠíĻľ ìķ½ìĿĦ
ĠíĻĶ ìĥģ
Ġ9 6
ĠìłĲ ìŀħëĭĪëĭ¤
ë¦¼ ìĿĺ
ëĦ¤ ìŀĦ
ĠìĤ´ íķ´
ĠìĤ´ ìķĺëįĺ
ĠëĨĴ ëĭ¤ëĬĶ
Ġìĸĳ ìĿĦ
Ġê°ĢëĬ¥ íķĺëĭ¤ê³ł
ĠM icrosoft
Ġë§Įëĵ¤ ì§Ģ
Ġìĭľìŀĳ íĸĪê³ł
Ġs ur
Ġs emic
ìĬ¤íĥĢ íĬ¸
ìŀĪ ìľ¼ë©°
Ġë²ķ ì¡°
ĠT F
ĠíĪ¬ ìŀĲìĿĺ
ĠíĪ¬ ëªħíķľ
Ġì§ĢìĹŃ ê²½ìłľ
ĠìĤ¬íļĮ ìłģìľ¼ë¡ľ
ĠëıĮ ë´Ħ
25 8
Ġìłķë³´ ëĭ¨
Ġìĸ¸ ëįĶ
ê¸¸ ë¡ľ
is s
Ġì¶© ìĭ¤íŀĪ
Ġì§Ī ìĿ´
Ġëł ¥
ĠëĪĪ ê³¼
Ġíĥľ ëª¨
Ġì¹ľ íķľ
ĠëĦĪ ë¹ĦëĬĶ
ë¶Ī ëŁī
ĠíĨł ë¡ľ
ĠëĦĺ ìĿĦ
ĠëĦĺ ìĿĢ
ĠëĦĺ ê¸°
ï¼ ´
ĠìłĪ ë²½
Ġê¸¸ ê³ł
ĠìĿ¼ë³¸ ìĿ¸
Ġìķł ë§¤
Ġë¸Į ëŀľ
Ġìĸ¼ ìĿĮ
ĠêµŃê°Ģ ìĿ¸ê¶Į
ent ral
ĠìĬ¹ ëł¤
êµĲìľ¡ ìĹĲ
ĠíķĻìĥĿ ëĵ¤
Ġê¸°ë¡Ŀ íķĺëĬĶ
Ġê¸°ë¡Ŀ ë¬¼
Ġ15 00
ol o
Ġìĸ» ìľ¼ìĭ¤
ëł¸ ëĭ¤ëĬĶ
Ġê´Ģë¦¬ íķł
ĠìĹĨìĿ´ ëıĦ
ĠìĤ°ìĹħ ìĿĢ
ĠìłĦì²´ ìĹĲ
Ġê¸Ģ ë¦¬
Ġê¸ī ëĵ±
Ġê¸ī ë³Ģ
id d
ĠíĦ ´
ĠëıĮìķĦ ìĺ¤ëĬĶ
ë¬´ë ²ķ
Ġê·¹ íŀĪ
ĠìļĶêµ¬ íĸĪëĭ¤
Ġëª¸ ìľ¼ë¡ľ
Ġëª¸ ê³¼
ĠìĻĢ ìĿ¸ìĿĦ
ĠêµŃìłľ ìłģ
Ġì¡´ìŀ¬ íķĺê³ł
Ġê²°ìłķ ìĿ´
Ġê²°ìłķ íķľ
Ġíĺ¼ ìĿ¸
Ġì»¨ ìĦ¤íĦ´
ì¶© ëĤ¨
ĠëıĪ ìĿĢ
ĠìķĮìķĦ ìĦľ
ĠíĦ° ë¯¸ëĦĲ
ĠíĥĪ ë¶ģ
ĠìŀĲê¸° ê³Ħ
Ġì¶Ķì²ľ íķľëĭ¤
ĠëĬ¥ ëıĻ
ĠíĮĲëĭ¨ íķł
íķĺëĬĶëį° ìļĶ
Ġëħ¹ ìķĦ
Ġê¸Īìľµ ê¸°ê´Ģ
íģ´ ë¦Ń
Ġìĺ¬ëĿ¼ ê°ĢëĬĶ
íķ´ë³´ ìŀĲ
ëĮĢíĳľ ìĿ´ìĤ¬
ĠìĬ¤ìĬ¤ë¡ľ ìĿĺ
ĠíĨµìĭł ìĽĲ
ĠìĹ¬ëŁ¬ë¶Ħ ëĵ¤ìĿ´
ìĹĪëĬĶëį° ìļĶ
ĠëĦĺìĸ´ ê°ĢëĬĶ
Ġê³łë¯¼ íķĺëĬĶ
ì¿ ±
Ġìī¬ ìĽĮ
ĠëıĦìŀħ ëĲľ
ĠíĻĪíİĺìĿ´ì§Ģ ìĹĲìĦľ
Ġë§ĪìĿĦ ìĿĦ
Ġëĭ¨ê³Ħ ìĹĲ
ìºĲ ìĬ¤íĬ¸
ĠíĮ¬ ëĵ¤ìĹĲê²Į
Ġìĭ¶ìĿĢ ëį°
ĠìĽĥ ëĬĶ
ĠìĽĥ ê³ł
ĠìĻ¸ë¶Ģ ìĿĺ
Ġìļķ ë§Ŀ
Ġì·¨ìĹħ ìŀĲ
Ġê·¼ê±° íķľ
ĠíıīíĻĶ ìĿĺ
ĠëĤ¨ìŀĲ ìĬ¤ì¹´íĶĦ
ĠëŁ¬ìĭľìķĦ ìĿĺ
ĠìĿ´ìĿµ ìĹĲ
ĠëĲĲ ê³ł
Ġë°ĶëĢ Ķ
ĠíĥĲ íĹĺ
ĠíĭĢ ë¦°
ê²½ê¸° ìĹĲìĦľ
ãģ ®
ĠìĺĨ ìĹĲìĦľ
ê¸°ì¤Ģ ìĹĲ
Ġë´Ħ ìĿ´
ĠëĮĢì²´ íķł
Ġê·ł ìĿ¼
Ġìĭľê°ģ ìĿĦ
Ġë¹Ħë°Ģ ìĿĦ
Ġì¤ĳê°Ħ ìĦłê±°
Ġë°Ķê¾¸ ìĸ´
ĠìĿ¸ì¦Ŀ ìĦľ
ĠìĿ¸ìĥģ ìłģìĿ¸
íĹ¤ ëĵľ
ĠíĢ ĺ
ĠëĦĪíĿ¬ ëĬĶ
Ġì£¼ë§Ĳ ìĹĲ
íĨłíĨł ìĤ¬ìĿ´íĬ¸
ĠíıīìĨĮ ìĹĲ
ĠìķĦëĤ´ ê°Ģ
ĠìĿĺíĺ¹ ìĿ´
http s
Ġê¶Įíķľ ìĿ´
Ġì´Īì²Ń íķ´
ĠìĬ¤íĥ ¬
ĠëĤĺë¦Ħ ìĿĺ
Ġìĥģì²ĺ ê°Ģ
ĠëıħìŀĲ ìłģìĿ¸
ë¶ģíķľ ìĿ´
Ġë¬¶ ìĸ´
Ġë¶Ħíķł íķ©ë³ĳ
ĠíĬĢ ìĸ´ëĤĺ
Ġëĭ¤ë£ °
ĠìĥģëĮĢë°© ìĿĺ
Ġë¡ľëĵľ ë§µ
íģ´ëĿ¼ ìĿ´ìĸ¸
Ġê²½ê³¼ íķľ
ìĸ´ë¦¬ ë·°
Ġìĺ¤íĶ¼ìĬ¤ íħĶ
ĠíķłìķĦë²Ħ ì§Ģ
ìłľìĿ¼ ìłľ
ë¹Ħì¦Ī ëĭĪìĬ¤
Ġê°Ħëĭ´ íļĮë¥¼
ĠGlobal Hope
Ġëĥīìŀ¥ ê³ł
Ġì¢ħë¡ľ êµ¬
ĠëĮ Ĳ
ĠìĽĲìŀĲ ëł¥
ĠìķĦìĿ´íĮ¨ ëĵľ
ìħĢë¡ľ ëĤĺ
Ġìĳ ¥
Ġìĺ¤ë¦¬ì§Ģ ëĦĲ
ĠìĪĻë°ķìĭľìĦ¤ ë¶ĢíĦ°
Ġì¦Ĳê²¨ì°¾ ê¸°ë¡ľ
Ġrele ased
Ġsemic onductor
! )
. âĸ¶
B L
P L
R S
b d
b le
f ield
~ !!
² ł
Ġ \
Ġë Ĺ
íķ Į
ìĹ ´ëĲľ
ìĿ´ ëĵ¤ìĿĢ
íķĺ ëĭĪê¹Į
íķĺ ê²łì§Ģë§Į
íķľ ëĮĢ
ê³ł ë£¨
´ë ¹
ë¦¬ ìŀĲ
ìĭľ íĶ½
Ġì§ Ļ
ĠìĿ´ ì¤Ģ
ĠìĿ´ íĺľ
ìŀĲ ëĵ¤ìĹĲ
ìĤ¬ ëĤĺ
ìĤ¬ ìĹĲê²Į
ëĿ¼ ê²ĮìŀĦ
ĠìŀĪ ê¸°ëıĦ
ĠìŀĪ ì§ĢìļĶ
ê³¼ ìłķìĹĲ
ĠëĮĢ ìĹŃ
ĠëĮĢ ìķĪìĿĦ
ìĽĲ ìĪľ
Ġíķĺ ëıĦ
Ġíķĺ ê¸°ë¡ľ
Ġê¸° ë²ķ
Ġê¸° ìłĢ
Ġê¸° ëıĦë¥¼
Ġê¸° ë²ķìĿĦ
Ġê¸° êº¼
Ġê¸° ëĳ¥
Ġì§Ģ ìĬ¤íĥĢ
Ġì§Ģ íĤ¬
ĠìłĦ íķŃìĿĺ
ĠìķĦ ëĭĺ
ĠìķĦ ëŀį
ì£¼ ìĸ´
ì£¼ ìĭĿìĿĺ
íĻĶ íķĺìĹ¬
ìłĦ ëĭ¬
ìĻĢ ëıĦ
ë³´ ì¡´
Ġìłľ íĬ¸
ìĬµ ëĭĪ
ìĽĶ ë°¤ë°¤ëĤ®ëĤ®
Ġë³´ ìĭľ
Ġë³´ ê¸°ìĹĲ
ëħĦ ëıĦìĹĲ
Ġì£¼ ë¥¼
íķł ë§Įíķľ
ĠìĿ¸ ëį±
Ġê²½ ìłķ
ĠìľĦ ìĦ±
ĠìĿ¼ ë¦¬
Ġì¤ĳ ìŀ¥ê¸°
ê³µ ìĤ¬ë¥¼
Ġê³µ ì§ľ
Ġíı ´ëŀĢ
ĠìķĬ ìĿĮ
ìĦł ë°ķ
Ġë¹Ħ íķ´ìĦľ
ê±° ê°Ļ
ĠìĨĮ ë§Ŀ
ë¶Ħ ë§Įíģ¼
ë§Ī ìĦ±ì§Ģ
ĠìĹ¬ íķĻìĥĿ
ĠìĿĺ ìĿĺ
ĠìĿĺ ìŀ¥ìĿĢ
ê°ľ ìĨĮ
Ġë§Ī ìĤ¬
Ġë§Ī ìĦ¸ìļĶ
ìĪ «
íķ© ì°½
Ġìļ° ëļĿ
Ġë§Į ëĭ¤
Ġì¡° ìŀ¥
Ġì¡° ê²½
ĠìĦľ ìłķ
ìĺģ ìĽħ
ĠìĦł ìłķíķľ
Ġë°Ķ ë¦¬
Ġë°ľ ìĤ°
Ġë°© íķĻ
ĠìĦ¸ ëł¥ìĿ´
ĠìĦ¸ ìĽłëĭ¤
ë°© ì¹¨ìĿĦ
ĠëĤ´ ë¦¬ê³ł
Ġìĺģ ìľłìķĦ
ĠëıĦ ëŀĺ
ĠëıĦ ë¡ľë¥¼
Ġìĭ¤ ë¡ľ
ĠìĤ ¿
ĠìĤ ´ëįĺ
Ġì§Ħ ìłķìľ¼ë¡ľ
íģ¬ ë¡ľìĬ¤
ĠëįĶ ëįĶìļ±
Ġê±° ëĿ¼ëĬĶ
ĠíĺĦ ë¯¸
Ġìŀ¥ ìĿĺ
Ġê°ķ ìĦľ
Ġê°ķ ëł¬
ĠëĶ° ë¦ħëĭĪëĭ¤
ìĺĢ ê¸°
ì²ľ ëħĦ
ì²Ń ìĹĲìĦľ
ê¶Į ìĹĲìĦľ
Ġìŀ¬ ìĤ¬ìļ©
Ġìŀ¬ êµ¬ìĦ±
ĠíĬ¹ ìĿ´
ĠíĬ¹ ìķ½
ëĭĺ ëĵ¤ìĿĺ
ì¤Ģ ìĿĢ
Ġëħ¸ ë¥´
Ġëħ¸ ìĺĪ
Ġê°Ĳ ë©´
ê²© ìĿĺ
ĠíĶĦ ëłĪìĬ¤
Ġìŀħ ëĬĶ
Ġìŀħ ì§Ģ
Ġìŀħ ìŀ¥ìĹĲ
Ġì°¨ ë¶Ħ
Ġê³¼ ìĭ¤
íĭ° ì½ĺ
ĠíĻķ ê³ł
ì²ĺ ìŀ¥
ĠíķĻ ìĤ¬
íĥľ íıīìĸĳ
ĠìĹŃ íķĻ
Ġíıī ìĺ¨
ê²° ìĹĲ
ĠíķĺëĤĺ ìĹĲ
ĠíķĺëĤĺ ìĿ´ëĭ¤
ĠS SD
Ġì¶ľ ìĽĲ
ëįĶ ëĿ¼ë©´
Ġíĸī ëł¬
ĠëĳĲ ìĤ°
ë¥ĺ ëĬĶ
Ġê±´ ì¡°íķľ
ìĻ¸ ìĹĲëıĦ
Ġíĺ¸ ìłĦ
ĠìĹ´ ìĩł
Ġì´Ī ìĹĲìĦľ
ĠìĤ° ìŀ¬
Ġ19 20
Ġìłľê³µ íķĺë©°
Ġë°ķ ëŀĮíļĮ
ìĺ¨ ëıĦ
ìĺĪ ë°°
ĠM e
ĠM y
Ġê°ľìĿ¸ ìłķ
Ġì¹ĺ ìĨŁ
Ġëĵľ ëłĪ
Ġíİ¸ ìŀħëĭĪëĭ¤
ĠI B
Ġë¬´ë °
ĠëĿ¼ ëıĪ
Ġë¯¸êµŃ ìľ¼ë¡ľ
íķ´ìķ¼ íķł
ĠìĤ¬íļĮ ë¡ľ
ëĲĺìĸ´ ìĦľ
ĠëĤł ë¡ľ
ĠíĥĢ ê²©ìĿĦ
ĠìĦľìļ¸ ê³¼
Ġë²Ħ íį¼
ĠíķŃ íķ´
ĠB TX
Ġì¤Ħ ê³§
Ġíĺĳ ìĿĺë¥¼
Ġíĺĳ ìķ½ìĿĦ
ĠìĿ´ë²Ī ìĹĲëıĦ
Ġìº ĺ
ĠëĴ¤ ìĹĲëĬĶ
Ġë¨¹ ìĸ´ìķ¼
Ġìłķë¶Ģ ë¥¼
ĠD J
ĠD el
Ġë§ĪìĿĮ ê³¼
ĠR ew
ĠR ev
ĠìĤ¬ìĿ´ ë¥¼
ì¸µ ìľ¼ë¡ľ
ĠìĦ¤ëªħ íķľ
ìĦ¼íĦ° ìĿĺ
íĮ¨ íĤ¤ì§Ģ
ĠëģĿ ìĿĦ
ĠíķĻìĥĿ ìĿĦ
Ġê¸°ë¡Ŀ ê´Ģë¦¬
ìĭŃ ìŀĲ
ĠìķĬìĿĢ ê°Ģ
ì´Ŀ ìŀ¥
Ġìłģìļ© íķĺìĹ¬
ig ital
Ġíĺ¸íħĶ ë¡ľ
Ġíĺ¸íħĶ ëĵ¤ìĿĦ
Ġì°¾ìķĦ ë³´
Ġì°¾ìķĦ ìķ¼
Ġë¶ģíķľ ê³¼
Ġì¤Ģë¹Ħ íķ´
Ġê¸ī íķľ
ìľĦìĽĲíļĮ ìĹĲ
ĠìĹ¬íĸī ìĿĺ
Ġìĸ´ëĬĲ ëį§
Ġëª° ëŀĲëĭ¤
ĠíĮĲë§¤ íķĺê³ł
ĠíĴį ìĦ±
ĠíĴį ìĦ±íķľ
ĠìļĶêµ¬ ëĲľëĭ¤
ĠìĤ¼ìĦ± ìĿĢ
ĠU N
Ġì¡´ìŀ¬ ë¡ľ
ĠìĿ¼ë¶Ģ ëĬĶ
Ġíķĺë£¨ íķĺë£¨
Ġl ayer
ĠìĦ±ê³µ íķł
ĠìĦ±ìŀ¥ íķĺê³ł
ê¸°ìĪł ìĿĺ
ĠìŀĲìľł íķľêµŃ
Ġì»¨ ìĨĮìĭľìĹĦ
Ġê¿ °
Ġìłķìĥģ íĻĶ
Ġë§ĲìĶĢ ìľ¼ë¡ľ
ĠëĶĶìŀĲìĿ¸ ìĿĢ
ĠíĳľíĺĦ íķĺê³ł
ĠìłĦêµŃ ìłģìľ¼ë¡ľ
ĠíĦ° ëľ¨
ad e
Ġêµ¬ì¡° ë¡ľ
Ġêµ¬ì¡° ìłģ
Ġêµ¬ì¡° ì¡°ìłķ
ĠìĪĻ ì§Ģ
ìľ¤ ë¦¬
ĠìĿĮìķħ ìĿĺ
ĠìĿ´ë£¨ìĸ´ ì§Ģê³ł
ĠìĽĮ íĤ¹
ĠìĽĮ ëĦĪìĽĲ
ĠíĴĢ ëł¤
ĠíĸīìĤ¬ íķł
Ġë°ľê²¬ íĸĪëĭ¤
ver y
Ġì¡°ìĦł ìĿ¼ë³´
Ġë§¡ ê²¨
Ġëĵ±ë¡Ŀ íķľ
Ġë¶Ģì¡± ìľ¼ë¡ľ
ëł´ íķľ
íĤ¹ ìĿĦ
Ġìĸ¸ìłľ ëĵł
ĠìłĦëĭ¬ íķł
ĠìĬ¤ìĬ¤ë¡ľ ê°Ģ
ĠìłĦë¬¸ê°Ģ ìĿĺ
ĠíĨµìĭł ìĦľë¹ĦìĬ¤
ë§Įíģ¼ ìĿ´ëĤĺ
ĠìĦ¬ ìĦ¸íķľ
ĠìłĦíĻĶ ë¡ľ
Ġíķľë²Ī ìĹĲ
ĠìľłëŁ½ ê³¼
Ġê¸°ê´Ģ ìĿ´
ĠìĦłê±° ë¥¼
ĠìĺĪìķ½ íĮĲë§¤
ĠìĬµ ê´ĢìĿĦ
Ġê³µê³µ ìĿĺ
ĠíĮ¬ ëĵ¤ìĿĢ
ëĲĺìĹĪ ì§Ģë§Į
ĠìĻĶ ëĬĶëį°
ĠíķĺëĬĺ ìĹĲ
Ġíķ©ìĿĺ ê°Ģ
Ġìłķë¦¬ íķ´
äº Ĩ
ĠëŃĲ ëĿ¼ê³ł
Ġê²°íĺ¼ ìĿĦ
ĠìķłíĶĮ ë¦¬ì¼ĢìĿ´ìħĺìĿĦ
ĠìĨĮìľł íķĺê³ł
ë²Īì§¸ ë¡ľ
Ġë²½ ìĹĲ
íķ´ë³ ¸ëĭ¤
Ġê°Ģìłķ ìļ©
ĠëĲĺìĹĪ ìľ¼ë©´
ĠìĨĮíĨµ íķĺëĬĶ
Ġë¯¸ëĶĶìĸ´ ë¥¼
Ġë¹ĦëĶĶìĺ¤ ë¥¼
ĠëĿ¼ìĿ´ë¸Į ìĬ¤ì½Ķìĸ´
éģ ĭ
Ġê±°ë¶Ģ íķĺëĬĶ
Ġêµ¬ê¸Ģ ìĿĺ
ì³¤ ëįĺ
RA NG
íĺ¸íħĶ ìĬ¤ëĭ·ì»´
Ġíı¬ê¸° íķĺì§Ģ
íĻĪ ìĩ¼íķĳ
ĠìĻĦë£Į íķĺìĭ¤
ĠìĤ´íİ´ë³ ¸ëĭ¤
ĠìĹ°ìĬµ ìĿĦ
Ġê·¹ë³µ íķĺê¸°
ĠìĿ´ìĽĥ ìĿĦ
Ġì¶Ķìłķ ëĲĺëĬĶ
Ġì¶Ķìłķ ëĲľëĭ¤
Ġëŀľ ëį¤
Ġê·¼ë³¸ ìłģìľ¼ë¡ľ
ä» ĸ
Ġë¬´ìĭľ íķł
ĠìĦŀ ìĸ´
ĠìĦŀ ìĹ¬
æ° ´
Ġë©¸ ë§Ŀ
Ġì¡°ìĸ¸ ìĿĦ
Ġê°ķìĪĺ ëŁīìĿ´
Ġíİ¸ìĿĺìĭľìĦ¤ ê¹Įì§Ģ
Ġâħ ł
Ġë°ĺëł¤ ëıĻë¬¼
ëİ Į
Ġëĭ® ìĿĢ
ĠAir port
Ġë©ĶëĶĶ ì¼Ģìĸ´
ĠíĴĢìĿ´ ëĲľëĭ¤
ìľłì¹ĺ ìĽĲ
Ġíĺ¸íħĶìĬ¤ëĭ·ì»´ ìĿĢ
Ġê°ĢëĿ¼ ìķī
Ġìĺģì£¼ ê¶Į
ĠíĨ¡ íĨ¡
ĠOff ice
Ġacc ording
Ġì£¼ì£¼ì´Ŀ íļĮìĿĺ
Ġìļ°ìķĦ íķľ
Ġëŀľëĵľë§Īíģ¬ ëĤĺ
ĠíķŃìĥĿ ìłľ
ë²ķë¬´ë¶Ģ ê³łìĭľìłľ
ĠìĹĩ ê°Ī
Ġë¶Ģìŀ¥íĮĲ ìĤ¬
ê¹ĢëĤĻ ìĪĺ
ĠëĤ¨ìŀĲìĬ¤ì¹´íĶĦ ìĤ¬ì§Ħ
ĠRew ards
íĺ¸íħĶìĬ¤ëĭ·ì»´ ìĿĦ
) )
1 10
1 30
B I
L L
L ist
b ps
f ashion
h an
n ews
t a
u ro
¨ ¼
ª °
æ ł
ç Ľ¸
è ¶
è ¥¿
é ł
Ġ ar
Ġ if
ķ ëĭĪëĭ¤
Ĺ ëĤł
Ġì Į
ëĬĶ ë²ķ
ìĹĲ ìħĭ
ìĿ¼ ì§¸
ê¸° ë¦Ħ
ëıĦ ëıĦ
ìĿ¸ ê³µ
ë© ¤ë²Ħ
ìŀĲ ëĿ½
ĠìŀĪ ëĦ¤ìļĶ
ĠìĪĺ ëħĦê°Ħ
ĠìĪĺ ëĭ¨ìĿĦ
ĠìĤ¬ ì£¼
ìĸ´ ìĹĲìĦľ
íĻ Ģë¡ľ
ĠëĮĢ íķĺëĬĶ
ĠëĮĢ íĶ¼
ĠëĮĢ ë°ķ
ĠëĮĢ ê°Ģë¡ľ
ëĤĺ ëĤĺ
Ġíķĺ ìħ¨ìĬµëĭĪëĭ¤
ë¶Ģ ë¥´íģ¬
Ġê°Ģ ìłķìĹĲ
ìĥģ ë¬´
Ġì§Ģ ìŀ¥ìĿ´
ìĦ± ëıĻ
ĠìķĦ ëĤłë¡ľê·¸
íĬ¸ ëŁ¼
ì£¼ ìĭľëĬĶ
Ġìĭľ ìĦ¸
Ġìĭľ ì¤ĳ
Ġëĭ¤ ê°ģ
Ġëĭ¤ ëĵ¬
Ġëĭ¤ ë¤Ħ
Ġìłľ ëıĦê°Ģ
Ġìłķ íķł
Ġìłķ ë¥ĺ
íĦ° ëĦĲ
Ġì£¼ ìŀ¥ìĿĢ
Ġì£¼ ìĭľê³ł
ë¹Ħ ìĦľ
ìĭł ë¶Ģ
ĠëĤĺ ì¤ĳ
Ġì¤ĳ ìĤ°
ê³µ ìĤ¬ìĿĺ
Ġë¶Ģ íķĺ
Ġë¶Ģ ìŀĲ
Ġë¶Ģ ìĸĳ
Ġ3 60
ìŀħ ê¸Ī
Ġê´Ģ ìŀ¥
Ġê³ł ì¶©
Ġë¹Ħ ì£¼ìĸ¼
ê±° ìķ¼
ìĺ¤ ë©´ìĦľ
ë§Ī ìĹĲ
ë§Ī ë£¨
ĠìĹĨ ìľ¼ë¯Ģë¡ľ
ĠìĿĺ ìļķ
ê°ľ ìĻĢ
Ġë§Ī ë¬´
ìĹ° ì¶ľ
ìľł ëıĦ
Ġìĭł ê³¡
Ġìĭł íĺ¸ë¥¼
Ġë°Ķ ëĶĶ
Ġë°Ķ ëĬĺ
Ġë°Ķ ë¥´ê²Į
ĠíĨµ ì°°
Ġêµ¬ ìĦ±ìĿĦ
Ġêµ¬ ìĽĲìĿĺ
ëĦ ¨
Ġë°© ìĪĺ
ĠìķĪ ì¢ħ
ĠëĤ´ ê¸°
ĠìĬ¤ ì¹´
Ġë¬¸ ìŀ¥ìĿĦ
ëįĺ ëį°
Ġì§Ħ íķľ
ĠêµĲ íļĮìĹĲ
ĠìĺĪ ë¯¼
Ġë§İ ê¸°
íĶĦ ìĻĢ
Ġê±° ì§Ģ
ëĤľ ì¹ĺ
ĠíĺĦ ìĥģìĿĢ
ëłĪ ë²¨
... "
ìłĲ ìĪĺ
ì²ľ ìĸµìĽĲ
ë°ĺ ëĮĢ
íĤ ¥
ëª¨ íĨł
on y
Ġíı¬ ìļ©
Ġíı¬ ë§·
Ġìłģ ìŀ¬
Ġê¹Ģ íķľ
ì§ģ ìĹĲ
ĠíĽĦ íĩ´
Ġëĭ¨ ìłĲìĿ´
Ġê³¼ ìĭľ
íĭ° ìĺ¤
Ġìĸ´ ê¹ĢìĹĨìĿ´
ĠìļĶ ê±´
ëĳĲ ë©´
ì¦Ŀ ìĥģ
ì¦Ŀ ìĤ°
ĠS ervice
ìĶ ½
Ġíķ¨ ìĪĺ
ĠìĥĿê°ģ íĸĪëįĺ
en se
ĠìĿ´ìļ© íķĺê³ł
ì¡± ìĿĺ
Ġëĭ¬ ê³ł
Ġì» ´ë°±
ĠíĶ¼ íķĺê³ł
Ġëª» ì§ĢìķĬ
Ġëªħ ìľ¼ë¡ľ
ìĻ¸ ìĹĲ
ĠìĹ´ ìĿĦ
Ġì´Ī ê³łìĨį
ĠíķĦìļĶ ìĦ±ìĿ´
Ġì²ĺ ë¶ĦìĿĦ
ĠëĨĴ ìĬµëĭĪëĭ¤
ë§Ĳ ëĿ¼
Ġë°ķ ì°¨ë¥¼
Ġë°ķ ìĦ±íĺĦ
ĠM M
Ġë§Įëĵ¤ ìĹĪê³ł
ĠìĨį ìĿ´
Ġì¹ĺ ë¥¸
ĠP R
ì´Ī ìŀħëĭĪëĭ¤
ì´Ī ìĿ´ë©°
Ġë²ķ ìĿ´
ĠìĿĮ ìĽĲ
ic an
ë³ĳ ìĿĢ
Ġë¡ľ ëłĮ
ĠíĥĢ ê²Ł
ĠìĦľìļ¸ ìĿĦ
ĠëĮĢíĳľ ë¡ľ
ĠëĮĢíĳľ ìŀĲ
ing d
Ġ20 30
Ġì¹´ ë¦¬ìĬ¤
ĠíĸĪ ëĬĶì§Ģ
ĠìĪľ ìľĦë¥¼
ìķł íĭĢ
Ġì¹ľ íŀĪ
ì°½ ê³ł
ì°½ ìŀĳ
Ġì¤ĳêµŃ ìĸ´
ê²¨ ìļ´
ĠìĿ´ë²Ī ìĹĶ
Ġìļ© ìĸ´ë¥¼
Ġë°ľìĥĿ íķ´
ĠìłĦë¬¸ ê°Ģë¥¼
ì²ł ìĿ´
Ġì¤ĳìļĶ íķĺì§Ģ
ĠëłĪ ìłĢ
ĠE SS
Ġì§Ģê¸Ī ë¶ĢíĦ°
Ġë§ĪìĿĮ ëĮĢë¡ľ
ê¹Ģ ìŀ¬
ĠëĤĺíĥĢ ëĤ´ê³ł
ĠêµŃê°Ģ ìĹĲ
Ġê·¸ëłĩ ìĬµëĭĪëĭ¤
ĠF R
Ġê³łê°Ŀ ìĿĢ
ĠíĻľëıĻ ìľ¼ë¡ľ
Ġê¸°ë¡Ŀ íķ´
Ġê³¨ ê³łë£¨
Ġê±´ê°ķ íķĺê³ł
Ġë¬¸íĻĶ ìľł
ìĿ´ìĹĪëĭ¤ ê³ł
ĠíĻį ì¤Ģíĳľ
il y
Ġê´Ģë¦¬ íķĺê³ł
Ġìłģìļ© íķĺê³ł
Ġì¦Ŀê°Ģ ë¡ľ
ĠO K
ìĤ´ ìĿĺ
ĠíĻĺê²½ ìĿĺ
Ġë²Į ìĺĢëĭ¤
ìħ¨ ìĿĦ
ìħ¨ ëĬĶëį°
Ġìľłì§Ģ íķĺê¸°
Ġê°Ģìļ´ëį° ìĦľ
íĥĪ íĩ´
Ġë§Īëł¨ ìĿ´ëĭ¤
ĠìĦ±ìŀ¥ ê³¼
ê±¸ ë¡ľ
ìĪĻ ë°ķ
Ġë¹ĦêµĲ íķĺìĹ¬
ì¶© ìłĦ
Ġìĺ¨ëĿ¼ìĿ¸ ìľ¼ë¡ľ
Ġë¯¿ ìĿĮìĿ´
ĠV IP
Ġê°ľìµľ ëĲľëĭ¤
ĠíĳľíĺĦ ìĿĺ
ad er
ĠìŀĲì²´ ë¡ľ
Ġëħ¸ëł¥ íķł
Ġë£ ©
ìĻķ ìĿ´
Ġê°ķì¡° íķľ
ĠìĿ´ëıĻ ìĿ´
Ġë¹Ħìļ© ìľ¼ë¡ľ
Ġìķŀìľ¼ë¡ľ ìĿĺ
ë°©ë²ķ ìĿ´
ĠìĥģëĮĢ ë¥¼
ëĲĲ ìĿĦ
ĠíĽĦë³´ ìĿĺ
ĠëĪĦêµ¬ ë³´ëĭ¤
ìĽł ê³ł
ĠìĬ¬ íĶĪ
ĠíĮĶ ìķĦ
Ġì£¼ë¯¼ ìĿĺ
Ġë§Īì§Ģë§ī ìĹĲ
ĠìŀĲìĦ¸ ë¡ľ
ê´Ģê³Ħ ìĿĺ
Ġê³µìľł íķł
Ġê²Įìĭľ íĮĲìĹĲ
ĠìĹħì²´ ë¥¼
ĠëĦĺìĸ´ ê°Ģ
Ġê³łë¯¼ íķĺê³ł
ë³´ë Ĥ´
Ġë§Ŀ ë§ī
ìłķì±ħ ê³¼
Ġì»´íĵ¨íĦ° ìĹĲ
ĠìĪ¨ ìĿĢ
Ġíķ´ë Ĩĵ
Ġëľ¨ ëĬĶ
Ġë°ĶëĿ¼ ë©°
Ġê±´ë¬¼ ìĿ´
Ġë°ĶìĿ´ ìĺ¬
ĠíĺķìĦ± íķĺê³ł
ìĤ¬ê³ł ê°Ģ
Ġì¹¼ ìĿĦ
Ġë¹ĦíĮĲ ìĿ´
ĠìĺĪìĪł ê°Ģ
ĠìĻĶ ê³ł
ĠìĭľìłĪ ìĿĺ
ĠìĪĺìĹħ ìĹĲ
Ġê°Ģë¥´ ì¹¨ìĿĦ
Ġê¶ģê¸Ī ì¦ĿìĿĦ
Ġíľ´ëĮĢ ìļ©
Ġìĸµ ìķķ
ĠìĤ¬ëĿ¼ ì§Ī
Ġíķĺë©´ìĦľ ëıĦ
ë§¥ ì£¼
ĠìłĦìŁģ ìĿĺ
ĠëĤĺìĦľ ìķ¼
Ġë¬» íĺĢ
ĠìłĢëħģ ìĹĲ
ĠìŀĲëħĢ ê°Ģ
Ġëģ¼ ì¹ĺëĬĶ
Ġë¿Į ëł¤
ĠíĿĺ ëł¤
ĠìĿ´ë¡ł ìłģ
Ġê´ľ íŀĪ
ĠëłĪìĿ´ ìķĦìĽĥ
Ġê±°ë¶Ģ íķł
Ġìĭ¬ê°ģ íķĺê²Į
ĠQ V
Ġcom p
Ġìĭ¬ì§Ģìĸ´ ëĬĶ
Ġë°ĿíĺĢ ì¡Įëĭ¤
Ġë¹Ħì¤ĳ ìĿĢ
ĠìĻ¸êµĲ ë¶Ģ
ĠíĶĦë¡ľìĦ¸ ìĬ¤ë¥¼
Ġex ternal
ĠëĤĺë¨¸ ì§ĢëĬĶ
ĠëĦ· ì§¸
ìŀĺ íķĺëĬĶë²ķ
ê°ľìĿ¸ ìłķë³´
Ġë°©ì§Ģ íķĺê¸°
ĠëĨĢìĿ´ íĦ°
Ġãħ ľ
ĠìĿ´ë³ ´
ë²łìĿ´ ê±°
ĠíĶĦë¦¬ë¯¸ ìĸ´
Ġëļľ ê»
Ġë³´ìĹ¬ì£¼ ê¸°
Ġë³´ì¡° ê¸Ī
ĠSNS ìĹĲ
Ġì´ĪëĮĢ íĺķ
Ġê°Ģë¡ľ ë§ī
Ġë¬´ìĭľ íķĺê³ł
Ġìĩ Ħ
Ġë®¤ì§Ģ ìħĺ
ĠëĤŃ ë¹Ħ
Ġì»¨íĬ¸ë¡¤ ëŁ¬
Ġê·¸ê³³ ìĹĲìĦľ
ê¶ Ī
ê¸°ë³¸ ë²ķ
Ġëª©ë¡Ŀ ìĿĦ
ĠRe alm
Ġì·¨ìķ½ íķľ
Ġë°°ìĥģ íķł
Ġê¹ĢìĦ± íĥľ
Ġê²ĮìĿ´ ë¨¸
ë°ĶëŀĮ ìĿ´
Ġìĩł ê³łê¸°
ĠíĨłíĨł ì¶Ķì²ľ
Ġê¹ĶëģĶ íķĺê²Į
bo ard
ä¼ ļ
Ġíı¬ê´Ħ ìłģ
ĠìķĦìļ° ë¥´ëĬĶ
ê³ĦìĤ° ìĦľ
ìĹ¬ê¸° ìĦľ
Ġë¶ĢëĵľëŁ½ ê³ł
Ġë±Ģ íĮĮìĿ´ìĸ´
Ġë°ĶëŀĮì§ģ íķĺëĭ¤
Ġê¸Īë©Ķëĭ¬ ìĿĦ
è¡ Į
ìĮ ¤
ëĶĶìĬ¤ íĶĮëłĪìĿ´
ĠìłĢìĨĮëĵĿ ì¸µ
ĠLGìľł íĶĮëŁ¬ìĬ¤
Ġtv N
ĠêµŃíĨłêµĲíĨµ ë¶Ģ
Ġbab es
ĠìĿ´ì§ĳ íĬ¸
Ġì²´ë Ĥ´
Ġì· Įìŀ¥
. âĢĭ
2 12
M I
P N
a id
b e
b ject
f o
f t
i or
s er
¡ ëĭĪê¹Į
« ìĨĶ
² ¤
æ ¬
ç ¤
Ġ ).
Ġë ®
íķ ´ëĿ¼
ëĭ ¿
ëĬĶ ì§ĢëıĦ
ì§ ¬ë½ķ
íķľ ëıĦ
ì§Ģ ìĹ°
Ġë° Ń
ë¦¬ ë°Ķìļ´ëĵľ
ëĤ ´ë©´
ĠìĿ´ ìĭľ
ĠëĤ ¸ëĭ¤
ë¬ »
ĠìĪĺ ìļĶìĿ¼
ĠìĤ¬ ì²ľ
ĠìĤ¬ ìļ´ëĵľë¥¼
ëŀ ¬ëĭ¤
ìŀ¥ ìĹĲìĦľëĬĶ
ìĽĲ ëŀĺ
Ġê°Ģ êµ¬ë¥¼
Ġê²ĥ ìĿĺ
Ġì§Ģ ëĤ´ëĬĶ
Ġ2 20
ë² ħìĬ¤
ĠìłĦ íķľëĭ¤
ĠìłĦ ìŀĳ
ĠìłĦ ì£¼ìĭľ
ì£¼ ìŀĲ
Ġìĭľ ê¸°ëĬĶ
Ġìĭľ ì¹´ê³ł
ìłĦ ìĹĲëĬĶ
êµ¬ ìŀħ
êµ¬ ì²´
ìĹ¬ ê²¨
ê± ±
ĠìŀĲ ì§Ħ
ĠìŀĲ ë¦½
ĠìŀĲ íĥĿ
ìĽĶ ë§¤ìļ°
Ġë³´ ìĿ´ê¸°
ìĹħ ë¬´ë¥¼
ëħĦ ìĹĲìĦľ
Ġì£¼ ë²Ķ
Ġì£¼ ìłľìĹĲ
ê°Ħ ëĭ´
ìļ° ë¥¼
ìļ° ë©´
ë¹Ħ ë²ķ
ĠìĿ¼ ìĥģìĿĦ
ĠìĿ¼ ê¹¨
Ġëª¨ íĨł
ì¡° ëĤĺ
ìŀĦ ìĹĲ
Ġë¶Ģ ìĬ¤
Ġë¶Ģ ì²ľìĭľ
Ġë¶Ģ ë¥´ë©°
Ġê°ľ ê·¸
ĠìķĬ ê¸°ë¡ľ
ĠìķĬ ê²łëĬĲëĥĲ
ìĦ¸ ëĮĢíķĻêµĲ
ìĭĿ ìĹĲëĬĶ
ĠìĨĮ ëĭĪ
ë¶Ħ ëĵ¤ìĿĢ
ìĺ¤ ë¡ľ
Ġìľł ê°Ģ
êµĲ ëĬĶ
êµĲ ëıĦ
ĠìĹ¬ íĺ¸
Ġë§Ī ë£¨
Ġë§Ī ìĤ¬ì§Ģ
ĠëķĮ ë§Į
ĠëķĮ ëł¤
ëĭ¨ ìŀ¥
ĠìĦľ ëŀį
ìĹ° ìĹĲ
Ġì¹ «ìĨĶ
ĠìĦł ë³Ħ
Ġìĭł ìķ½
Ġìĭł íĺķ
Ġë°Ķ ëĭ¤ê°Ģ
ĠíĨµ íķĺëĬĶ
ë¯¸ ë¥´
ĠêµŃ ìĻ¸
ĠêµŃ íļĮìĹĲ
ĠìķĪ ìĹĲëĬĶ
ë°© ìĤ¬
íĨµ ì§Ģ
ĠìĬ¤ íĦ°
Ġìµľ ìĬ¹
ìĹŃ ëŁī
ëĬ¥ ëł¥ìĿ´
ë£Į ê°Ģ
ĠêµĲ ê°Ĳ
ĠìĺĪ ëłĪë¯¸ìķ¼
Ġë§İ ìķĺê³ł
ĠëįĶ êµ¬ëĤĺ
ĠíļĮ ìŀ¥ìĿĦ
ĠíļĮ ê·Ģ
íĸĪ ëĵ¯ìĿ´
ì²Ń ì¶ĺ
Ġë¬´ ê¶ģ
Ġë¶Ī ìĸ´
Ġë§¤ ìĬ¤
Ġë§¤ ë¬¼
Ġíı¬ ìĬ¤ì½Ķ
íĨł ë²¤
ĠìĦ¤ ëłĪ
Ġê°Ĳ ê°ģìĿĦ
ë°Ķ ê¿Ī
ë°Ķ êµ¬ëĭĪ
ĠëĤ¨ ìĦ±ìĿĢ
ĠìĤ¬ìļ© íķĺê²Į
Ġë°ĺ íķĺëĬĶ
Ġëĵ¤ ë©´ìĦľ
ê°Ĳ ìĨĮ
Ġìŀħ ìĹĪëĭ¤
Ġë°° ìĸĳ
an e
Ġëĭ¹ ëĮĢ
Ġëĭ¹ íĸĪëĭ¤
íĮĮ ëĬĶ
íĮĮ ëĭĪ
ĠíķĻ íļĮ
Ġë¬¼ ë¡ľ
Ġë¬¼ ëłĪë°©
ĠíķľêµŃ ìĹĲìĦľëĬĶ
ëĳĲ ë¦¬
Ġì¶ľ íĩ´ê·¼
ĠíĶ¼ ìĸ´ë¦¬ë·°
ĠC NS
Ġëª» íķĺëıĦë¡Ŀ
al d
ĠA RI
Ġë¦¬ ìĨĮ
Ġë¦¬ ëĪ
Ġê°Ħ ìĭĿ
ë¶ģ êµ¬
ìĭľê°Ħ ìĿĢ
ĠíķĦìļĶ íķĺì§Ģ
Ġëį° ìĦľ
Ġë°ķ ìĥģ
Ġìĸĳ ëĮĢ
Ġì²Ń ë¬¸
Ġë²ķ ì¹ĺ
Ġë²ķ ìķĪìĿĦ
Ġì°¾ ëĬĶëĭ¤
íķ´ìķ¼ íķĺëĬĶ
le d
le ment
Ġë³µ ë¬´
ëĤł ìĿĦ
ĠëĪĪ ë¹Ľ
ëĵĿ ìłĲ
26 7
ìľĦìĽĲ ìŀ¥ìĿ´
Ġì¹ľ íĻĶ
Ġìłĳ ì¢ħ
ĠìĹ°êµ¬ íķĺê³ł
ê²¨ ëłĪ
ĠíĨł ëģ¼
ĠëĦĺ ì§Ģ
Ġê°ľë°ľ íķł
Ġd i
Ġìļ´ìĺģ ëĲĺê³ł
ë¸Ķ ë¡ľ
Ġì²ľ ì§ĢìĿĺ
ĠD e
Ġë³¼ ê±°ë¦¬
el in
Ġì»¤ ì§Ī
ĠíļĮìĽĲ ìľ¼ë¡ľ
ĠìĦłíĥĿ íķĺê³ł
ìĸ¼ êµ´
Ġëª¨ìĬµ ê³¼
ĠëģĿ ëĤ´ê³ł
ĠëģĿ ëĤ©ëĭĪëĭ¤
Ġê²½ìłľ ë¥¼
Ġìŀ¡ ê¸°
Ġê¸°ëĬ¥ ìĦ±
200 4
Ġê´Ģë¦¬ ìĻĢ
Ġê³Ħíļį ìĿĢ
Ġë¨¸ ë¦¬ìĹĲ
ĠìĨ¡ ê¸Ī
ĠìĿ´ë¦Ħ ê³¼
Ġê¸ī íķĺê²Į
Ġíļ¨ê³¼ ëıĦ
ĠìĿ´íķ´ íķĺì§Ģ
ĠìĺĪìłķ ìĿ´ëĿ¼ê³ł
ĠìĨĮë¹Ħ ìŀĲëĵ¤ìĿĺ
ĠíĤ¤ ë¥¼
Ġìĺģíĸ¥ ëł¥
ĠêµŃìłľ ìĤ¬íļĮìĿĺ
Ġë©´ ìĿ´
ĠëĨĵ ìķĦ
ë§ĮìĽĲ ìĹĲìĦľ
ĠëĤ® ê²Į
Ġëį°ìĿ´íĦ° ìĿĺ
ĠìĬ¤íĥĢ ìĿ¼ìĿ´
ĠìķĬìķĺ ê¸°
us e
ĠëŃ ¡ëĭĪê¹Į
ĠìĥģíĴĪ ìĿ´
Ġë§ĲìĶĢ ìĿĢ
ë¨¼ ì§Ģ
Ġê°ľìµľ íķľëĭ¤ê³ł
ĠëĶĶìŀĲìĿ¸ ìľ¼ë¡ľ
Ġê³µê°Ħ ìĿĢ
Ġë°Ģ ìłĳíķľ
Ġë°Ģ ìĸ´ë¶Ļ
Ġê¹¨ ê³ł
ĠìĹ°ê²° íķ´
ìĬ¨ ìĿ´
ìĭľìĦ¤ ìĿ´
Ġê²½ê¸° ìŀ¥
ĠìłĦë§Ŀ ìĿĦ
ĠìĻķ ìĿ´
ĠëĤĺëĿ¼ ìĹĲ
Ġëĵ±ë¡Ŀ ìĿĦ
ĠìļĶì²Ń íķĺëĬĶ
[...]
