{"<s>":0,"<pad>":1,"</s>":2,"<unk>":3,"<mask>":4,"!":5,"\"":6,"#":7,"$":8,"%":9,"&":10,"'":11,"(":12,")":13,"*":14,"+":15,",":16,"-":17,".":18,"/":19,"0":20,"1":21,"2":22,"3":23,"4":24,"5":25,"6":26,"7":27,"8":28,"9":29,":":30,";":31,"<":32,"=":33,">":34,"?":35,"@":36,"A":37,"B":38,"C":39,"D":40,"E":41,"F":42,"G":43,"H":44,"I":45,"J":46,"K":47,"L":48,"M":49,"N":50,"O":51,"P":52,"Q":53,"R":54,"S":55,"T":56,"U":57,"V":58,"W":59,"X":60,"Y":61,"Z":62,"[":63,"\\":64,"]":65,"^":66,"_":67,"`":68,"a":69,"b":70,"c":71,"d":72,"e":73,"f":74,"g":75,"h":76,"i":77,"j":78,"k":79,"l":80,"m":81,"n":82,"o":83,"p":84,"q":85,"r":86,"s":87,"t":88,"u":89,"v":90,"w":91,"x":92,"y":93,"z":94,"{":95,"|":96,"}":97,"~":98,"¡":99,"¢":100,"£":101,"¤":102,"¥":103,"¦":104,"§":105,"¨":106,"©":107,"ª":108,"«":109,"¬":110,"®":111,"¯":112,"°":113,"±":114,"²":115,"³":116,"´":117,"µ":118,"¶":119,"·":120,"¸":121,"¹":122,"º":123,"»":124,"¼":125,"½":126,"¾":127,"¿":128,"À":129,"Á":130,"Â":131,"Ã":132,"Ä":133,"Å":134,"Æ":135,"Ç":136,"È":137,"É":138,"Ê":139,"Ë":140,"Ì":141,"Í":142,"Î":143,"Ï":144,"Ð":145,"Ñ":146,"Ò":147,"Ó":148,"Ô":149,"Õ":150,"Ö":151,"×":152,"Ø":153,"Ù":154,"Ú":155,"Û":156,"Ü":157,"Ý":158,"Þ":159,"ß":160,"à":161,"á":162,"â":163,"ã":164,"ä":165,"å":166,"æ":167,"ç":168,"è":169,"é":170,"ê":171,"ë":172,"ì":173,"í":174,"î":175,"ï":176,"ð":177,"ñ":178,"ò":179,"ó":180,"ô":181,"õ":182,"ö":183,"÷":184,"ø":185,"ù":186,"ú":187,"û":188,"ü":189,"ý":190,"þ":191,"ÿ":192,"Ā":193,"ā":194,"Ă":195,"ă":196,"Ą":197,"ą":198,"Ć":199,"ć":200,"Ĉ":201,"ĉ":202,"Ċ":203,"ċ":204,"Č":205,"č":206,"Ď":207,"ď":208,"Đ":209,"đ":210,"Ē":211,"ē":212,"Ĕ":213,"ĕ":214,"Ė":215,"ė":216,"Ę":217,"ę":218,"Ě":219,"ě":220,"Ĝ":221,"ĝ":222,"Ğ":223,"ğ":224,"Ġ":225,"ġ":226,"Ģ":227,"ģ":228,"Ĥ":229,"ĥ":230,"Ħ":231,"ħ":232,"Ĩ":233,"ĩ":234,"Ī":235,"ī":236,"Ĭ":237,"ĭ":238,"Į":239,"į":240,"İ":241,"ı":242,"Ĳ":243,"ĳ":244,"Ĵ":245,"ĵ":246,"Ķ":247,"ķ":248,"ĸ":249,"Ĺ":250,"ĺ":251,"Ļ":252,"ļ":253,"Ľ":254,"ľ":255,"Ŀ":256,"ŀ":257,"Ł":258,"ł":259,"Ń":260,"Ġì":261,"ìĿ":262,"Ġë":263,"íķ":264,"Ġê":265,"ëĭ":266,"ìĹ":267,"ìĿ´":268,"ëĭ¤":269,"ëĬ":270,"Ġí":271,"ê³":272,"ëĬĶ":273,"ìĹĲ":274,"ìĦ":275,"ìł":276,"ê°":277,"ìŀ":278,"ìĿĦ":279,"íķĺ":280,"ìĿĺ":281,"ì§":282,"ë¡":283,"ĠìĿ":284,"Ġìŀ":285,"íķľ":286,"ê³ł":287,"ë¡ľ":288,"ë¥":289,"ìĭ":290,"¸°":291,"Ġìł":292,"ìļ":293,"ëı":294,"ìľ":295,"ì§Ģ":296,"ìĿ¼":297,"Ĥ¬":298,"ë¦":299,"Īëĭ¤":300,"ê°Ģ":301,"ìĿĢ":302,"ìķ":303,"ê²":304,"ëĵ":305,"ìĦľ":306,"Ġê°":307,"ë¥¼":308,"ìĬ":309,"ĮĢ":310,"Ġìķ":311,"Ġë°":312,"ê¸°":313,"´ë":314,"ìĽ":315,"ëıĦ":316,"Ġê²":317,"ìĸ":318,"Īĺ":319,"ë¦¬":320,"ë§":321,"êµ":322,"ëĤ":323,"íķ´":324,"Ġë§":325,"ĠìĹ":326,"ìĿ¸":327,"ìľ¼":328,"Ġìĭ":329,"âĢ":330,"ìĭľ":331,"ë¶":332,"Ġì§":333,"ĠìĿ´":334,"ë©":335,"ĠìĦ":336,"ëł":337,"Ŀ¼":338,"ìŀĲ":339,"·¸":340,"ë³":341,"ìĬ¤":342,"ìĥ":343,"Ġê³":344,"ìĤ¬":345,"ë°":346,"Ġëĭ":347,"ëĿ¼":348,"£¼":349,"ìľ¼ë¡ľ":350,"ëĵ¤":351,"ĠìŀĪ":352,"ĠëĤ":353,"ê²Į":354,"ë¬":355,"Ġìĺ":356,"ëĭĪëĭ¤":357,"ìĺ":358,"ê³¼":359,"ĠìĪĺ":360,"íĸ":361,"ĠìĤ¬":362,"ìĸ´":363,"ìĹĲìĦľ":364,"Ġë³":365,"ëŀ":366,"íĻ":367,"Ġê·¸":368,"ìłķ":369,"Ġ1":370,"ìŀ¥":371,"ì²":372,"íĺ":373,"ĠëĮĢ":374,"ìĽĲ":375,"Ġë¶":376,"Ġìľ":377,"Ġìĥ":378,"Ġëª":379,"ëĤĺ":380,"ëĲ":381,"Ġíķ":382,"ìłģ":383,"¹Ħ":384,"ëĮĢ":385,"Ġêµ":386,"ìĻ":387,"Ġíķĺ":388,"ì¹":389,"ļĮ":390,"ë¶Ģ":391,"Ġê¸°":392,"ìĨ":393,"ëŁ":394,"ëį":395,"Ġê°Ģ":396,"Ġê²ĥ":397,"ëħ":398,"ìĥģ":399,"Ġëĵ":400,"ë©´":401,"ìķĦ":402,"íĬ":403,"ëª":404,"Ġì§Ģ":405,"ë§Į":406,"ìłľ":407,"ìļ©":408,"Ġ2":409,"íĥ":410,"ë²":411,"ìĦ±":412,"´Ģ":413,"Ġëı":414,"Ġíķľ":415,"ĠìłĦ":416,"ĠìķĦ":417,"¡°":418,"íĬ¸":419,"Ġë¬":420,"Ġìļ":421,"ê¸":422,"ì£¼":423,"¤ĳ":424,"Ġìĭľ":425,"ìļĶ":426,"íĻĶ":427,"ìłĦ":428,"Ġìĸ":429,"íķĺëĬĶ":430,"êµŃ":431,"ìĪĺ":432,"Ġëĭ¤":433,"íļĮ":434,"ìĻĢ":435,"ë³´":436,"ĠâĢ":437,"Ġìłľ":438,"Ġìłķ":439,"..":440,"¯¸":441,"ìĬµ":442,"íĦ":443,"ĠíĻ":444,"êµ¬":445,"ĠìĨ":446,"ìĹ¬":447,"Ġíĺ":448,"ê±":449,"ĠìŀĲ":450,"ëĵľ":451,"ëıĻ":452,"ìĽĶ":453,"Ġë³´":454,"ìĹħ":455,"Ĩµ":456,"ì¶":457,"íĦ°":458,"íķĺê³ł":459,"ëħĦ":460,"Ġì£¼":461,"ê°Ħ":462,"ë¬¸":463,"ì°":464,"ìļ°":465,"Ĥ°":466,"ëĭĪ":467,"Ġì°":468,"íķł":469,"ë¹Ħ":470,"ìĬµëĭĪëĭ¤":471,"ìĭł":472,"ĠìĿ¸":473,"Ġê²½":474,"ĠìľĦ":475,"ì¹ĺ":476,"Ġëĵ±":477,"ĠìŀĪëĭ¤":478,"ë©°":479,"íĶ":480,"ê³Ħ":481,"ĠëĲ":482,"ĠìĿ¼":483,"ĠìĿ´ë":484,"Ġê±":485,"ìĨĮ":486,"ìķ¼":487,"ìĿ´ëĭ¤":488,"ê¹":489,"Ġì²":490,"ĠëĤĺ":491,"00":492,"Ġì¤ĳ":493,"Ġì¶":494,"Ġëª¨":495,"ê³µ":496,"ë£":497,"íĮ":498,"ì§Ħ":499,"ëŁ¬":500,"íĸĪëĭ¤":501,"ì¡°":502,"Ġê³µ":503,"ìŀĦ":504,"ëĲĺ":505,"íķĻ":506,"Ġë²":507,"ìĤ°":508,"Ġìĥģ":509,"ĠìŀĪëĬĶ":510,"Ġíı":511,"Ġë¶Ģ":512,"íı":513,"ëªħ":514,"íĸī":515,"ĽĦ":516,"âĢĻ":517,"ķĮ":518,"Ġëį":519,"Ġ3":520,"ìŀħ":521,"Ġê°ľ":522,"ê´Ģ":523,"Ġê´Ģ":524,"ĠìķĬ":525,"Ġìĺ¤":526,"Ġê³ł":527,"ìĦł":528,"ëį°":529,"ìľĦ":530,"ìĦ¸":531,"Ġë¹Ħ":532,"ìĭĿ":533,"ê¹Į":534,"ĠâĢĺ":535,"íŀ":536,"ĠìĬ":537,"ê±°":538,"ì²´":539,"ĠìĨĮ":540,"ë¶Ħ":541,"ìĺ¤":542,"ê·":543,"ĠíĮ":544,"ìŀ¬":545,"Ġìľł":546,"ĠíĶ":547,"ê²½":548,"ë§Ī":549,"êµĲ":550,"ëĲľ":551,"ĠìĽ":552,"ìļ´":553,"¯¼":554,"ĠìĹĨ":555,"ĠìĹ¬":556,"ìĥĿ":557,"ĠìĿĺ":558,"Ġíĸ":559,"íģ":560,"ê°ľ":561,"µľ":562,"íŀĪ":563,"Ġë§Ī":564,"ëł¥":565,"Ġì¢":566,"ĠìĥĿ":567,"ĠëķĮ":568,"ê¸Ī":569,"ìĪ":570,"íķ©":571,"Ġìļ°":572,"ìķĪ":573,"ëĭ¨":574,"ìĿĮ":575,"ĠëĶ":576,"Ġë§Į":577,"ìĭ¤":578,"ë¬´":579,"ì¦":580,"Ġì¡°":581,"íĥĢ":582,"ĠìĦľ":583,"íĺ¸":584,"ëł¤":585,"ìĹ°":586,"ìĺģ":587,"Ġì¹":588,"ĠìĹ°":589,"ĠìĦł":590,"ìľł":591,"ĠìĻ":592,"ĳľ":593,"Ġìĭł":594,"Ġë°Ķ":595,"ĠíĨµ":596,"ë¯¸":597,"íĴ":598,"Ġêµ¬":599,"Ġíķ´":600,"ì§Ģë§Į":601,"ëĦ":602,"ëĭ¹":603,"ì¡":604,"ĳĲ":605,"ê·¸":606,"ĠêµŃ":607,"Ġê¸":608,"íĹ":609,"Ġëħ":610,"Ġë°ľ":611,"Ġë§Ĳ":612,"ëŀĺ":613,"Ġë¯¸":614,"01":615,"íħ":616,"Ġë°©":617,"ëĵ¤ìĿ´":618,"ĠëıĻ":619,"ë¬¼":620,"ëŀĮ":621,"íķĺìĹ¬":622,"ĠìĦ¸":623,"ìĸĳ":624,"âĢĿ":625,"ĠìķĪ":626,"ë°©":627,"Ġê¹":628,"ĠëĤ´":629,"íĨµ":630,"ìĹĪ":631,"Ġìĺģ":632,"ĠìĬ¤":633,"Ġíĥ":634,"Ġìµľ":635,"Ġë¬¸":636,"ë²ķ":637,"íķľëĭ¤":638,"ĠíĬ":639,"ë¯¼":640,"íĴĪ":641,"ì¶ľ":642,"ìĹŃ":643,"ìĿ´ëĿ¼":644,"ĠëĲĺ":645,"ĠëıĦ":646,"ĺĲ":647,"ë¡Ŀ":648,"ìĹĲê²Į":649,"¶Į":650,"ìłģìĿ¸":651,"¤Ģ":652,"íĨ":653,"ìĹĪëĭ¤":654,"Ġë°ı":655,"Ġ(":656,"ĠëĦ":657,"ëįĺ":658,"ĠâĢľ":659,"ê°ģ":660,"ĠìĦ±":661,"Ġê·":662,"íİ":663,"Â·":664,"Ġìĭ¤":665,"ì¤ĳ":666,"ì°¨":667,"ìŀĳ":668,"ìĹĲëĬĶ":669,"ĠìĤ":670,"Ġë¶Ħ":671,"Ġì§Ħ":672,"ìĭ¬":673,"ëĬ¥":674,"ë¥´":675,"ë£Į":676,"ĠêµĲ":677,"ìħ":678,"ĠëĨ":679,"ĠìĺĪ":680,"íģ¬":681,"Ġë§İ":682,"ĠëĺĲ":683,"íĶĦ":684,"ĠëįĶ":685,"Ġê±°":686,"íĭ":687,"Ġ4":688,"ëĤľ":689,"Ġì´":690,"ë¥¸":691,"ëĶ":692,"ìłģìľ¼ë¡ľ":693,"½Ķ":694,"Ġíģ":695,"íĽĦ":696,"er":697,"ĠíĺĦ":698,"ê¹Įì§Ģ":699,"íĳľ":700,"ëĵł":701,"Ġìŀ¥":702,"íĹĺ":703,"ëłĪ":704,"íķĺê²Į":705,"in":706,"Ġ5":707,"Ġê°ķ":708,"ĠìĤ¬ëŀĮ":709,"ìĨį":710,"Ġê°Ļ":711,"ëĤ´":712,"ĠíļĮ":713,"Ġìĸ´ë":714,"...":715,"ĠëĶ°":716,"Ġì¦":717,"ìĪł":718,"íĸĪ":719,"ë°ľ":720,"íı¬":721,"ìĺĢ":722,"Ġë©":723,"ìłĲ":724,"ĠëĮĢíķľ":725,"ì²ľ":726,"ìĸ´ë":727,"ë°ĺ":728,"íĤ":729,"±ħ":730,"Ġê²°":731,"ëª¨":732,"Ġê²½ìļ°":733,"ìķĺ":734,"on":735,"ìŀħëĭĪëĭ¤":736,"ĠìłĢ":737,"ì²Ń":738,"Ġ'":739,"Ġë¬´":740,"ìļ¸":741,"ĠìķĮ":742,"ĠìŀĪìĬµëĭĪëĭ¤":743,"ë¶ĢíĦ°":744,"ê¶Į":745,"ĠìĽĲ":746,"ìĦĿ":747,"ë³¸":748,"Ġë¶Ī":749,"ì¢":750,"Ġìŀ¬":751,"Ġë°Ľ":752,"ê¸ī":753,"Ġ#":754,"Ġë§¤":755,"Ġìļ°ë¦¬":756,"ê»":757,"Ġ201":758,"ë©´ìĦľ":759,"ĠíĬ¹":760,"ìķ½":761,"ê±´":762,"Ġíı¬":763,"Ġê³Ħ":764,"ëĭĺ":765,"Ġíķł":766,"ì¤Ģ":767,"íĨł":768,"ë¦°":769,"ì´":770,"Ġìłģ":771,"Ġê¹Ģ":772,"ìĦ¤":773,"Ġì¶Ķ":774,"Ġíķľëĭ¤":775,"ì§ģ":776,"ê²ĮìŀĦ":777,"íĺķ":778,"Ġëħ¸":779,"íĺĦ":780,"Ġíİ":781,"Ġ\"":782,"íķĺê¸°":783,"ĠíĽĦ":784,"ĠìĦ¤":785,"Ġê°Ĳ":786,"ë¸":787,"Ġëĭ¨":788,"ë°Ķ":789,"ĠëĤ¨":790,"ê²©":791,"ĠìľĦíķ´":792,"ĠìĤ¬ìļ©":793,"Ġë°ĺ":794,"Ġt":795,"ĠëĬ":796,"ì¸":797,"Ġëĵ¤":798,"ëł¨":799,"ì§Ī":800,"ë§¤":801,"ê°Ĳ":802,"ĠíĶĦ":803,"Ġìŀħ":804,"Ġë°°":805,"an":806,"Ġìŀĳ":807,"´ĳ":808,"Ġì°¨":809,"ëĵ¤ìĿĺ":810,"Ġì¢ĭ":811,"Ġëĭ¹":812,"Ġê³¼":813,"ë¡ł":814,"ê»ĺ":815,"ìłĢ":816,"ĠíķĦ":817,"ëĵ¤ìĿĢ":818,"Ġë¹":819,"íĭ°":820,"ĠíĻķ":821,"Ġ6":822,"ì²ĺ":823,"ê°ķ":824,"Ġìĸ´":825,"ëĶĶ":826,"ìľ¡":827,"Ī¬":828,"ë²Ħ":829,"ì¢ħ":830,"10":831,"íĮĮ":832,"Ġâ":833,"Ġê²ĥìĿ´":834,"ĠíķĻ":835,"ĠíķĺëĬĶ":836,"ëĭ¤ëĬĶ":837,"íĥľ":838,"ë¹":839,"ĠìĹŃ":840,"ì»":841,"Ġë¬¼":842,"Ġíıī":843,"ê²°":844,"ĠìļĶ":845,"íķ¨":846,"ĠìĪ":847,"ĠíķĺëĤĺ":848,"ëł¹":849,"ĠíķľêµŃ":850,"íķ©ëĭĪëĭ¤":851,"ëĳĲ":852,"ë¦Ħ":853,"ĠíĮĮ":854,"ì¦Ŀ":855,"ê²ł":856,"ĠS":857,"íķŃ":858,"íĻĺ":859,"ì¼":860,"ĠëĪ":861,"´ë©":862,"Ġì¶ľ":863,"ĠìķĦëĭĪ":864,"ë¦½":865,"ìĽĮ":866,"ĠíĨµíķ´":867,"ê·¼":868,"ìĶ":869,"íĤ¤":870,"ì¹´":871,"ëįĶ":872,"íķĺì§Ģ":873,"Ġíķ©":874,"Ġíķ¨":875,"ë¦¬ê³ł":876,"ë£¨":877,"Ġíĸī":878,"íĥĿ":879,"ĠëķĮë¬¸":880,"ĠëĳĲ":881,"Ġìĺ¬":882,"ĠìĥĿê°ģ":883,"or":884,"ĠíĿ":885,"Ġì°¸":886,"ĢìĿ´":887,"Ġ7":888,"Ġë¦":889,"ì½Ķ":890,"ëĬĶëį°":891,"en":892,"Ġ10":893,"ìľ¼ë©°":894,"ë¥ĺ":895,"12":896,"ëĭ¬":897,"ĠìĿ´ìļ©":898,"Ġì§ģ":899,"Ġê±´":900,"Ġë¨":901,"ĠìĥĪ":902,"ì¡±":903,"Ġê²Į":904,"ë³µ":905,"´ë³":906,"íĿ":907,"Ġëĭ¬":908,"Ġì»":909,"ĠíĶ¼":910,"Ġ8":911,"Ġë³Ģ":912,"ĠC":913,"Ġëª©":914,"at":915,"Ġì¦Ŀ":916,"ëħ¸":917,"11":918,"ìłĪ":919,"ëĭ¤ê³ł":920,"ëŀĳ":921,"íĶ¼":922,"he":923,"ãĢ":924,"ë³Ħ":925,"Ġëª»":926,"ëĵ±":927,"ìĨ¡":928,"Ġìļ´":929,"ì§ĳ":930,"ê²ĥ":931,"Ġëªħ":932,"ëŁī":933,"ĠíĻľ":934,"íĮĲ":935,"ìĻ¸":936,"al":937,"ëŁ¼":938,"Ķëĭ¤":939,"·¨":940,"Ġíĺ¸":941,"15":942,"±Ħ":943,"ë²Ī":944,"êµ°":945,"20":946,"Ġì§ĢëĤľ":947,"íļ":948,"ëĵ¤ìĿĦ":949,"ìĹĲìĦľëĬĶ":950,"ëª©":951,"ĠA":952,"ĠíĻĶ":953,"ĠìĹ´":954,"Ġë³¸":955,"ëĤ¨":956,"ëŀĢ":957,"Ġì¢ħ":958,"ĠíĹ":959,"ar":960,"ë¹ĦìĬ¤":961,"ëĭ´":962,"ì¶ķ":963,"íĸ¥":964,"ì¦Ī":965,"´ë©´":966,"Ġëĭ¤ìĭľ":967,"Ġë¡":968,"Ġë¦¬":969,"es":970,"ì¶Ķ":971,"Ġíķ¨ê»ĺ":972,"ìĿ´íĬ¸":973,"ê¸°ë¥¼":974,"ìħĺ":975,"Ġ9":976,"ìĸµ":977,"Ġê°Ħ":978,"Ġì´Ī":979,"ë¶ģ":980,"¤Ħ":981,"Ġì§ĳ":982,"Ġê²ĥìĿ´ëĭ¤":983,"ĠìĤ°":984,"ìĭľê°Ħ":985,"Ġìŀĺ":986,"Ġê°ģ":987,"ĠìłĲ":988,"ĠëĶ°ëĿ¼":989,"ì±ħ":990,"ĠìĻ¸":991,"íİ¸":992,"ĠíķĦìļĶ":993,"ìĺĢëĭ¤":994,"ë¸Į":995,"Ġ19":996,"Ġì²ĺ":997,"ëŁ°":998,"ĠëĲľ":999,"ìĿ´ëĤĺ":1000,"ë°°":1001,"Ġëģ":1002,"ãħ":1003,"ë§Ŀ":1004,"ĠíĻĺ":1005,"Ġê°ĻìĿĢ":1006,"ëĲĺëĬĶ":1007,"ë¦¼":1008,"Ġëį°":1009,"ëĦ¤":1010,"ëıĦë¡Ŀ":1011,"Ġê²ĥìľ¼ë¡ľ":1012,"Ġëĭ¤ë¥¸":1013,"30":1014,"Ġë¸":1015,"ĠìĿ´ëŁ":1016,"íķĺëĭ¤":1017,"ĠíĶĦë¡ľ":1018,"ĠìĤ´":1019,"íķ´ìĦľ":1020,"Ġìĸ´ëĸ":1021,"ĠëĨĴ":1022,"Ġìķ½":1023,"ë§Ĳ":1024,"Ġê°Ģìŀ¥":1025,"ìł¸":1026,"Ġë¬¸ìłľ":1027,"Ġìłľê³µ":1028,"ë°ķ":1029,"Ġë°ķ":1030,"Ġìĸĳ":1031,"Ġìĭ¬":1032,"22":1033,"Ġì²Ń":1034,"ëĿ¼ê³ł":1035,"ĠìľĦíķľ":1036,"íĻľ":1037,"Ġ11":1038,"ìĹĲëıĦ":1039,"Ġë§ŀ":1040,"ìĺ¨":1041,"ìĺĪ":1042,"Ġê°ĢëĬ¥":1043,"ĠìĹĲ":1044,"íķĺë©°":1045,"ĠM":1046,"ĠíĮĲ":1047,"ìĥī":1048,"Ġë§Įëĵ¤":1049,"--":1050,"ëĿ¼ëĬĶ":1051,"ĠìĨį":1052,"ĠìķĦìĿ´":1053,"Ġê²ĥìĿĢ":1054,"Ġìĺ¨":1055,"ĠìŀĲìĭł":1056,"ìĿ´ëĿ¼ê³ł":1057,"Ġìĭľìŀĳ":1058,"Ġë§İìĿĢ":1059,"ë¨":1060,"ì£":1061,"Ġê°ľìĿ¸":1062,"ë¦¬ëĬĶ":1063,"ê±°ëĤĺ":1064,"ê´ĳ":1065,"19":1066,"Ĥ´":1067,"Ġê·¸ëŁ¬":1068,"íĻ©":1069,"Ġì¹ĺ":1070,"Ġê¸Ī":1071,"Ġëĵľ":1072,"Ġíģ¬":1073,"Ġìķŀ":1074,"ĠP":1075,"Ġs":1076,"ë´":1077,"ĠëĺĲëĬĶ":1078,"ì´Ī":1079,"Â°":1080,"ìĬ¤íĥĢ":1081,"ĠìĨĲ":1082,"ìŀĪ":1083,"Ġë²ķ":1084,"ĠíĴ":1085,"ĠìĿĮ":1086,"ì§ĢëĬĶ":1087,"it":1088,"ĠìĿ´ìĥģ":1089,"Ġíĳľ":1090,"ëĥ":1091,"Ġíİ¸":1092,"Ġìĭľê°Ħ":1093,"),":1094,"ī´":1095,"ĠìĹħ":1096,"ĠìŀĪìĸ´":1097,"íİĺ":1098,"íķĺë©´":1099,"Ġê·¸ë¦¬ê³ł":1100,"Ġë©Ķ":1101,"Ġê²ĥìĿĦ":1102,"ìĬ¹":1103,"ê°Ŀ":1104,"29":1105,"íħĮ":1106,"Ġë°Ŀ":1107,"ŀĺ":1108,"ìŀĲê°Ģ":1109,"Ġëĭ¤ìĸĳ":1110,"Ġì²´":1111,"Ġëª¨ëĵł":1112,"ĠìĦľë¹ĦìĬ¤":1113,"Ġì½Ķ":1114,"ĠT":1115,"ìķĺëĭ¤":1116,"Ġê´Ģëł¨":1117,"ĠI":1118,"Ġë¶ģ":1119,"16":1120,"Ġì°¾":1121,"Ġë¬´ë":1122,"ic":1123,"Ġì±ħ":1124,"ĠìŀĦ":1125,"ĠíĪ¬":1126,"ìĤ¬ë¥¼":1127,"ë³ĳ":1128,"ëıħ":1129,"íĶĮ":1130,"ĠëĿ¼":1131,"ëŀľ":1132,"Ġë¯¸êµŃ":1133,"Ġì·¨":1134,"Ġ-":1135,"ìĬ¤íĬ¸":1136,"Ġëĵ¤ìĸ´":1137,"íķ´ìķ¼":1138,"14":1139,"Ġê²Ģ":1140,"Ĳëĭ¤":1141,"ìĸ¸":1142,"ë¦¬ë¥¼":1143,"Ġíķĺê³ł":1144,"ĠìĿ´ë²":1145,"Ġê·ľ":1146,"Ģë¡ľ":1147,"ì¡Į":1148,"13":1149,"ĠëĶĶ":1150,"Ġì§ĢìĹŃ":1151,"ë³´ëĭ¤":1152,"Ġc":1153,"íļį":1154,"Ġthe":1155,"ìľ¨":1156,"ìŀĲìĿĺ":1157,"ê¸°ìĹĲ":1158,"ìĸ´ëĤ":1159,"om":1160,"Ġëĸ":1161,"ĠìĤ¬íļĮ":1162,"ĠëıĮ":1163,"18":1164,"ë³Ģ":1165,"le":1166,"ĠëķĮë¬¸ìĹĲ":1167,"Ŀ½":1168,"ĠìĦ¸ê³Ħ":1169,"ëĮĢë¡ľ":1170,"ì»¤":1171,"000":1172,"¨ìĸ´":1173,"Łģ":1174,"Ġë²Ī":1175,"Ġì§Ħíĸī":1176,"į¼":1177,"Ġì°½":1178,"25":1179,"Ġë³µ":1180,"ł¤":1181,"ĠëĤ´ë":1182,"Ġì´Ŀ":1183,"ëĲĺìĸ´":1184,"ì³":1185,"ì§Ģê³ł":1186,"ëģ":1187,"ë¡ľìļ´":1188,"24":1189,"ĠìĭĿ":1190,"Ġp":1191,"ĠëĤł":1192,"ì¸ł":1193,"ì§Ģë¥¼":1194,"Ġìłķë³´":1195,"ëĨ":1196,"ion":1197,"Ġìĸ¸":1198,"ê¸¸":1199,"Ġíĺķ":1200,"Ġê·¼":1201,"Ġë¡ľ":1202,"Ġíģ°":1203,"ìķħ":1204,"is":1205,"Ġ12":1206,"Ġíļ":1207,"ìŀĲëĬĶ":1208,"Ġâĸ":1209,"ìµľ":1210,"ìĿ´ëĿ¼ëĬĶ":1211,"ëĦĪ":1212,"re":1213,"ĠíĨ":1214,"ìŁģ":1215,"ê²¬":1216,"Ġíķ©ëĭĪëĭ¤":1217,"ĠL":1218,"ĠíĥĢ":1219,"ĠìĦľìļ¸":1220,"ìłĳ":1221,"17":1222,"ìĦ±ìĿĦ":1223,"ĠìĻĦ":1224,"ëĬĲ":1225,"íĺĳ":1226,"ĠëĮĢíķ´":1227,"ëłĪìĿ´":1228,"Ġëıħ":1229,"ëĲľëĭ¤":1230,"Ġ:":1231,"Ġì¡":1232,"Ġì¶©":1233,"Ġëĭ¤ìĸĳíķľ":1234,"ëĿ½":1235,"ĠëĴ":1236,"ĠìĹĨëĬĶ":1237,"íĪ¬":1238,"ê¸°ëıĦ":1239,"Ġë¯¼":1240,"Ġì¤Ģ":1241,"ìĿµ":1242,"ìĪľ":1243,"ĠëĮĢíĳľ":1244,"ĠìłķëıĦ":1245,"ĠìķĬëĬĶ":1246,"Ġê±¸":1247,"ĠëĬĲ":1248,"íĨµëł¹":1249,"ìĿ´ê³ł":1250,"ì¡´":1251,"Ġì§Ī":1252,"28":1253,"ĠëĪĦ":1254,"ing":1255,"ì²ĺëŁ¼":1256,"ìĶ¨":1257,"íķĻêµĲ":1258,"Ġëł":1259,"ĠíĸĪëĭ¤":1260,"Ġì±Ħ":1261,"ëĤł":1262,"23":1263,"ĠìĤ¼":1264,"ìłķë³´":1265,"Ġ/":1266,"ëĵ¤ìĹĲê²Į":1267,"Ġ20":1268,"ĠíļĮìĤ¬":1269,"ëŀ¨":1270,"ĠëĪĪ":1271,"Ġê´ĳ":1272,"Ġì¹´":1273,"ëĵĿ":1274,"íĿ¬":1275,"26":1276,"ìŀ¥ìĿĦ":1277,"ĠíĸĪ":1278,"ëĳ":1279,"ëĬĺ":1280,"ĠìĪľ":1281,"Ġê³³":1282,"27":1283,"íħĶ":1284,"íıī":1285,"ìķł":1286,"Ġë²Ħ":1287,"Ġíĥľ":1288,"Ġìĵ":1289,"ìľĦìĽĲ":1290,"ìĦ¼":1291,"ì°°":1292,"Ġ200":1293,"Ġê¸°ìĪł":1294,"ìŀ¥ìĿĢ":1295,"Ġë§İìĿ´":1296,"ì½":1297,"ëĪ":1298,"Ġì¹ľ":1299,"Ġìĭ¶":1300,"Ġë°Ŀíĺ":1301,"Ġëª¨ëĳĲ":1302,"ĠíĬ¸":1303,"Ġa":1304,"ì°½":1305,"Ġì¤ĳêµŃ":1306,"Ġìłĳ":1307,"ĠëĦĪ":1308,"Ġê¸°ìĹħ":1309,"ë¶Ī":1310,"ìĽĢ":1311,"21":1312,"íĮħ":1313,"ê·¸ëŀ¨":1314,"ìķ¡":1315,"ĠêµĲìľ¡":1316,"ĠìķĦëĭĪëĿ¼":1317,"201":1318,"ĠëĮĢíĨµëł¹":1319,"ed":1320,"ĠìĹ°êµ¬":1321,"Ġíķĺì§Ģë§Į":1322,"Ġì§ĢìĽĲ":1323,"ê²¨":1324,"Ġëĵ±ìĿĦ":1325,"ĠíķŃ":1326,"Ġíħ":1327,"ĠB":1328,"ĠëĺĲíķľ":1329,"ĠëĲł":1330,"Ġì¤Ħ":1331,"ĠíĨł":1332,"ê¸°ê°Ģ":1333,"Ġìī":1334,"ê·ľ":1335,"ê·¹":1336,"íĻĶë¥¼":1337,"ĠK":1338,"©ëĭĪëĭ¤":1339,"ĠìĤ¬ìĹħ":1340,"ĠëĤ´ìļ©":1341,"ëł¥ìĿĦ":1342,"Ġê·¸ëŁ°":1343,"ĠìĹ¬ëŁ¬":1344,"ì§¸":1345,"ĠíķĺëĤĺëĭĺ":1346,"ĠëĦĺ":1347,"´ëĮĢ":1348,"Ġíŀĺ":1349,"ë¹Ĺ":1350,"ª½":1351,"ëħĢ":1352,"ï¼":1353,"ìĥģìĿĦ":1354,"Ġê¶Į":1355,"Ġíĺĳ":1356,"ëłĩ":1357,"ĠëĦ¤":1358,"Ġ30":1359,"ĠìĿ´ë²Ī":1360,"Ġìļ©":1361,"Ġëĭ¤ìĿĮ":1362,"Ġë°ľìĥĿ":1363,"ìłķìĿĦ":1364,"ì¹¨":1365,"ĠìłĦë¬¸":1366,"Ġê°ľë°ľ":1367,"ë³´ê¸°":1368,"ĠìĤ¬ìĭ¤":1369,"Ġìº":1370,"ĠíĶĮ":1371,"ëĲł":1372,"ë¥ł":1373,"ë°Ľ":1374,"ĠìłľíĴĪ":1375,"Ġì¢ĭìĿĢ":1376,"Ġë´":1377,"ìĿ´ëĬĶ":1378,"ĠëĴ¤":1379,"ĠìłĪ":1380,"íħľ":1381,"ë¡Ģ":1382,"Ġë°©ë²ķ":1383,"ìį":1384,"ìĬ¤íĥĢë¹Ĺ":1385,"ĠíĺĦìŀ¬":1386,"ìĹĨ":1387,"ìľ¼ë©´":1388,"Ġíļ¨":1389,"ì²ł":1390,"Ġì¤ĳìļĶ":1391,"ê¸Ģ":1392,"Ġ[":1393,"ĠíĮ¨":1394,"ac":1395,"ìĹĶ":1396,"¿Ĳ":1397,"Ġd":1398,"Ġìļ´ìĺģ":1399,"ë¸Ķ":1400,"ĠìĿ´ëŁ°":1401,"Ġì²ľ":1402,"Ġê¸¸":1403,"Ġo":1404,"ìĤ¬ìĹħ":1405,"ì£¼ìĿĺ":1406,"ĠëłĪ":1407,"ĠìķĦëĭ":1408,"ĠE":1409,"Ġê¸°ìŀĲ":1410,"ê·ł":1411,"Ġëħ¼":1412,"ì³Ĳ":1413,"Ġëĭ´":1414,"Ġë¨¹":1415,"ëĲĺê³ł":1416,"Ġì§Ģê¸Ī":1417,"ĠëĨį":1418,"Ġ<":1419,"Ġ0":1420,"ĠìĿ¼ë³¸":1421,"ëī´":1422,"Ġìķł":1423,"Ġíĸ¥":1424,"Ġìłķë¶Ģ":1425,"ĠìĿ´íĽĦ":1426,"Ġê´Ģê³Ħ":1427,"ĠD":1428,"ìŀ¥ìĿ´":1429,"ro":1430,"ìĿ´ì§Ģ":1431,"ĠìŀĪìĿĦ":1432,"ĠìĥĪë¡ľìļ´":1433,"´ëį":1434,"Ġë³¼":1435,"ĽĪ":1436,"Ġë§ĪìĿĮ":1437,"ìĹĪìĬµëĭĪëĭ¤":1438,"ìĺ¬":1439,"Ġê²°ê³¼":1440,"Ġf":1441,"ë§ī":1442,"Ġê°ĸ":1443,"íı°":1444,"Ġì½":1445,"Ġë°ĿíĺĶëĭ¤":1446,"íķĺë©´ìĦľ":1447,"ĠìĹĨëĭ¤":1448,"Ġë¸Į":1449,"ì£ł":1450,"Ġìĸ¼":1451,"ë¶ĢìĬ¤íĥĢë¹Ĺ":1452,"el":1453,"ĠíĹĪ":1454,"ë²Ķ":1455,"st":1456,"ê¹Ģ":1457,"Ġë²ł":1458,"ĠìĿ´ìĸ´":1459,"ê°ĢëĬĶ":1460,"ĠìĿ´ìķ¼":1461,"ĠR":1462,"ìĦ±ìĿ´":1463,"ë¦¬ê°Ģ":1464,"Ġì»¤":1465,"ë°±":1466,"ëĵ¤ê³¼":1467,"ĠíĻķìĿ¸":1468,"íį¼":1469,"et":1470,"ìĦľëĬĶ":1471,"ĠëĤĺíĥĢ":1472,"Ġë°Ķë¡ľ":1473,"ìĹ´":1474,"ĠêµŃê°Ģ":1475,"Ġë°±":1476,"ëĿ¼ìĿ¸":1477,"ëħĲ":1478,"ìĭľìĺ¤":1479,"....":1480,"´ë³´":1481,"íļĮìĿĺ":1482,"Ġìĸ´ëĸ¤":1483,"ìĿ´íĦ°":1484,"ë©Ķ":1485,"Ġíı¬íķ¨":1486,"ê¸°ëĬĶ":1487,"and":1488,"ìĭľìķĦ":1489,"ëŁ½":1490,"Ġëĵ±ìĿĺ":1491,"ent":1492,"ìĿ´ë©°":1493,"Ġëĭ¤ìĭľë³´ê¸°":1494,"ìĿĳ":1495,"ĠìĥģíĻ©":1496,"ĠêµŃëĤ´":1497,"ĠG":1498,"ë¨¸":1499,"âĢ¦":1500,"50":1501,"ìĦ¸ìļĶ":1502,"ĠëĲľëĭ¤":1503,"ĠìŀĪìľ¼ë©°":1504,"ì°©":1505,"ëŀľëĵľ":1506,"Ġê·¸ëłĩ":1507,"ĠìĿ´ë¥¼":1508,"ĠH":1509,"Ġê·¸ëŀĺ":1510,"ĠìĤ¬ìĿ´":1511,"ĠíļĮìĽĲ":1512,"ìĿ¸ìĿ´":1513,"Ġ,":1514,"ìĬ¤íħľ":1515,"Ġëľ":1516,"Ġë³´ë":1517,"ĠìĺģíĻĶ":1518,"ĠF":1519,"Ġíľ":1520,"ìª½":1521,"ĠìĬ¹":1522,"ì¸µ":1523,"ë§¨":1524,"Ġë§ĲíĸĪëĭ¤":1525,"ë²Į":1526,"Ġì¡´":1527,"Ġì¸":1528,"Ġê²ĮìŀĦ":1529,"ì±Ħ":1530,"ĠìĽĶ":1531,"ĠìĦłíĥĿ":1532,"ĠíĬ¹íŀĪ":1533,"Ġ16":1534,"mm":1535,"ìĤ¬ëĬĶ":1536,"ìĤ¬ê°Ģ":1537,"ĠìĿ¸íĦ°":1538,"ìĸ¼":1539,"íĻķ":1540,"ëĦ·":1541,"Ġê·¸ëŁ¬ëĤĺ":1542,"ìĿ´ìĬ¤":1543,"ĠìĦ¤ëªħ":1544,"ĠëĬĺ":1545,"Ġë¹ł":1546,"ĠìĿ´ìľł":1547,"ëĲĲëĭ¤":1548,"ëķĮ":1549,"Ġë¸Ķ":1550,"Ġb":1551,"ì¼Ģ":1552,"ĠìĿ´ë¯¸":1553,"ìļ±":1554,"ìĦ¼íĦ°":1555,"ìĸ´ìļĶ":1556,"Ġëª¨ìĬµ":1557,"ìŀĲë¥¼":1558,"ĠìŀĪê³ł":1559,"íĮ¨":1560,"ĠíĶĦë¡ľê·¸ëŀ¨":1561,"Ġê¼":1562,"ê³³":1563,"êµĲìľ¡":1564,"Ġì¦Ĳ":1565,"ĠëģĿ":1566,"Ġìĵ°":1567,"ë¶Ģë¶Ħ":1568,"ìĹĲìĦľëıĦ":1569,"Ġì²ĺìĿĮ":1570,"ë²ł":1571,"Ġê³łê°Ŀ":1572,"ì¡Įëĭ¤":1573,"ìĸ´ëĤĺ":1574,"ĠìķĬê³ł":1575,"ĠëıĻìķĪ":1576,"ĠíķĻìĥĿ":1577,"Ġì£":1578,"ë¦´":1579,"íĮĢ":1580,"Ġë³´ê³ł":1581,"Ġì²«":1582,"ì¹ľ":1583,"ìĭĿìĿĦ":1584,"£Į":1585,"¾¸":1586,"Ġm":1587,"ìĤ¬ìĿĺ":1588,"Ġê·¸ê²ĥ":1589,"ĠìĿ´ë£":1590,"ĠìĤ¬ëŀĳ":1591,"ìĭľëĬĶ":1592,"íģ¼":1593,"Ġw":1594,"ĠíĻľëıĻ":1595,"ou":1596,"ìĽĲìĿĦ":1597,"ĠëĮĢìĥģ":1598,"Ġê²½ìłľ":1599,"Ġìµľê³ł":1600,"Ġê¸°ë¡Ŀ":1601,"ê²Ģ":1602,"Ġ15":1603,"ol":1604,"ĠìŀĪìĹĪëĭ¤":1605,"Ġì¶ķ":1606,"ìķĻ":1607,"Ġìŀ¡":1608,"ìĹ¼":1609,"íĬ¹":1610,"íĥĦ":1611,"Ġë¶Ģë¶Ħ":1612,"ĠìŀĪìĹĪ":1613,"ĠìĿĺë¯¸":1614,"Ġê·¸ëĬĶ":1615,"Ġìĸ»":1616,"ĳìĬ¤":1617,"Ġin":1618,"ĠíħĮ":1619,"ë·":1620,"íĺľ":1621,"as":1622,"ëĭµ":1623,"Ġêµ°":1624,"ĠëĲĺëĬĶ":1625,"31":1626,"Ġê³¨":1627,"Ġìķ¼":1628,"ìį¨":1629,"ëł¸":1630,"ìŀĲìĿ¸":1631,"ëĦĲ":1632,"Ġê±´ê°ķ":1633,"ë¥´ë©´":1634,"ìĤ":1635,"ĠN":1636,"Ġìµľê·¼":1637,"ĠìŀĪëıĦë¡Ŀ":1638,"ë°Ģ":1639,"ì§ķ":1640,"´ëį°":1641,"ĠãĢ":1642,"ìŀĪëĬĶ":1643,"Ġíķ´ëĭ¹":1644,"ë¯":1645,"ëĥĲ":1646,"Ġë¬¸íĻĶ":1647,"¿ł":1648,"ìĿ´ìĹĪëĭ¤":1649,"Ġì¸¡":1650,"Ġëĳ":1651,"ĠíĻį":1652,"ê¸°ìĹħ":1653,"ĠìŀĲìĭłìĿĺ":1654,"Ġã":1655,"ĠìĤ¬ì§Ħ":1656,"Ġë³ĳ":1657,"Ġì§ģìłĳ":1658,"Ġê°Ī":1659,"¬íķľ":1660,"ê°Ģì§Ģ":1661,"ĠêµŃë¯¼":1662,"ëıĦë¥¼":1663,"ê°Ī":1664,"Ġìī½":1665,"Ġë³Ħ":1666,"ëĨį":1667,"ë¦¬ìķĦ":1668,"Ġêµ¬ìĦ±":1669,"ìĭŃ":1670,"íĺģ":1671,"Ġê·Ģ":1672,"Ġì°¸ìĹ¬":1673,"íĽĪ":1674,"ĠìķĬìĿĢ":1675,"Ġê¸°ëĬ¥":1676,"----":1677,"ìľµ":1678,"ì£¼ëĬĶ":1679,"ì¹ĺë¥¼":1680,"íķĺìĺĢ":1681,"ëĭĪê¹Į":1682,"ĠëĮĢíķĻ":1683,"ì´Ŀ":1684,"ëĿ¼ìĿ´":1685,"ëĿ¼ëıĦ":1686,"200":1687,"iv":1688,"ë¦¬ìĬ¤":1689,"Ġë¬´ë£Į":1690,"il":1691,"ĠìŀĪëĭ¤ëĬĶ":1692,"Ġê´Ģë¦¬":1693,"Ġ2018":1694,"ì¸¡":1695,"ĳìĿ´":1696,"ĠìĹ¬ìĦ±":1697,"ĠW":1698,"Ġê³Ħíļį":1699,"Ġìłģìļ©":1700,"Ġof":1701,"ĠíĤ":1702,"Ġë¨¸":1703,"ë³´íĹĺ":1704,"ĠìķĪìłĦ":1705,"ë§ŀ":1706,"ĠìķĮëł¤":1707,"ëĮĢíķľ":1708,"Ġâĳ":1709,"ig":1710,"ĠìĨ¡":1711,"ìłľë¡ľ":1712,"Ġë§¤ìļ°":1713,"Ġì¦Ŀê°Ģ":1714,"Ġë§ī":1715,"Ġíĺ¸íħĶ":1716,"Ġì°¾ìķĦ":1717,"ĠìĿĢ":1718,"ê¸´":1719,"ĠìĹĨìĿ´":1720,"Ġë§Įëĵ¤ìĸ´":1721,"ĠíĻľìļ©":1722,"Ġìĥī":1723,"ìĿ¸ìĿĺ":1724,"íĸĪìĬµëĭĪëĭ¤":1725,"íĸĪëįĺ":1726,"Ġì²ł":1727,"íħĲ":1728,"ĠìĤ°ìĹħ":1729,"Ġë¶ģíķľ":1730,"ĠìķĦëĭĮ":1731,"ĠO":1732,"ëª°":1733,"Ġê´Ģìĭ¬":1734,"Ġíĭ":1735,"ìĤ´":1736,"ĠìĿ¸ê°Ħ":1737,"´ë°":1738,"ìĽĲìĿ´":1739,"ëŀµ":1740,"ĠìĿ¼ë°ĺ":1741,"ĠìĿĳ":1742,"Ġ18":1743,"ation":1744,"ìĽĲìĿĺ":1745,"Ġê³¼ìłķ":1746,"ë´ī":1747,"Ġíİĺ":1748,"íķľêµŃ":1749,"Ġëĸł":1750,"ĠìłĦì²´":1751,"Ġì¤Ģë¹Ħ":1752,"Ġ...":1753,"Ġë¶ĦìĦĿ":1754,"ĠëįĶìļ±":1755,"ec":1756,"íĥģ":1757,"Ġê²ĥìŀħëĭĪëĭ¤":1758,"´ëĿ¼":1759,"Ġ100":1760,"ĠíıŃ":1761,"ĠìĥĿìĤ°":1762,"Ġê°Ģê²©":1763,"Ġ14":1764,"ìĭľíĤ¤":1765,"Ġë³´ìĹ¬":1766,"ĠíĻĺê²½":1767,"Ġ31":1768,"ĠìĿ´ëŁ¬íķľ":1769,"íĺ¼":1770,"Ġì¤ĳìĭ¬":1771,"ĠìĿ´ë¦Ħ":1772,"Ġ|":1773,"ëį¸":1774,"Ġê²½íĹĺ":1775,"íķĺìĺĢëĭ¤":1776,"Ġê¸Ģ":1777,"ëĳĳìĿ´":1778,"ìħĶ":1779,"ìķĶ":1780,"ì§Ģëħ¸":1781,"Ġë³´ë©´":1782,"ĠìĪĺëıĦ":1783,"Ġë²Į":1784,"ë¦Ń":1785,"ìĤ¬íļĮ":1786,"Ġìĸ´ëł¤":1787,"ë¦¬ìĹĲ":1788,"Ġê¸ī":1789,"id":1790,"ĠíĦ":1791,"Ġ21":1792,"Ġíļ¨ê³¼":1793,"ĠìĹĦ":1794,"ĠìĤ¶":1795,"Ġìĺ¬íķ´":1796,"»ê²Į":1797,"Ġê¸°ëĮĢ":1798,"ĠìŀĲëıĻ":1799,"ë£¹":1800,"Ġë°©ë¬¸":1801,"Ġê¸°ì¤Ģ":1802,"ĠëĤľ":1803,"ĩ¼":1804,"ë§ĪíĬ¸":1805,"ìĽĲìĿĢ":1806,"Ġë¬¼ë¡ł":1807,"ĠìĿ´íķ´":1808,"Ġë°ľíĳľ":1809,"Ġê°ĻìĿ´":1810,"ë¯Ģë¡ľ":1811,"íĨ±":1812,"ìľĦìĽĲíļĮ":1813,"ì·¨":1814,"ê³¡":1815,"ì°¬":1816,"ë¡¯":1817,"Ġëªĩ":1818,"ë§ģ":1819,"Ġh":1820,"ìĨĲ":1821,"ì¼ľ":1822,"ĠëĲĺìĸ´":1823,"íľ":1824,"ëıĮ":1825,"Wh":1826,"ĠìĹ¬íĸī":1827,"ëł¥ìĿ´":1828,"ĠìĺĪìłķ":1829,"Ġìĭľìŀ¥":1830,"ìī":1831,"ĠëŁ":1832,"Ġì½ĺ":1833,"ĠëĶ°ë¥´ë©´":1834,"ë·°":1835,"íķĺê±°ëĤĺ":1836,"ĠíĻ©":1837,"Ġë³´íĹĺ":1838,"Ġë¶Ħìķ¼":1839,"Ġìĸ´ëĬĲ":1840,"ĠìĨĮë¹Ħ":1841,"Ġëª°":1842,"ìļ´ëį°":1843,"ê´Ģë¦¬":1844,"ĠëıĮìķĦ":1845,"ĠíķĦìļĶíķľ":1846,"ĠëĨĴìĿĢ":1847,"ĠìĭľìĬ¤íħľ":1848,"Ġë°ĽìķĦ":1849,"Ġì±ħìŀĦ":1850,"ĠíĤ¤":1851,"Ġê°Ģì§Ģ":1852,"ĠíĮĲë§¤":1853,"am":1854,"ëī´ìĬ¤":1855,"ê²łëĭ¤":1856,"ĠëĦĪë¬´":1857,"ĠíĴį":1858,"Ġìĺģíĸ¥":1859,"Ġ13":1860,"ĠìľĦì¹ĺ":1861,"Ġëĭ¹ìĭľ":1862,"Ġìĸ´ëĸ»ê²Į":1863,"Ġíıīê·ł":1864,"ìĹĩ":1865,"ìĹĨìĿ´":1866,"ë¬´ë":1867,"ĠìĦ¤ì¹ĺ":1868,"Ġê³ĦìĨį":1869,"íķĦ":1870,"ĠíĽ":1871,"ĠìĿ´ëł":1872,"Ġê·¹":1873,"ëı¼":1874,"ĠìļĶêµ¬":1875,"ë¶ĢìĬ¤íĥĢë¹Ĺë¶ĢìĬ¤íĥĢë¹Ĺ":1876,"ìģ":1877,"ëĭ¤ë©´":1878,"40":1879,"íķĳ":1880,"Ġë¿Ĳ":1881,"ìľĦë¥¼":1882,"ìľ¼ëĤĺ":1883,"Ġì¶Ķê°Ģ":1884,"ìŀ¡":1885,"ĠìĤ¼ìĦ±":1886,"kWh":1887,"Ġëª¸":1888,"ĠìĹĳìĬ¤":1889,"Ġìļ°ë¦¬ëĬĶ":1890,"Ġand":1891,"Ġìłķë§Ĳ":1892,"ëĤ¬":1893,"Ġê°Ģì¡±":1894,"¶ģ":1895,"Ġìŀł":1896,"ìº":1897,"ë¬¸íĻĶ":1898,"ìĤ¬ìĿ´íĬ¸":1899,"Ġì¢Ģ":1900,"ìĹ°êµ¬":1901,"ĠëķĮë¬¸ìĿ´ëĭ¤":1902,"ĠU":1903,"ê¸°ë¡ľ":1904,"ìĬ¤ë¥¼":1905,"Ġìĺ¤ëĬĺ":1906,"ĠìĻĢ":1907,"ĠêµŃìłľ":1908,"Ġâĸ³":1909,"¶Ģ":1910,"ëģ¼":1911,"ìĿĺë¥¼":1912,"ëıĦê°Ģ":1913,"Ġ17":1914,"ãħĭ":1915,"Ġë§Ľ":1916,"ëĤĺëĿ¼":1917,"Ġto":1918,"Ġê´Ģíķľ":1919,"Ġì¦ī":1920,"ĠëĤĺëĬĶ":1921,"½ĥ":1922,"ìħ¨":1923,"ĠìºĲ":1924,"ë°ĶëĳĳìĿ´":1925,"Ġê°ľìĿ¸ìłķë³´":1926,"ĠíķĻêµĲ":1927,"ìĭľìĹĲ":1928,"Ġì¡´ìŀ¬":1929,"ë¥´ëĬĶ":1930,"ìĿ¸ëį°":1931,"ìĥĪ":1932,"ìĹ°íķ©":1933,"ĠìŀĳíĴĪ":1934,"ëĤĺëĬĶ":1935,"ë²½":1936,"ĠêµĲìĪĺ":1937,"ëĪĦ":1938,".âĢĿ":1939,"60":1940,"Ġê²°ìłķ":1941,"Ġê²½ìļ°ìĹĲëĬĶ":1942,"ëĵľëĬĶ":1943,"Ġìĥģíĥľ":1944,"íļĮë¥¼":1945,"ĠìĿ¼ë¶Ģ":1946,"Ġë°ľìłĦ":1947,"Ġë¨¼":1948,"íķĺì§Ģë§Į":1949,"Ġìľłì§Ģ":1950,"Ġë²Ķ":1951,"Ġë©´":1952,"Ġíķĺë£¨":1953,"ë¦¬íĭ°":1954,"ow":1955,"Ġíıīê°Ģ":1956,"ĠëĨĵ":1957,"ĠìŀĲìĹ°":1958,"ĠìĹŃìĭľ":1959,"Ġê°Ģì§Ģê³ł":1960,"Ġìłķì±ħ":1961,"ì§ĢìĹŃ":1962,"íļ¨":1963,"ëľ":1964,"ĠëĮĢë¶Ģë¶Ħ":1965,"ì¹ĺëĬĶ":1966,"Ġì¢ĭìķĦ":1967,"Ġê°Ģìļ´ëį°":1968,"ë§ĮìĽĲ":1969,"Ġíĺ¼":1970,"íĺĢ":1971,"ĠìĹŃìĤ¬":1972,"ĠëĬĲëĤ":1973,"ë¡Ń":1974,"Ġìłľìŀĳ":1975,"ĠìĿ´ëłĩ":1976,"Ġì§ĢìĨį":1977,"Ġl":1978,"com":1979,"ĠìĦ±ê³µ":1980,"ëĶĶìĸ´":1981,"80":1982,"ëĦ¤ìļĶ":1983,"Ġê·ľìłķ":1984,"un":1985,"ê¸°ê´Ģ":1986,"ìĿ´ìĸ´":1987,"íĥĪ":1988,"Ġë§Īëł¨":1989,"ì§ĢëıĦ":1990,"Ġê¸°ë³¸":1991,"ìĬ¤íĨ±":1992,"km":1993,"ĠìĦ±ìŀ¥":1994,"Ġ.":1995,"ëĭ´ë³":1996,"ĠëĤĺìĺ¤":1997,"Ġì¹¨":1998,"´ëĮĢì¶ľ":1999,"ĩ´":2000,"ĠìĤ¬ëŀĮìĿ´":2001,"ĠìĶ":2002,"ëªħìĿĺ":2003,"ĠëĤ®":2004,"Ġì£¼íĥĿ":2005,"Ġë§ĲìĶ":2006,"Ġë¬´ìĹĩ":2007,"ëıĻìķĪ":2008,"Ġë°©ìĨ¡":2009,"êµ´":2010,"Ġê¸°ê°Ħ":2011,"ê°Ļ":2012,"ĠìĿ½":2013,"ìĿĢíĸī":2014,"ìĥģìĿ´":2015,"ê±¸":2016,"ê¸°ìĪł":2017,"Ġëį°ìĿ´íĦ°":2018,"os":2019,"Ġê²ĥëıĦ":2020,"ĠìĬ¤íĥĢ":2021,"ut":2022,"Ġëķ":2023,"Ġê³µëıĻ":2024,"ëĭ¤ê°Ģ":2025,"ĠìĿ¸íĦ°ëĦ·":2026,"ag":2027,"Ġíĺ¹":2028,"íı¬ì»¤":2029,"ĠìŀĪëĭ¤ê³ł":2030,"ĠìĥĿíĻľ":2031,"ìĪĻ":2032,"Ġë³ĢíĻĶ":2033,"ëĭ´ë³´ëĮĢì¶ľ":2034,"ë¡ľìĦľ":2035,"Ġê°Ģìŀħ":2036,"im":2037,"ìŀ¥ìĹĲìĦľ":2038,"ìĿ´ê°Ģ":2039,"ì§ľ":2040,"Ġíķµ":2041,"ĠìĿ´ìłľ":2042,"ĠëĤ´ê°Ģ":2043,"Ġëĵ±ìĿ´":2044,"ìłĲìĿĦ":2045,"em":2046,"ĠìĪĺì¤Ģ":2047,"ĠíĬ¹ë³Ħ":2048,"Ġìħ":2049,"ìĿ¸ìĿĦ":2050,"Ġë¯":2051,"ìĿĮìĿĦ":2052,"Ġìłķì¹ĺ":2053,"ëĶ©":2054,"ìĥģìĿĺ":2055,"ĠìĤ¬ê±´":2056,"ë§ŀê³ł":2057,"ëıĦìĿĺ":2058,"Ġì¹ĺë£Į":2059,"Ġì£½":2060,"ë¡ľë¶ĢíĦ°":2061,"ìĪĺë¥¼":2062,"ëªħìĿ´":2063,"ĠìķĬìķĺ":2064,"ìłľë¥¼":2065,"Ġê·¸ìĿĺ":2066,"ê³¨":2067,"ìĿ´ëĵľ":2068,"ot":2069,"íķ´ë":2070,"ì§Ģê°Ģ":2071,"ìĹĪëįĺ":2072,"Ġê·¸ëŀĺìĦľ":2073,"ĠìĹĳìĬ¤ë§¨":2074,").":2075,"100":2076,"Ġíķĺì§Ģ":2077,"ìĤ¼":2078,"ëłĮ":2079,"Ġë¹ĦêµĲ":2080,"ëĵ¯":2081,"ìŀ¥ìĿĺ":2082,"ur":2083,"íĬ¸ë¥¼":2084,"ĠìŀĲìľł":2085,"ëıĦë¡ľ":2086,"Ġì¶Ķì§Ħ":2087,"us":2088,"âĢľ":2089,"ĠìĻľ":2090,"íĹĪ":2091,"Ġì¤ĳìļĶíķľ":2092,"ĠëŃ":2093,"Ġì»¨":2094,"Ġëī´":2095,"ìĿ¸ì§Ģ":2096,"ì¹Ļ":2097,"ì¹´ì§Ģëħ¸":2098,"ĠíĿ¬":2099,"íķĺëł¤":2100,"Ġê¿":2101,"ìłķíķľ":2102,"ëĲĺì§Ģ":2103,"ê°ľìĽĶ":2104,"Ġìłķìĥģ":2105,"ĠìĿ´ëłĩê²Į":2106,"Ġê³µê°ľ":2107,"ĠëĲ©ëĭĪëĭ¤":2108,"įëĭĪëĭ¤":2109,"ĠíĻĪ":2110,"ìĤ°ìĹħ":2111,"ĠëıĦìĭľ":2112,"Ġ=":2113,"ĠìĭľëĮĢ":2114,"ì¶©":2115,"ëįķ":2116,"ĠìĬ¤ë§ĪíĬ¸":2117,"Ġì¡°ê¸Ī":2118,"od":2119,"Ġì¼":2120,"ĠìĥģíĴĪ":2121,"ìĦľìļ¸":2122,"ìłĦìĹĲ":2123,"ĠìķĮê³ł":2124,"ĠìĹŃíķł":2125,"Ġìĭłì²Ń":2126,"ĠìĿ´ëĬĶ":2127,"íĶ½":2128,"íĦ´":2129,"ĠìĿ´ëĤ":2130,"Ġìķħ":2131,"ìĬ¤ë¡ľ":2132,"ëĵ¤ëıĦ":2133,"ĠëĮĢíķ´ìĦľ":2134,"ìĿ¸ëĭ¤":2135,"Ġëĳĺ":2136,"ĠìķĦì§ģ":2137,"ìĽĮíģ¬":2138,"Ġìĺ¨ëĿ¼ìĿ¸":2139,"Ġìĸ¼ë§Ī":2140,"70":2141,"ê³Ħë¥¼":2142,"ĠìĽ¹":2143,"ĠìĤ´ìķĦ":2144,"ëĲ©ëĭĪëĭ¤":2145,"ĠëĨĢ":2146,"ëĶĶìĺ¤":2147,"ë¬¼ìĿĦ":2148,"ĠìĿ´ìĹĲ":2149,"Ġë§ĲìĶĢ":2150,"Ġë¯¸ëŀĺ":2151,"ë¨¼":2152,"ĠìĹ´ë¦°":2153,"ë´ĩ":2154,"Ġë¯¿":2155,"ĠìŀĪëĬĶëį°":2156,"Ġìĺ¤ëĬĶ":2157,"ĠV":2158,"ìĻĶ":2159,"Ġì¹ľêµ¬":2160,"íĸĪê³ł":2161,"ëĺĲ":2162,"ĠíĴĪ":2163,"ëĬĶëĭ¤":2164,"ĠíĪ¬ìŀĲ":2165,"Ġíķ´ê²°":2166,"ì´Į":2167,"ê°ĲìĿĦ":2168,"ĠìķĬìĿĦ":2169,"íĤ¬":2170,"Ġìĺ¤íĽĦ":2171,"ì£Ħ":2172,"ĸìĹĲ":2173,"ê³łìĬ¤íĨ±":2174,"ĠìķĶ":2175,"ë§Īëĭ¤":2176,"ì¦ĺ":2177,"Ġëľ»":2178,"ìĽĢìĿĦ":2179,"ĠíĥĦ":2180,"Ġêµ¬ë§¤":2181,"Ġê°ľìµľ":2182,"íķĺìĭľ":2183,"ìłķë¶Ģ":2184,"ĠëĶĶìŀĲìĿ¸":2185,"ìŀĲìĹĲê²Į":2186,"ĠíĳľíĺĦ":2187,"ch":2188,"ìĻĶëĭ¤":2189,"Ġê³µê°Ħ":2190,"íıŃ":2191,"Ġë°Ģ":2192,"ê²½ìłľ":2193,"Ġëĭµ":2194,"Ġì£¼ìļĶ":2195,"ĠëıĪ":2196,"ëıĻìĿĦ":2197,"ìĹĪê³ł":2198,"90":2199,"ĠìĤ¬ê³ł":2200,"ĠìĿ´ê²ĥ":2201,"ê·Ģ":2202,"ĠìłĦêµŃ":2203,"ĠìķĮìķĦ":2204,"ĠìµľëĮĢ":2205,"ĠíĦ°":2206,"ìĿ¸ìĿĢ":2207,"Ġê¹¨":2208,"ad":2209,"ìĦľë¥¼":2210,"´ë§":2211,"Ġìľ¡":2212,"ìĸ´ìĦľ":2213,"ìľ¼ë¡ľìį¨":2214,"ĠíĺĦëĮĢ":2215,"Ġê°ľìĦł":2216,"Ġë¹Ħë¡¯":2217,"Ġê²½ìŁģ":2218,"Ġíķ´ìĻ¸":2219,"Ġë°°ìļ°":2220,"Ĩį":2221,"íĦ¸":2222,"Ġë³´íĺ¸":2223,"ĠìĹ°ê²°":2224,"ĠìŀĳìĿĢ":2225,"Ġ25":2226,"ĠíĥĪ":2227,"Ġê±°ìĿĺ":2228,"ĠìĹħë¬´":2229,"ĩĮ":2230,"ĳ¸":2231,"ĠìķĦëŀĺ":2232,"ìłĦìŀĲ":2233,"ĠìŀĲê¸°":2234,"ìłĦíŀĪ":2235,"ëªħìĿĦ":2236,"Ġìĸ´ë¦°":2237,"ìĸµìĽĲ":2238,"Ġì§Ģë°©":2239,"ìŀĲëĵ¤ìĿ´":2240,"ëĥ¥":2241,"ĠìĿ´ìķ¼ê¸°":2242,"ĠìŀĪì§Ģë§Į":2243,"ì¶ĺ":2244,"Ġë°©ìĭĿ":2245,"ĬìĿĢ":2246,"ìĬ¬":2247,"ĠìĨĮê°ľ":2248,"ĵ¨":2249,"ìĬ¨":2250,"ìŀ¥ìĹĲ":2251,"Ġê°Ĳëıħ":2252,"Ġë¦¬ìĸ¼":2253,"Ġn":2254,"Ġêµ¬ì¡°":2255,"Ġì¶Ķì²ľ":2256,"ĠëĬ¥":2257,"ĠìĪĻ":2258,"ê¸°ê°Ħ":2259,"íĿ¥":2260,"ĠìŀĲì²´":2261,"ĠìĿ´ëĤł":2262,"%)":2263,"Ġìļ¸":2264,"¬¼":2265,"Ġê¸°ì¡´":2266,"Ġìī½ê²Į":2267,"ãħİ":2268,"ter":2269,"íĥķ":2270,"Ġëª¨ëį¸":2271,"ww":2272,"ìľ¤":2273,"ë³¼":2274,"Ġ50":2275,"Ġëĸ¨ìĸ´":2276,"ëĮĢíķĻ":2277,"ìĪĺê°Ģ":2278,"ĠìĿ¸ìłķ":2279,"ĠíıĲ":2280,"ĠíĮĲëĭ¨":2281,"ì§Ħëĭ¤":2282,"ê´":2283,"íĤ¨":2284,"Ġìłľê°Ģ":2285,"âĢĺ":2286,"íĭĢ":2287,"ìĽĢìĿ´":2288,"Ġíķ´ìķ¼":2289,"ĠìĤ¬ëŀĮëĵ¤ìĿ´":2290,"Ġëħ¸ëł¥":2291,"ì¤Ħ":2292,"íĶĦíĬ¸":2293,"ĠìŀĳìĹħ":2294,"Ġì§ĢëĤĺ":2295,"ĠìķĦë¦Ħ":2296,"ĶĶ":2297,"íķĺëĬĶëį°":2298,"Ġëĭ¹ìĭł":2299,"ĠìĿĺë£Į":2300,"Ġë³Ģê²½":2301,"ìĬ¤íģ¬":2302,"ì°¸":2303,"ë¦¬ì§Ģ":2304,"Ġ24":2305,"íıĲ":2306,"ay":2307,"Ġë£":2308,"ê¾¸":2309,"ĠíĮĢ":2310,"ĠìŀĲë£Į":2311,"íĴį":2312,"ap":2313,"ìłķìĿ´":2314,"Ġê³Ħìķ½":2315,"Ġê°ķíĻĶ":2316,"Ġë¨¼ìłĢ":2317,"łµ":2318,"Ġëĵ±ìĹĲ":2319,"ĠëĶ°ë¥¸":2320,"!!":2321,"Ġë°ĽìĿĢ":2322,"¢°":2323,"ìĨĮë¥¼":2324,"Ġì§ĢëĤľíķ´":2325,"ì¼ĢìĿ´":2326,"ĠíĶ¼íķ´":2327,"´ëł":2328,"ĠìĿĮìķħ":2329,"®¤":2330,"ìĻķ":2331,"ëŀ«":2332,"ëĲĺìĹĪëĭ¤":2333,"ĠëħĦ":2334,"Ġíģ¬ê²Į":2335,"Ġë¦¬ìĸ¼ë¦¬íĭ°":2336,"Ġê±´ë":2337,"ìĿ´ë²Ī":2338,"Ġìłķë³´ë¥¼":2339,"tt":2340,"Ľ°":2341,"ìĭľìĦ¤":2342,"ê²łìĬµëĭĪëĭ¤":2343,")âĢĻ":2344,"Ġê²½ê¸°":2345,"ìłģìĿ´":2346,"Ġê¸°ë°ĺ":2347,"ë¹Ħëĵł":2348,"íħĲì¸ł":2349,"Ġë³´ê¸°":2350,"íĬ¸ìĽĮíģ¬":2351,"ë¯¸íĦ°":2352,"Ġì»´":2353,"Ġë§Įíģ¼":2354,"Ġê°ķì¡°":2355,"ĠìĿ´ë£¨ìĸ´":2356,"Ġíķĺë©´":2357,"ì¹Ń":2358,"íļĮê°Ģ":2359,"ĠìĿ´ëıĻ":2360,"Ġê²°êµŃ":2361,"//":2362,"ĠëĤ¨ë¶ģ":2363,"ë¢°":2364,"ì§Ģë§ī":2365,"Ġìĭľë¯¼":2366,"ê¼":2367,"ì§ĢìĽĲ":2368,"ĠìķĬìĬµëĭĪëĭ¤":2369,"ê¶ĮìĿĦ":2370,"ĠìķĬìķĦ":2371,"Ġê³łëł¤":2372,"ĠìĽĮ":2373,"ĠíĻķëĮĢ":2374,"ìĬ¤íĦ°":2375,"Ġëĵ¯":2376,"íĸĪëĭ¤ê³ł":2377,"Ġíŀ":2378,"Ġë¹Ħìļ©":2379,"Ġìľ¤":2380,"ê¸ĪìĿĦ":2381,"Ġë§Įëĵł":2382,"Ġìļ°ë¦¬ê°Ģ":2383,"ì½ĺ":2384,"ĠìķĦì£¼":2385,"ìĺ¥":2386,"ëŀĻ":2387,"ìļķ":2388,"ĠìŀĪê²Į":2389,"íĵ¨":2390,"Ġìĭ¤ìĭľ":2391,"ìĶ©":2392,"ìłĦìĿĦ":2393,"Ġê¿Ī":2394,"ëĵľë¥¼":2395,"ĠìĦľë¡ľ":2396,"Ġì¡°ìĤ¬":2397,"ì¤":2398,"Ġâĸ²":2399,"ĠìķĦëĭĪëĭ¤":2400,"ĠíĿĲ":2401,"Ġì²ĺë¦¬":2402,"ë°ĶìĿ¼":2403,"Ġëĥ":2404,"Ġëħ¸ëıĻ":2405,"ĠìłĦìŀĲ":2406,"íĶĦë¡ľ":2407,"Ġ>":2408,"ìĿ¸ê°Ģ":2409,"Ġë¶ĢìĤ°":2410,"Ġê°ĲìĤ¬":2411,"Ġë¸Įëŀľëĵľ":2412,"íı¬ì¸ł":2413,"Ġ2016":2414,"ĠìłĦë§Ŀ":2415,"ĠíĴĢ":2416,"ìĿ´ìĹĲ":2417,"ë¥´ê²Į":2418,"Ġìķŀìľ¼ë¡ľ":2419,"ex":2420,"Ġ2017":2421,"ë¿Ĳ":2422,"ĠìĹĶ":2423,"ê°ľë°ľ":2424,"íĻĺê²½":2425,"íķµ":2426,"ĠìĿ¸íķ´":2427,"ĠìŀĪìĸ´ìĦľ":2428,"Įĵ":2429,"Ġì£¼ë³Ģ":2430,"ttp":2431,"ë¶Ģë¥¼":2432,"Ģë¡ľë²Į":2433,"ìŀĲë¡ľ":2434,"ì¦Į":2435,"ë°©ë²ķ":2436,"ëĭ¤ìļ´":2437,"ĠìĹ¬ê¸°":2438,"Ġíı¬ë¹Ħëĵł":2439,"Ġê´ĳê³ł":2440,"ct":2441,"Ġìį":2442,"íļĮìĤ¬":2443,"ìłĿ":2444,"ĠìĥģëĮĢ":2445,"Ġê·ľëª¨":2446,"ìĿ´ë¥¼":2447,"ìĿ´ë¸Į":2448,"Ġëħ¹":2449,"ĠëĲĺìĹĪëĭ¤":2450,"ëĭĿ":2451,"ì¹ł":2452,"ê·¸ë£¹":2453,"Ġë¥":2454,"ëĲĲ":2455,"Ġê²½ìĺģ":2456,"ĠìĺĪìĥģ":2457,"Ġëª©íĳľ":2458,"ä¸":2459,"Ġê°Ģì§Ħ":2460,"ĠëĲĺê³ł":2461,"ê³¼ìĿĺ":2462,"ĠíĽĦë³´":2463,"ĠìĿĮìĭĿ":2464,"ĠëĪĦêµ¬":2465,"ĠJ":2466,"ìĦłìĿĦ":2467,"ìłķìĿĢ":2468,"Ġë°Ľê³ł":2469,"ìłľê°Ģ":2470,"ì¿ł":2471,"ê¸°ìĿĺ":2472,"Ġê·¸ëŁ°ëį°":2473,"âĸ":2474,"Ġì£¼ìŀ¥":2475,"ĠìķĦë¬´":2476,"ĠíĸīìĤ¬":2477,"Ġìłķìĭł":2478,"Ġë°ľê²¬":2479,"ce":2480,"ì£¼ìĨĮ":2481,"ìĽł":2482,"íķľëĭ¤ëĬĶ":2483,"Ġë¬¸ìłľê°Ģ":2484,"Ġë²Īì§¸":2485,"ver":2486,"ìĿ´íģ¬":2487,"ĠëĽ°":2488,"ë¡ľëĵľ":2489,"ìĿ¼ë¶ĢíĦ°":2490,"Ġê¸°ìĸµ":2491,"ĠìĦľë¹ĦìĬ¤ë¥¼":2492,"Ġê¸Īìľµ":2493,"íĶĪ":2494,"ĠìŀĲë¦¬":2495,"ĠìĿĺíķ´":2496,"Ġ&":2497,"ĠìĻķ":2498,"íİĺìĿ´ì§Ģ":2499,"ìĻĦ":2500,"ĠëĤĺëĿ¼":2501,"ëĭĺìĿĺ":2502,"ìĽĥ":2503,"Ġê°Ļëĭ¤":2504,"ëł¸ëĭ¤":2505,"ì§ĢëĤľ":2506,"Ġìľłëªħ":2507,"ĠëĶ°ëĿ¼ìĦľ":2508,"ìĬ¤ëĬĶ":2509,"ë¬¸ìĿĦ":2510,"íļĮëĬĶ":2511,"ĠíĺĦìĭ¤":2512,"Ġë¹¨":2513,"ìĿ¼ìĿĦ":2514,"Ġê·¸ëłĩê²Į":2515,"Ġì¡°ìĦł":2516,"íķľëĭ¤ê³ł":2517,"ĠìĿ¼ìĿ´":2518,"íģ´":2519,"Ġíİ¼":2520,"íķ´ì£¼":2521,"ìķĦìĿ´":2522,"ĠìĶ¨":2523,"Ġíĺķíĥľ":2524,"ë¡ľëĬĶ":2525,"Ġë¶Ģëĭ´":2526,"ìī¬":2527,"Ġë¶Ļ":2528,"ĠìŀĪìľ¼":2529,"Ġë§¡":2530,"ê°ľìĿĺ":2531,"Ġë§ĮëĤĺ":2532,"ë¦¬ìĿĺ":2533,"ĠëĮĢìĥģìľ¼ë¡ľ":2534,"ìĦľë¹ĦìĬ¤":2535,"ãİ":2536,"ĠìĤ¬íķŃ":2537,"ĠìľĦíķĺìĹ¬":2538,"ĠìķĬìķĺëĭ¤":2539,"ĠìĬ¬":2540,"Ġê¸´":2541,"ìĿ¼ê¹Įì§Ģ":2542,"Ġê²¨":2543,"íĹĮ":2544,"Ġìĸ´ëłµ":2545,"¤ëĭ¤":2546,"ìĹĦ":2547,"Ġê±´ì¶ķ":2548,"ĠìŀĲëıĻì°¨":2549,"ìĨĮëħĦ":2550,"ĠìķĬëĬĶëĭ¤":2551,"2018":2552,"ĠíĿĶ":2553,"ĠìĤ¬ìĿ´íĬ¸":2554,"Ġëĵ±ë¡Ŀ":2555,"Ġê´Ģê´ĳ":2556,"Ġì¶ľìĭľ":2557,"ê°Ģë¥¼":2558,"ìŀĲìĻĢ":2559,"ĠìĪĺíĸī":2560,"ëŁ¬ìļ´":2561,"ĠíķĺìĹ¬":2562,"ì§ĢìĿĺ":2563,"Ġê°ĳ":2564,"Ġíĸīë³µ":2565,"ir":2566,"oc":2567,"ĠíĮĶ":2568,"ĠíķĺëĤĺëĭĺìĿĺ":2569,"ëĿ¼ë§Ī":2570,"Ġê³¼ê±°":2571,"ì§ĢìĹĲ":2572,"ìĦ±ê³¼":2573,"ë¥´ê³ł":2574,"ĠìļĶì²Ń":2575,"://":2576,"Ġì°¸ìĦĿ":2577,"ul":2578,"ë¦½ëĭĪëĭ¤":2579,"ĠìĦĿ":2580,"Ġëª¨ë°ĶìĿ¼":2581,"Ġë¶Ģì¡±":2582,"Ġë³´ëĭ¤":2583,"Ġ40":2584,"ëĤ¬ëĭ¤":2585,"Ġê¾¸":2586,"ĠìľĦíĹĺ":2587,"íĨµìĭł":2588,"Ġê¶ģ":2589,"ëł´":2590,"ĠëĮĢíķĺìĹ¬":2591,"ĠìłĦíĨµ":2592,"Ġìĺ¤ìłĦ":2593,"Ġìĺ¬ëĿ¼":2594,"ĠìĿµ":2595,"ìĬĪ":2596,"ìĽ¨":2597,"ĠëĮĢë¹Ħ":2598,"ë¯¼êµŃ":2599,"íĤ¹":2600,"Ġìłģê·¹":2601,"ãĢı":2602,"ãħĭãħĭ":2603,"ê°ĢëĬ¥":2604,"ĠìľĦìĽĲ":2605,"íĻį":2606,"Ġì¶©ë¶Ħ":2607,"ë¥´ë":2608,"Ġê¸°íĥĢ":2609,"Ġíĺģ":2610,"Ġê´":2611,"ìĿ¼ìĹĲ":2612,"ìķĮ":2613,"Ġì£¼ë¯¼":2614,"ìķķ":2615,"ëĮĢíķĻêµĲ":2616,"ĠëŁ¬":2617,"íĺ¹":2618,"ĠìłĢëĬĶ":2619,"Ġ2015":2620,"ìĬ¤ìĿĺ":2621,"ë¶ĢëĬĶ":2622,"ìĥĿíĻľ":2623,"ëĭ¨ì²´":2624,"ìĹ°íķ©ëī´ìĬ¤":2625,"Ġìļ°ë¦¬ìĿĺ":2626,"Ġìĩ¼":2627,"Ġìķķ":2628,"íĬ¼":2629,"ĠìĿĺê²¬":2630,"Ġì¿ł":2631,"ìĩ":2632,"ĠíĹ¤":2633,"ìĬ¤ê°Ģ":2634,"ìĸ´ë¥¼":2635,"ĠìĿ¼ìĿĦ":2636,"ĠìĿĺíķľ":2637,"Ġê±°ëŀĺ":2638,"Ġê°ĢëĬ¥íķľ":2639,"ìĪĺìĿĺ":2640,"Ġê°ĲìĨĮ":2641,"Ġëĭ¤ë§Į":2642,"ëħĦìĹĲ":2643,"^^":2644,"Ġë§Īì§Ģë§ī":2645,"Ġê°ģê°ģ":2646,"Ġëĭ¤ìļ´":2647,"ĠìłķíĻķ":2648,"Ġëŀ":2649,"Ġíľ´":2650,"ìĹĲìĦľìĿĺ":2651,"ì²Ļ":2652,"ëħĦê°Ħ":2653,"ìķĪìĿĦ":2654,"íĵ¨íĦ°":2655,"ëĵ¤ìĹĲ":2656,"Ġìļ°ë¦¬ëĤĺëĿ¼":2657,"ĠëĬĲëĤĮ":2658,"Ġê³µê¸ī":2659,"Ġìĺģíĸ¥ìĿĦ":2660,"Ġì¡°ì§ģ":2661,"íĬ¸ë¡ľ":2662,"Ġìłľì¡°":2663,"íķ´ë³´":2664,"Ġë³´ìĿ¸ëĭ¤":2665,"íķĻê³¼":2666,"Ġìĸ¸ìłľ":2667,"Ġíĺ¹ìĿĢ":2668,"íļĮëĭ´":2669,"ĠìĹĨìĬµëĭĪëĭ¤":2670,"Ġëª©ìłģ":2671,"ë²Īíĺ¸":2672,"ê·¸ëŀĺ":2673,"ìĤ¬íķŃ":2674,"ĠìŀĪê¸°":2675,"ĠìŀĲìĦ¸":2676,"ĠìłĦìĹĲ":2677,"íķĺëıĦë¡Ŀ":2678,"Ġ23":2679,"Ĥĺ":2680,"ëĮĢíĳľ":2681,"Ġì§Ģìłģ":2682,"Ġê¼Ń":2683,"Ġê²¬":2684,"ìĺģìĥģ":2685,"Ġì§ĳì¤ĳ":2686,"ëª»":2687,"ĠíĶĦë¡ľìłĿ":2688,"Ġë´ī":2689,"ëįĶëĿ¼ëıĦ":2690,"ĠìĨĶ":2691,"ì¡°ìĿĺ":2692,"ĠìĥģìŀĲ":2693,"ĠìłĦëĭ¬":2694,"ãħł":2695,"Ġíį¼":2696,"Ġìĥģëĭ¹":2697,"ìĵ":2698,"Ġê°Ģê¹Į":2699,"ë³µì§Ģ":2700,"íĺĪ":2701,"ìŀĦìĿĦ":2702,"¸ëĭ¤":2703,"ê±°ë¦¬":2704,"ìĸ´ëĤľ":2705,"ĠëĤ´ëł¤":2706,"ìĭľìĺ¤íĽĦ":2707,"Ġ28":2708,"ĠìĬ¤ìĬ¤ë¡ľ":2709,"ìĭľìŀ¥":2710,"og":2711,"ìĹĺ":2712,"ìĺ¤ìłĦ":2713,"ìĿ´íķĺ":2714,"Ġìłľì£¼":2715,"¾Į":2716,"Ġï":2717,"ìĪĺëĬĶ":2718,"ìĸ´ë³":2719,"ìĿ´ëŀĢ":2720,"Ġre":2721,"Ġíķĺë©°":2722,"ìĹħì²´":2723,"ë¡Ńê²Į":2724,"ew":2725,"Ġì§Ģê¸ī":2726,"ê´Ģê³Ħ":2727,"Ġì°¸ê°Ģ":2728,"ĠìĤ¬ëŀĮìĿĢ":2729,"ess":2730,"Ġê°ģì¢ħ":2731,"Ġëĵ£":2732,"ĠìĽĢ":2733,"ëıĦëĬĶ":2734,"ëĮĢì¶ľ":2735,"ìĽĶìĿĺ":2736,"Ġìĭľíĸī":2737,"Ġ199":2738,"ìĸ´ìķ¼":2739,"ì»´":2740,"Ġë£¨":2741,"´ëŁ":2742,"ìĽĲìĹĲ":2743,"ĠìłĦë¬¸ê°Ģ":2744,"Ġfor":2745,"íı¼":2746,"ab":2747,"um":2748,"Ġê³µìľł":2749,"Ġê½ĥ":2750,"ĠìĦłìłķ":2751,"Ġê¸Ģë¡ľë²Į":2752,".\"":2753,"Ġêµ¬ì¶ķ":2754,"Ġìĸ´ëĶĶ":2755,"ĠíĨµìĭł":2756,"Ġìĸ¸ë¡ł":2757,"ĠìĹ¬ëŁ¬ë¶Ħ":2758,"Ġíĭ°":2759,"Ġì§Ģìłķ":2760,"Ġëĭ¨ìĪľ":2761,"ìĽ¨ìĸ´":2762,"Ġìļ´ëıĻ":2763,"Ġë°¤":2764,"Ġì£¼ìĭĿ":2765,"ë³¸ë¶Ģ":2766,"Ġì°¨ëŁī":2767,"Ġê²Įìĭľ":2768,"Ġëķħ":2769,"ĠëķĮìĹĲëĬĶ":2770,"Ġth":2771,"íķŃìĿĺ":2772,"ìĿ¸íĬ¸":2773,"ê±°ëŀĺ":2774,"ìľ¼ë¡ľìĦľ":2775,"ì§ĢíĦ¸":2776,"ĠíĬ¹ì§ķ":2777,"Ġìµľì´Ī":2778,"ë§Įíģ¼":2779,"ê°ĳ":2780,"ìŀĲëĵ¤ìĿĺ":2781,"íķĻìĥĿ":2782,"ìĺ¤ëĬĶ":2783,"ĠìĦ¬":2784,"ĠìłĦíĻĶ":2785,"Ġê²½ì°°":2786,"ìĹĪëĬĶëį°":2787,"ĠìĹħì²´":2788,"Ġìłľìĭľ":2789,"ĠìĿ¸ëıĦ":2790,"Ġë³´ëĤ´":2791,"ìĿ´ë²Ħ":2792,"ìĸ´ëıĦ":2793,"Ġê°Ģì¹ĺ":2794,"ë²¨":2795,"ê·¸ëŁ¬":2796,"ĠìĦ¸ìĥģ":2797,"Ġê³µìĹ°":2798,"ê³¤":2799,"âĢĻ,":2800,"ìĹħìĿĦ":2801,"ê¹ĮìļĶ":2802,"ìĺģíĻĶ":2803,"ë¹ł":2804,"Ġ)":2805,"ĠëĩĮ":2806,"ĠìĦłë¬¼":2807,"Ġë³´ëĬĶ":2808,"º¼":2809,"ê²¼":2810,"ĠëĤĺìĺ¨":2811,"ìĦ¸ê³Ħ":2812,"Ġíķľë²Ī":2813,"ĠìłĦëŀµ":2814,"Ġì°©":2815,"ĠëĦĺìĸ´":2816,"Ġëª¨ìĬµìĿĦ":2817,"íĩ´":2818,"ìĬ¤ëŁ½":2819,"Ġìļ°ìĦł":2820,"íķĺìĹ¬ìķ¼":2821,"Ġë°ĽìĿĦ":2822,"ãĥ":2823,"Ġê¸°ëĭ¤":2824,"est":2825,"ëĮĢë¥¼":2826,"Ġì§ģìĽĲ":2827,"ìĬ¤íĨł":2828,"Ġìĭ¤ìłľ":2829,"Ġê·¸ë¦¼":2830,"Ġë°ĶëŀĮ":2831,"íķ¨ìĿĦ":2832,"ì¼ĵ":2833,"ĠìłķëıĦë¡ľ":2834,"ĠëĤ´ìļ©ìĿĦ":2835,"ĠìłĦìĭľ":2836,"Ġë©Ģ":2837,"ì§Ģì§Ģ":2838,"Ġì°į":2839,"ĠìĤ´íİ":2840,"if":2841,"ëĮĢìĿĺ":2842,"ë³´ê³ł":2843,"ë°©ìĨ¡":2844,"Ġê³łë¯¼":2845,"Ġíģ´":2846,"ĠìĿ´ë²¤":2847,"ìĿ´ê¸°":2848,"ĠìĦ¼":2849,"ë¶Ģê°Ģ":2850,"ĠëĦ£":2851,"ë³´ë":2852,"ĠìĦłë³´":2853,"Ġì°¨ì§Ģ":2854,"ëŀįëĭĪëĭ¤":2855,"Ġìĺ¤ëŀĺ":2856,"ëĬĶì§Ģ":2857,"ëĵľë¡ľ":2858,"ëĦĪì§Ģ":2859,"ìĦ±ìĹĲ":2860,"ĠìĦłìĥĿ":2861,"qu":2862,"ĠëıĻìĭľìĹĲ":2863,"ì¿":2864,"ìĤ¬ìĻĢ":2865,"ìĽĲìĹĲìĦľ":2866,"Ġê¸°íļį":2867,"ìłĲìĿ´":2868,"ê²łëĭ¤ëĬĶ":2869,"Ġëĭ¬ë¦¬":2870,"ìĭľìĺ¤ìłĦ":2871,"--------":2872,"ĠìłľëĮĢë¡ľ":2873,"BS":2874,"Ġìĥģëĭ´":2875,"êµŃìĿĺ":2876,"Ġëĵ±ìŀ¥":2877,"ĠìľłëŁ½":2878,"Ġë§ĲìĿĦ":2879,"ĠëĮĢíķľë¯¼êµŃ":2880,"ĠIn":2881,"°ëĭ¤":2882,"ìľ¼ë¡ľëĬĶ":2883,"ĠìĦłìĪĺ":2884,"Ġë§Ŀ":2885,"Ġë¯¼ì£¼":2886,"¬ìĺģ":2887,"ĠìŀĶ":2888,"ìĭľê³ł":2889,"íķĺëĤĺ":2890,"Ġê·¸ëĮĢë¡ľ":2891,"ìłķì±ħ":2892,"ĠëĵľëŁ¬":2893,"ê¿":2894,"Ġê·¸ëĥ¥":2895,"ë¹Ī":2896,"ì©":2897,"Ġë²Ĺ":2898,"Ġê¹Į":2899,"Ġë¶ĦìľĦ":2900,"ĠëģĮ":2901,"ĠíĨµíķľ":2902,"Ġê³¼íķĻ":2903,"Ġìķ¡":2904,"ĠìłķìĿĺ":2905,"Ġíķ´ìĦľ":2906,"ĠìµľìĨĮ":2907,"ê»ĺìĦľ":2908,"ĠìłĦê¸°":2909,"ĠìĭľìĦ¤":2910,"Ġê°ľëħĲ":2911,"íŀĮ":2912,"ì»µ":2913,"ĠìĽĶëĵľ":2914,"Ġíķµìĭ¬":2915,"Ġì»´íĵ¨íĦ°":2916,"Ġ27":2917,"Ġì¤ĳìĭ¬ìľ¼ë¡ľ":2918,"íķĺëįĺ":2919,"ĠìĭľíĹĺ":2920,"Ġê°ĸê³ł":2921,"ĠìĹ¬ë¦Ħ":2922,"ëĵ±íķĻêµĲ":2923,"ĠìĿ´ìłĦ":2924,"Ġìłľíķľ":2925,"êµ¬ë¥¼":2926,"Ġë³´ëıĦ":2927,"Ġst":2928,"Ġì½ĺíħĲì¸ł":2929,"¿½":2930,"ìĿ´ì§Ģë§Į":2931,"íķĺìĦ¸ìļĶ":2932,"ìŀ¥ê³¼":2933,"Ġë°©íĸ¥":2934,"ë¡ľê·¸":2935,"Ġê¸°ê´Ģ":2936,"ëŁ¬ìĬ¤":2937,"ë§İ":2938,"´ë©°":2939,"ë¦¿":2940,"ĠìĿ´ë¤Ħ":2941,"ĠëĦĵ":2942,"Ġì£¼íĥĿëĭ´ë³´ëĮĢì¶ľ":2943,"ĠíĹĮ":2944,"ìĦŃ":2945,"ëĭĪìĬ¤":2946,"ĠãĢİ":2947,"op":2948,"Ġ26":2949,"Ġëĵ±ìľ¼ë¡ľ":2950,"ĠìĪ¨":2951,"Ġìłľê³µíķĺëĬĶ":2952,"ĠìĺĪìłķìĿ´ëĭ¤":2953,"Ġíķĺê¸°":2954,"ì¢Į":2955,"Ġ2014":2956,"Ġê±´ìĦ¤":2957,"Ġë¬¸ìłľë¥¼":2958,"Ġ22":2959,"ĠìķĪìłķ":2960,"ĠLG":2961,"ê°Ģê°Ģ":2962,"ì¶°":2963,"Ġìı":2964,"ëĭī":2965,"íķĺìĭł":2966,"Ġì¡¸":2967,"ìŀĲëĵ¤ìĿĢ":2968,"Ġìĭľê°ĦìĿĦ":2969,"Ġ*":2970,"íķĺëĭ¤ê³ł":2971,"ĠìĨĮìŀ¬":2972,"ìĤ¬ìĹĲ":2973,"ĠëĲĲëĭ¤":2974,"Ġì²´íĹĺ":2975,"ìĩĦ":2976,"ĠìĽĢì§ģ":2977,"Ġëı¼":2978,"ĠìĤ¬ìļ©íķł":2979,"Ġìĭľê°ĦìĿ´":2980,"Ġìµľê³łìĿĺ":2981,"ĠìĹŃíķłìĿĦ":2982,"Ġë¶Ģëª¨":2983,"ë°ĸìĹĲ":2984,"ëł¤ê³ł":2985,"Ġê²½ìļ°ê°Ģ":2986,"ĠìķĦì¹¨":2987,"ĠìĦ¤ë¦½":2988,"íĻľëıĻ":2989,"Ġê²Ģìĥī":2990,"Ġìī¬":2991,"Ġì£¼ëĬĶ":2992,"Ġíķľëĭ¤ëĬĶ":2993,"Ġëª»íķľ":2994,"Ġëĭ´ëĭ¹":2995,"ë£Įë¥¼":2996,"ĠìľĦíķ´ìĦľ":2997,"ĠìĤ¬ìļ©ìŀĲ":2998,"ĠíĿ¥":2999,"ìĭľì¼ľ":3000,"Ġde":3001,"ìļ°ë¦¬":3002,"íĮĶ":3003,"ìķĪìłĦ":3004,"ëŁ¼íĶĦ":3005,"ì¼ĢíĮħ":3006,"Ġì¤ĳìķĻ":3007,"Ĩĵ":3008,"ĠìĪĺìĪł":3009,"Ġíķ´ë":3010,"ëĶ°":3011,"ëĭ¥":3012,"ê³Ħìķ½":3013,"Ġìŀ¬ë¯¸":3014,"íľ´":3015,"ê´ĢìĿĦ":3016,"ĠëıĦìŀħ":3017,"ì§ĢìļĶ":3018,"ê°Ģê³ł":3019,"Ġìĸĺ":3020,"Ġê°ľìłķ":3021,"Ġìĸ¼êµ´":3022,"ĠíĻķë³´":3023,"%,":3024,"åħ":3025,"ìĤ¬ì§Ħ":3026,"Ġ29":3027,"Ġcon":3028,"ëľ»":3029,"Ġg":3030,"ìĭ±":3031,"ĠìĦ¤ê³Ħ":3032,"íļĮìĹĲìĦľ":3033,"ëĵľìĭľ":3034,"Ġë©ĭ":3035,"Ġìĭ¸":3036,"ìĻĢìĿĺ":3037,"ë¦°ëĭ¤":3038,"ðŁ":3039,"ìŀĪëĭ¤":3040,"Ġìķ±":3041,"ĠìŀĳìĦ±":3042,"ĠëĬĲëģ¼":3043,"ĠìĿ´ìķ¼ê¸°ë¥¼":3044,"ĠëıĦìĽĢìĿ´":3045,"ers":3046,"ìłķìĿĺ":3047,"ê²łì§Ģë§Į":3048,"ëĿ¼ìļ´":3049,"ħëĭĪëĭ¤":3050,"ëłī":3051,"ìķĦìļĶ":3052,"ìĩ¼":3053,"Ġë°ĽëĬĶ":3054,"Ġë²ķë¥ł":3055,"ì½ľ":3056,"ê°ĦìĿĺ":3057,"Ġê°Ģìł¸":3058,"ì°¨ë¥¼":3059,"ĠìĦ¤ìłķ":3060,"Ġìĸ¼ë§ĪëĤĺ":3061,"ìĿ´ìħĺ":3062,"íĬľ":3063,"Ġì¢Į":3064,"ĠìĿ¸ìĭĿ":3065,"ê´ĢìĿĢ":3066,"ĠìŀħëĭĪëĭ¤":3067,"Ġíĺĳëł¥":3068,"ĠíĻĪíİĺìĿ´ì§Ģ":3069,"th":3070,"ëıĪ":3071,"Ġê·¸ëħĢ":3072,"ìĦ±ìĿĢ":3073,"ì¹ĺê³ł":3074,"ìľĦìĹĲ":3075,"ĠíŀĪ":3076,"ĠìĿ´ê³³":3077,"ë¹Ħë¥¼":3078,"ìļ´ëıĻ":3079,"ĠìĦłê±°":3080,"Ġë¹Į":3081,"ì»¬":3082,"ĠìĪĺìĿµ":3083,"ĠëįĶë¶Ī":3084,"Ġíŀĺëĵ¤":3085,"ĠëĦ¤íĬ¸ìĽĮíģ¬":3086,"ï½":3087,"Ġê³§":3088,"ë§ĮìĿĺ":3089,"ĠìĺĪìķ½":3090,"ëĪĪ":3091,"Ġê²©":3092,"ê³¼íķĻ":3093,"ĠìĤ¬ë¡Ģ":3094,"ëħķ":3095,"ĠìłĦíĻĺ":3096,"ëŀ«íı¼":3097,"pp":3098,"ĠìĪĺì§ĳ":3099,"Ġìŀ¥ìķł":3100,"ĠíĶĦëŀĳ":3101,"Ġì§Īë¬¸":3102,"Ġë§ĮëĵľëĬĶ":3103,"ĠìŀĲìĭłìĿ´":3104,"ë¦¬ì¦Ī":3105,"ĠìĿ¸ë¥ĺ":3106,"ĠìĬµ":3107,"íŀĪëł¤":3108,"ĠëĳĲê³ł":3109,"Ġë§¥":3110,"ë§ĪìĿĦ":3111,"ĠëĶĶì§ĢíĦ¸":3112,"ĠìłľìĻ¸":3113,"ĠìĤ¬ëŀĮìĿĺ":3114,"ĠX":3115,"Ġis":3116,"Ġë¹Ī":3117,"ĠëĤ´ë¶Ģ":3118,"ĠëĮĢìĭł":3119,"Ġë§ĪìĿĦ":3120,"Ġëľ¨":3121,"ĠìĬ¤ë§ĪíĬ¸íı°":3122,"Ġê²ª":3123,"Ġìĭłë¢°":3124,"Ġëĭ¤ìĿĮê³¼":3125,"ì§Ŀ":3126,"Ġëĭ¨ê³Ħ":3127,"ĠìľĦíķ´ìĦľëĬĶ":3128,"íķ¨ìľ¼ë¡ľìį¨":3129,"ĠìĪľê°Ħ":3130,"Ġìĸ´ëł¤ìļ´":3131,"ë¬¼ìĿ´":3132,"íķĺê¸°ëıĦ":3133,"ì§±":3134,"ìĪĺë¡Ŀ":3135,"ĠPC":3136,"êµ¬ìļĶ":3137,"ëĭĺìĿ´":3138,"ĠìĿ¸íķľ":3139,"ĠìķĬëĭ¤":3140,"ìħľ":3141,"ì´ī":3142,"íļĮìĹĲ":3143,"Ġë³´ìľł":3144,"ì¡°ìĦł":3145,"Ġë°Ķëĭ¤":3146,"Ġë°Ķíĥķ":3147,"íĮĮíĬ¸":3148,"ĠìĻ¸êµŃ":3149,"ìľ¼ë¡ľë¶ĢíĦ°":3150,"Ġê³µê³µ":3151,"Ġìĺģìĥģ":3152,"Ġê°ĻìĬµëĭĪëĭ¤":3153,"íĸĪì§Ģë§Į":3154,"ĠìĨįìĹĲìĦľ":3155,"ë¡ľë´ĩ":3156,"ìĦ±ìĿĺ":3157,"ìºĲ":3158,"ìĬ·":3159,"ĠìĪĺì¶ľ":3160,"ģëĭĪëĭ¤":3161,"Ġì±":3162,"Ġë§ģ":3163,"íĪ¬ìŀĲ":3164,"Ġìłĳê·¼":3165,"ìĿ´ìŀĲ":3166,"Ġê³µê²©":3167,"Ġë¶Ħëªħ":3168,"35":3169,"ĠìĽ¨":3170,"Ġë°ĶëĿ¼":3171,"ĠìĬ¤íĬ¸":3172,"eb":3173,"ë³´ëĭ¤ëĬĶ":3174,"íĨ¤":3175,"Ġê³µìĭĿ":3176,"ĠíĮ¬":3177,"ëĤ´ëĬĶ":3178,"Ġíĺľ":3179,"Ġì£Ħ":3180,"ë§İìĿĢ":3181,"Ġê¸°ëħĲ":3182,"Ġìĸ´ë¦°ìĿ´":3183,"Ġì§Ģì§Ģ":3184,"Ġë°ĶëŀįëĭĪëĭ¤":3185,"Ġì´ī":3186,"ĠìĿ´ìĥģìĿĺ":3187,"Ġê±´ë¬¼":3188,"Ġë³´ëĭĪ":3189,"Ġíķ´ëıĦ":3190,"ĠSK":3191,"ìĹĨëĬĶ":3192,"íķĺìŀĲ":3193,"Ġê³µë¶Ģ":3194,"ìĭľë©´":3195,"ìłķìĹĲ":3196,"ĠìŀĲì£¼":3197,"ĠëķĮëĬĶ":3198,"ìĿ¼ìĿ´":3199,"ĠìĿ´ëģ":3200,"Ġìĺ¤íŀĪëł¤":3201,"ĠìĹ¬ìłĦíŀĪ":3202,"ê¸Īìľµ":3203,"Ġêµ¬ìŀħ":3204,"Ġê°ĢëĬĶ":3205,"Ġëª¨ë¥´":3206,"ĠìĥģìĬ¹":3207,"Ġë°ĶìĿ´":3208,"Ġë°ĺëĵľìĭľ":3209,"Ġìĭ¶ìĿĢ":3210,"Ġëħ¸ëŀĺ":3211,"ĠíĺķìĦ±":3212,"ëħĦë¶ĢíĦ°":3213,"Ġë¹Ħíķ´":3214,"íĸĪìĿĦ":3215,"Ġì¢ħíķ©":3216,"Ġì£¼ëª©":3217,"Ġìļ°ìĪĺ":3218,"ĠTV":3219,"å¤":3220,"ĠìĹ¼":3221,"ĠìĽĥ":3222,"ĠíĨµíķ©":3223,"art":3224,"ĠíķŃìĥģ":3225,"ê¸°ìĻĢ":3226,"ë³´ëĬĶ":3227,"ity":3228,"ect":3229,"Ġíĺģìĭł":3230,"ê±°ìļ´":3231,"ë¨¹":3232,"ëıĦìĭľ":3233,"ëħĦëĮĢ":3234,"ĠìĹĨìĹĪëĭ¤":3235,"ĠíķĺëĬĶëį°":3236,"ëĬĲëĥĲ":3237,"Ġì§ĢëıĦ":3238,"âĳ":3239,"ìĬ´":3240,"íļĮìŀ¥":3241,"ĠíĽĪ":3242,"ĠìĤ¬ë§Ŀ":3243,"ìĺ¤íĽĦ":3244,"Ġê´Ģìĭ¬ìĿĦ":3245,"Ġë¹ĦìĬ·":3246,"ist":3247,"age":3248,"ì§Ģë°©":3249,"ĠìĿĺìĽĲ":3250,"Ġì¡°ê±´":3251,"ê²ĮìŀĦì£¼ìĨĮ":3252,"Ġìŀħëł¥":3253,"TV":3254,"ĦĪ":3255,"ìķĦìĦľ":3256,"ìĦ±íĻĶ":3257,"ĠíĺĲ":3258,"ìĿ´ëĿ¼ë©°":3259,"Ġâĳł":3260,"Ġìŀĥ":3261,"Ġë§ĲìĿ´":3262,"Ġë§¤ì¶ľ":3263,"ê²ĮìŀĦë°ĶëĳĳìĿ´":3264,"Ġíĸīìłķ":3265,"ĠìĻ¸ë¶Ģ":3266,"ip":3267,"âĪ":3268,"Ġê·¸ê°Ģ":3269,"Ġê·¸ë¦¬ìĬ¤":3270,"Ġíķĺëĭ¤":3271,"Ġêµ¬ì²´":3272,"ì½ĶìĿ¸":3273,"ë¦¼íĶ½":3274,"ĠíĶĦë¡ľìłĿíĬ¸":3275,"Ġê°ĢìĿĦ":3276,"ë¬¼ìĿĺ":3277,"ìĤ¬ë¡ľ":3278,"ĠìŀĪëįĺ":3279,"Ġìļķ":3280,"ĠêµĲíĨµ":3281,"ëłĪìĬ¤":3282,"ĠìĤ¬ëŀĮìĿĦ":3283,"ĠíļĮìĤ¬ëĬĶ":3284,"ì£¼íĥĿ":3285,"Ġìĭ¤ìłľë¡ľ":3286,"łĢ":3287,"ìĸ´ë¡ľ":3288,"Ġ70":3289,"Ġon":3290,"ìĤ¬ê³ł":3291,"ê²ĮìŀĦíı¬ì»¤":3292,"ĠíķĺëĤĺìĿĺ":3293,"Ġëħ¼ìĿĺ":3294,"Ġì¹¼":3295,"Ġìĭ¤íĸī":3296,"ê²ĮìŀĦë§ŀê³ł":3297,"Ġìŀĺëª»":3298,"Ġì·¨ìĹħ":3299,"av":3300,"ĻëĭĪëĭ¤":3301,"íķĺê³łìŀĲ":3302,"ëĲĺìĹĪ":3303,"ĠëĲĺë©´":3304,"ĠìķŀìĦľ":3305,"ĠìķĦë¦Ħëĭ¤ìļ´":3306,"íķĺëĭ¤ëĬĶ":3307,"ê²ĮìŀĦê³łìĬ¤íĨ±":3308,"ĠíĶ¼ë¶Ģ":3309,"ì¶Ķì²ľ":3310,"ĠëģĬ":3311,"**":3312,"ìĭ¸":3313,"ìłĦë¬¸":3314,"ìŀ¬ìĿ¸":3315,"ĠìĺģìĹħ":3316,"íĭ´":3317,"ĠíĿ¬ë§Ŀ":3318,"Ġì£¼ìĿ¸":3319,"ê´ĢìĿ´":3320,"Ġë¹ĦíĮĲ":3321,"íĴĪìĿĦ":3322,"Ġì¢ħìĿ´":3323,"AR":3324,"Ġv":3325,"ĠìĤ¬ë¬´":3326,"ìłģìĿ´ê³ł":3327,"ìķĦê°Ģ":3328,"ãĢį":3329,"ìĬ¤ì½Ķ":3330,"ê³Ħíļį":3331,"Ġíĳ¸":3332,"ĠìĿ¸ìĥĿ":3333,"ê²½ìĿĦ":3334,"ĠìĺĪìĪł":3335,"ĠìĿ´ë£¨":3336,"ìģľ":3337,"500":3338,"ë®¤":3339,"ì°Į":3340,"Ġëįķ":3341,"ĠìĹĨìĿĦ":3342,"íĶĦë¦¬":3343,"ëŁīìĿĦ":3344,"ĠìĤ¬íļĮìłģ":3345,"ìĿĺíļĮ":3346,"Ġì£¼ë¬¸":3347,"ĠíĶĮëŀ«íı¼":3348,"ëĿ¼ë©´":3349,"ê³¼ëĬĶ":3350,"ìłľëĬĶ":3351,"ĠìĺĪë°©":3352,"Ġ80":3353,"ĠìľĦì¹ĺíķľ":3354,"ĠíĺĪ":3355,"ìĦ¸ë¥¼":3356,"íĭ±":3357,"ê°ĻìĿĢ":3358,"37":3359,"²Ħ":3360,"ê³µê³ł":3361,"ĠìĹĨê³ł":3362,"íģĲ":3363,"ĠëĮĢêµ¬":3364,"ĠìķĦë²Ħ":3365,"ëĭĪìķĦ":3366,"Ġ2012":3367,"ìĶ¨ëĬĶ":3368,"Ġìłľì¶ľ":3369,"ard":3370,"ĠìŀĲê²©":3371,"ìķĺìĬµëĭĪëĭ¤":3372,"ore":3373,"Ġì¢ħë¥ĺ":3374,"ĠëıĻìĿ¼":3375,"Ġê¹Ĭ":3376,"ì¶ķìĿĢíĸī":3377,"Ġê·¼ê±°":3378,"ìłĦê±°":3379,"ĠìĺģìĹŃ":3380,"NS":3381,"ì§Ģë¡ľ":3382,"ê°ĢìĿĺ":3383,"ĠìĪĺìĥģ":3384,"ìĭłì²Ń":3385,"ĠìĬ¤íı¬ì¸ł":3386,"Ġì½Ķëĵľ":3387,"Ġhttp":3388,"ì§±êµ¬":3389,"kr":3390,"Ġì¤ĳìĹĲ":3391,"Ġì´¬ìĺģ":3392,"Ġê´Ģê³ĦìŀĲëĬĶ":3393,"Ġìŀ¬íĮĲ":3394,"ìĭľìĬ¤íħľ":3395,"ìĤ°ìĿĦ":3396,"BC":3397,"ªħ":3398,"ìĿ¼ìĿĺ":3399,"ìŀĲìĹĲ":3400,"êµ¬íķĺê³ł":3401,"Ġë¹Ľ":3402,"Ġe":3403,"ìŀĲê¸°":3404,"ë¥¸ëĭ¤":3405,"Ġì¢ħêµĲ":3406,"Ġíĳľìĭľ":3407,".(":3408,"Ġê·¸ë£¹":3409,"ĠëĮĢìĿĳ":3410,"ìĨĶ":3411,"ĠìłĦíĺĢ":3412,"ĠìĻĶ":3413,"Ġë§İëĭ¤":3414,"ĠìĪł":3415,"ãĥ»":3416,"88":3417,"ĠÂ·":3418,"ëıĦìĹĲ":3419,"Ġì°¬":3420,"Ġë¹¼":3421,"Ġëĭ¬ëĿ¼":3422,"Ġë¡¤":3423,"ĠëĵľëĿ¼ë§Ī":3424,"ë§ĮìĿĦ":3425,"Ġìĭľì¦Į":3426,"ê°Ķëĭ¤":3427,"ê³¼ë¥¼":3428,"Ġìļ°ëł¤":3429,"ĠìĤ¬ìļ©íķĺëĬĶ":3430,"ëĮĢê°Ģ":3431,"íľĺ":3432,"ud":3433,"ĺë¦¬":3434,"ĠìĮĵ":3435,"ĠìĭľìłĪ":3436,"Ġê±±":3437,"ĠíķŃê³µ":3438,"ke":3439,"ĠíķĺëĬĺ":3440,"Ġëª¨ìĸĳ":3441,"Ġ2013":3442,"ê²ĮìŀĦë·°":3443,"ê²ĮìŀĦì§±êµ¬":3444,"ĠìĤ¬ìĭ¤ìĿĦ":3445,"ì¾Į":3446,"Ġìļ°ì£¼":3447,"Ġíķ©ìĿĺ":3448,"ĠíķĦìļĶê°Ģ":3449,"Ġê´Ģëł¨ëĲľ":3450,"ëĨĵ":3451,"ìĬ¤ëŁ¬ìļ´":3452,"íĻĶëĲľ":3453,"ĠìļĶì¦ĺ":3454,"ER":3455,"ìŀĶ":3456,"íĻĶê°Ģ":3457,"Ġìłķë¦¬":3458,"ìĹ¬íĸī":3459,"ĠìķĪìĹĲ":3460,"Ġì§§":3461,"ĠíĸīëıĻ":3462,"êµ°ìļĶ":3463,"ì§Ĳ":3464,"Ġëª»íķĺê³ł":3465,"äº":3466,"ìķŀ":3467,"ĠëĤĺìĿĺ":3468,"Ġëĭ¨ì²´":3469,"Ġì¡¸ìĹħ":3470,"ĠìĪĺìĹħ":3471,"ë§ĮìĿ´":3472,"ĠìĹĨìĸ´":3473,"ê²ĮìŀĦë¡ľë´ĩ":3474,"Ġ60":3475,"ëŁīìĿ´":3476,"ĠíĬ¸ëŁ¼íĶĦ":3477,"ãĨį":3478,"Ġë°©ë²ķìĿĦ":3479,"ħĦ":3480,"ëıĦìĻĢ":3481,"ĠìĿ¸ì²ľ":3482,"ĠìĿ¼ìĸ´ëĤĺ":3483,"all":3484,"ĠëĤ©":3485,"Ġê·¸ë¦¬":3486,"ĠìĿ¼ìłķ":3487,"ì¦ĿìĿĦ":3488,"AS":3489,"ain":3490,"ê³łìĭľ":3491,"ìľ¼ëĭĪ":3492,"Ġì£¼ë¡ľ":3493,"ìĦłê±°":3494,"ìħĺìĿĦ":3495,"......":3496,"Ġê·¸ê²ĥìĿĢ":3497,"ìŀĲë¦¬":3498,"ĠìłĢìŀ¥":3499,"ĠëŃĲ":3500,"ĠìĿ´ë²¤íĬ¸":3501,"ï¿½":3502,"ìĥģìĿĢ":3503,"êµ¬ê°Ģ":3504,"íħį":3505,"Ġìĸ¸ê¸ī":3506,"ë§¹":3507,"ë°¥":3508,"ìĸ´ê°Ģ":3509,"ì£¼ê³ł":3510,"ĠìĹ¬ìŀĲ":3511,"Ġë§ĮìĹĲ":3512,"ĠíĥĢìĿ´":3513,"ĠìļĶìĨĮ":3514,"Ġëıħë¦½":3515,"âłĢ":3516,"ëĭ·":3517,"Ġìĺ·":3518,"Ġê·¸ëıĻìķĪ":3519,"ìĤ¬ìĹħìŀĲ":3520,"ãħİãħİ":3521,"ëĲĺë©°":3522,"ìĿ´ëĿ¼ë©´":3523,"ĠìłĢëł´":3524,"Ġê²°íĺ¼":3525,"Ġìºł":3526,"ĠìķłíĶĮ":3527,"íĢ":3528,"Ġë§Įì¡±":3529,"ĠëıĻìĿĺ":3530,"ëħģ":3531,"ĠìķĦë§Ī":3532,"ëıĻìĤ°":3533,"ĠíıīíĻĶ":3534,"ëĢ":3535,"ang":3536,"ë³ĳìĽĲ":3537,"íĸĪìľ¼ë©°":3538,"ith":3539,"ì§ĵ":3540,"ĠìĨĮìľł":3541,"ĠíķĻìĬµ":3542,"ìĿ¼ë³´":3543,"Ġê°Ŀ":3544,"ĠëĮĢíĺķ":3545,"ĠìłĦíĸĪëĭ¤":3546,"ìĭĿìĿ´":3547,"ĠìµľìłĢ":3548,"ì¤ĳìĹĲ":3549,"ĠëĤ¨ìŀĲ":3550,"ì¹´ëĵľ":3551,"ì¶Ķê°Ģ":3552,"Ġìµľì¢ħ":3553,"´ë©Ķ":3554,"ĠëĲĺì§Ģ":3555,"ĠíĶĦë¦¬":3556,"Ġëĭ¤ìļ´ë¡ľëĵľ":3557,"ìĿ¼ìĺ¤íĽĦ":3558,"ë©ĺ":3559,"ë²¤":3560,"ĠìĤ¬ëŀĮëĵ¤ìĿĢ":3561,"ob":3562,"Ġìĭ±":3563,"Ġê²ĥìĹĲ":3564,"Ġì¡°ìĦ±":3565,"ĠëĨĴìķĦ":3566,"36":3567,"Ġê¸°ì´Ī":3568,"ĠíĺĦìŀ¥":3569,"ì»¨":3570,"Ġê²¨ìļ¸":3571,"Ġê³¼ìłķìĹĲìĦľ":3572,"ëĤĺë¬´":3573,"Ġê²ĥìĿ´ëĿ¼ê³ł":3574,"Ġë§Īì¼ĢíĮħ":3575,"ĠíĬ¹ìłķ":3576,"Ġãģ":3577,"Ġíĩ´":3578,"ìĭľê¸°":3579,"ĠìŀĪëĭ¤ë©´":3580,"ĠìĽĲíķĺëĬĶ":3581,"Ġê¸°ëĬ¥ìĿĦ":3582,"ìŀĲë£Į":3583,"Ġê°Ģë¥´":3584,"Ġíķľíİ¸":3585,"ĠëıĦìłĦ":3586,"ë²Īì§¸":3587,"Ġíļ¨ìľ¨":3588,"¿Į":3589,"ìķ¤":3590,"íķĺê¸°ë¡ľ":3591,"ĠSt":3592,"Ġëĭ¬ëŁ¬":3593,"Ġê¶ģê¸Ī":3594,"ëĿ¼ë©°":3595,"ĠëŁ¬ìĭľìķĦ":3596,"ĠìĪĺê°Ģ":3597,"ĠìĪĺìŀħ":3598,"ĠìĤ¬ëĬĶ":3599,"ĠëĤĺëĪĦ":3600,"Ġìĺ®":3601,"ìļĶìĿ¼":3602,"Ġê¸į":3603,"Ġì¼ĢìĿ´":3604,"ĠìĿ´ìĿµ":3605,"ëĭ¨ìĿĦ":3606,"ìĭŃìĭľìĺ¤":3607,"ìĿ´ìķ¼":3608,"Ġê³¡":3609,"ĠëĲĲ":3610,"ĠìĿ´ëĤ´":3611,"ìĸ´ë³´":3612,"íķ´ëıĦ":3613,"ë¹Ľ":3614,"´ëĲ":3615,"ĠëĤĺëĪ":3616,"Ġë°ĶëĢ":3617,"ĠíĥĲ":3618,"íĸĪëĬĶëį°":3619,"Ġíľ´ëĮĢ":3620,"æĸ":3621,"ĠëĤĻ":3622,"ĠìĺģêµŃ":3623,"ëĵłì§Ģ":3624,"ĠìĥĿê°ģìĿ´":3625,"Ġìłľê¸°":3626,"ive":3627,"ĠìĹĦë§Ī":3628,"ĠíĽĮ":3629,"ìĵ°":3630,"Ġë½":3631,"Ġë³´ìŀ¥":3632,"Ġë³´ìĿ´ëĬĶ":3633,"ĠìĿ¸ìĤ¬":3634,"ê³ĦìĿĺ":3635,"Ġì¶ľìĭł":3636,"ëĭ¬ëŁ¬":3637,"ãĢĭ":3638,"ìģĺ":3639,"ìĿ¸ê³¼":3640,"ìļ°ëĬĶ":3641,"ë¯¸êµŃ":3642,"ìĭ¬ìĿĦ":3643,"Ġìĩ¼íķĳ":3644,"oo":3645,"Ġìª½":3646,"íĻĢ":3647,"ì¡°ìłľ":3648,"Ġìĥģíĺ¸":3649,"Ġë°Ľìķĺëĭ¤":3650,"ĠíĸīìľĦ":3651,"Ġë¯¼ì¡±":3652,"ë¦¬ë¡ľ":3653,"ë¦¬ê¸°":3654,"ĠìķĦìĭľìķĦ":3655,"ë§ĪíĨł":3656,"Ġíĳľì¤Ģ":3657,"ĠìĦ¤ëªħíĸĪëĭ¤":3658,"ìĭľíĤ¤ëĬĶ":3659,"Ġê½":3660,"ort":3661,"Ġëĵ¤ìĸ´ê°Ģ":3662,"34":3663,"ì¶¤":3664,"Ġìĥģê¸°":3665,"ĠíĺĦì§Ģ":3666,"Ġíıīìĸĳ":3667,"ëħĦìĿĦ":3668,"ë¶ĦìĿ´":3669,"Ġê°ĢëĬ¥ìĦ±ìĿ´":3670,"ack":3671,"ìŀ¥ìķł":3672,"ì°®":3673,"ĠíĮĮìķħ":3674,"Ġìĸµ":3675,"Ġëª©ìĨĮ":3676,"ìłł":3677,"´ëŀĺ":3678,"ìĦ¸ëĮĢ":3679,"ë¬´ìĽĲ":3680,"Ġë°ĺìĺģ":3681,"ëģĶ":3682,"Ġë´Ĳ":3683,"ĠëĶ¸":3684,"ĠëĮĢíĨµëł¹ìĿĢ":3685,"ĠíĶĮëłĪìĿ´":3686,"Ġê°ĢìĬ´":3687,"íİľ":3688,"Ġë°ĺë©´":3689,"ë³Ħë¡ľ":3690,"Ġìĭľì²Ń":3691,"ĠìĪĺëĬĶ":3692,"ìłľìĿĺ":3693,"Ġë¹Ħì¦Ī":3694,"ëįĶëĭĪ":3695,"ĠëĿ¼ìĿ´":3696,"ĠíĥĢê³ł":3697,"Ġë°Ķíĥķìľ¼ë¡ľ":3698,"ĠìĿĦ":3699,"ëĤĻ":3700,"ĠíļĮìĤ¬ìĿĺ":3701,"Ġê·ľìłķìĹĲ":3702,"ë¡¤":3703,"ìĸ´ì§Ħ":3704,"Ġìĺ¤íĶĪ":3705,"Ġ2011":3706,"ĠíĻĶë©´":3707,"Ġê°Ħëĭ¨":3708,"âłĢâłĢ":3709,"ê¶ģ":3710,"ĠìĨĮìĨį":3711,"Ġë°°ê²½":3712,"ate":3713,"Ġìĺ¨ëıĦ":3714,"ĠíĭĢ":3715,"ë¦¬ìĻĢ":3716,"ìĥģìĹĲ":3717,"ì²´ìĿ¸":3718,"ĠìĥĿëªħ":3719,"Ġr":3720,"ìĤ¬ëŀĮ":3721,"ĠìĤ¬ëĿ¼":3722,"ë¶ĢìĿĺ":3723,"Ġë°ĺëĮĢ":3724,"Ġì°¸ê³ł":3725,"´ëŁ½":3726,"ê½ĥ":3727,"Ġíķĺë©´ìĦľ":3728,"ìļ°ìĬ¤":3729,"ëĭ¨ìĿĺ":3730,"Ġì°½ì¡°":3731,"Įį":3732,"ëŁŃ":3733,"ìĭłë¬¸":3734,"ì²´ë¥¼":3735,"Ġìľłíĺķ":3736,"Ġìĺģìĸ´":3737,"ĠìĦ±ëĬ¥":3738,"Ġë°ĺìĿĳ":3739,"ĠíĨµíķ´ìĦľ":3740,"ĠëĮĢì¤ĳ":3741,"Ġì²ŃëħĦ":3742,"ê³¼ìłķ":3743,"Ġë²½":3744,"Ġê³łìļ©":3745,"ĠëıĻë¬¼":3746,"íķ´ë³":3747,"Ġê²½ìļ°ìĹĲ":3748,"Ġë¶Īêµ¬íķĺê³ł":3749,"íĿ¡":3750,"ĠëĮĢíĨµëł¹ìĿ´":3751,"Ġìį¨":3752,"ìľ¼ë©´ìĦľ":3753,"ĠìĤ¬ìłĦ":3754,"êµ¬ìĿĺ":3755,"ĠìĬĪ":3756,"ìĶ¬":3757,"ĠìĻĦìĦ±":3758,"Ġâĳ¡":3759,"íĳ¸":3760,"ìŀĲëıĻ":3761,"ë§ĮìĹĲ":3762,"Ġìĭłê³ł":3763,"ĠíĮĮìĿ¼":3764,"ĠíĶĦëŀĳìĬ¤":3765,"ëŀĲëĭ¤":3766,"Ġê¸°ê³Ħ":3767,"ìķĦìķ¼":3768,"êµŃìłľ":3769,"ì¡°ìĤ¬":3770,"ëĳĲê³ł":3771,"ĠìĨįìĹĲ":3772,"ĠìĿ´íķĺ":3773,"ì¹ĺê°Ģ":3774,"ĠëıĦì°©":3775,"ĠíķĦìļĶíķĺëĭ¤":3776,"Ġì°½ìĹħ":3777,"Ġë¸Ķë¡ľê·¸":3778,"ĠíĻľëıĻìĿĦ":3779,"Ġë¿Ĳë§Į":3780,"iz":3781,"Ġëļ":3782,"ë§¥":3783,"ĠìłĦìŁģ":3784,"ëĵ¤ë¡ľ":3785,"ëĵľë¦½ëĭĪëĭ¤":3786,"ê°ľë¥¼":3787,"ìłĪíķľ":3788,"ĠíĺľíĥĿ":3789,"Ġê°ĢëĵĿ":3790,"ëĲĺë©´":3791,"ĠìĻĦë²½":3792,"~~":3793,"īìŀ¥":3794,"ìĦ¯":3795,"íķĺìĭľëĬĶ":3796,"íĸĪëĭ¤ëĬĶ":3797,"âĢĻ(":3798,"ë¶ĦìĿĦ":3799,"Ġìŀ¥ìĨĮ":3800,"ĠìłĢì¶ķìĿĢíĸī":3801,"ĠêµĲíļĮ":3802,"ĠëĤ¨ìķĦ":3803,"ë³´íĺ¸":3804,"ĠëĤĺìĦľ":3805,"Ġì²´ê²°":3806,"ĠëĬĲê»":3807,"íķĻëħĦ":3808,"Ġê°ķëł¥":3809,"Ġë¶Īíİ¸":3810,"Ġë°ĺë³µ":3811,"ĠëĤ´ëħĦ":3812,"ĠëĮĢíķ´ìĦľëĬĶ":3813,"ê°Ĵ":3814,"Ġìķī":3815,"Ġê°Ģìłķ":3816,"Ġê³¼ìłķìĿĦ":3817,"ê²łëĭ¤ê³ł":3818,"ĠìłĪëĮĢ":3819,"ëĺĲíķľ":3820,"ìłģìĿĦ":3821,"ĠìłľìķĪ":3822,"ĠíĻķìĭ¤":3823,"Ġë¡¯":3824,"ĠíŀĺìĿĦ":3825,"Ġì¸¡ë©´":3826,"ĠìĤ¶ìĿĦ":3827,"ĺĳ":3828,"ĠìĨĮíĶĦíĬ¸":3829,"íķľëĭ¤ë©´":3830,"ĠìĽĲì¹Ļ":3831,"ê±´ê°ķ":3832,"ì½©":3833,"ìĤ¬ìĿ´":3834,"ìĥģíĴĪ":3835,"ĠìĿĺìĤ¬":3836,"ĠíĨµíķĺìĹ¬":3837,"Ġì»¬":3838,"Ġë§ŀëĬĶ":3839,"ĠëĤĺíĥĢëĤ¬ëĭ¤":3840,"¨¸":3841,"ĠìłĬìĿĢ":3842,"ìĽħ":3843,"Ġë¬»":3844,"íĴĢ":3845,"ìĹŃìĿĦ":3846,"ĠëĲĺìĹĪ":3847,"Ġë§¤ìĿ¼":3848,"ìĺĪìĪł":3849,"ĠíĶĦë¡ľê·¸ëŀ¨ìĿĦ":3850,"Ġë§Īì°¬":3851,"Ġì¶ľìĹ°":3852,"Ġë¥¼":3853,"ê²½ìĺģ":3854,"ì¤Ģëĭ¤":3855,"Ġë³Ģíĺ¸":3856,"Ġì²ŃìĨĮëħĦ":3857,"Ġê²ĥì²ĺëŁ¼":3858,"ĠìľĦë°ĺ":3859,"íĨ¡":3860,"ĠìłģìĿ´":3861,"Ġì¢ĭëĭ¤":3862,"Ġpro":3863,"ĠìłľíĴĪìĿĦ":3864,"Ġë¡¯ëį°":3865,"ë¶Ļ":3866,"ëŁ´":3867,"ìĭĿíĴĪ":3868,"ê²½ê¸°":3869,"ong":3870,"Ġëĭ¹ìĹ°":3871,"www":3872,"09":3873,"ĠY":3874,"Ġìĺ¤ë¥¸":3875,"ĠìłĢëħģ":3876,"Ġë¦´":3877,"Ġíİ¸ìĿĺ":3878,"Ġas":3879,"ìĿ´ë©´":3880,"ĠëĤĺë¬´":3881,"Ġë¬´ëĮĢ":3882,"Ġë§ĪìĿĮìĿĦ":3883,"PS":3884,"ãģ":3885,"ì§ĢìĻĢ":3886,"ĠìĺĨ":3887,"Ġëĭ¤ë¥´":3888,"ì¤ĳìķĻ":3889,"Ġìŀ¥ëĤľ":3890,"ĠíķĦìĪĺ":3891,"Ģëĭ¤":3892,"ĠëĮĢì¶ľ":3893,"Ġíķĺê²Į":3894,"ĠìŀĲëħĢ":3895,"Ġíķ´ìĦĿ":3896,"ãĥ»ãĥ»":3897,"ìĭľëĮĢ":3898,"Ġìłľê±°":3899,"ĠëĤĺìĻĢ":3900,"ìĦ¸íĬ¸":3901,"ĠìĹĦì²Ń":3902,"ê¸°ì¤Ģ":3903,"ìĺĢìĬµëĭĪëĭ¤":3904,"ìķĺëįĺ":3905,"Ġê¸Īìķ¡":3906,"Ġë§Īì°¬ê°Ģì§Ģ":3907,"¯¤":3908,"ĠìĿ´ìĤ¬":3909,"ë°į":3910,"Ġê·¸ëĵ¤ìĿĢ":3911,"ìłľíĴĪ":3912,"Ġìŀ¥ê¸°":3913,"ĠIT":3914,"igh":3915,"ëª¬":3916,"Ġì¤ĳìĿ¸":3917,"ĠìľłíĨµ":3918,"Ġê±°ì³Ĳ":3919,"ê°ĲìĿ´":3920,"ĠìĹĲëĦĪì§Ģ":3921,"Ġë©Ķìĭľ":3922,")'":3923,"Ġëģ¼":3924,"ĠëĤĺìĺ¤ëĬĶ":3925,"39":3926,"ĠâĹ":3927,"Ġíİ¸ìķĪ":3928,"íĺĳíļĮ":3929,"ê³łê¸°":3930,"´ëł¤":3931,"ì²´ìĿĺ":3932,"ĠìĥĿê°ģìĿĦ":3933,"ëıħêµĲ":3934,"45":3935,"ĠìĪĺë§İìĿĢ":3936,"Ġë³´ìĪĺ":3937,"ìĭ¤ìĿĦ":3938,"ë¦ŃíĦ°":3939,"Ġì§Ģì¼ľ":3940,"íķĻìłģ":3941,"Ġë°ľíĸī":3942,"ëłĪìĿ´ëĵľ":3943,"Ġì¸¡ìłķ":3944,"ĠãĨį":3945,"íķ´ë¥¼":3946,"Ġë¶Ģìłķ":3947,"ìļ´ëĵľ":3948,"ĠìĿĺíķĺìĹ¬":3949,"ĠìĦľë²Ħ":3950,"Ġë¯¸ë¦¬":3951,"ĠëĪĪìĹĲ":3952,"ĠíķĺëĤĺëĭĺìĿ´":3953,"Ġë´Ħ":3954,"Ġê³ĦíļįìĿ´ëĭ¤":3955,"ìĿ¸ìľ¼ë¡ľ":3956,"ë¶ĦìĹĲ":3957,"ì§ĪìĿĦ":3958,"Ġë³¸ê²©":3959,"Ġê°ľìĿ¸ìĤ¬ìĹħìŀĲ":3960,"íĶĮëłĪìĿ´":3961,"ĠìĿ´ìľłëĬĶ":3962,"38":3963,"íķĺìĭ¤":3964,"Ġê°Ĵ":3965,"Ġìŀ¥ë©´":3966,"ĠíķľêµŃìĿĺ":3967,"ê´´":3968,".âĢľ":3969,"ìĿ¸ëĵ¤ìĿ´":3970,"ìŀ¥ìľ¼ë¡ľ":3971,"ê³µìĤ¬":3972,"ëĭ¹íķľ":3973,"ĠëĬ¦":3974,"Ġå":3975,"ĠìłĦë°ĺ":3976,"ë²ķìĿĦ":3977,"ìħĢ":3978,"Ġì§Ģê¸Īê¹Įì§Ģ":3979,"ë°Ģë¦¬":3980,"Ġíķľëĭ¤ê³ł":3981,"ê²©ìĿĦ":3982,"ĠëĿ":3983,"ê¸°ê³ł":3984,"ĠìĿ´ìĻĢ":3985,"ĠëĮĢìłĦ":3986,"ine":3987,"ë¹Ļ":3988,".)":3989,"ë¡±":3990,"ê°ľìłķ":3991,"Ġìĭ¤íĹĺ":3992,"Ġë©Ķëī´":3993,"Ġwith":3994,"ìħĶìĦľ":3995,"ì¶Ķê°ĢëĮĢì¶ľ":3996,"ëĭĮ":3997,"ìĸ´ëĵ¤":3998,"Ġê·¸ëķĮ":3999,"ê·ľëª¨":4000,"ĠãĢĬ":4001,"Ġì¶©ë¶ĦíŀĪ":4002,"´ë©ĶëĿ¼":4003,"Ġ~":4004,"Ġìĭľë¦¬ì¦Ī":4005,"ìĽĶìĹĲ":4006,"ĠìĨĮíĨµ":4007,"ì£½":4008,"ĠëıħìĿ¼":4009,"ìĹĲìĦł":4010,"Ġì§Ħì¶ľ":4011,"ĠìĿ´ëģĮ":4012,"ĠëĬĲê»´":4013,"ëĭ¤ë¥¸":4014,"Ġì§ķ":4015,"ëĮĢëĬĶ":4016,"Ġê¸°ìĪłìĿĦ":4017,"ĠìĪĺìļĶ":4018,"êµŃê°Ģ":4019,"Ġê´ĢìĦ¸":4020,"ë°ĺëıĦ":4021,"Ġë¦¬ëįĶ":4022,"ĠìĻĦìłĦ":4023,"ĠãĢĮ":4024,"55":4025,"Ġëĭ¤ê°Ģ":4026,"ĠëĤĺê°Ģ":4027,"ê¶ĮìĿĺ":4028,"ĠíĻķìŀ¥":4029,"ĠíĮ¨íĤ¤":4030,"Ġë¸ĶëŀĻ":4031,"íĬ¹íŀĪ":4032,"Ġê²ĥê³¼":4033,"Ġëĭ¤ëĭĪ":4034,"Ġë³´íĨµ":4035,"ĠìĨĮìĦ¤":4036,"ĠThe":4037,"co":4038,"Ġì¤":4039,"ìłķëıĦ":4040,"ĠìĹ¬ê¸°ìĹĲ":4041,"Ġë§Īì¹ĺ":4042,"ìķ½ìĿĦ":4043,"Ġê²°ê³¼ë¥¼":4044,"ë¦¬ê·¸":4045,"ĠëĮĢì²´":4046,"ĠìķĪëĤ´":4047,"Ġë¬¸ìĿĺ":4048,"ĠìĿ´ë¦ĦìĿĦ":4049,"ê³Ħê°Ģ":4050,"ëĲĺë©´ìĦľ":4051,"Ġê·ł":4052,"ĠëĮĢíĳľëĬĶ":4053,"ĠíĸĪìĬµëĭĪëĭ¤":4054,"âĪ¼":4055,"ĠëĭĪ":4056,"ĠìĪĺë°ĸìĹĲ":4057,"Ġê·¸ëĵ¤ìĿĺ":4058,"ĠìĿ¼ëĭ¨":4059,"ëªħìľ¼ë¡ľ":4060,"ìľĦë¡ľ":4061,"Ġíĥĳ":4062,"ê±´ìĿĦ":4063,"ĠëĬĶ":4064,"ë¨¸ëĭĪ":4065,"Ġë¹Ħë¡¯íķľ":4066,"¤ë²Ħ":4067,"ëĸ":4068,"ë¶ĢìĹĲ":4069,"Ġê²½ê¸°ëıĦ":4070,"Ġë§Įìķ½":4071,"Ġë¯¸ëĶĶìĸ´":4072,"ìĭ¬íŀĪ":4073,"ĠìłĢíĿ¬":4074,"Ġê²ĢíĨł":4075,"ê·¸ëŁ¬ëĤĺ":4076,"Ġìĭľê°ģ":4077,"ĠìĿ¸ê³µ":4078,"ëį°ìĿ´íĦ°":4079,"ĠìĬ¤íİĺ":4080,"ì§ĪíĻĺ":4081,"Ġëª»íķĺëĬĶ":4082,"ìµľê·¼":4083,"Ġi":4084,"Ġìĺ¥":4085,"Ġì£¼ê³ł":4086,"ĠìĿ¼ìĥģ":4087,"ĠìĤŃ":4088,"Ġê·¼ë¡ľ":4089,"ìĽĲìľ¼ë¡ľ":4090,"ì£¼ìĭľ":4091,"ìĿ´ê¸°ëıĦ":4092,"ëĭ¨ìĿ´":4093,"Ġìŀ¥ë¹Ħ":4094,"ĠìłĲìĿĦ":4095,"ĠíĻįë³´":4096,"ure":4097,"Ġë¶ĢìĹ¬":4098,"Ġìĺ¤ëŀľ":4099,"Ġë°ľìĥĿíķľ":4100,"56":4101,"ë¥Ń":4102,"ìĦľìĹĲ":4103,"ë°¤":4104,"Ġ2000":4105,"ĠìĭľìŀĳíĸĪëĭ¤":4106,"Ġì·¨ëĵĿ":4107,"Ġë©ĭì§Ħ":4108,"ĠíĽĪëł¨":4109,"rom":4110,"ĠìŀĪì§Ģ":4111,"ĠìłĦíķ´":4112,"ë°ĶìĿ´":4113,"ëĵ±ë¡Ŀ":4114,"Ġê´Ģìĭ¬ìĿ´":4115,"Ġ+":4116,"Ġìĥīìĥģ":4117,"ĠíĽ¨":4118,"ìĿĺë£Į":4119,"Ġìĸ´ì©":4120,"Ġì¦Ĳê¸¸":4121,"ĠëįĶë¶Īìĸ´":4122,"ub":4123,"íķľíİ¸":4124,"ì§Ģìĸ´":4125,"ë§Ľ":4126,"ìĿ¸íĦ°":4127,"Ġì£¼ìĨĮ":4128,"Ġì¤ĳìĨĮ":4129,"ê³µê¸ī":4130,"ìĭĿìľ¼ë¡ľ":4131,"ì¶ľìŀ¥":4132,"ĠíĬ¹ë³Ħíķľ":4133,"99":4134,"ìĭľíĹĺ":4135,"Ġì²¨":4136,"ê´Ģê´ĳ":4137,"Ġë¬¸ìŀ¬ìĿ¸":4138,"íĶĦëĿ¼":4139,"ant":4140,"Ġíĸ¥íĽĦ":4141,"Ġë§ģíģ¬":4142,"Ġê¼¬":4143,"Ġê·¸ê²ĥìĿĦ":4144,"ĠëĳĺëŁ¬":4145,"ìłķìĥģ":4146,"ì¹¼":4147,"ëħ¼":4148,"ê´ĢìĿĺ":4149,"ëł¤ë©´":4150,"ĠìĹ°ì£¼":4151,"ĠCh":4152,"ĠëªħìĿĺ":4153,"ë°ĽìĿĢ":4154,"ë¿Ĳë§Į":4155,"Ġë¿Į":4156,"ìĿ´ìĹĪ":4157,"ìĺĢëįĺ":4158,"ĠíĻľìĦ±íĻĶ":4159,"Ġíĥľìĸĳ":4160,"Ġíĸ¥ìĥģ":4161,"Ġìłķë¶Ģê°Ģ":4162,"ĠìĿ¸ê°ĦìĿĺ":4163,"ĠìºĲë¦ŃíĦ°":4164,"Ġê°ķì¡°íĸĪëĭ¤":4165,"Ġë¹Ħë°Ģ":4166,"Ġìĭ¤íĮ¨":4167,"ĠíĿĺ":4168,"ĠëĤĺíĥĢëĤĺ":4169,"ĠíĽ¨ìĶ¬":4170,"ail":4171,"ìľĦëĬĶ":4172,"ĠëĲĺìĹĪìĬµëĭĪëĭ¤":4173,"ëħ¸ëıĻ":4174,"ĠëĮĢíĨµëł¹ìĿĺ":4175,"ĠìĿ´ìľłë¡ľ":4176,"Ġì±ħìŀĦìĿĦ":4177,"ff":4178,"ly":4179,"ëŀĲ":4180,"Ġëĭ¤ìĿ´":4181,"ìłĲìĹĲìĦľ":4182,"ãħ¡":4183,"Ġê¸įìłķ":4184,"ë§Įìľ¼ë¡ľ":4185,"ĠìķĦëıĻ":4186,"ìľĦê°Ģ":4187,"ĠêµŃíļĮ":4188,"ind":4189,"Ġì¦ĿìĤ°":4190,"Ġìķ½ìĨį":4191,"Ġíİ¼ì³Ĳ":4192,"ê³łìĭľìłľ":4193,"æľ":4194,"ĠìĿ´ë¡ł":4195,"ĠìĤ¬ìľł":4196,"Ġë¬´ìĬ¨":4197,"Ġê²ĢìĤ¬":4198,"ê°ĻìĿ´":4199,"ìĬ¤ëŁ½ê²Į":4200,"ĠìŀĬ":4201,"Ġë°ĸ":4202,"ë³´ë©´":4203,"Ġíķ´ë³":4204,"êµĲíļĮ":4205,"Ġìĭłê²½":4206,"ĠìłĦìļ©":4207,"Ġì¤ĳê°Ħ":4208,"ì¡°íķ©":4209,"íķĻìĿĦ":4210,"Ġë°Ķê¾¸":4211,"Ġê·¼ë¬´":4212,"ë¶ĢìĻĢ":4213,"ĠìŀĲë³¸":4214,"ê´ĢìĹĲ":4215,"Ġìĺ¤ë¦¬":4216,"Ġì§Ħì§ľ":4217,"Ġíģ´ëŀĺ":4218,"IS":4219,"ìĿ´ìĿµ":4220,"ëĮĢíļĮ":4221,"ĠìķĦíĮĮíĬ¸":4222,"ë³´ëĭĪ":4223,"ĠëĤ¨ìĦ±":4224,"íķĺëł¤ëĬĶ":4225,"Ġê´ľ":4226,"44":4227,"ìĿ´ëĿ¼ëıĦ":4228,"Ġê±°ì£¼":4229,"Ġëª©ìłģìľ¼ë¡ľ":4230,"ì³¤ëĭ¤":4231,"ìĶ¨ê°Ģ":4232,"ì¼ĢìĿ´ìħĺ":4233,"Ġì£¼ìĿ¸ê³µ":4234,"se":4235,"ìĭľë¥¼":4236,"ĠìĦ¹":4237,"Ġê¸°íļĮë¥¼":4238,"Ġì£¼ìĿĺ":4239,"ĠìľĦìĹĲ":4240,"Ġíģ´ëĿ¼":4241,"Ġë¶Īë²ķ":4242,"Ġë¬¸ìłľëĬĶ":4243,"Ġì±ħìĿĦ":4244,"Ġìĵ¸":4245,"ìĭľíĤ¨":4246,"ĠìĿ¼ìľ¼":4247,"ë£¡":4248,"ĠìĹ°ì¶ľ":4249,"ĠíĥĿ":4250,"ìĹĲê²ĮëĬĶ":4251,"Ġë§¤ëħĦ":4252,"ĠíĽĦìĹĲ":4253,"ì½¤":4254,"Ġìłķë¶ĢìĿĺ":4255,"ĠìŀĪìĹĪëįĺ":4256,"¨¸ëĭĪ":4257,"ì¯¤":4258,"íķ´ìļĶ":4259,"ëĮĢìłĦ":4260,"ĠíļĮë³µ":4261,"ë°ľìłĦ":4262,"Ġìŀ¬íĻĶ":4263,"Ġì¶ľë°ľ":4264,"ĠíĽĮë¥Ń":4265,"ë¦¬ìłģ":4266,"Ġíķľê¸Ģ":4267,"Ġê³łê¸ī":4268,"ĠìķĮê²Į":4269,"ĠíĻĺìŀĲ":4270,"Ġìĸĺê¸°":4271,"08":4272,"ìĭľíĤ¬":4273,"ëł¬":4274,"ĠìĺĪìĤ°":4275,"ĠíĮĮìĽĮ":4276,"ML":4277,"ep":4278,"ê²ģ":4279,"ĠìłľìĿ¼":4280,"ì²ĺë¦¬":4281,"Ġê¸¸ìĿĦ":4282,"Ġë¹łë¥¸":4283,"ĠìĤ¶ìĿĺ":4284,"ëĤ©":4285,"Ġë¹Ħíķµ":4286,"ë¶ĦìĦĿ":4287,"Ġë§ĪìĿ´íģ¬":4288,"Ġë§Ĳíķľëĭ¤":4289,"Ġì§ģìĹħ":4290,"Ġì¦Ŀê±°":4291,"Ġìĭ¶ëĭ¤":4292,"ĠìĿ´ê²ĥìĿĢ":4293,"Ġê¾¸ì¤Ģ":4294,"Ġê²ģëĭĪëĭ¤":4295,"íķ´ì§Ħ":4296,"Ġê³µìłķ":4297,"ĠìĹ°ëĿ½":4298,"ì¢ĭ":4299,"ê·¼íĺľ":4300,"ĠíĸĪëįĺ":4301,"ĠìķĦëĭĲ":4302,"ìŀĲëıĻì°¨":4303,"ĠìĭľëıĦ":4304,"Ġìłķê¸°":4305,"ìŀ¬ë¥¼":4306,"êµĲíĨµ":4307,"Ġì¡°íķ©":4308,"Ġë°Ķê¿":4309,"ĠìĬ¤íĨł":4310,"Ġìĭ¤íĺĦ":4311,"ĠëĶ°ëľ»":4312,"Ġë¶Īê³¼":4313,"ĠëłĪìĿ´":4314,"ĠíĹĪìļ©":4315,"33":4316,"OS":4317,"íĮ©":4318,"Ġë¹ĦëĶĶìĺ¤":4319,"ĠíĨµê³Ħ":4320,"ĠìŀĪìĸ´ìķ¼":4321,"ĠëĿ¼ìĿ´ë¸Į":4322,"ign":4323,"ĠëıĪìĿĦ":4324,"Ġìľłëªħíķľ":4325,"ì§Ģê²Į":4326,"Ġë¹Ħìľ¨":4327,"ĠìĿ´ìļ©íķĺìĹ¬":4328,"Ġë¯¸êµŃìĿĺ":4329,"ëģĹ":4330,"Ġíķ´ëĭ¹íķĺëĬĶ":4331,"ĠìĨĮë¹ĦìŀĲ":4332,"ĠëĤ®ìĿĢ":4333,"ĠìĿ¸ì¦Ŀ":4334,"ĠìŀĪëĬĶì§Ģ":4335,"ĠìĻĶëĭ¤":4336,"Ġì´Īê¸°":4337,"ĠìŀĲìĭłìĿĦ":4338,"ĠíĺĲìĿĺ":4339,"ĠìĿ´ëĵ¤":4340,"ìłģíķľ":4341,"ĠìķĦë¬´ë":4342,"ĠìĺĪë¥¼":4343,"Ġê°ķíķľ":4344,"Ġë°Ľìķĺ":4345,"ê´Ħ":4346,"ï¿½?":4347,"ia":4348,"ëĭĲ":4349,"ëĤĺìļĶ":4350,"Ġì§Ģêµ¬":4351,"ĠëĶ±":4352,"Ġë¶Īê°ĢëĬ¥":4353,"íĺĦì§Ģ":4354,"Ġìŀĳê°Ģ":4355,"are":4356,"Ġê¸ĢìĿĦ":4357,"ë®¤ëĭĪ":4358,"ĠëĮĢíĻĶ":4359,"ëħĦìĿ´":4360,"Ġì¤ĳëĭ¨":4361,"ĠìķĬìľ¼ë©´":4362,"ìĦ¸ê¸°":4363,"ëł¤ëĬĶ":4364,"Ġìĸ´ëĸł":4365,"íıīê°Ģ":4366,"Ġì½ľ":4367,"ìĭľê°Ģ":4368,"ĠìĿ´ìŀ¬":4369,"ĠìĹĨëĭ¤ëĬĶ":4370,"ĠëĴ·":4371,"Ġíĺ¼ìŀĲ":4372,"Ġë¹Ħë¡¯íķ´":4373,"ê²¼ëĭ¤":4374,"49":4375,"ial":4376,"Ġìŀĩ":4377,"ë¥Ļ":4378,"Ġê²¸":4379,"ë¦¬íķľ":4380,"ìĬ¤íħĮ":4381,"Ġë³´ìķĪ":4382,"ĠìĿĺë¬´":4383,"Ġêµ¬íĺĦ":4384,"Ġ2010":4385,"ĠëŁ°":4386,"ë°Ģë¦¬ë¯¸íĦ°":4387,"Ġë°ĸìĹĲ":4388,"ìĭłìĿĦ":4389,"Ġìłģíķ©":4390,"éģ":4391,"ë¡ľë¥¼":4392,"ĠíķłìĿ¸":4393,"Ġìĵ´":4394,"Ġê¼½":4395,"ê³µê³łìłľ":4396,"ëĭ·ì»´":4397,"nd":4398,"ĠìĦŃ":4399,"Ġëį§":4400,"Ġê±°ë¶Ģ":4401,"Ġë¸ĮëĿ¼":4402,"48":4403,"ìĥģëĭ´":4404,"ĠìŀĲìłĦê±°":4405,"ë¬¸ìĹĲ":4406,"Ġë¶ĢëıĻìĤ°":4407,"ìŀ¬ëĭ¨":4408,"Ġìĭłê·ľ":4409,"orm":4410,"Ġë³´ëĤ":4411,"07":4412,"êº¼":4413,"Ġë°¥":4414,"ìĪĺëıĦ":4415,"ĠìłľëıĦ":4416,"Ġëĭ¬ìĦ±":4417,"ĠíĮ¨ìħĺ":4418,"act":4419,"ĠìłķìĥģíļĮëĭ´":4420,"59":4421,"><":4422,"IN":4423,"Ġëĺĳ":4424,"ĠìŀĪìĹĪìĬµëĭĪëĭ¤":4425,"Ġê³łìĸĳ":4426,"ê·¸ëŁ°":4427,"Ġíİ¸ì§ĳ":4428,"ĠëĬ¥ëł¥":4429,"ĠìĽĶëĵľì»µ":4430,"ĠìłĢëł´íķľ":4431,"ìĿ´ìļ©":4432,"Ġìķ¨":4433,"ìľĦìĿĺ":4434,"Ġë©¤ë²Ħ":4435,"íĺĦìŀ¬":4436,"Ġì´Īê³¼":4437,"ĠìĨĮíĶĦíĬ¸ìĽ¨ìĸ´":4438,"ìĤ¬ìĹĲìĦľ":4439,"ë¶Ħê¸°":4440,"ĠìĹ°ìĨį":4441,"ĠëıĦìĽĢìĿĦ":4442,"ĠìĹ´ìĭ¬íŀĪ":4443,"Ġì¶ķêµ¬":4444,";;":4445,"EC":4446,"ìĹĳìĬ¤":4447,"ëĤ¸":4448,"ìĿ¸ìĹĲê²Į":4449,"ë§Įíķľ":4450,"íģ°":4451,"Ġê²°ìłľ":4452,"Ġì²´ê³Ħ":4453,"ëĵ¯ìĿ´":4454,"¬ëĭ¤":4455,"Ġê¸°ìĹ¬":4456,"êµ¬ëĤĺ":4457,"ì§ĦíĿ¥":4458,"íĭ°ë¸Į":4459,"ĠAC":4460,"Ġê¹¨ëģĹ":4461,"Ġë°©ìĭĿìľ¼ë¡ľ":4462,"ìĿ´ìĤ¬":4463,"ì°į":4464,"ëĭ¹ìĿ´":4465,"ĠêµĲíĻĺ":4466,"ĠìĺĪìĪĺ":4467,"Ġë³¸ëĭ¤":4468,"ĠìķłëĭĪ":4469,"Ġë¹¨ë¦¬":4470,"%),":4471,"ib":4472,"Ġë®¤":4473,"ìĿ¸ì¦Ŀ":4474,"Ġì§ĵ":4475,"ê²½ì°°":4476,"Ġì¹´ëĵľ":4477,"ìĭľíĤ¤ê³ł":4478,"´ëŀ":4479,"ë¦¬ìĸ´":4480,"Ġì§ĢíĤ¤":4481,"ë¥´ê¸°":4482,"ĠíļĮìŀ¥":4483,"ì¦Ŀê¶Į":4484,"ĠíļĮìĤ¬ê°Ģ":4485,"Ġë¨¹ê³ł":4486,"êµŃë¯¼":4487,"ì¹´ìĺ¤":4488,"ast":4489,"Ġê³¤":4490,"ì²¨":4491,"ìĸ´ëĤ´":4492,"Ġìĸ»ìĿĦ":4493,"ĠìĿĢíĸī":4494,"ĠíķĺëĿ½":4495,"Ġê²ĥìĿ´ëĿ¼ëĬĶ":4496,"ĠìĿ¸ë¬¼":4497,"Ġëįĺ":4498,"ë¶ĦìĿĺ":4499,"Ġê°ķìĽĲ":4500,"ĠìĤ¬ëŀĮëĵ¤ìĿĺ":4501,"Ġì°¨ë³Ħ":4502,"ĠìĤ¬ìĹħìĿĦ":4503,"05":4504,"ê³łë¥¼":4505,"ìķĦìĭľìķĦ":4506,"ìłľìĹĲ":4507,"ĠìĿ´ë©":4508,"ìĸ´ë²Ħ":4509,"ĠìĥĪë¡ľ":4510,"ĠìłĲìłĲ":4511,"Ġìĭ¬ê°ģ":4512,"Ġê²Ģì°°":4513,"Ġì±ĦëĦĲ":4514,"ĠìĿ¸íĦ°ë·°":4515,"Ġë°ĶëĢĮ":4516,"ĠìĿ´íĸī":4517,"ìĤ¬ëŀĳ":4518,"ĠìŀĪìľ¼ë©´":4519,"ì²´ê°Ģ":4520,"Ġë§İìķĦ":4521,"Ġì°¨ìĿ´ê°Ģ":4522,"Ġì²Ńêµ¬":4523,"Ġë§ŀìķĦ":4524,"ice":4525,"ĠëĦ¤ìĿ´ë²Ħ":4526,"ĠëĪĦêµ¬ëĤĺ":4527,"==":4528,"Ġë°´":4529,"ìļ©ìĿĦ":4530,"Ġê³ĦìłĪ":4531,"ĠíĮĮíĬ¸":4532,"ĠíĿ¡":4533,"Ġë²Ĺìĸ´ëĤĺ":4534,"up":4535,"âĹ":4536,"ĠìĿ¸ìĥģ":4537,"Ġêµ¬ê¸Ģ":4538,"Ġë°ľëĭ¬":4539,"ĠìĤ¬ìĿ´ìĹĲ":4540,"ìī½":4541,"íķĺê²łëĭ¤":4542,"Ġì§ĢìĭĿ":4543,"Ġë¶ĢíļĮ":4544,"ì½Ķë¦¬ìķĦ":4545,"íĿĲ":4546,"',":4547,"ĠëĤĺë¥¼":4548,"ëªħìĿĢ":4549,"Ġê¹ĬìĿĢ":4550,"ĠíķŃëª©":4551,"ĠìĿĳëĭµ":4552,"ĠìĦłìĥĿëĭĺ":4553,"çĶ":4554,"ĠíķĺìĿ´":4555,"ìļ°ëĵľ":4556,"ê³µëĭ¨":4557,"ìĿĮìĿ´":4558,"Ġë³µìŀ¡":4559,"Ġë¯¼ê°Ħ":4560,"ell":4561,"Ġêµ°ìĤ¬":4562,"2008":4563,".âĢĺ":4564,"ìĿĦê¹Į":4565,"ĠíķĺìĺĢëĭ¤":4566,"ëħĦê¹Įì§Ģ":4567,"ë¹Ħê°Ģ":4568,"ê¸ĪìĿ´":4569,"Ġì¹´ë©ĶëĿ¼":4570,"ĠìĤ¬ëŀĮëĵ¤":4571,"Ġë¶ĪëŁ¬":4572,"Ġíı¬ìŀ¥":4573,"ĠìĹĲìĦľ":4574,"Ġê¸°ì¤Ģìľ¼ë¡ľ":4575,"Ġê±±ìłķ":4576,"Ġê°ľìĿĺ":4577,"ìĦłíķľ":4578,"Ġêµ¬ë¶Ħ":4579,"ĠìĥĿê°ģíķľëĭ¤":4580,"Ġì§ĢëĤľëĭ¬":4581,"ëŀĢëĭ¤":4582,"Ġëĥī":4583,"ĠìĿ¸ìĪĺ":4584,"ìĨĮëĵĿ":4585,"íĥĢë¯¼":4586,"ĠêµŃë¦½":4587,"Ġìµľìĭł":4588,"ëįĶëĿ¼":4589,"ĠìŀĪìĸ´ìļĶ":4590,"Ġì½ĶìĬ¤":4591,"ë°ĽëĬĶ":4592,"Ġê²½íĹĺìĿĦ":4593,"ĠíĴĪì§Ī":4594,"Ġë¹Ħì¦ĪëĭĪìĬ¤":4595,"ÂŃ":4596,"Ġëĭ¤ë£¨":4597,"ĠìĿ¸ê¸°":4598,"ĠëĮĢë¶Ģë¶ĦìĿĺ":4599,"ãħłãħł":4600,"Ġê°Ģê¹Įìļ´":4601,"Ġë¹ĦìĬ·íķľ":4602,"EO":4603,"å®":4604,"ëķ":4605,"ìĿ´ìĻĢ":4606,"ìĹĲìĿ´":4607,"ĠìłĦìĽĲ":4608,"ìĽĶë¶ĢíĦ°":4609,"ëĲĺê¸°":4610,"Ġë¶Ģíĥģ":4611,"ĠìĦłìĸ¸":4612,"Ġë¶ĪìķĪ":4613,"ëĬĶëį°ìļĶ":4614,"Ġì²ŃìĻĢ":4615,"2007":4616,"ĠìĨ¡ê³ł":4617,"ìĭ¼":4618,"ë¹ĦíĬ¸":4619,"ì¡°ê±´":4620,"Ġì¡°ìłĪ":4621,"ì¡¸":4622,"ĠíħĮìĬ¤íĬ¸":4623,"Ġë²Ķì£Ħ":4624,"ëħķíķĺìĦ¸ìļĶ":4625,"ŁìķĦ":4626,"ê°Ķ":4627,"ĠìĭłìķĻ":4628,"Ġ90":4629,"Ġì²ĺìĿĮìľ¼ë¡ľ":4630,"ED":4631,"ĠQ":4632,"ë¹Ħìľ¨":4633,"Ġìĺ¬ëł¤":4634,"ĠìłĲìĹĲìĦľ":4635,"ì³¤":4636,"ê¸¸ìĿĦ":4637,"ĠíĨłë¡ł":4638,"Ġíģ´ë¦Ń":4639,"ie":4640,"¼ìĨĲ":4641,"ìĿ´ëĦĪ":4642,"ê¸°ê¸°":4643,"ĠìĿ´ëĵ¤ìĿĢ":4644,"ëĤĺëĭ¤":4645,"ì£¼ê°Ģ":4646,"ê±°ëĵł":4647,"Ġ500":4648,"ĠíĻĶìŀ¥":4649,"Ġë¹łìł¸":4650,"ê¸°ëĬ¥":4651,"ëĵľë¦¬":4652,"Ġê²½ëĤ¨":4653,"ê´ĢìĹĲìĦľ":4654,"ĠìĨĮëĵĿ":4655,"ĠìĿ´ìļ©íķľ":4656,"ĠìĿĺê²¬ìĿĦ":4657,"ê¸ĪìĿĢ":4658,"ĠíĨµê³¼":4659,"ĠìłĳìĨį":4660,"Ġíı¬íķ¨íķľ":4661,"ĠìĥģíĻ©ìĹĲìĦľ":4662,"ë¨¼íĬ¸":4663,"67":4664,"ëĲĺìĹĪìĬµëĭĪëĭ¤":4665,"Ġê³łíĨµ":4666,"ĠìĥĿê°ģíķ©ëĭĪëĭ¤":4667,"Ġ2007":4668,"ĠìĹĶì§Ħ":4669,"ìĿ´ìĿĺ":4670,"ìŀĲì¹ĺ":4671,"ìĽĲê³¼":4672,"ëĮĢìĥģ":4673,"Ġìĥģì§ķ":4674,"ì¤ĳêµŃ":4675,"ëĥĪëĭ¤":4676,"ĠëĦĺëĬĶ":4677,"ìĦ¬":4678,"Ġêµ³":4679,"ëĭĪëĿ¼":4680,"Ġìĭ¤ì²ľ":4681,"ìłĲìĹĲ":4682,"ĠìĻĦìłĦíŀĪ":4683,"ĠKT":4684,"íķĺìĺĢìĬµëĭĪëĭ¤":4685,"ìĦ±ìŀ¥":4686,"íĸīìłķ":4687,"Ġê°ľíĺģ":4688,"íĶĦëĿ¼ìĿ¸":4689,"Ġê°ķìĿĺ":4690,"Ġëħ¸ìĿ¸":4691,"ĠìĥĪë¡Ńê²Į":4692,"Ġì°½ì¶ľ":4693,"Ġë¸Ķë¡Ŀ":4694,"ĠìŀĲëŀĳ":4695,"Ġë³´ìĿ´":4696,"ì¹ĺë£Į":4697,"Ġê´Ģê°Ŀ":4698,"ĠìĬ¤íĶ¼":4699,"Ġê±°ë¦¬":4700,"ëĳĶ":4701,"Ġë²łìĿ´":4702,"Ġk":4703,"ëħĦìĿĺ":4704,"ë¶Ħìķ¼":4705,"ĠêµŃìłķ":4706,"Ġê²½ìļ°ëĬĶ":4707,"ĠíĬ¹ìĪĺ":4708,"ë¹Į":4709,"ĠìķŀìĹĲ":4710,"ëĳĺ":4711,"Ġ2008":4712,"Ġë°ľìĥĿíķĺëĬĶ":4713,"Ġê³¨ëĵľ":4714,"Ġíļ¨ê³¼ë¥¼":4715,"ext":4716,"RA":4717,"pr":4718,"ìĿ´ìĥģ":4719,"ìĿ¼ë³¸":4720,"ëĿ¼ìĬ¤":4721,"Ġìĺµ":4722,"ëĮĢìĹĲ":4723,"ì£¼ë¥¼":4724,"Ġì²Ļ":4725,"ìĺ¤ëĬĺ":4726,"ĠêµŃíļĮìĿĺ":4727,"ĠìķĪìĹĲìĦľ":4728,"ĠíĹ¬":4729,"Ġë¶ģë¯¸":4730,"íĺĳëł¥":4731,"ĠìĬ¤íĥĢìĿ¼":4732,"Ġæ":4733,"ĳìĿĢ":4734,"Ġë§º":4735,"ìĤ¬ìļ©":4736,"ĠìĪĺìłķ":4737,"ìłģìĿ´ëĭ¤":4738,"Ġëıķ":4739,"íĻĶìĿĺ":4740,"Ġìĭłìļ©":4741,"ìĸ´ë§":4742,"Ġê¹ĢìłķìĿĢ":4743,"Ġìŀħìŀ¥":4744,"Ġë§Įëĵ¤ê³ł":4745,"ov":4746,"íķĺëĿ¼":4747,"íĦ°ë¦¬":4748,"Ġìĺ¬ë¦¬":4749,"Ġê°ĢëĬ¥íķĺëĭ¤":4750,"Ġcom":4751,"ass":4752,"Ġì§ĢìĨįìłģìľ¼ë¡ľ":4753,"íķĢ":4754,"Ġêº¼":4755,"ĠëĮĢíļĮ":4756,"ì¹ĺì§Ģ":4757,"Ġëª¨ìĹ¬":4758,"ìĦ¸ê°Ģ":4759,"ĠìĿĺìĽĲìĿĢ":4760,"ĠìĭłìĨį":4761,"íĹ¤":4762,"Ġê°ķëĤ¨":4763,"ĠíļĮìĿĺ":4764,"íĺķìĿĦ":4765,"Ġëĵ¤ê³ł":4766,"Ġë§ŀì¶°":4767,"Ġë§Įëĵ¤ê¸°":4768,"Ġch":4769,"Ġì§ĪíĻĺ":4770,"ĠìĤ¬ì§ĦìĿĦ":4771,"ĠëĸłëĤĺ":4772,"Īľ":4773,"ìĦľê°Ģ":4774,"ìĦ¤ì¹ĺ":4775,"íĬ¹ë³Ħ":4776,"ĮĦ":4777,"ì§Ģë©´ìĦľ":4778,"ìĨĮê°Ģ":4779,"Ġì§Ħëĭ¨":4780,"Ġëħ¸ì¶ľ":4781,"Ġë¹ħ":4782,"Ġê³³ìĹĲ":4783,"Ġëĭµë³Ģ":4784,"ìĽłëĭ¤":4785,"Ġì¿łíĤ¤":4786,"32":4787,"Ġëĭ¤ìĨĮ":4788,"ëħĦëıĦ":4789,"ì²´ìľ¡":4790,"Ġëªħìĭľ":4791,"Ġcl":4792,"ìį¹":4793,"Ġë¶Ģë¶ĦìĿ´":4794,"ĠìĨĶë£¨":4795,"ìĦ°ëĭ¤":4796,"ê°Ģì¡±":4797,"ìĤ¬ìŀĲ":4798,"Ġ36":4799,"ĠìĬ¤ìľĦ":4800,"ĠìĬ¤íģ¬":4801,"ìłĲìĿĢ":4802,"íķŃê³µ":4803,"ĠìķĦëĭĻëĭĪëĭ¤":4804,"ĠìĦ¼íĦ°":4805,"ĠíĢ":4806,"ìĭľìĿĺ":4807,"ĠìĺĽ":4808,"ĠëĮĢì±ħ":4809,"Ġìľµ":4810,"Ġìĸ´ë¨¸ëĭĪ":4811,"ĠíĮĲê²°":4812,"íķĺìĺĢê³ł":4813,"ill":4814,"ê¼¬":4815,"ìĽĲíķľ":4816,"ìłĦìĿ´":4817,"ìĪĺë¡ľ":4818,"ìłĲìľ¼ë¡ľ":4819,"ĠíĶĦëłĪ":4820,"Ġë°°ìĨ¡":4821,"ëĳ¥":4822,"Ġì¢ĭìķĦíķĺëĬĶ":4823,"åľ":4824,"ìĬ¤íı¬ì¸ł":4825,"Ġê³ĦìĤ°":4826,"Ġë³µì§Ģ":4827,"ĠëĪĦê°Ģ":4828,"ĠëĦĪíĿ¬":4829,"Ġë°©ë²ķìľ¼ë¡ľ":4830,"ĠìĪĻë°ķ":4831,"âĸ²":4832,"ãİ¡":4833,"Ġê´ľì°®":4834,"58":4835,"TA":4836,"ì£¼ëĭ¹":4837,"ê³ĦìĹĲ":4838,"ìļ¸ëŁ¬":4839,"ĠìĤ´ê³ł":4840,"Ġë¡ľë´ĩ":4841,"ĠëĨįìĹħ":4842,"Ġë§ĪìĿĮìĿ´":4843,"ID":4844,"ment":4845,"ust":4846,"Ġê·¸ë¦°":4847,"Ġíķ¸":4848,"ĠìĺĪì¸¡":4849,"ĠìķĦëĭĪë©´":4850,"ĠìĿ´ìļ©íķ´":4851,"Ġìļ´ìĨ¡":4852,"ëģĦ":4853,"Ġì§Īë³ĳ":4854,"Ġê°ľìĿ¸ìłķë³´ë¥¼":4855,"Ġï¼":4856,"ìĭľì¼":4857,"ĠìľłìĤ¬":4858,"ĠëıĦë¡ľ":4859,"Ġìŀ¥ì¹ĺ":4860,"ëĤ´ê³ł":4861,"Ġì§ģìŀ¥":4862,"Ġìĭľìŀĳíķľ":4863,"Ġíļį":4864,"ĠíĿ¥ë¯¸":4865,"Ġì£¼ë§Ĳ":4866,"ìĦłìĿ´":4867,"ĠìĦ¸ìĥģìĿĦ":4868,"ĠìłĢëıĦ":4869,"ĠìķĦìĿ´íı°":4870,"ĠìķŀëĳĲê³ł":4871,"ëļ":4872,"ĠÂ":4873,"ìĿ¸ìĹĲ":4874,"ìŀ¥ì¹ĺ":4875,"Ġê¸°ëıħêµĲ":4876,"ĠìĥĿê¸´":4877,"ë¬´ë¦¬":4878,"íĺ¸íħĶ":4879,"Ġë¬´ìĹŃ":4880,"Ġê³¼ìĹ°":4881,"ĠìķĦëĭĪê³ł":4882,"ìĺĪìļĶ":4883,"ĠíĸĪëĬĶëį°":4884,"Ġì²ľì§Ģ":4885,"Ġì»¤ë®¤ëĭĪ":4886,"Ġì²łìłĢ":4887,"íķĺìĿ´":4888,"ìłķì¹ĺ":4889,"Ġë³´ê´Ģ":4890,"ëį°ìĿ´íĬ¸":4891,"Ġì¶ĶìĦĿ":4892,"Ġê±¸ì³Ĳ":4893,"Ġê°ĸì¶Ķ":4894,"Ġìŀ¥ëĤľê°Ĳ":4895,"77":4896,"ëĵŃ":4897,"ì¹´ëĿ¼":4898,"Ġë¬ĺ":4899,"ĠìĿ¼ìĿĢ":4900,"íı´":4901,"ê´Ģëł¨":4902,"ëĭ¹ìĿĦ":4903,"ë¥łìĿ´":4904,"ĠíĥĦìĥĿ":4905,"ìĹĲë§Į":4906,"ĠìĭŃ":4907,"ĠìĹĨëĭ¤ê³ł":4908,"ĠìĿĺìĭ¬":4909,"íŀĪëĬĶ":4910,"ĠìĥĿìĦ±":4911,"ĠëıĻìŀĳ":4912,"ĠëıĻìĺģìĥģ":4913,"ëįĶêµ°ìļĶ":4914,"íħĮíģ¬":4915,"ëĨĢìĿ´":4916,"ĠëģĿëĤĺ":4917,"ĠëĨĵê³ł":4918,"ĠíĹĮë²ķ":4919,"ë¬¸ìłľ":4920,"Ġê±·":4921,"ìķĪë§Ī":4922,"ìĹĪì§Ģë§Į":4923,"ond":4924,"Ġê°ĸì¶ĺ":4925,"ë»":4926,"ìĿ¼ê¹Į":4927,"Ġë°ĳ":4928,"ĠìĿ´ëķĮ":4929,"ìĭĿìĿĺ":4930,"ĠìľłìĿ¼":4931,"ĠìĦłë°ľ":4932,"Ġë§Ĳê³ł":4933,"Ġê²°íķ©":4934,"Ġë¬´ìĦł":4935,"íĶ¼ìĬ¤":4936,"ĠëĬĺìĸ´ëĤĺ":4937,"ĠìĿĺë¯¸ë¥¼":4938,"Ġë¨¸ë¦¬":4939,"ëĭīìĬ¤":4940,"¥Ĳ":4941,"ëĵ¬":4942,"ë¦¬íĬ¸":4943,"Ġëĵł":4944,"íļĮìĽĲ":4945,"Ġì£¼ëıĦ":4946,"íĺ¸ë¥¼":4947,"ĠëıĦìĻĢ":4948,"ì¤ĳíķľ":4949,"ìĸ´ë¯¼":4950,"ĠìĹŃìĤ¬ë¥¼":4951,"Ġë§ŀì¶¤":4952,"Ġë©ĶìĿ´":4953,"ĠëĮĢíĳľìłģìĿ¸":4954,"ĠëĤ´ìļ©ìĿ´":4955,"ĠêµŃë¯¼ìĿĺ":4956,"ĠêµĲìĪĺëĬĶ":4957,"Ġê°ĳìŀĲê¸°":4958,"ì§Ģê¸°":4959,"ìĦľíĬ¸":4960,"ìĥµ":4961,"ìļ°ê³ł":4962,"ìĤ°ìĿĺ":4963,"Ġë§ĲíķĺëĬĶ":4964,"ë¸Ĳ":4965,"ëĵ±ìĿĦ":4966,"Ġì§Ģê¸ĪìĿĢ":4967,"06":4968,"ê°Ģê²©":4969,"Ġê¸°ìŀ¬":4970,"ìŀĦê¸Ī":4971,"Ġë²¤":4972,"Ġìĥģìĥģ":4973,"ìļ´ìĺģ":4974,"ĠìĹ°ê³Ħ":4975,"Ġë¶Ħëĵ¤ìĿ´":4976,"ì¢ħìĿĺ":4977,"ë¥ĺë¥¼":4978,"Ġì°¾ëĬĶ":4979,"ìĪľìľĦ":4980,"ìºł":4981,"ĠìħĢ":4982,"Ġëī´ìĬ¤":4983,"¨ìĿĦ":4984,"ë¬¸ìĿĺ":4985,"ĠëĤ´ìĹĲ":4986,"ĠìĽĲëŀĺ":4987,"íķ¨ìĿ´":4988,"Ġëª»íĸĪëĭ¤":4989,"ĠìłĲê²Ģ":4990,"íİĺìĿ´":4991,"our":4992,"íĶĦë¡ľê·¸ëŀ¨":4993,"Ġê¸°ìĤ¬":4994,"Ġê°Ģì¹ĺë¥¼":4995,"ĠìłĦìĨ¡":4996,"íĻĶìĹĲ":4997,"ĠìĿ¸íķĺìĹ¬":4998,"ĠìĹ°íķ©":4999,"Ġíĥģ":5000,"Ġíı¬ê¸°":5001,"Ġëª©ìĤ¬":5002,"Ġìĭ¬ì§Ģìĸ´":5003,"Ġìłķë¶ĢëĬĶ":5004,"Ġì»¤íĶ¼":5005,"ë·Ķ":5006,"Ġìĸ´ëĸłíķľ":5007,".'":5008,"46":5009,"ëĤ®":5010,"ìļ©íķľ":5011,"Ġë¹ĦíĬ¸":5012,"ĠìĻĢìĿ´":5013,"ëª¨ëį¸":5014,"Ġëħ¸ëł¥ìĿĦ":5015,"ĠëªħìĿ´":5016,"Ġê¸Īì§Ģ":5017,"Ġìļ´ìĺģíķĺëĬĶ":5018,"ëľ¨":5019,"div":5020,"pl":5021,"ëĬĶê°Ģ":5022,"ìĸ´ëĬĶ":5023,"Ġì§Ģíķĺ":5024,"ĠìłĦê³µ":5025,"êµ¬ì¡°":5026,"ëħĦìĹĲëĬĶ":5027,"Ġì£¼ìłľë¡ľ":5028,"ê³µëıĻ":5029,"Ġë²¨":5030,"Ġë¹ĦíĥĢë¯¼":5031,"Ġë§¤ëł¥":5032,"íĨłíĨł":5033,"ĠìĤ¼ìĦ±ìłĦìŀĲ":5034,"ĠìħĪ":5035,"īìŀ¥íŀĪ":5036,"ile":5037,"ëŃ":5038,"ìĿ´ëĤł":5039,"ĠìĿ´íĥĪ":5040,"íĻĪ":5041,"íĬ¸ëĤ¨":5042,"íŀĲ":5043,"Ġë¯¸ìĪł":5044,"ë²ĦìĬ¤":5045,"Ġì§ĳíĸī":5046,"Ġê·¸ëŀĺëıĦ":5047,"Ġê·¸ê²ĥìĿ´":5048,"Ġì¼Ģ":5049,"Ġëĭ¨ìĪľíŀĪ":5050,"Ġëį§ë¶Ļ":5051,"Ġìľłì¹ĺ":5052,"ìľłìĿĺ":5053,"ë¯¸ëĶĶìĸ´":5054,"Ġê¹Ķ":5055,"Ġê²½ìļ°ëıĦ":5056,"ord":5057,"ë¦¬ëĿ¼":5058,"ĠìĿ´ë¥¸":5059,"Ġê·¸ëŁ¼":5060,"Ġê²ĥìĿ´ê³ł":5061,"íķŃìĹĲ":5062,"ĠíĿĳ":5063,"ëŁīìĿĢ":5064,"ë´Ĳ":5065,"Ġì²´íģ¬":5066,"ĠíĻķìĿ¸íķł":5067,"ĠëĳĶ":5068,"Ġëĵ£ê³ł":5069,"ook":5070,"ES":5071,"PG":5072,"ber":5073,"Ġìĥ¤":5074,"ë¶ĢìĤ°":5075,"ìĭ¤ìĹĲìĦľ":5076,"íĮĲë§¤":5077,"ĠìĭĿíĴĪ":5078,"2017":5079,"ìĿ¸íĦ°ëĦ·":5080,")(":5081,"Ġ`":5082,"íķľìĿĺ":5083,"ëłĽ":5084,"Ġì¡°ìłķ":5085,"ê±´ìĦ¤":5086,"íķ¨ìĹĲ":5087,"Ġíļ¨ê³¼ê°Ģ":5088,".[":5089,"ĠìĹĺë¦¬":5090,"ĠíĻĢ":5091,"ĠìŀĲë¦¬ë¥¼":5092,"ë¬¸íķĻ":5093,"ê³µìĽĲ":5094,"ëį°ìĿ´":5095,"Ġìľłê¸°":5096,"Ġìļ°ìĬ¹":5097,"ìķĪìĹĲ":5098,"Ġíķ´ì£¼":5099,"Ġë¯¸ìĦ¸":5100,"ìĸ´ëĤ¬":5101,"Ġì°½ìĿĺ":5102,"ìĺ¬ë¦¼íĶ½":5103,"Ġíľĺ":5104,"ĠíĿĲë¦Ħ":5105,"ê±°ëĵłìļĶ":5106,"ric":5107,"ëŀĦ":5108,"ĠìłķìĭĿ":5109,"êµ¬ìĹŃ":5110,"íĮĮìĿ¼":5111,"ĠíıīìĨĮ":5112,"ĠìĻĦë£Į":5113,"Ġby":5114,"ide":5115,"ĠìĤ´íİ´ë³":5116,"47":5117,"?)":5118,"ĠìĮį":5119,"íķĺìħ¨":5120,"ê¸°ë¡Ŀ":5121,"ë¦¬ìĺ¤":5122,"ĠìķĦëĤ´":5123,"ìĤ°ë¬¼":5124,"Ġìĭ¤ë¬´":5125,"ìłģìľ¼ë¡ľëĬĶ":5126,"ĠìĤ¬ëŀĮìĹĲê²Į":5127,"ì¦ĿìĿ´":5128,"Ġë°ĿíĺĢ":5129,"Ġíŀĺëĵł":5130,"ìª½ìľ¼ë¡ľ":5131,"Ġìī½ì§Ģ":5132,"Ġì¦īìĭľ":5133,"ìĬ¤íĨłëŀĳ":5134,"02":5135,"ON":5136,"ìĦľìĿĺ":5137,"Ġì£¼ì°¨":5138,"ë£¸":5139,"Ġëĭ¨ì§Ģ":5140,"ĠëĤ¨íİ¸":5141,"ì¢ħíķ©":5142,"ĠìķĦìĿ´íħľ":5143,"Ġ2009":5144,"Ġbe":5145,"¾¼":5146,"ê¸°ìŀĲ":5147,"ìĭľë¯¼":5148,"ëĮĢë¦¬":5149,"ĠìķĦìī¬":5150,"ëĵľìĿĺ":5151,"Ġ35":5152,"ê·¸ë¦¬ê³ł":5153,"íĭ¸":5154,"Ġë³ĳìĽĲ":5155,"ĠìŀĪìľ¼ëĭĪ":5156,"Ġì§§ìĿĢ":5157,"Ġìķ¨ë²Ķ":5158,"68":5159,"ì§ĢëĬ¥":5160,"Ġê°¤":5161,"ìĿ¸ëĵ¤ìĿĺ":5162,"ĠìĿ¸ê·¼":5163,"Ġë¹Ħì¤ĳ":5164,"Ġë¶Īê°Ģ":5165,"ĠìķŀìĹĲìĦľ":5166,"Ġê·ľìłľ":5167,"Ġê³³ìĿ´":5168,"´ë°°":5169,"ĠíİĺìĿ´ì§Ģ":5170,"Ġë°ľíĳľíķľ":5171,"Ġthat":5172,"Ġê°ķëł¥íķľ":5173,"CT":5174,"ll":5175,"ë¶ķ":5176,"Ġìĭľê¸°":5177,"ê¹¨":5178,"ëł¥ê³¼":5179,"Â·Â·":5180,"êµ°ìĿĺ":5181,"ì±ħìŀĦ":5182,"ëĦ¤íĬ¸ìĽĮíģ¬":5183,"Ġê°ĢëĬ¥íķ©ëĭĪëĭ¤":5184,"ĠâĢ¦":5185,"Ġê°ľë³Ħ":5186,"Ġë§Įíķľ":5187,"ĠìĹ°ìĬµ":5188,"ëĭ¹ìĿĺ":5189,"Ġìĺģìĸĳ":5190,"ê²°ê³¼":5191,"Ġë°ķê·¼íĺľ":5192,"ĠìĹħëį°ìĿ´íĬ¸":5193,"ower":5194,"ãħ¡ãħ¡":5195,"net":5196,"Ġan":5197,"ìĤ¬ìĭ¤":5198,"ĠìĿ´ëĿ¼":5199,"ĠìĿĺíĺ¹":5200,"ë§Ĳë¡ľ":5201,"ĠíĴįë¶Ģ":5202,"åı":5203,"ê²Ĳ":5204,"Ġì§ľ":5205,"Ġë¶ķ":5206,"Ġê¸°ìļ¸":5207,"ìļ°ë¦¬ëĬĶ":5208,"ê¸Īìķ¡":5209,"Ġìĸ´ìļ¸":5210,"end":5211,"ĠìĿ´ìļ©ìŀĲìĿĺ":5212,"Ġìļ´ìłĦ":5213,"Ġì¹´ì§Ģëħ¸":5214,"ë¶ĢìĬ¤íĥĢë¹Ĺë¶ĢìĬ¤íĥĢë¹Ĺë¶ĢìĬ¤íĥĢë¹Ĺë¶ĢìĬ¤íĥĢë¹Ĺ":5215,"ĠìľĪ":5216,"ë¶Ģëª¨":5217,"ëł¥ìĿĺ":5218,"ê·¸ëĬĶ":5219,"Ġë§ĲìĿ´ëĭ¤":5220,"ë²ķìĿ¸":5221,"Ġë¶Ħë¥ĺ":5222,"Ġê°ĦìĿĺ":5223,"ìĿ´ìķ¼ê¸°":5224,"Ġê°Ķ":5225,"Ġì§Ĳ":5226,"ë¬ĺ":5227,"ê°Ħëĭ¤":5228,"ĠìĨĮìħľ":5229,"ĠìĻ¸êµĲ":5230,"ħ¸":5231,"ĠìĿ¸ê¶Į":5232,"Ġëª¨ì§ĳ":5233,"ìĭĿìĹĲ":5234,"ĠìłĢìŀĳ":5235,"ĠíĶĦë¡ľìĦ¸":5236,"ĠìĤ¬ëŀĳìĿĦ":5237,"íķľíħĮ":5238,"ì¹¸":5239,"ĠìłĦê°ľ":5240,"Ġëĭ¤ëħĢ":5241,"ë¬¸ìĿ´":5242,"ê¹Ŀ":5243,"ĠëĤĺìĿ´":5244,"ĠìľłíĬľ":5245,"Ġë°Ľì§Ģ":5246,"ĠëķĮë¬¸ìŀħëĭĪëĭ¤":5247,"ĠìĦľìļ¸ìĭľ":5248,"ë°Ľê³ł":5249,"Ġë´¤":5250,"Ġëī´ìļķ":5251,"Ġìµľì´Īë¡ľ":5252,"57":5253,"uc":5254,"íķĺëĭĪ":5255,"ë¡ľë¯¸íĦ°":5256,"ĠìŀĪìĿĮìĿĦ":5257,"ëį´":5258,"Ġë³´ìĥģ":5259,"ì¡°ì°¨":5260,"Ġ300":5261,"ìĥĿìĿĦ":5262,"ĠíĨµìĿ¼":5263,"Ġê¹Ģìĺģ":5264,"Ġë°ĺëıĦ":5265,"íĥľìĸĳ":5266,"ĠìĥĿê°ģíķĺëĬĶ":5267,"ork":5268,"ĠëĿ¼ëĬĶ":5269,"ĠëĤ´ìļ©ìĿĢ":5270,"Ġë¹łë¥´ê²Į":5271,"ak":5272,"ìŀĸ":5273,"ĠìĪĺìļ©":5274,"Ġê·¸ìĹĲ":5275,"ĠêµŃë°©":5276,"ì°¨ê°Ģ":5277,"ĠKBS":5278,"Ġë½ĳ":5279,"ìĬ¤íĭ°":5280,"ìĥģíĥľ":5281,"Ġë³´ìĺĢëĭ¤":5282,"Ġì¡°ì¹ĺ":5283,"Ġì°¨ëĭ¨":5284,"ãĢĤ":5285,"Ġì¹´íİĺ":5286,"ìĹ°êµ¬ìĨĮ":5287,"Ġê¸°ëıĦ":5288,"ë¹Ħìļ©":5289,"ĠêµŃë¬´":5290,"Ġìµľìłģ":5291,"ë°ĺê¸°":5292,"ĠSM":5293,"Ġ198":5294,"lect":5295,"Ġëª¨ìĬµìĿ´":5296,"Ġë¬´ë£Įë¡ľ":5297,"Ġëį°ìĿ´íĦ°ë¥¼":5298,"Ġê´Ģê´ĳê°Ŀ":5299,"ĠìĪĺìĺģ":5300,"Ġê·¸ëĵ¤ìĿ´":5301,"Ġëĵ±ìĿĢ":5302,"ëªħíķľ":5303,"ê²½ë§Ī":5304,"ëĭĺìĿĢ":5305,"ê°Ĳëıħ":5306,"ĠìĪ²":5307,"ĠëĤ´ëĨĵ":5308,"ĠìĤŃìłľ":5309,"Ġ^^":5310,"ìł¤":5311,"ìķĬ":5312,"Ġì¤ĳìĿ´ëĭ¤":5313,"ëŁīìĿĺ":5314,"ĠìĹ´ë¦¬ëĬĶ":5315,"ĠëłĪìĬ¤íĨłëŀĳ":5316,"ëĵľë¡ľìĿ´ëĵľ":5317,"Ġex":5318,"ë³´ë³´":5319,"Ġëª¨ë¥´ëĬĶ":5320,"Ġë°°ì¹ĺ":5321,"ë¡łìĿĦ":5322,"att":5323,"ëĤ´ë":5324,"Ġë¬µ":5325,"ìĨĮíĶĦíĬ¸":5326,"ëĭ¨ìĹĲ":5327,"ëĭ¹ìĿĢ":5328,"ĠíĺĦíĻ©":5329,"ì§ĪìĿ´":5330,"íĮĮìĿ´":5331,"ĠëĮĢíĨµëł¹ê³¼":5332,"Ġë²Įìĸ´":5333,"ĠëĬĲëĤĦ":5334,"ight":5335,"form":5336,"ê¾¼":5337,"ìĹ½":5338,"ìŀī":5339,"ìłĦìŁģ":5340,"Ġìłľëª©":5341,"êµ¬ëĬĶ":5342,"ĠìŀĲìľ¨":5343,"ìĭ¤ìĿ´":5344,"Ġë°ĶëŀĢëĭ¤":5345,"Ġë¬¸íķĻ":5346,"Ġë³ĢíĻĶë¥¼":5347,"ĠëªħíĻķ":5348,"ĠìĨĲìĿĦ":5349,"ìľĦìĽĲìŀ¥":5350,"Ġë§ĪìĿĮìĹĲ":5351,"ìĺ¬íķ´":5352,"íĽĪëł¨":5353,"´ëłĪ":5354,"ĠìķĦë¬´ë¦¬":5355,"Ġ..":5356,"íķĺìļ°":5357,"ë¦ī":5358,"ë©´ìĹĲ":5359,"ĠíķľìĿ¸":5360,"ìłĦìĿĺ":5361,"Ġì£¼ê´Ģ":5362,"ëĭĪíĦ°":5363,"Ġê²°ì½Ķ":5364,"ĠìķĦìĿ´ëĶĶìĸ´":5365,"ìĬ¤íĥĢê·¸ëŀ¨":5366,"ĠêµĲìľ¡ìĿĦ":5367,"ëłĩê²Į":5368,"ĠìĤ´íİ´ë³´":5369,"íĶĦë¦¬ì¹´":5370,"ìĬ¤íĮħ":5371,"ë£©":5372,"ëĭĺìĿĦ":5373,"Ġíĺ¸ì£¼":5374,"Ġì¤ĳìļĶíķĺëĭ¤":5375,"ĠìŀĲìĦ¸íķľ":5376,"ĠëĤĺìĺ¨ëĭ¤":5377,"eg":5378,"ä¹":5379,"ì§ĢìĹĲìĦľ":5380,"ê°Ģìŀħ":5381,"Ġê¸°íļĮ":5382,"ĠìľĦíĺĳ":5383,"ëł¥ìĿĢ":5384,"íİĢ":5385,"ëĵ±ê¸ī":5386,"ĠëĤĺë¨¸":5387,"ĠìĹ°ê¸°":5388,"ĠêµĲê³¼":5389,"ê¹Įì§ĢëĬĶ":5390,"Ġìŀ¬ë£Į":5391,"Ġìłľê³µíķĺê³ł":5392,"ĠìĹħê·¸":5393,"ĠíĪ¬íĳľ":5394,"Ġì§ĢìĹŃìĿĺ":5395,"Ġwh":5396,"ëĪĪìį¹":5397,"Ġê¾¸ì¤ĢíŀĪ":5398,"http":5399,"ëĩĮ":5400,"ĠëĮĵ":5401,"ìĬ¤ìĻĢ":5402,"Ġíķľë°ĺëıĦ":5403,"Ġì¤ĳìĹĲìĦľ":5404,"íķĻìĬµ":5405,"ë¬´ë¥¼":5406,"ì§ĳëĭĪëĭ¤":5407,"ĠëıħíĬ¹":5408,"Ġë©Ģíĭ°":5409,"ĠëıĻìĿ¼íķľ":5410,"ë¥ľ":5411,"ëĵľê°Ģ":5412,"Ġì£¼ì£¼":5413,"ëĭ¨ìĿĢ":5414,"ìĹ°ìĿĦ":5415,"ĠìĦ±ê²©":5416,"Ġì·¨ìĨĮ":5417,"ĠíĸĪì§Ģë§Į":5418,"Ġìĭ«":5419,"ëĿ¼ìĦľ":5420,"íĬ¸ìĿĺ":5421,"ëıĻìĿĺ":5422,"Ġê´ĢëŀĮ":5423,"ĠëĦ·":5424,"ĠìĤ¬ëŀĮëĵ¤ìĹĲê²Į":5425,"ëĵ±ìĿĺ":5426,"Ġì¢ħë£Į":5427,"Ġíģ¬ë¦¬ìĬ¤":5428,"ĠìĹ¬íĸīìĿĦ":5429,"03":5430,"ìŀĺ":5431,"ĠìĿ´ìĻ¸":5432,"ĠìĪĺìĤ¬":5433,"ĠëĮĢíķĻêµĲ":5434,"Ġìľ¼":5435,"ëª½":5436,"ìĭłìĿĺ":5437,"ĠëķĮë§Īëĭ¤":5438,"Ġë©ĺ":5439,"ĠíİĺìĿ´ìĬ¤":5440,"Ġë¬´ìĹĩë³´ëĭ¤":5441,"PC":5442,"ra":5443,"ĠìĿ´ìĬĪ":5444,"ĠëĤļ":5445,"Ġíķ´ë³´":5446,"Ġì¤ĳê³ł":5447,"ê°ľìĿ¸":5448,"ĠíĺĦê¸Ī":5449,"Ġìķ½ê°Ħ":5450,"ë°ĽìĿĦ":5451,"Ġê´Ģê³Ħë¥¼":5452,"pt":5453,"ìĿ¼ë¦¬":5454,"ìĬ¤íĥĦ":5455,"ìĺµ":5456,"ĠìķĦëĬĶ":5457,"íĬ¸ë¦¬":5458,"ĠëĤĺìķĦê°Ģ":5459,"Ġëį®":5460,"Ġë°ľêµ´":5461,"ë©´ìĦľëıĦ":5462,"ĠíĬ¹íĹĪ":5463,"ĠìĿ´ìļ©ìŀĲê°Ģ":5464,"ark":5465,"Ġê·¸ëŁ¬íķľ":5466,"ĠìĤ¬íļĮë³µì§Ģ":5467,"Ġê´ĳì£¼":5468,"Ġì¹ľìłĪ":5469,"ĠìĿĳìļ©":5470,"éģĵ":5471,"Ġëª¬":5472,"Ġìłķíķľ":5473,"ĠìŀĲê·¹":5474,"Ġë¬¼ë¥ĺ":5475,"Ġì§ĳìĹĲ":5476,"Ġë¨¹ëĬĶ":5477,"ĠìĥģíĻ©ìĿĦ":5478,"Ġê³¨íĶĦ":5479,"âĢĭ":5480,"ìĬ¤ëŁ¬":5481,"íĬ¸ëĬĶ":5482,"êµŃìĿ´":5483,"Ġì£¼ìµľ":5484,"ĠëĤĺìĻĶëĭ¤":5485,"ë¯¸ëĤĺ":5486,"Ġíķ´ìĨĮ":5487,"Ġë°©ì§Ģ":5488,"ìĹĪìĿĦ":5489,"Ġë©Ī":5490,"ê±´ì¶ķ":5491,"Ġì¶Ķêµ¬":5492,"íĺĦëĮĢ":5493,"Ġê·¹ë³µ":5494,"ì¤ĺ":5495,"sp":5496,"íĪ":5497,"ĠìĿ´ìĽĥ":5498,"ìŀĲìĹ°":5499,"ìĽĶëĵľ":5500,"ë¹ĦëĬĶ":5501,"ĠìĿ¼ìŀĲë¦¬":5502,"ĠìĦłê³ł":5503,"ĠëĨĢìĿ´":5504,"Ġëį°ë·Ķ":5505,"Ġë§ŀì¶Ķ":5506,"ĠëĵľëĿ¼ìĿ´":5507,"ĠìĭĿìĤ¬":5508,"Ġê¸°ìĹħìĿĺ":5509,"ĠìĭľìĬ¤íħľìĿĦ":5510,"Ġëª¸ìĿĦ":5511,"ĠëŃĶ":5512,"ìłķìĥģíļĮëĭ´":5513,"Ġë§ĪìĿ´íģ¬ë¡ľ":5514,"ìľĪ":5515,"ìŀĲëĵ¤ìĹĲê²Į":5516,"ĠìķĦëĵ¤":5517,"ê°ĦìĹĲ":5518,"ìĭłìĿ´":5519,"íĮ¡":5520,"ĠìĨĮë°©":5521,"ĠëıĦìĦľ":5522,"Ġì¶Ķìłķ":5523,"Ġëªħëł¹":5524,"ĠìłķíĻķíķľ":5525,"66":5526,"ª¨":5527,"ìĭľíĭ°":5528,"ĠìŀĪê²ł":5529,"Ġê·¸ë¥¼":5530,"ìłľëıĦ":5531,"ĠìĦłêµĲ":5532,"íĮĮíģ¬":5533,"ĠëĪĦêµ°":5534,"Ġë§ĲìĶĢìĿĦ":5535,"íĺĦì§Ģìĭľê°Ħ":5536,"ëŀŃ":5537,"íĸīìĿĦ":5538,"ìĭĿìĿĢ":5539,"Ġë°©ì¹¨":5540,"Ġìĭ¤ìĭľê°Ħ":5541,"ì²ľì§Ģ":5542,"ëĭĺê»ĺìĦľ":5543,"ĠìĤ¬ìļ©íķĺìĹ¬":5544,"Ġê³³ìĹĲìĦľ":5545,"ĠíĬ¸ëłĪìĿ´":5546,"Ġì§ĢìĽĲìĿĦ":5547,"Ġãħ":5548,"ì§Ģë©´":5549,"ìĤ¬ë¬´":5550,"ë°©ìĿĦ":5551,"Ġì°¨ë¡Ģ":5552,"Ġì¶ľëł¥":5553,"ĠëĳĲëł¤":5554,"ĠìĹħê³Ħ":5555,"Ġê³Ħìķ½ìĿĦ":5556,"ìĩ¼íķĳ":5557,"Ġëľ¨ê±°ìļ´":5558,"300":5559,"EX":5560,"ìĥģìľ¼ë¡ľ":5561,"Ġëª¨ìķĦ":5562,"Ġìĥģê´Ģ":5563,"ĠíĪ¬ìŀħ":5564,"ĠìłķëıĦìĿĺ":5565,"ĠëĦĪë¬´ë":5566,"2016":5567,"ĠìĥģíĻ©ìĿ´":5568,"ĠìŀĲì²´ê°Ģ":5569,"ran":5570,"Ġit":5571,"Ġì§Ģíĺľ":5572,"ìłľìŀĳ":5573,"ìĬµëĭĪê¹Į":5574,"ĠìĻ¼":5575,"Ġë°ľìĸ¸":5576,"Ġìĭ¤ì§Ī":5577,"ĠíĻĶëł¤":5578,"Ġë§ŀìĿ´":5579,"Ġê²ĮìŀĦìĿĦ":5580,"Ġê½¤":5581,"98":5582,"ev":5583,"of":5584,"âĦ":5585,"ê³łìŀĲ":5586,"ĠìĿ¸ì§Ģ":5587,"ĠìĨĮë¦¬":5588,"ĠìĥĿì¡´":5589,"ĠìĦ±ê²½":5590,"ë°Ķë¡ľ":5591,"íĮĮìĽĮ":5592,"Ġìłľê³µíķ©ëĭĪëĭ¤":5593,"Ġì°¾ìĿĦ":5594,"Ġâĸ¶":5595,"Ġê¶Įíķľ":5596,"ĠìıŁìķĦ":5597,"ĨĴ":5598,"ĠëĤĺìĦł":5599,"ĠëĤĺìĻĶ":5600,"Ġ32":5601,"ĠìĿ´ìļ©íķł":5602,"ĠíħĮìĿ´":5603,"ĠìķĮëł¤ì¡Įëĭ¤":5604,"Ġìŀłìĭľ":5605,"Ġê¸°ë°ĺìľ¼ë¡ľ":5606,"Ġìĥģëĭ¹íŀĪ":5607,"able":5608,"ì¾Įìłģíķľ":5609,"íķ´ê°Ģ":5610,"ëĵ¤ìĸ´":5611,"ĠìĿ´ë³":5612,"Ġëįľ":5613,"ĠíļĮìŀ¥ìĿĢ":5614,"ĠëĶ°ë¡ľ":5615,"ê¶ĮìĿ´":5616,"ê²ĥëıĦ":5617,"Ġíĺ¸íĿ¡":5618,"íĸ¥ìĿĦ":5619,"ĠPro":5620,"Ġê´Ģëł¨íķ´":5621,"ëĲĺìĸ´ìķ¼":5622,"ë²łìĿ´":5623,"ĠìĿ´ê²ĥìĿ´":5624,"ì§ĢëĭĪ":5625,"ìŀĲìĽĲ":5626,"ĠíķĺëĬĲ":5627,"ë©´ìĿĦ":5628,"ĠìķĬëıĦë¡Ŀ":5629,"ìķĪìĿ´":5630,"Ġì¹ł":5631,"ĠìµľìĦłìĿĦ":5632,"ere":5633,"ĠìĤ¬ëŀĮëĵ¤ìĿĦ":5634,"Ġê°Ħíĺ¸":5635,"Ġíĸ¥íķ´":5636,"Ġë²łíĬ¸ëĤ¨":5637,"Ġì¸¡ìĿĢ":5638,"Ġê¸°ì¡´ìĿĺ":5639,"Ġë¥ĺ":5640,"Ġìĸ¸ìłľëĤĺ":5641,"ĠìĿ´ë©Ķ":5642,"ê°ĢìļĶ":5643,"ë¬µ":5644,"íĻĶìĻĢ":5645,"ĠìĿ¸ìĩĦ":5646,"ĠìĹ¬ìľł":5647,"ìŀĳìļ©":5648,"ĠíķĺëĤĺë¡ľ":5649,"ê²ĥìĿ´":5650,"Ġë²ĦíĬ¼":5651,"ĠìŀĪìĿĦê¹Į":5652,"Ġë³ĢíĻĶê°Ģ":5653,"ĠìĹħê·¸ëłĪìĿ´ëĵľ":5654,"IT":5655,"ì§Ģê¸Ī":5656,"Ġë§¨":5657,"ĠìĿ´ëĵ¤ìĿĺ":5658,"ë©¸":5659,"ìĻĢëĬĶ":5660,"Ġëĵ±ìĹĲìĦľ":5661,"ì§ĦìĿĦ":5662,"ê»ı":5663,"Ġëĵ¤ìĹ¬":5664,"Ġìłľê³µíķł":5665,"Ġì¤ĳêµŃìĿĺ":5666,"ace":5667,"Ġê¸¸ìĿ´":5668,"ëĭµëĭĪëĭ¤":5669,"´ë°©":5670,"ĠìºĲëĤĺëĭ¤":5671,"Ġìļ¸ìĤ°":5672,"Ġëĭ¹ìĭłìĿ´":5673,"04":5674,"by":5675,"io":5676,"Ġ@":5677,"Ġì§Ģë°°":5678,"Ġë³´ì¡´":5679,"ìĦłìĸ¸":5680,"ĠìĥĿê²¨":5681,"ëĬ¥ëł¥":5682,"ëĤľëĭ¤":5683,"Ġì´Īì²Ń":5684,"Ġìŀ¡ìķĦ":5685,"ase":5686,"ĠìķĮëł¤ìł¸":5687,"ĠëĦĵìĿĢ":5688,"Ġì¤ĳìĨĮê¸°ìĹħ":5689,"íĻĶë¡ľ":5690,"ĠâĢĵ":5691,"Ġëª¨ëĭĪíĦ°":5692,"Ġíı´":5693,"Ġë§Īë¬´ë¦¬":5694,"Ġì¹Ń":5695,"ĠìķĪëĵľë¡ľìĿ´ëĵľ":5696,"ĠíĻķìĤ°":5697,"Ġ197":5698,"Ġë°ķìĤ¬":5699,"ìŀĪê²Į":5700,"ĠíĺĳìĿĺ":5701,"ìĹ°êµ¬ìĽĲ":5702,"ĠìĹ¬ê¸°ìĦľ":5703,"TN":5704,"ç¥":5705,"Ġë»":5706,"ëıĦìĦľ":5707,"ìłķìľ¼ë¡ľ":5708,"ë³´ë¥¼":5709,"ĠëķĮê¹Įì§Ģ":5710,"ĠìķĪíĥĢ":5711,"...[":5712,"ìĺĢê³ł":5713,"ont":5714,"Ġì¶Ķìĸµ":5715,"Ġsh":5716,"Ġâĳ¢":5717,"ĠíĽĮë¥Ńíķľ":5718,"Ġy":5719,"ëĭ¤ëĭĪ":5720,"ĠìĪĺìĦĿ":5721,"íĬ¸ê°Ģ":5722,"Ġì²Ńìķ½":5723,"Ġì¶©ìłĦ":5724,"ows":5725,"Ġìį¬":5726,"Ġëħ¹ìĥī":5727,"ĠëģĬìŀĦ":5728,"Ġê°ĢìĦľ":5729,"Ġíķľëĭ¬":5730,"ì£¼ë¯¼":5731,"ìĨĮë¹Ħ":5732,"Ġê³µì§Ģ":5733,"Ġê³łìłķ":5734,"ëĤ´ìĹĲ":5735,"Ġìĸ´ì°Į":5736,"ĠìłĲìĿĢ":5737,"ĠëĿ¼ê³ł":5738,"Ġíĺ¹ìĭľ":5739,"ĠìŀĳìĹħìĿĦ":5740,"ĠìĿµìĪĻ":5741,"Ġcont":5742,"'(":5743,"=\"":5744,"ĠìŀĪìľ¼ëĤĺ":5745,"ëĮĢì±ħ":5746,"Ġë³´ìĿ´ê³ł":5747,"ì¡°íķľ":5748,"Ġë¯¸ëĭĪ":5749,"Ġíģ´ëŁ½":5750,"Ġìŀ¬ìłķ":5751,"Ġëĸ¨":5752,"Ġì±Ħìļ©":5753,"Ġë°©ë²ķìĿĢ":5754,"´ë°Ķ":5755,"Ġì±Ļ":5756,"Ġê´ĢìĦ¸ë²ķ":5757,"Ġì²ŃìĻĢëĮĢ":5758,"Ġê³µëª¨":5759,"Ġë¶Ģëĵľ":5760,"íĺ¸ìĿĺ":5761,"Ġì§Ħìłķíķľ":5762,"ĠìŀĳëıĻ":5763,"´ë³µ":5764,"Ġìĭ¬ìĤ¬":5765,"ĠìĤ¬ìĿ´ë²Ħ":5766,"ivers":5767,"Ġëĸłìĺ¬":5768,"ĠUn":5769,"ĠìĿ´ìłľëĬĶ":5770,"Ġê·ľëª¨ìĿĺ":5771,"41":5772,"TS":5773,"uct":5774,"ìłĦìĹĲìĦľ":5775,"ê³µíķŃ":5776,"ì¡°ì§ģ":5777,"ê²½ìŁģ":5778,"íķĺë©´ìĦľëıĦ":5779,"Ġë¶ģíķľìĿĺ":5780,"----------------":5781,"ìĿ¼ìĿĢ":5782,"ëłĺ":5783,"ìĸ´ìĿĺ":5784,"Ġê°Ģê³µ":5785,"ĠìķĬê²Į":5786,"ë¬¼ìĹĲ":5787,"ĠëĤ´ìĹĲìĦľ":5788,"Ġíı¬ìĿ¸íĬ¸":5789,"Ġê¿ĪìĿĦ":5790,"Ġìµľì´ĪìĿĺ":5791,"42":5792,"OR":5793,"ë¦¬ì¹´":5794,"ĠëıĻë°ĺ":5795,"Ġìŀħê³ł":5796,"ĠìĽ¹ìĤ¬ìĿ´íĬ¸":5797,"Ġëŀľ":5798,"ìĸ´ë¯¼ì£¼ëĭ¹":5799,"ies":5800,"ĠìĹ´ëł":5801,"ëĿ¼ìĿ´íĬ¸":5802,"ìĦ±ìľ¼ë¡ľ":5803,"Ġë³´ê±´":5804,"ìĺģìĹħ":5805,"ĠìĬ¤íħĮ":5806,"ìħĭ":5807,"ĠìłģìłĪíķľ":5808,"Ġëĵ¤ìĹĪëĭ¤":5809,"ìłĢëĬĶ":5810,"ĠíĻķìłķ":5811,"ĠAI":5812,"ìŀĪìĬµëĭĪëĭ¤":5813,"ìľ¨ìĿ´":5814,"Ġëª¨ëĳĲê°Ģ":5815,"Ġë¶Ħìķ¼ìĿĺ":5816,"íĤ¬ë¡ľë¯¸íĦ°":5817,"ug":5818,"çļ":5819,"ĠìĮĢ":5820,"íķ´ì£¼ëĬĶ":5821,"Ġê·¸ëł¤":5822,"ĠëĮĢê¸°":5823,"ìķĦìĿĺ":5824,"íĦ°ë¥¼":5825,"Ġê°ĻìķĦìļĶ":5826,"íĤ¤ëĬĶ":5827,"Ġìĵ°ëĬĶ":5828,"ute":5829,"Ġëľ»ìĿĦ":5830,"ĠìĤ¬íķŃìĿĦ":5831,"ĠíĶĦë¦¬ë¯¸":5832,"ĠëĿĦ":5833,"Ġëį§ë¶ĻìĺĢëĭ¤":5834,"ħìĬ¤":5835,"ë¦ĩ":5836,"ì£¼ë¡ľ":5837,"ĠìĿ¼ìĿ´ëĭ¤":5838,"ìĦłìĿĺ":5839,"íĥĢìŀĦ":5840,"ence":5841,"Ġì¹ĺë§¤":5842,"ĠIS":5843,"Ġíĺķíĥľë¡ľ":5844,"ì£¼ìĦ¸ìļĶ":5845,"Ġê´Ģì°°":5846,"ĠìĹ°ìŀ¥":5847,"Ġë°°ì¶ľ":5848,"Ġì¢ĭìĬµëĭĪëĭ¤":5849,"Ġëĭ¬ëł¤":5850,"Ġìłľê³µíķľëĭ¤":5851,"íĶĮëŁ¬ìĬ¤":5852,"Ġë¶Ħìķ¼ìĹĲìĦľ":5853,"ĠìķĬìĿĦê¹Į":5854,"´ë§¤":5855,"ews":5856,"ê·¸ëŁ°ëį°":5857,"(*":5858,"Ġal":5859,"ìĿ´ë¡ľ":5860,"Ġê¸°íļĮê°Ģ":5861,"ĠìłĦë¶Ģ":5862,"ê³µê°Ħ":5863,"ìĦłë¬¼":5864,"ìŀ¬ìĤ°":5865,"ê°ľíĺģ":5866,"ë¬¼ë¡ł":5867,"ĠëĲĺê¸°":5868,"Ġíİľ":5869,"ĠìĸĳìĦ±":5870,"ical":5871,"Ġê·¼ë³¸":5872,"ĠëĽ°ìĸ´ëĤľ":5873,"95":5874,"ëĴ":5875,"ìĦ±ëıĦ":5876,"Ġíķľìłķ":5877,"ĠìŀĲìĽĲ":5878,"ìĨĮìĿĺ":5879,"ê´Ģê³¼":5880,"ìĪłìĿĦ":5881,"ìķĺê³ł":5882,"Ġíķ©ë³ĳ":5883,"ĠëªħìĺĪ":5884,"ĠìĹ´ìĸ´":5885,"Ġìĭ¬ë¦¬":5886,"íĻľëıĻìĿĦ":5887,"Ġíİ¸ë¦¬":5888,"Ġ2001":5889,"ĠìĿ´ë²ĪìĹĲ":5890,"Ġìĵ°ê³ł":5891,"íķĺëł¤ê³ł":5892,"ĠëĬ¥ëł¥ìĿĦ":5893,"ĠìĬĪíį¼":5894,"Ġëļľ":5895,"ET":5896,"ear":5897,"ĠìĿ´ëĵ¤ìĿ´":5898,"ĠìĪĺìĪĺ":5899,"ĠìĤ¬ìĥģ":5900,"ĠìĤ¬íĥľ":5901,"ëŀĢìĿ´":5902,"Ġêµīìŀ¥íŀĪ":5903,"ë³´ê±´":5904,"Ġëĵ±ê³¼":5905,"ì§ĦìĿ´":5906,"Ġì¡°ì¹ĺë¥¼":5907,"ë¯¼ì¡±":5908,"ĠìŀĪìĹĪê³ł":5909,"íķĺìĺĢìľ¼ë©°":5910,"Ġë¬´ìĹĩìĿĦ":5911,"ĠìĹĦì²ŃëĤľ":5912,"Ġíķĺëĵľ":5913,"Ġë¹Ħíĸī":5914,"Ġìľłë¦¬":5915,"Ġë¬¸ìĿĦ":5916,"ë²ķë¥ł":5917,"Ġì§ĢìĹŃìĹĲ":5918,"ĠëłĮ":5919,"Ġì¦Ĳê±°":5920,"ëĭĪê¹ĮìļĶ":5921,"Ġìĺ¤ë¦¬ìĹĶ":5922,"?âĢĿ":5923,"cm":5924,"ê¸°íļį":5925,"ĠìľĦë¡ľ":5926,"ĠëĤĺìĺ¬":5927,"ìĭ¤íķľ":5928,"ë¯¼ì£¼":5929,"ì§ģíķľ":5930,"êµ°ìĿ´":5931,"êµ°ìĿĢ":5932,"Ġê³³ê³³":5933,"Ġìĭ¶ìĸ´":5934,"ĠíĻįì½©":5935,"ĠìĿ¼ë°ĺìłģìľ¼ë¡ľ":5936,"ool":5937,"ä»":5938,"ê°Ģíı¬":5939,"ìĬ¤ìĹĲ":5940,"ìľ¼ë¡ľëıĦ":5941,"ĠíķĺìŀĲ":5942,"Ġê³µë¬´ìĽĲ":5943,"ëĭ¨ê³Ħ":5944,"ĠìĦłíĺ¸":5945,"ĠìĦ¸ìĽĶ":5946,"ĠìĬ¤íĥ":5947,"ĠëĦĲ":5948,"ìĦ¤íĮħ":5949,"ìĽĮëĵľ":5950,"Ġëª»íķľëĭ¤":5951,"ĠìłĲìĿ´":5952,"ĠíķĺëĤĺëĭĺìĿĢ":5953,"ents":5954,"ĠìĿ´ë¯¸ì§Ģ":5955,"Ġë°ĽìķĦëĵ¤":5956,"Ġëª©íĳľë¡ľ":5957,"DA":5958,"EN":5959,"LG":5960,"Ġle":5961,"ìĿ¼ê°Ħ":5962,"ê°ĢëĿ½":5963,"Ġê°Ģê²Į":5964,"ĠìłĦëħĦ":5965,"ìĥĿëªħ":5966,"ìĿĮìĹĲëıĦ":5967,"Ġìĭłë°ľ":5968,"Ġê°ĲìĹ¼":5969,"ĠìļĶë¦¬":5970,"ĠìĪ«":5971,"Ġì¦Ŀê¶Į":5972,"ï¼Į":5973,"ë¥łìĿĢ":5974,"ĠìĨĶë£¨ìħĺ":5975,"IG":5976,"ue":5977,"Ġì«":5978,"íķĺìĿĺ":5979,"ê°ĢìĹĲ":5980,"ìŀĲìĤ°":5981,"ìľłìĤ°":5982,"Ġìĺ¬ë¦¼íĶ½":5983,"ĠëĪĪìĿĦ":5984,"Ġë¸Ķë£¨":5985,"ĠìķĦë²Ħì§Ģ":5986,"´ëĲĺ":5987,"ĠëıħíĬ¹íķľ":5988,"ìĿį":5989,"ĠìĤ¬ìŀ¥":5990,"Ġê°Ģê³ł":5991,"Ġì¢ģ":5992,"ê¸ĪìĿĺ":5993,"ĠìŀĳëħĦ":5994,"Ġì¢ĭìĿĦ":5995,"ê²ĥìĿĢ":5996,"ĠíĻĶìĿ´íĬ¸":5997,"ĠMBC":5998,"ĠíļĮìĤ¬ìĹĲ":5999,"ĠìĤ¬ìĭ¤ìĥģ":6000,"Ġêµ¬ìĦ±ëĲľ":6001,"Ġë³´ìĹ¬ì£¼ëĬĶ":6002,"Ġì¹ĺë£Įë¥¼":6003,"Ġìĸ´ëłµëĭ¤":6004,"Ġê´´":6005,"ĦìĥĪ":6006,"ìĭ¶":6007,"ëĵĪ":6008,"ìķĦë²Ħ":6009,"íĬ¸ë¡¤":6010,"ĠìĥģìĥĿ":6011,"ìŀ¬íĮĲ":6012,"ĠìľłìĹĶ":6013,"ĠìĥĿíĥľ":6014,"ĠëıĻê¸°":6015,"Ġíĥĵ":6016,"Ġë¶Ħë¦¬":6017,"ĠêµĲìĤ¬":6018,"Ġìŀĳìļ©":6019,"Ġê´Ģëł¨íķľ":6020,"Ġëĭ´ìĿĢ":6021,"ĠìĥģíĻ©ìĹĲ":6022,"Ġê³ĦíļįìĿĦ":6023,"ĠíĿĶëĵ¤":6024,"íĬ¸ë¡ľëĭīìĬ¤":6025,"ĠíĮ¨íĤ¤ì§Ģ":6026,"DC":6027,"ìĭľì¦Į":6028,"ìŀĲëĵ¤ìĿĦ":6029,"Ġê·¸ê²Į":6030,"Ġê·¸ëŀľëĵľ":6031,"ëıĻë¬¼":6032,"Ġê³µíĨµ":6033,"ĠíĨµì§Ģ":6034,"ĠìĦ±ê³¼":6035,"íĳľë¥¼":6036,"Ġìŀ¬ìĤ°":6037,"Ġë¨¹ìĿĦ":6038,"Ġë³´ìĹ¬ì£¼":6039,"ĠíĦ¸":6040,"EB":6041,"res":6042,"¼Ī":6043,"Ġì¿":6044,"Ġë³´ì¡°":6045,"Ġë³´ìĿ´ì§Ģ":6046,"ĠìľĦíĥģ":6047,"Ġìĺ¤ì§ģ":6048,"ìĭ¬ìĿ´":6049,"Ġíķ©ê²©":6050,"Ġëª»íķł":6051,"Ġë¬´ëį":6052,"Ġë²ĶìľĦ":6053,"Ġìĸ´ì©Į":6054,"ĠìĦŃì·¨":6055,"??":6056,"Â»":6057,"īìĿĢ":6058,"ê°Ģë¡ľ":6059,"ìķĹ":6060,"ëĵĢ":6061,"ê¸°ì§Ģ":6062,"ëŀ©":6063,"ë¶Ģìŀ¥":6064,"íĥĳ":6065,"ìĦłìĪĺ":6066,"Ġ45":6067,"Ġë¶Īë¦¬ëĬĶ":6068,"ë°ķìĿĦ":6069,"ìľ¨ìĿĦ":6070,"ìĤ¼ìĦ±":6071,"ĠìŀĲë£Įë¥¼":6072,"ĠìĿ¸ê³µì§ĢëĬ¥":6073,"hn":6074,"ëŀį":6075,"ĠëĮĢëĭµ":6076,"ĠëĮĢê¸°ìĹħ":6077,"ê³µìĹħ":6078,"Ġê³µê°Ĳ":6079,"ĠêµĲë¥ĺ":6080,"ĠSNS":6081,"ĠìłĳìĪĺ":6082,"ĠëłĪë²¨":6083,"íķĺìĭľë©´":6084,"ĠíİĺìĿ´ìĬ¤ë¶ģ":6085,"Ġun":6086,"ê¸°êµ¬":6087,"ìĤ¬ìŀ¥":6088,"ì²©":6089,"Ġê°ĢìĿ´ëĵľ":6090,"ĠìłķíĨµ":6091,"Ġë§ĲìĿĢ":6092,"íħĢ":6093,"íĶĦëłĪ":6094,"Ġìŀ¬ìĥĿ":6095,"ens":6096,"Ġì²ĺë²Į":6097,"ë°°ìļ°":6098,"Ġìĭ¬íĮĲ":6099,"ì¼Ģìĸ´":6100,"ĠìķĮëł¤ì§Ħ":6101,"ASS":6102,"ĠíĺľíĥĿìĿĦ":6103,"Ġë°ĺëıĦì²´":6104,"</":6105,"yst":6106,"Ġ$":6107,"Ġx":6108,"ìĿ´ì¦Ī":6109,"ëıĦìļ°":6110,"ìĥ¤":6111,"Ġê²ĥìĿ¸ì§Ģ":6112,"ê°ľê°Ģ":6113,"ìĿĮìķħ":6114,"ìĹĪìĸ´ìļĶ":6115,"ìĹŃìĭľ":6116,"ĠìĺĪë¹Ħ":6117,"ìĨįìĹĲ":6118,"íĤ·":6119,"ĠìłģìĿĳ":6120,"Ġì¶ľíĮĲ":6121,"ĠëĶĶìĬ¤":6122,"ê²¬ìĿĦ":6123,"ĠLA":6124,"Ġë¨¸ë¬¼":6125,"ĠíĽ¼ìĨĲ":6126,"íķĺëł¤ë©´":6127,"Ġìłģê·¹ìłģìľ¼ë¡ľ":6128,"Ġíķ¸ëĵľ":6129,"ìĹĲìļĶ":6130,"ìłľíķľ":6131,"ĠìłĦíĺķ":6132,"íŀĪê³ł":6133,"ì°¨ë¡Ģ":6134,"ĠìĹ´ê³ł":6135,"ĠìĹĲìĸ´":6136,"ĠíĸĪê³ł":6137,"ĠíŀĺìĿ´":6138,"Ġëħ¼ëŀĢ":6139,"ĠëģĿìĹĲ":6140,"íķľêµŃëĭ¹":6141,"Ġìłķì¹ĺìłģ":6142,"Ġíľ´ëĮĢíı°":6143,"Ġìĩ¼íķĳëª°":6144,"Ġë¹ĦíķµíĻĶ":6145,"cl":6146,"ë¦¬ì¼ĢìĿ´ìħĺ":6147,"ëĲ¨":6148,"Ġì§Ģë¶Ī":6149,"ĠìĿ´ë§":6150,"ĠìĿ´ë¯¼":6151,"ĠëĤĺë¦Ħ":6152,"ëªħìĹĲ":6153,"Ġë°Ķëĭ¥":6154,"ëĤ´ê°Ģ":6155,"Ġë¬´íķľ":6156,"ĠëĨĴëĭ¤":6157,"Ġì¹ľíĻĺê²½":6158,"Ġê¸¸ìĿ´ëĬĶ":6159,"ĠìķĦì§ģëıĦ":6160,"Ġë¶Ģì¡±íķľ":6161,"Ġì»¬ëŁ¬":6162,"ĠëĦĪë¬´ëĤĺ":6163,"Ġìĺ¤ë¦¬ìĹĶíĬ¸":6164,"ëłģ":6165,"ĠëĮĢê·ľëª¨":6166,"ì¡°ìłķ":6167,"ëĤ´ìļ©":6168,"ĠíĸīìĤ¬ë¥¼":6169,"Ġì§ĳëĭ¨":6170,"2015":6171,"ĠíĮ¨íĦ´":6172,"Ġla":6173,"(?)":6174,"CC":6175,"per":6176,"ìĦľë¡ľ":6177,"ê³µíķĻ":6178,"Ġê°ľë§ī":6179,"Ġë¹Ħê°Ģ":6180,"ĠìĦ±ê³¼ë¥¼":6181,"Ġë¬¼ì§Ī":6182,"Ġì´ĪëĮĢ":6183,"Ġê²Ģì¦Ŀ":6184,"ë©ĶìĿ´ìħĺ":6185,"Ġê³łê°ĿìĿĺ":6186,"Ġì§ĢìĨįìłģìĿ¸":6187,"ĠìĪĺì¤ĢìĿĺ":6188,"Ġìī¬ìļ´":6189,"53":6190,"97":6191,"ëī":6192,"ìĿ¼ë°ĺ":6193,"ê°Ģê¸°":6194,"íķ´ì§Ģê³ł":6195,"ĠìĪĺë¦½":6196,"ĠëĮĢì²ĺ":6197,"Ġê°Ģë¡ľ":6198,"Ġìłķê·ľ":6199,"ìĦ¸íı¬":6200,"ĠíļĮëĭ´":6201,"Ġê²°ìĿĺ":6202,"ĠíĽĦìĽĲ":6203,"ĠíķĺëĤĺëĬĶ":6204,"Ġë¬´ëĦĪ":6205,"Ġpack":6206,"ĠíĺĦìŀ¬ìĿĺ":6207,"ĠêµŃëĤ´ìĻ¸":6208,"ĠìĿ´ìľłê°Ģ":6209,"Ġëĸłìĺ¤":6210,"ì¤įëĭĪëĭ¤":6211,"Ġì¦ĿìĤ°ëıĦ":6212,"ĠëĤĺë¨¸ì§Ģ":6213,"54":6214,"ike":6215,"ĥĪëĭ¤":6216,"ĠìĿ´ë¡ľ":6217,"ëĿ¼ìĹĺ":6218,"ĠëĤ³":6219,"ĠìĪĺê°ķ":6220,"Ġ1000":6221,"ĠìĿ¸êµ¬":6222,"ĠìĿ´ëªħ":6223,"ĠëĤĺìķĦ":6224,"Ġ38":6225,"ĠëķĮê°Ģ":6226,"Ġìļ°ìļ¸":6227,"ĠìµľëĮĢíķľ":6228,"ĠìŀħíķĻ":6229,"ory":6230,"enc":6231,"íķĺëĭ¤ê°Ģ":6232,"ĠëĨĴìĿ´":6233,"Ġë²ķëł¹":6234,"Ġëĭ¤ìĿĮìĿĺ":6235,"Ġë¹ĦêµĲìłģ":6236,"apos":6237,"ë±ħ":6238,"Ġì³":6239,"ĠëĮĢëĭ¨":6240,"Ġê¸°íĽĦ":6241,"Ġê²ĥìĿ¸ê°Ģ":6242,"ìłĦëŀµ":6243,"ĠìĿ´ëŀĺ":6244,"Ġê´ĢíķĺìĹ¬":6245,"Ġê´Ģì¸¡":6246,"ĠìķĬìľ¼":6247,"Ġê³łëĮĢ":6248,"Ġìłģìĸ´ëıĦ":6249,"ĠìĿ´ìļ©ìŀĲ":6250,"Ġìĸ¸ìĸ´":6251,"Ġíħį":6252,"ë¥łìĿĦ":6253,"Ġìŀ¡ê³ł":6254,"Ġë³Ħë¡ľ":6255,"ĠìłĦë§ĿìĿ´ëĭ¤":6256,"Ġìŀĺëª»ëĲľ":6257,"Ġë§¹":6258,"ĠìĪĺëĬ¥":6259,"ëĮĢë¶Ģë¶Ħ":6260,"ìĦ±íķľ":6261,"Ġíķľìĺ¥":6262,"íĻĶíķĺëĬĶ":6263,"ĠìĿ¸ê¸°ë¥¼":6264,"Ġìĥģì²ĺ":6265,"ìĭĿê³¼":6266,"ë§ĪìłĢ":6267,"Ġêµ¬ìĨį":6268,"Ġíķ©ë¦¬":6269,"ĠëĿ¼ìĿ¸":6270,"Ġë²ĦìłĦ":6271,"str":6272,"Ġë¶Ģë¶ĦìĿĦ":6273,"Ġë¶Ģë¶ĦìĿĢ":6274,"Ġê²½íĹĺìĿ´":6275,"Ġêµ¬ì²´ìłģìĿ¸":6276,"ĠìĦ¹ìĬ¤":6277,"ìĿ´ëŁ°":6278,"Ġíķĺìĭľ":6279,"ĠíķĺëįĶëĿ¼ëıĦ":6280,"Ġê¸°ë¶Ģ":6281,"Ġê°Ģìĥģ":6282,"ëªĩ":6283,"ĠìłĦë¶ģ":6284,"Ġìłķì²´":6285,"ì§ĦìĿĢ":6286,"Ġë¶ĢíĦ°":6287,"Ġë§ĮëĤľ":6288,"Ġíķ´ìĸĳ":6289,"ĠëıĻëĦ¤":6290,"ì²ŃìĨĮëħĦ":6291,"Ġìĭľìŀĳìľ¼ë¡ľ":6292,"Ġì½Ķë¦¬ìķĦ":6293,"ĠìĤ¬ìĭ¤ìĿ´":6294,"´ëįĶ":6295,"Ġê±´ê°ķíķľ":6296,"ĠìĹħë¬´ë¥¼":6297,"Ġíĸīë³µíķľ":6298,"Ġì§ĢìłģíĸĪëĭ¤":6299,"Ġëĭ¹ìĹ°íŀĪ":6300,"ĠìħĪìĿ´ëĭ¤":6301,"ĠìĿ´íĥĪë¦¬ìķĦ":6302,"ë³´ë³´íĺ¸":6303,"65":6304,"ire":6305,"ì§Ģêµ¬":6306,"ìŀĲìľł":6307,"ĠëĤ¸":6308,"ìłľì£¼":6309,"ìĹ¬ìĦ±":6310,"ì¡°ìĹĲ":6311,"ìĿĮìĿĺ":6312,"Ġë¯¸ì¹ĺëĬĶ":6313,"ìĭ¬ìĿĺ":6314,"Ġê±°ëĵŃ":6315,"Ġë¬´ìĭľ":6316,"Ġëĭ¹ìĦł":6317,"Ġê²ĥìĿ´ë©°":6318,"ĠíĮĮìĿ´":6319,"Ġìĺ¬ë°Ķ":6320,"ĠíĻľë°ľ":6321,"íĸ¥ìĿ´":6322,"Ġì±ĦíĥĿ":6323,"ĠëĪĪìĿ´":6324,"Ġê³³ìĿĢ":6325,"ĠíĶĮëŀľ":6326,"ĠìĻĢìĦľ":6327,"ĠìŀĳíĴĪìĿĦ":6328,"Ġê°Ģì¹ĺê°Ģ":6329,"ĠìĻ¸êµŃìĿ¸":6330,"ì£¼íĥĿëĭ´ë³´ëĮĢì¶ľ":6331,"Ġëįķë¶ĦìĹĲ":6332,"æĺ":6333,"ë³´ëĵľ":6334,"ì°¾":6335,"Ġëĵ±ê¸ī":6336,"Ġê³µíķŃ":6337,"Ġë¶ĢíĴĪ":6338,"ìĹ°íŀĪ":6339,"Ġêµ¬ë¦Ħ":6340,"ê·¸ë¦¼":6341,"Ġê³ĦìĹ´":6342,"Ġê¹Ģìłķ":6343,"ĠëĤ¨ìĿĢ":6344,"ãĢĳ":6345,"ì¶Ķì¶ľ":6346,"ë´Ħ":6347,"íİĺìĿ´ìĬ¤":6348,"ìµľëĮĢíķľ":6349,"ĠëıħìŀĲ":6350,"ìķ¡ìĿĦ":6351,"ì±ĦëĦĲ":6352,"ë¬´ë¶Ģ":6353,"ult":6354,"Ġìŀ¥ìķłìĿ¸":6355,"ĠíĮĮíĬ¸ëĦĪ":6356,"IP":6357,"TE":6358,"ne":6359,"Ġj":6360,"ë¡ľìļ°":6361,"ë¦¬ê²Į":6362,"ĠìĹĨì§Ģë§Į":6363,"ìķĪìĤ°":6364,"ĠìĦ¸ìĽĮ":6365,"íĸĪìĸ´ìļĶ":6366,"ĠíıīìĥĿ":6367,"íķ¨ê³¼":6368,"ĠìĿĮìĭĿìĿĦ":6369,"Ġë³ĦëıĦìĿĺ":6370,"Ġë¯¸ëŀĺë¥¼":6371,"ĠìŀĪìľ¼ë¯Ģë¡ľ":6372,"Ġë´īìĤ¬":6373,"ĠïĤ":6374,"ĠìĿ´ëĤ´ìĹĲ":6375,"ld":6376,"Ġus":6377,"ĺħ":6378,"Ġìĩ":6379,"Ġë·":6380,"ë¦ħëĭĪëĭ¤":6381,"ìŀĲê²©":6382,"Ġëĭĺ":6383,"Ġì§ĢëĭĮ":6384,"Ġë¶Ģë¬¸":6385,"íģ´ëŁ½":6386,"ĠëķĮìĹĲ":6387,"ĠìĹ°ê°Ħ":6388,"ìľłëŁ½":6389,"ĠìĺģíĻĶë¥¼":6390,"Ġë¬¸ìŀĲ":6391,"ìĸ´ëĦ":6392,"íķĺê¸°ìĹĲ":6393,"Ġìŀħìŀ¥ìĿĦ":6394,"Ġì¦Ŀëªħ":6395,"ary":6396,"Ġê·¼ì²ĺ":6397,"Ġëĭ´ìķĦ":6398,"ĠìĿ¼ë³¸ìĿĺ":6399,"Ġìĺ®ê²¨":6400,"Ġë§Īì°¬ê°Ģì§Ģë¡ľ":6401,"ëķħ":6402,"SL":6403,"ìĤ¬ìĿ¸":6404,"ëĤĺë§Ī":6405,"ĠìķĦìĭľ":6406,"ĠìķĦìļ¸ëŁ¬":6407,"íĻĶíıĲ":6408,"Ġìłľìĸ´":6409,"ëŁ¬ë¦¬":6410,"Ġê°ľë°©":6411,"ê²½ìĿ´":6412,"Ġì§Ħìŀħ":6413,"Ġìļ°ë¦¬ìĹĲê²Į":6414,"ĠìĥĿê°ģíķĺê³ł":6415,"ĠìĻ¸ìĹĲ":6416,"ĠíĻĺìĺģ":6417,"Ġë²ķìłģ":6418,"ĠIP":6419,"ë¡ľìĦľìĿĺ":6420,"ĠìĥģëĮĢìłģìľ¼ë¡ľ":6421,"Ġê°Ģê¹ĮìĿ´":6422,"Ġ)(*":6423,"ĠìĻĦë²½íķľ":6424,"ìµľëĮĢíķľëıĦ":6425,"AN":6426,"cess":6427,"ëĩ":6428,"ĠìĿ´ìłķ":6429,"ìĹĲìĦľë¶ĢíĦ°":6430,"ĠëĮĢë¦¬":6431,"Ġ33":6432,"Ġë§ĮëĤ¨":6433,"ĠíĺĦìĥģ":6434,"ĠìłģìĿĢ":6435,"Ġê²Įëĭ¤ê°Ģ":6436,"Ġë³¸ìĿ¸":6437,"´ë§Į":6438,"ĠìĿ´ë©ĶìĿ¼":6439,"IC":6440,"ë¦¬ë©°":6441,"Ġê¸°ìģ":6442,"Ġê°Ģêµ¬":6443,"ĠíķľíĻĶ":6444,"ĠìķĦê¸°":6445,"ìĪĺìĻĢ":6446,"Ġìłķëĭ¹":6447,"Ġë¹Ħìĥģ":6448,"ëĭ¨ê³łê¸°":6449,"Ġì¡°ìŀĳ":6450,"one":6451,"ĠìĤ¬ìļ©íķĺê³ł":6452,"Ġë¬¼ë¦¬":6453,"ĠìĻ¸ìĹĲëıĦ":6454,"ĠëĤĺíĥĢëĤĺëĬĶ":6455,"ĠíļĮìĽĲìĿ´":6456,"ĠíĿĶíŀĪ":6457,"ĠëĶ°ëľ»íķľ":6458,"Ġë®¤ì§Ģ":6459,"43":6460,"ëĭ¤ìĭľ":6461,"ĠìĹī":6462,"ĠëĮĢë¡ľ":6463,"Ġê¸°ë¶Ħ":6464,"ëª¸":6465,"ì¡°ë¥¼":6466,"ĠìĹ¬ë¶Ģë¥¼":6467,"ëĦ¥":6468,"ë¬¼ìĿĢ":6469,"Ġìĭ¤ëĤ´":6470,"ëª©ìłģ":6471,"ication":6472,"ĠìŀĦìĭľ":6473,"ĠìŀĦëĮĢ":6474,"Ġì¹´ì¹´ìĺ¤":6475,"íĻķìĿ¸":6476,"ĠíķĻìĥĿëĵ¤ìĿ´":6477,"Ġê°Īëĵ±":6478,"Ġë§Įëĵ¤ìĸ´ì§Ħ":6479,"Ġìħĭ":6480,"Ġëĸ¨ìĸ´ì§Ħ":6481,"ĠìķĬìķĦëıĦ":6482,"ock":6483,"OD":6484,"min":6485,"ri":6486,"ìĿĺìĽĲ":6487,"ĠëĮĢìĦł":6488,"ĠëĮĢë¶ģ":6489,"ì¹ĺê²Į":6490,"ë¬¼ê´Ģ":6491,"íĽĦìĪľìľĦ":6492,"íĻľìļ©":6493,"Ġë©Ķëª¨":6494,"ĠìłĪì°¨":6495,"Ġê·¸ëłĩì§Ģ":6496,"ĠìĤ¬ìĿ´ì¦Ī":6497,"ëĨįìĹħ":6498,"Ġëĭ¹ìĭłìĿĢ":6499,"Ġì£¼ìŀ¥íĸĪëĭ¤":6500,"OM":6501,"ost":6502,"Ġëĭ«":6503,"Ġëıĭ":6504,"Ġê³µìŀ¥":6505,"Ġê³łëł¹":6506,"Ġìľłë£Į":6507,"Ġìĭłë¬¸":6508,"Ġë§Ĳíķł":6509,"ëª©ìĿĦ":6510,"ì¶ķêµ¬":6511,"ĠëĲľëĭ¤ëĬĶ":6512,"ĠìķĦëĭĮê°Ģ":6513,"Ġë°ľíĳľíĸĪëĭ¤":6514,"Ġìłķì±ħìĿĦ":6515,"Ġê±´ëĦĪ":6516,"Ġì£¼íĥĿëĭ´ë³´ëĮĢì¶ľì¶Ķê°ĢëĮĢì¶ľ":6517,"Ġì£¼íĥĿëĭ´ë³´ëĮĢì¶ľë¹Ħìľ¨":6518,"Ġì£¼íĥĿëĭ´ë³´ëĮĢì¶ľìµľëĮĢíķľëıĦ":6519,"Ġìļ°ìĪĺíķľ":6520,"âłĢâłĢâłĢâłĢ":6521,"ĠìłĢì¶ķìĿĢíĸīíĽĦìĪľìľĦ":6522,"Ġê°ľìĿ¸ìĤ¬ìĹħìŀĲì¶Ķê°ĢëĮĢì¶ľ":6523,"Ġê°ľìĿ¸ìĤ¬ìĹħìŀĲì£¼íĥĿëĭ´ë³´ëĮĢì¶ľ":6524,"ĮĦìĬ¤":6525,"ĠìłĢì¶ķìĿĢíĸīíĽĦìĪľìľĦëĭ´ë³´ëĮĢì¶ľ":6526,"ê³łëĬĶ":6527,"Ġê·¸ë§Į":6528,"ĠëĮĢë³Ģ":6529,"ì£¼ìĿ¼":6530,"ĠìĥģìľĦ":6531,"ĠìĨĮíĻĶ":6532,"ìĺ¤ìĿ¼":6533,"Ġìĭłì²´":6534,"ë¯¸ëŀĺ":6535,"ë¬¼ë¡ľ":6536,"ìħī":6537,"íĸĪê¸°":6538,"Ġë©°":6539,"ëĭĺê»ĺ":6540,"ì§ģìĽĲ":6541,"ëĶĶìŀĲìĿ¸":6542,"ë¶ģíķľ":6543,"ìł¸ìĦľ":6544,"Ġê·¸ëŁ¬ë©´":6545,"Ġë²ĦìĬ¤":6546,"Ġìłĳì´ī":6547,"Ġìļ´ìĺģíķĺê³ł":6548,"Ġê¸°ë³¸ìłģìĿ¸":6549,"ĠëĨĢëĿ¼ìļ´":6550,"ãĥ»ãĥ»ãĥ»ãĥ»":6551,"ê°Ģíı¬ë¥´":6552,"Ġê°Ģë°©":6553,"ìĨĮìĹĲ":6554,"Ġëª¨ë¥¸ëĭ¤":6555,"Ġìĺ¤ëŀ«":6556,"ì²ľë§Į":6557,"Ġê°Ĳìłķ":6558,"ĠíĶĦë¦°":6559,"íħĮìĿ¸":6560,"Ġì¶©ê²©":6561,"Ġì¤Ģëĭ¤":6562,"íħĶëłĪ":6563,"Ġë°©ë²ķìĿ´":6564,"ĠGo":6565,"ĠíĻľìļ©íķľ":6566,"ĠìķĦë¦Ħëĭ¤":6567,"Ġëĭ¹ìĭłìĿĺ":6568,"ĠëĬĲëĤĮìĿ´":6569,"Ġë©Ģë¦¬":6570,"ĠëĤĺëĪł":6571,"ĠíĿĺëŁ¬":6572,"400":6573,"ry":6574,"Ġor":6575,"ê°ĢìĬ¤":6576,"ë¦¬ë©´":6577,"ĠìĦŀ":6578,"ëł·":6579,"ìŀĲëĵ¤":6580,"ĠëĤŃ":6581,"ëĤĺê²Į":6582,"ë¶Ģë¬¸":6583,"Ġëĭ¤íĸī":6584,"Ġê²½ë¶ģ":6585,"ĠìĦľìĸĳ":6586,"ĠíĨµíĻĶ":6587,"Ġ48":6588,"Ġìŀħë²ķ":6589,"Ġë¹ļ":6590,"Ġíıīì°½":6591,"ata":6592,"Ġì²´ìľ¡":6593,"Ġì±ħìĿĢ":6594,"Ġê²Ģì¶ľ":6595,"ìĸ´ëĤł":6596,"íıīìĸĳ":6597,"Ġad":6598,"ĠãĤ":6599,"íĺģìĭł":6600,"Ġì¶Ķê°Ģë¡ľ":6601,"ĠíĶ¼íķ´ë¥¼":6602,"51":6603,"AI":6604,"æ°":6605,"Ġãħİãħİ":6606,"ë¦¬íķĢ":6607,"Ġ150":6608,"ì£¼ìĭĿ":6609,"êµŃìĿĢ":6610,"Ġìĺ¤íĶĦëĿ¼ìĿ¸":6611,"ìľĦíķľ":6612,"ĠìľłëıĦ":6613,"ĠìĦłëıĦ":6614,"Ġì¦ĿìĥģìĿ´":6615,"Ġê·¸ëŁ¬ë¯Ģë¡ľ":6616,"ìĬ¤íĬ¸ëĿ¼":6617,"ĠëĶĶìŀĲ":6618,"ĠíķĺëĤĺëĭĺìĿĦ":6619,"Ġì¶ķìłľ":6620,"Ġê°Ģê²©ìĿ´":6621,"ĠíĿĲë¦°":6622,"ì§Ģë©°":6623,"ĠìĪĺìĽĲ":6624,"ìĪĺìĹĲ":6625,"ìļ°ìĦł":6626,"ĠìĿ¸íĶĦëĿ¼":6627,"ĠìĿ´ë°":6628,"Ġìĥģìłľ":6629,"ĠìĨĮìļĶ":6630,"Ġë°ľíľĺ":6631,"Ġë©¸":6632,"ĠíĬ¹íĮĮ":6633,"ĠCASS":6634,"Ġ95":6635,"ick":6636,"ìĤŃ":6637,"ĠìĿĢíĺľ":6638,"Ġíıīê°Ģë¥¼":6639,"Ġë¹Ħìļ©ìĿĦ":6640,"íĬľëĶĶìĺ¤":6641,"¸ı":6642,"Ġè":6643,"ĠìĿ´ìĬ¤":6644,"ìŀĲëıĦ":6645,"Ġì§Ģì²´":6646,"êµŃëĤ´":6647,"Ġë³´ì§Ģ":6648,"ĠìķĬìľ¼ë©°":6649,"ì²´íĹĺ":6650,"ëł¥ìľ¼ë¡ľ":6651,"Ġê±°ì§ĵ":6652,"ìĶ¨ìĿĺ":6653,"ĠEn":6654,"Ġë³´íĹĺë£Į":6655,"Ġë³´ëıĦíĸĪëĭ¤":6656,"Ġë°Ķê¿Ķ":6657,"sh":6658,"íķĺê²łëĭ¤ëĬĶ":6659,"ĠëĵĿ":6660,"ĠìłĦìĦ¸ê³Ħ":6661,"Ġìłľìķ½":6662,"ìĭ¤ë¡ľ":6663,"ê°ģìĿĦ":6664,"Ġë¶ĦìŁģ":6665,"Ġë¹µ":6666,"Ġê²ĥìĿ´ìĹĪëĭ¤":6667,"íħĮê³ł":6668,"ĠTh":6669,"Ġì¶©ì¡±":6670,"ĠíĬ¸ìľĦ":6671,"2011":6672,"ĠìĿ´ìķ¼ê¸°ê°Ģ":6673,"ĠíĻĺê²½ìĿĦ":6674,"Ġíĥĳìŀ¬":6675,"ĠìĬ¤íĶ¼ì»¤":6676,"ĠíĶĦëłĪìŀĦ":6677,"Ġê°ľë´ī":6678,"ê°ľë¡ľ":6679,"ĠìĹ°ëł¹":6680,"Ġê±°ëĮĢíķľ":6681,"ĠìķĦìĿ´ëĵ¤ìĿ´":6682,"ĠìĭľìŀĳëĲľ":6683,"ëĨĴ":6684,"ìª½ìĹĲ":6685,"ĠìĤ¬ëŀĳíķĺëĬĶ":6686,"ĠëĬĲëĤĮìĿĦ":6687,"ĠìķīìķĦ":6688,"indows":6689,"ë¹ĦíĬ¸ì½ĶìĿ¸":6690,"Ġì»¤ë®¤ëĭĪíĭ°":6691,"ĠëĮĵê¸Ģ":6692,"çļĦ":6693,"ëĭ«":6694,"ëĭ¤ìĿĮ":6695,"ë¡ľìĿĺ":6696,"Ġìĭľê³µ":6697,"Ġìłľìŀ¬":6698,"ĠìłķìĦł":6699,"ê±´ë":6700,"íĶĶ":6701,"Ġìļ°ì£¼ìĿĺ":6702,"ìĭ¤ìĹĲ":6703,"ê¶ĮìĹĲ":6704,"ê²łì£ł":6705,"Ġì§ĳìĿĦ":6706,"ì¡ĮìĬµëĭĪëĭ¤":6707,"íĺģëªħ":6708,"Ġê°ĲìĤ¬íķ©ëĭĪëĭ¤":6709,"Ġì°©ìļ©":6710,"ĠìĽĢì§ģìŀĦ":6711,"ëŁŃìĭľ":6712,"ĠìľłíĬľë¸Į":6713,"GB":6714,"»¿":6715,"ĠëĮĢë²ķ":6716,"ëįľ":6717,"Ġë¬¶":6718,"ĠìŀĲê°Ģ":6719,"Ġê³łëĵ±":6720,"Ġë§ĮëĤł":6721,"ĠìĦłì§Ħ":6722,"Ġ(+":6723,"Ġë¬¼ìĿĦ":6724,"Ġì¶ľìłĦ":6725,"Ġë²ķìłķ":6726,"Ġì¤Ħìĸ´ëĵ¤":6727,"ĠìłľíĴĪìĿĺ":6728,"Ġë´ħëĭĪëĭ¤":6729,"Ġì¸µ":6730,"Ġìĺ¤ëĬĺëĤł":6731,"Ġì»¨íĬ¸ë¡¤":6732,"ĠíĿ¬ìĥĿ":6733,"Ġëĵ¯íķľ":6734,"Ġê¹Įì§Ģ":6735,"Ġê¹ĬìĿ´":6736,"ĠíĻķìĭ¤íŀĪ":6737,"ĠZ":6738,"Ġìłĸ":6739,"ĠìĤ¬ìĹŃ":6740,"Ġê·¸ë§Įíģ¼":6741,"ì¹´ë":6742,"ëħ¹":6743,"ìĪĺìĪĺ":6744,"ëĭ¨ì§Ģ":6745,"ĠëıĻìĸĳ":6746,"íĸĪìľ¼ëĤĺ":6747,"Ġìļ°ë¦¬ë¥¼":6748,"ĠíĽĦë°ĺ":6749,"Ġì§ĢìĽĲíķĺëĬĶ":6750,"Ġì½©":6751,"eth":6752,"Ġìĸ»ìĿĢ":6753,"Ġë¶ģíķľìĿ´":6754,"Ġìŀłìŀ¬":6755,"tern":6756,"ë°©ë²ķìĽĲ":6757,"ĠìĶ¨ëĬĶ":6758,"ogle":6759,"ĠëįĶë¶Īìĸ´ë¯¼ì£¼ëĭ¹":6760,"94":6761,"Ġìį¼":6762,"ìŀł":6763,"ë¹ĦìķĦ":6764,"ìĤ°ìĿ´":6765,"ĠìķĬì§Ģë§Į":6766,"ĠìĦ¸íĬ¸":6767,"ì§ĪìĿĺ":6768,"Ġì¶ľìŀ¥":6769,"ĠìłĲì°¨":6770,"Ġë°ľìĥĿíķł":6771,"ê²ĢìĤ¬":6772,"ĠìĿĺë¯¸ê°Ģ":6773,"ĠíĭĪ":6774,"Ġìĭľìŀ¥ìĿĺ":6775,"Ġë°ĽìķĦëĵ¤ìĿ´":6776,"Ġê¸´ìŀ¥":6777,"å¤©":6778,"Ġìºłíİĺ":6779,"Ġíģ´ëĿ¼ìļ°ëĵľ":6780,"75":6781,"SD":6782,"¬¸":6783,"íĽ":6784,"ë¡ľëıĦ":6785,"ìŀĲê¸Ī":6786,"ĠìĤ¬ê³¼":6787,"Ġê°ĢìĪĺ":6788,"íĻĶëĬĶ":6789,"ìķĪìĿĢ":6790,"ìľłë¥¼":6791,"ĠíĺĦìŀ¥ìĹĲìĦľ":6792,"íı¬ìĿ¸íĬ¸":6793,"Ġê°ĲëıĻ":6794,"ann":6795,"Ġì°¸ì¡°":6796,"Ġì´Īë°ĺ":6797,"ĠìĿĮìĦ±":6798,"ĠíĬ¸ëłĮ":6799,"ì¢ĭìĿĢ":6800,"ual":6801,"Ġé":6802,"ë¦¬ëĤĺ":6803,"âĢĵ":6804,"ĠìŀĲê¸Ī":6805,"Ġë³´ìĻĦ":6806,"ĠìĿ¼ìŀĲ":6807,"Ġë¹Ħë¡Ŀ":6808,"Ġë¹ĦëĤľ":6809,"ĠìĨĮìĭĿ":6810,"Ġë§Īê°Ĳ":6811,"Ġì¡°ìļ©":6812,"ë²ķìĹĲ":6813,"ì½ĶíĮĢ":6814,"ĠíļįëĵĿ":6815,"900":6816,"ge":6817,"ject":6818,"ĶíĶ¼":6819,"íķ´ìĸĳ":6820,"ìĸ´ìł¸":6821,"Ġíķĺê±°ëĤĺ":6822,"Ġê¸°ê¸°":6823,"ìĪĺìĽĲ":6824,"ìĪĺìĪł":6825,"Ġëĭ¤ë¥´ê²Į":6826,"ìĨĮíķľ":6827,"ë§Īë¸Ķ":6828,"ìĭ¤ìĿĢ":6829,"ĠìĺĪê³ł":6830,"íı¬ëŁ¼":6831,"ìĸ´ëĨĵ":6832,"Ġìĸ´ìłľ":6833,"ì¢ħìĿĦ":6834,"íĮĲìĿĦ":6835,"Ġìĭľê°ĦìĹĲ":6836,"Ġë©ĶìĿ¸":6837,"Ġëĵ¤ìĸ´ìĦľ":6838,"Ġê¸°ìĹħìĿ´":6839,"ĠETN":6840,"Ġíĸ¥íķľ":6841,"´ëįĺ":6842,"ĠíħĮë§Ī":6843,"ìħĶìķ¼":6844,"ìĿ¸ëį°ìļĶ":6845,"Ġë¶ĦìľĦê¸°":6846,"íĢ´":6847,"íĮ©íĬ¸":6848,"ĠíĬ¹íĮĮìĽĲ":6849,"ë®":6850,"Ġë³´ê¸ī":6851,"ê¹Ķ":6852,"ëĲĺìĹĪê³ł":6853,"Ġê³łì§Ģ":6854,"Ġë§Īì£¼":6855,"ĠìĥĿê¸°":6856,"ĠìĤ¬ìļ©íķľ":6857,"ê°ĲìĿĢ":6858,"ĠíķĻë¶Ģëª¨":6859,"ĠAP":6860,"ĠAr":6861,"Ġíģ¬ëĭ¤":6862,"Ġì·¨ìŀĦ":6863,"ĠíĺķìĤ¬":6864,"Ġê³łê°ĿìĿ´":6865,"Ġë¿ĲìĿ´ëĭ¤":6866,"Ġìĺ¤ëŀĺëĲľ":6867,"ĠëģĬìŀĦìĹĨìĿ´":6868,"Ġìĺ¤ëŀ«ëıĻìķĪ":6869,"ëĭ¤ë¦¬":6870,"íķĺìĭŃìĭľìĺ¤":6871,"ĠìķĦë¹ł":6872,"ĠìĿ¼ìĭľ":6873,"ĠìĿ´ëŀ":6874,"ĠìľłìłĢ":6875,"ì¤ĳìĿ¸":6876,"Ġë§İìķĺëĭ¤":6877,"Ġì¶Ķìļ´":6878,"ĠìĿ´ìļ©íķĺëĬĶ":6879,"Ġíģ¬ê³ł":6880,"ĠëĤĺìĺ¤ê³ł":6881,"Ġì¶©ë¶Ħíķľ":6882,"ĠìĦ¸ìĥģìĹĲ":6883,"Ġë¶ĦìľĦê¸°ë¥¼":6884,"Ġê·¸ë¦¬ìĬ¤ëıĦ":6885,"ëĩ¨":6886,"ë½":6887,"ìĿ´ëŁ¬":6888,"ê³łìĿĺ":6889,"´ëªħ":6890,"Ġê·¸ëŁ´":6891,"ëĮĢêµ¬":6892,"ëį©":6893,"íĻĶíķĻ":6894,"ìłĦìĭľ":6895,"ĠëĤĺê°Ī":6896,"Ġê³µìĤ¬":6897,"Ġë¶ĢìĬ¤íĥĢë¹Ĺ":6898,"ì²´ìĹĲ":6899,"ĠìĨĮìĨ¡":6900,"ĠìĦľë¥ĺ":6901,"ĠëıĻë£Į":6902,"Ġë¬¸ìĦľ":6903,"Ġë¶Ħíķł":6904,"Ġìŀ¥ë¥´":6905,"ĠCom":6906,"Ġê°ĢëĬ¥ìĦ±ìĿĦ":6907,"Ġë§Įëĵ¤ìĹĪëĭ¤":6908,"ĠíĪ¬ìĸ´":6909,"ë³Ģê²½":6910,"ĠìĭĿëĭ¹":6911,"ìķ¡ìĿĢ":6912,"Ġê¸°ìŀĲíļĮ":6913,"Ġëħ¼ë¬¸":6914,"Ġê°ĸëĬĶ":6915,"ĠíķĻìĥĿëĵ¤ìĿĺ":6916,"Ġê¸°ë¡ĿíĸĪëĭ¤":6917,"Ġë²Įìį¨":6918,"ĠìľłìĿ¼íķľ":6919,"ystem":6920,"800":6921,"ĠìĿ´ì¤ĳ":6922,"ìĬ¤íĦ´":6923,"Ġê·¸ìłĢ":6924,"ĠìĥĮ":6925,"Ġêµ´":6926,"Ġê°ĢëģĶ":6927,"Ġë¶ĢìĿ¸":6928,"ë§Īì¼ĵ":6929,"íı¬íĬ¸":6930,"Ġëĭ¨ìĿ¼":6931,"íķ´ìĦľëĬĶ":6932,"ĠëıĮíĮĮ":6933,"Ġê·¼ìľ¡":6934,"Ġ2006":6935,"ĠëĴ¤ìĹĲ":6936,"ĠìŀĪìĹĪëĬĶëį°":6937,"ime":6938,"ĠìĭľëĮĢìĹĲ":6939,"ĠìĿ´ë£¨ìĸ´ìł¸":6940,"Ġì°¸ìĦĿíķľ":6941,"ï½į":6942,"Ġhttps":6943,"ĠìµľìłĢìŀĦê¸Ī":6944,"ĠíħĮìĿ´ë¸Ķ":6945,"cr":6946,"ï¸ı":6947,"Ġë±":6948,"íķ´ìĺ¨":6949,"ëĵľìĹĲ":6950,"Ġë³´ìĦĿ":6951,"ìĹħë¬´":6952,"ìĤ°ìĭľ":6953,"Ġê³łëĵ±íķĻêµĲ":6954,"ìĺ¤ê³ł":6955,"ĠìľłëĭĪ":6956,"íĺ¸ìĻĢ":6957,"ìĭ¬ìľ¼ë¡ľ":6958,"íķĺì§ĢëĬĶ":6959,"ĠíĸīìľĦë¥¼":6960,"ĠìĥĪë²½":6961,"Ġ84":6962,"ĠëªħìłĪ":6963,"ìĸµìĽĲìĿĦ":6964,"ĠìĿ´ìĥģìĿ´":6965,"ĠìĦľë¹ĦìĬ¤ìĿĺ":6966,"Ġì§ĦíĸīëĲľ":6967,"Ġë³µìĽĲ":6968,"ĠìĬ¹ë¦¬":6969,"ĠãĪľ":6970,"Ġê°ĲëıħìĿĢ":6971,"ê°Ģìķ¼":6972,"ëĤ¼":6973,"ĠìĹĺ":6974,"ìĭľê²½":6975,"ĠìĪĺíķĻ":6976,"ëŀ¬":6977,"ĠìłĦë©´":6978,"ìĹ¬ë¦Ħ":6979,"ëĵľëĿ¼ë§Ī":6980,"ë¹Ħë³´íĹĺ":6981,"ìĨĮëĬĶ":6982,"Ġ34":6983,"ĠìĹ¬ë¡ł":6984,"Ġë§Īì¹¨":6985,"ĠëķĮëıĦ":6986,"ĠìĦłìŀĦ":6987,"Ġì§Ħë³´":6988,"Ġë°Ľê²Į":6989,"Ġê°ĲìķĪ":6990,"Ġìĸ´íĶĮ":6991,"ĠìĥĿê°ģíķ´":6992,"ĠíĻĶìŀ¬":6993,"Ġê¶Įë¦¬":6994,"ach":6995,"Ġë§ĪìĿĮìľ¼ë¡ľ":6996,"Ġê·¸ëłĩëĭ¤ë©´":6997,"ìħ¨ìĬµëĭĪëĭ¤":6998,"Ġì£¼ë³ĢìĹĲ":6999,"ĠëģĮìĸ´":7000,"Ġë°ĶìĿ´ìĺ¤":7001,"Ġê·łíĺķ":7002,"Ġíķ´ë³Ģ":7003,"76":7004,"±ìĭł":7005,"âĻ":7006,"Ġç":7007,"ìĿ´ìĸ¸":7008,"ĠìĹł":7009,"ë§ĮìĽĲìĿĦ":7010,"êµŃìĿĦ":7011,"ĠìĿ¸íħĮ":7012,"Ġì¡°ìĸ¸":7013,"ĠìĦ¸íĥģ":7014,"ĠëĤ´ìĦ¸":7015,"Ġë¶ĦìĿ´":7016,"ëª¨ìŀĦ":7017,"Ġì¶ĶìĦ¸":7018,"Ġíķľëĭ¤ë©´":7019,"Ġìŀħì¦Ŀ":7020,"Ġì¶ľë²Ķ":7021,"Ġì¢ħì¢ħ":7022,"Ġì§ĳìĹĲìĦľ":7023,"Ġë§ŀê²Į":7024,"ĠBl":7025,"Ġfrom":7026,"Ġì¦Ĳê±°ìļ´":7027,"Ġë°ľìłĦìĿĦ":7028,"ĠëĮĢíķ´ìĦľëıĦ":7029,"Ġìĭ±ê¸Ģ":7030,"Ġíģ´ëŀĺìĭĿ":7031,"ĠíĶĦë¦¬ë¯¸ìĹĦ":7032,"nt":7033,"yp":7034,"ys":7035,"Ġ%":7036,"ìĭľë¡ľ":7037,"Ġìłķì°©":7038,"ìĦłíĥĿ":7039,"íĺ¸ê°Ģ":7040,"ĠëĤ´ê²Į":7041,"ĠíĬĢ":7042,"ĠëıĦêµ¬":7043,"ĠëıĦëĭ¬":7044,"ĠìĺĪìłĦ":7045,"Ġëĵ¤ëł¤":7046,"Ġë°°ëł¤":7047,"ĠíĻĶíķĻ":7048,"ĠìłľíĴĪìĿĢ":7049,"ĠíıŃë°ľ":7050,"ĠìĿ½ê³ł":7051,"Ġê°Ħëĭ¨íķľ":7052,"ĠÂ«":7053,"ĶíĶ¼ìĸ¸":7054,"²ķ":7055,"ìĤ¬ì§Ģ":7056,"ìłģìĿĢ":7057,"Ġíķľë§Ī":7058,"ĠìłĦíĪ¬":7059,"êµŃìĹĲ":7060,"ìĨĮë¡ľ":7061,"Ġê³µíı¬":7062,"Ġë§ĪìĿ´":7063,"íĨ¨":7064,"ĠìĦ±ìĿ¸":7065,"ìĦĿìĿ´":7066,"ĠíİĢ":7067,"Ġê°Ĳìĭľ":7068,"Ġë³ĢíĻĺ":7069,"ĠíĻľìķ½":7070,"ĠìĻĦíĻĶ":7071,"ĠUS":7072,"Ġì´īêµ¬":7073,"ìĭľì¼°ëĭ¤":7074,"ood":7075,"Ł°":7076,"ëĭŃ":7077,"ê¸°ê³Ħ":7078,"ìĤ¬ìĿ¼":7079,"ìĪĺíķľ":7080,"ìĨĮìĹĲìĦľ":7081,"ìĨĮìĦ¤":7082,"ĠêµŃíĨł":7083,"Ġë§Ĳë¡ľ":7084,"Ġë°©ìķĪìĿĦ":7085,"ĠìĦ¸íı¬":7086,"ĠìĦ¸ì¢ħ":7087,"Ġê¹ľ":7088,"Ġê±°ê¸°":7089,"íĽĦê¸°":7090,"ìĦĿìĿĦ":7091,"ance":7092,"ì¹´íİĺ":7093,"Ġì°½ìĽĲ":7094,"Ġpl":7095,"ë©Ķê°Ģ":7096,"Ġê·¸ëŀĺíĶ½":7097,"Ġì¦Ĳê¸°":7098,"Ġë³´ë©´ìĦľ":7099,"ĠëĤľë¯¼":7100,"Ġìłģê·¹ìłģìĿ¸":7101,"Ġìĭ¬ê°ģíķľ":7102,"86":7103,"St":7104,"ĠìĿ´ì²ĺëŁ¼":7105,"ĠíķĺìĺĢ":7106,"Ġê²ĥëĵ¤ìĿ´":7107,"ìłľê³µ":7108,"ĠìŀĲëĬĶ":7109,"ëıĻìĹĲ":7110,"ëħĦìĥĿ":7111,"ĠìĿ¼ì°į":7112,"ëį°ìļĶ":7113,"ìĥĿìĤ°":7114,"Ġë§Ĳíķ´":7115,"ìŀĳìĹħ":7116,"Ġì§Ħë£Į":7117,"erver":7118,"ĠìĽĲìĿ¸":7119,"ĠìłģìłĪ":7120,"ì±ħìĿĦ":7121,"ë¦¼ìĿĦ":7122,"ĠíĶĦë¡ľê·¸ëŀĺ":7123,"ich":7124,"Ġì§ĢìĹŃìĹĲìĦľ":7125,"ĠëĤłìĶ¨":7126,"Ġì¹´íħĮê³ł":7127,"ë°ĽìķĦ":7128,"Ġìľ¡ìĦ±":7129,"ĠìĽĮíģ¬":7130,"ìĽ¨ìĿ´":7131,"ĠìŀĲìĦ¸íŀĪ":7132,"ëĨĵê³ł":7133,"ç¥ŀ":7134,"ìĿ¸ê¶Į":7135,"ë©į":7136,"ë°¸":7137,"ĠëĮĢëŀµ":7138,"ëĮĢìĻĢ":7139,"ìłľìĻĢ":7140,"ìļ©íĴĪ":7141,"Ġëĭ¤ë£":7142,"Ġëĭ¤ìĿ´ìĸ´":7143,"Ġì£¼ê¸°":7144,"ë¹Ħë¹Ħ":7145,"ĠìĦłë°ķ":7146,"ĠëıĻìĿĺë¥¼":7147,"ĠìĤ¬ëŀĮê³¼":7148,"ì²ŃìĿĢ":7149,"Ġëħ¸íĬ¸":7150,"ê°ĲìĤ¬":7151,"Ġíģ¬ê¸°":7152,"Ġì·¨ê¸ī":7153,"ĠìĹ¬ìĦ±ìĿĺ":7154,"ê³¨íĶĦ":7155,"Ġìķŀìľ¼ë¡ľëıĦ":7156,"Ġëĭ¨ìĪľíķľ":7157,"Ġë°©íĸ¥ìľ¼ë¡ľ":7158,"Ġê·¸ëħĢìĿĺ":7159,"Ġë¸Ķë¡Ŀì²´ìĿ¸":7160,"ì¶Ķì¶ľë¬¼":7161,"ĠìĿ´ìĬ¤ëĿ¼ìĹĺ":7162,"å·":7163,"ìĤ¬ê±´":7164,"Ġì§Ģíĸ¥":7165,"ë²¼":7166,"ĠëĤĺëıĦ":7167,"ê³µê°ľ":7168,"Ġê°ľìĽĶ":7169,"ĠìķĬê¸°":7170,"ĠìĨĮì¤ĳíķľ":7171,"Ġìľłì¶ľ":7172,"Ġìĺģê´ĳ":7173,"ì°¨ëĬĶ":7174,"Ġë¶Ħëħ¸":7175,"ĠìĺĪë°°":7176,"ëłĪëĤĺ":7177,"ĠìĤ¬ëŀĮëıĦ":7178,"ìĸ´ëĸ":7179,"Ġë°°íı¬":7180,"ĠìļĶê¸Ī":7181,"ĠíĮĮëĿ¼":7182,"Ġì§ģíĽĦ":7183,"Ġë¬¸ìłľìĹĲ":7184,"Ġê°ľìĿ¸ìĿĺ":7185,"ĠPower":7186,"Ġë©ĶíĥĢ":7187,"ĠìĤ¬íļĮìĿĺ":7188,"ĠìłĪë°ĺ":7189,"Ġ02":7190,"Ġìĵ°ëłĪ":7191,"ìĭŃëĭĪëĭ¤":7192,"ë§ģíģ¬":7193,"ĠìĬ¤íĬ¸ëłĪ":7194,"Ġìłģíķ©íķľ":7195,"Ġë¯¸ìĦ¸ë¨¼":7196,"ĠëĦĲë¦¬":7197,"84":7198,"AC":7199,"åĲ":7200,"ê°Ģë£¨":7201,"Ġê°Ķëĭ¤":7202,"ìĸĢ":7203,"Ġë§ĳìĿĢ":7204,"ĠìĿ´ìłĦìĹĲ":7205,"ĠëĤ¼":7206,"Ġê·¸ê³³":7207,"Ġê°Ģë©´":7208,"Ġëĭ¤ìĦ¯":7209,"Ġëª¨ëĵĪ":7210,"ëªħê³¼":7211,"ĠìĦłìĤ¬":7212,"Ġêµ¬ìĽĲ":7213,"Ġë¶Ħëĵ¤ìĿĢ":7214,"ĠìĺĪìĻ¸":7215,"Ġë§İìĬµëĭĪëĭ¤":7216,"Ġ400":7217,"ê¶ĮìĿĢ":7218,"íĨłíģ°":7219,"ĠìŀħìĿĢ":7220,"ĠCC":7221,"ĠCEO":7222,"Ġì»¤ë²Ħ":7223,"íĮĢìĿĢ":7224,"olog":7225,"ĠëĮĢíķĻìĥĿ":7226,"Ġëĳĺì§¸":7227,"ĠíĺķíĥľìĿĺ":7228,"ĠìĿ´ë¥¸ë°Ķ":7229,"íħĶëłĪì½¤":7230,")Â·":7231,"lob":7232,"ìĿ¸ëĵ¤ìĿĢ":7233,"âĢ¤":7234,"ëĮĢë¹Ħ":7235,"ëį¤":7236,"ĠìŀĲìĤ°":7237,"ĠìŀĲë¦¬ìĹĲ":7238,"Ġì£¼ëł¥":7239,"ê¹Ĳ":7240,"ĠìĨĮëħĢ":7241,"ëĲľëĭ¤ê³ł":7242,"ĠìĦľìĦľ":7243,"ê¹Įì§ĢëıĦ":7244,"ĠëĤ¨ëħĢ":7245,"ĠëĲľëĭ¤ê³ł":7246,"Ġë§ŀê³ł":7247,"ĠìķĦìĿ´ê°Ģ":7248,"Ġê±¸ìĸ´":7249,"ë¯¹":7250,"íıŃëł¥":7251,"Ġê¸įìłķìłģìĿ¸":7252,"Ġë¸ĮëĿ¼ìļ°":7253,"OP":7254,"¶Ħ":7255,"åŃ":7256,"Ġãħĭãħĭ":7257,"Ħ¤":7258,"ëĵ¤ìĿ´ëĭ¤":7259,"ìĹ¬ìĦľ":7260,"ĠìŀĲìķĦ":7261,"ĠìĿ¼ê´ĳ":7262,"ĠëĤĺìĦ°ëĭ¤":7263,"ê´Ģê³Ħë¥¼":7264,"Ġê³łìľĦ":7265,"ĠìĬ¤ìĽ¨":7266,"Ġë¶Ħìĸĳ":7267,"Ġë°Ľìľ¼":7268,"ĠíķľêµŃìĹĲìĦľ":7269,"ĠíĮĮë¦¬":7270,"íĶ¼ìķĦ":7271,"ë°ķìĬ¤":7272,"Ġê´Ģëł¨íķĺìĹ¬":7273,"ì¡Įê³ł":7274,"Ġì²ľìĹ°":7275,"Ġê¸īê²©":7276,"ĠìŀĲìĹ°ìĬ¤ëŁ½ê²Į":7277,"íļ¨ê³¼":7278,"ĠìĥģíĴĪìĿĦ":7279,"´ëŁ¬":7280,"ëįĶëĿ¼êµ¬ìļĶ":7281,"å±":7282,"ê¶":7283,"ê¸°ë³¸":7284,"âĢ§":7285,"ĠìĿ´ê±´":7286,"ê³¼ìŀ¥":7287,"ì²´ë":7288,"Ġê²ĥìĿ´ëĿ¼":7289,"ëĵľìĹĲìĦľ":7290,"ĠìĿ¸ìŀ¬":7291,"ĠìĹ°ë°©":7292,"Ġíķ´ìļĶ":7293,"Ġë°ľë§¤":7294,"Ġê±°ìĺĪìļĶ":7295,"Ġìŀ¥ì°©":7296,"Ġìłģë¦½":7297,"ĠìĹŃëĮĢ":7298,"ê²°ìłķ":7299,"ĠíĿ°":7300,"Ġëª©ë¡Ŀ":7301,"ëħ¸ì´Ŀ":7302,"Ġìļ´ëıĻìĿĦ":7303,"150":7304,"Ġse":7305,"Ġì°¾ê¸°":7306,"ĠëıĮëł¤":7307,"ĠìĹ°êµ¬ë¥¼":7308,"ì¹¨ìĿĦ":7309,"ĠìķĮìķĦë³´":7310,"ìĿ´ìĹĲìļĶ":7311,"Ġìĥģëĭ¹íķľ":7312,"ĠìķĦë¬´ëŁ°":7313,"ĠìĬ¤íģ¬ë¦°":7314,"%(":7315,"US":7316,"ram":7317,"ëĭĻëĭĪëĭ¤":7318,"ìĹł":7319,"ĠìŀĪìĿĮ":7320,"Ġíķĺê²łìĬµëĭĪëĭ¤":7321,"ìĥģê³¼":7322,"ĠìķĦíĶĦë¦¬ì¹´":7323,"ĠëĤĺìģľ":7324,"íĮ¬":7325,"ìĦłìĹĲ":7326,"ìĦłìĦłíķľ":7327,"ĠìĿĺì¡´":7328,"ĠëĤ´ì§Ģ":7329,"Ġì§ĦíĻĶ":7330,"íĨłë¡Ŀ":7331,"Ġë°ĺíĻĺ":7332,"ì¶Ķìļ´":7333,"Ġëĵľë¦½ëĭĪëĭ¤":7334,"Ġë¬´ëł¤":7335,"Ġë¯¿ê³ł":7336,"Ġê³µê°ĦìĿĦ":7337,"ìī½ê²Į":7338,"yle":7339,"Ġen":7340,"ìŀ¥ê¸°":7341,"Ġìĺ¤ë²Ħ":7342,"ë¯¸ìĪł":7343,"Ġë°©ìķĪ":7344,"ĠìķĪëħķíķĺìĦ¸ìļĶ":7345,"Ġë¶Ħëĵ¤":7346,"Ġê²°ë¡ł":7347,"Ġë§¤ë§¤":7348,"ĠíĬ¹ìĦ±":7349,"ëĭĺê³¼":7350,"ê²°ìĿĦ":7351,"ĠíĶ¼ê³ł":7352,"ìĺ¨ëĭ¤":7353,"ĠíĪ¬ëªħ":7354,"Ġì·¨ìŀ¬":7355,"ìĤ¬ìĹħìĿĦ":7356,"ĠëĨįì´Į":7357,"ĠRe":7358,"Ġì¦Ĳê²¨":7359,"Ġì¦Ĳê²ģ":7360,"ĠìŀĪìĹĪì§Ģë§Į":7361,"ĠìĬ¤íĥĢíĬ¸":7362,"´ëŀĮ":7363,"52":7364,"Ġì¾Į":7365,"ëĬĦ":7366,"ìĥģê±°ëŀĺ":7367,"ĠìĿ¸ëł¥":7368,"ê³ĦëĬĶ":7369,"ĠìĿ¼ìĹĲ":7370,"Ġë¶Ģê³¼":7371,"íĸīìĤ¬":7372,"ĠìĨĮë¦¬ë¥¼":7373,"ĠìĹĨìľ¼ë©°":7374,"Ġíĸĩ":7375,"ĠìĥĿë¬¼":7376,"Ġì¡°ê¸°":7377,"ì¢Ģ":7378,"ĠëĤ¨ê²¨":7379,"ĠìĤ¬ìļ©ìŀĲê°Ģ":7380,"ĠíķĺëĤĺê°Ģ":7381,"ĠíĮĮìĿ¼ìĿĦ":7382,"ì§ĳìĿĦ":7383,"ëĦ¤ìĭľìķĦ":7384,"ĠìĹĲëĦĪ":7385,"ĠìĦ¸ê³ĦìĹĲìĦľ":7386,"acute":7387,"ĠíļĮìĽĲìĿĺ":7388,"ĠìĬ¹ìĿ¸":7389,"Ġãĥ":7390,"Ġê¸°ëĬ¥ìĿ´":7391,"ĠìĿĳìĽĲ":7392,"ĠìĤ¬ê±´ìĿĦ":7393,"Ġê¿Īê¾¸":7394,"ĠëĥĦìĥĪ":7395,"âĳł":7396,"ph":7397,"ë¡ľìĬ¤":7398,"ĠëĤ¯":7399,"ĠíķĺëĭĪ":7400,"ìłĦíĻĺ":7401,"ìĽĶê¹Įì§Ģ":7402,"ìĨĮë¦¬":7403,"Ġë¶ĢíļĮìŀ¥":7404,"ĠëĤ´ê³ł":7405,"ĠëĲĺëĬĶëį°":7406,"ĠëıĦìĽĢ":7407,"ĠêµĲì²´":7408,"Ġê°ķìĪĺ":7409,"ë°Ķëĭ¤":7410,"ĠìķĦëĭĪì§Ģë§Į":7411,"ìĽĮì¹ĺ":7412,"ê·¼íķľ":7413,"Ġê²Įìŀ¬":7414,"ê´ĳê³ł":7415,"Ġì·¨ìķ½":7416,"Ġë³µíķ©":7417,"Ġìłķë³´íĨµìĭł":7418,"ĠíĤ¤ìĽĮ":7419,"Ġê·¸ëħĢëĬĶ":7420,"ĠìłľìĻ¸íķĺê³ł":7421,"ĠìķłëĭĪë©ĶìĿ´ìħĺ":7422,"ĠìĬ¤íĥł":7423,"AL":7424,"ìĦľëıĦ":7425,"ê¸°ëħĲ":7426,"Ġì§ĢëĭĪ":7427,"ĠìłĦëĤł":7428,"êµŃìĹĲìĦľ":7429,"ì§ĦìĿĺ":7430,"íķĻìĿĺ":7431,"Ġê°ľìĦ¤":7432,"Ġìĺ¤ìĹ¼":7433,"ĠìľłìĿĺ":7434,"ĠìĺģìĥģìĿĦ":7435,"ì²ľìĭľ":7436,"Ġíķłë¨¸ëĭĪ":7437,"ĠìĹĲìĿ´":7438,"ĠìĨįëıĦ":7439,"ë´¤":7440,"Ġëĸ¼":7441,"ëģĿ":7442,"ëĵ¤ìĹĲê²ĮëĬĶ":7443,"ìĦ¼íĬ¸":7444,"ĠìĤ¬ìĿ´ìĿĺ":7445,"ìľĦìĽĲíļĮëĬĶ":7446,"ĠíŀĲ":7447,"ĠìĥģëĮĢë°©":7448,"Ġstud":7449,"ĠìłľìĻ¸íķľ":7450,"ĠìķĦëĭĲê¹Į":7451,"ĠìĿ´ìŀ¬ìļ©":7452,"Ġë°´ëĵľ":7453,"ĠíĴįë¶Ģíķľ":7454,"lobal":7455,"64":7456,"æĹ":7457,"ĠðŁ":7458,"ìĬ¤ì¹´":7459,"ĠìĤ¬ìĦ¤":7460,"Ġê°Ģìķ¼":7461,"Ġì§ĢìĹ°":7462,"ĠìłĦë¶ĢíĦ°":7463,"ì£¼ëħĦ":7464,"ìłĦíĻĶ":7465,"Ġì£¼ìĸ´":7466,"ĠëĤĺì¤ĳìĹĲ":7467,"ĠìĥģìĦ¸":7468,"Ġ37":7469,"ë§Īíģ¬":7470,"ë¬´ìĹŃ":7471,"Ġ44":7472,"erv":7473,"int":7474,"Ġì¢ĭì§Ģ":7475,"Ġì¹ĺìĹ´":7476,"ition":7477,"ĠëĤ´ëł":7478,"ĠëĤ´ëĤ´":7479,"êµĲìľ¡ìĿĦ":7480,"Ġì¦Ĳê¸°ëĬĶ":7481,"Ġìķ¼ìĻ¸":7482,"ĠíĻľìļ©íķł":7483,"ĠìĭľëĮĢë¥¼":7484,"ĠìķĦë¦Ħëĭµ":7485,"Ġë§Īì§Ģë§īìľ¼ë¡ľ":7486,"Ġë¶ĦëªħíŀĪ":7487,"Ġì¢ħë¥ĺìĿĺ":7488,"Ġë¹Ħë°Ģë²Īíĺ¸":7489,">(":7490,"The":7491,"iew":7492,"ìĿ´ìłľ":7493,"ìĿ´ìĹĪëįĺ":7494,"ĠìĿ´ê²Į":7495,"ĠìķĦìĽĥ":7496,"êµŃíĨł":7497,"Ġìłķë¹Ħ":7498,"Ġë³´ê²Į":7499,"ìĭłê³ł":7500,"ĠëĤĺìĿĢ":7501,"Ġëª¨ìŀĦ":7502,"Ġìĥģìĺģ":7503,"ìĹŃìĤ¬":7504,"ë¥´ì§Ģ":7505,"Ġê±°ì£ł":7506,"ì§ģìĿĦ":7507,"ĠíķĻìĪł":7508,"ated":7509,"Ġ99":7510,"Ġê²ĢìĿĢ":7511,"ĠìĦ¸ê³ĦìłģìĿ¸":7512,"Ġë²ĪìĹŃ":7513,"íıīê·ł":7514,"ĠìĿ´ë¯¸ì§Ģë¥¼":7515,"Ġê±´ê°ķë³´íĹĺ":7516,"ì¿¨":7517,"Ġìĭ±ê°Ģíı¬ë¥´":7518,"ìĸ´ë§ģ":7519,"æĿ":7520,"Ġare":7521,"ìĹĲëĦĪì§Ģ":7522,"ë¥´ë©°":7523,"ì§ĢìĤ¬":7524,"ìĿ¼ìĺ¤ìłĦ":7525,"ë¦¬íĦ°":7526,"ë°´":7527,"ĠìĪĺë°±":7528,"ëĮĢíĨµëł¹":7529,"Ġìĺ¤ë¥ĺ":7530,"Ġìľłíļ¨":7531,"ë§ĪìĬ¤":7532,"Ġì¡°ìĭ¬":7533,"Ġë°©ìĭĿìĿĦ":7534,"ĠìĬ¤íĬľëĶĶìĺ¤":7535,"Ġë¬´ì¡°ê±´":7536,"ĠìĦ¸ê³Ħë¥¼":7537,"Ġì§Īë¬¸ìĿĦ":7538,"ĠHT":7539,"Ġì¶ķíķĺ":7540,"Ġì¹¨íķ´":7541,"ĠìĥĿíĻľìĿĦ":7542,"ëłĮíĬ¸":7543,"Ġëĸ¨ìĸ´ìł¸":7544,"ê·¸ëŀĺíĶĦ":7545,"å¤§":7546,"ĠìĻ¼ìª½":7547,"96":7548,"íķĺê²łìĬµëĭĪëĭ¤":7549,"ĠìĿ´ëĭ¬":7550,"Ġëª½":7551,"ëĮĢìĹĲìĦľ":7552,"Ġê°Ģë³":7553,"ìķĦìĽĥ":7554,"Ġíķľë¯¸":7555,"ì£¼ê¸°":7556,"Ġìĭľìŀ¥ìĿĦ":7557,"êµ¬ìĹĲ":7558,"íĦ°íħĮìĿ¸":7559,"ĠìĨĮìĭĿìĿĦ":7560,"ĠìľłìĹ°":7561,"ĠëıĻìķĦ":7562,"Ġë¬´ê¸°":7563,"ĠìĽĲíĻľ":7564,"ìķ½íĴĪ":7565,"Ġëĭ¨ëıħ":7566,"Ġì¢ĭê³ł":7567,"Ġë¬¼ê±´":7568,"Ġìĺ¬ëŀĲëĭ¤":7569,"Ġ97":7570,"Ġì¶©ë¶ģ":7571,"Ġac":7572,"ê·ľì¹Ļ":7573,"Ġëĭ´ê¸´":7574,"Ġì§Ģê¸ĪëıĦ":7575,"íį¼ìĬ¤":7576,"ĠìĿ´ìľłë¥¼":7577,"ĠìĿ¸ê°ĦìĿ´":7578,"ĠëĨĢëĿ¼":7579,"ìĵ¸":7580,"ĠíŀĪìĸ´ë¡ľ":7581,"Ġres":7582,"ĠëĦ·ë§Īë¸Ķ":7583,"Ġëļľëł·":7584,"ìĿ´ëŁ¬íķľ":7585,"ëĭ¤ìĿ´":7586,"ë¡¬":7587,"Ġíķĺëįĺ":7588,"Ġì§ĢìŀĲ":7589,"ĠìłĦëł¥":7590,"ì£¼ìĿ¸":7591,"ìļĶíķľ":7592,"Ġì¶¤":7593,"Ġë§ĮëĤĺëĬĶ":7594,"ê·¸ëłĩ":7595,"ĠìĦ¸ë¶Ģ":7596,"Ġìŀ¥íķĻ":7597,"ìłĲìĿĺ":7598,"Ġë°°íĦ°ë¦¬":7599,"ãĢĲ":7600,"ĠID":7601,"ĠíķĺëĤĺëĭĺê»ĺ":7602,"Ġê°ľë°ľíķľ":7603,"ë²Ķì£Ħ":7604,"........":7605,"ĠíĻľìļ©íķ´":7606,"ĠëŁŃ":7607,"Ġê°ľìĿ¸ìłķë³´ìĿĺ":7608,"íķĺìĭľê¸°":7609,"ĠìłķíĻķíŀĪ":7610,"ĠìłķíĻķíķĺê²Į":7611,"ì¿Ħ":7612,"ĠíĺĲìĿĺë¡ľ":7613,"Ġìĺ¬ë°Ķë¥¸":7614,"fer":7615,"ient":7616,"´¤":7617,"ĠëĤ¬":7618,"ìĿ´ëĭĪ":7619,"ëĭ¤ëŀĢ":7620,"ìĹĲìĬ¤":7621,"ì§Ģë°©ë²ķìĽĲ":7622,"Ġë§ĺ":7623,"ìĻľ":7624,"ĠìłĦíĻĶë¥¼":7625,"ìłĦê¸°":7626,"ë³´ì¦Ŀ":7627,"ìĭłìĿĢ":7628,"Ġ39":7629,"Ġê³łìĨį":7630,"ĠëĦ¥":7631,"ëª¨ëĵł":7632,"ì²Ńìŀ¥":7633,"Ġìŀ¬ëĬ¥":7634,"Ġë°°ìĥģ":7635,"ì½ĶìĬ¤":7636,"ì¶ķìłľ":7637,"íħĮìĿ´ìħĺ":7638,"Ġê·ľì¹Ļ":7639,"ĠëĤłìĿĢ":7640,"Ġì¤ĢìĪĺ":7641,"ĠìłķëıĦê°Ģ":7642,"ì§ľë¦¬":7643,"ĠìķĶíĺ¸":7644,"RI":7645,"SK":7646,"ë¦¬ìĬ¤íĬ¸":7647,"ìľ¼ë¯Ģë¡ľ":7648,"ì£¼ìĹĲ":7649,"ë³´ìĪĺ":7650,"ĠìĥģìĹħ":7651,"ĠìķĪë³´":7652,"ìĹĪëĭ¤ê³ł":7653,"ĠìłĢíķŃ":7654,"Ġë¬´ê²Į":7655,"ëĵ±ìĹĲ":7656,"ĠPD":7657,"Ġì§Ħíĸīíķĺê³ł":7658,"ëķĮëĬĶ":7659,"ìĭľíĤ¤ê¸°":7660,"ĠíĻ©íĺ¼":7661,"ĠìļĶêµ¬íķĺëĬĶ":7662,"Ġform":7663,"Ġì½ĺíħĲì¸łë¥¼":7664,"Ġë©Ķìĭľì§Ģë¥¼":7665,"ĠUnivers":7666,"ëĿ":7667,"ìĿ¼ë¡ľ":7668,"ìłķê³¼":7669,"ì²«":7670,"ì¹´ëį°":7671,"Ġìĭľìŀ¥ìĿ´":7672,"Ġê³µê¸°":7673,"íķĻìĽĲ":7674,"Ġê³łêµ¬":7675,"ĠìĹ°ê´Ģ":7676,"Ġë°ľìĨ¡":7677,"ĠìĦ¸ê¸Ī":7678,"Ġìŀ¥ìĭĿ":7679,"ìķĺëĬĶëį°":7680,"Ġ2019":7681,"Ġê¹ĢìĦ±":7682,"ĠìĤ¬ìļ©ëĲĺëĬĶ":7683,"ê°Ĳíķľ":7684,"Ġë°°ëĭ¬":7685,"Ġê²ĮìĿ´":7686,"ĠìĨĲìĹĲ":7687,"íĪ¬ìĸ´":7688,"Ġê¸°ìĪłìłģ":7689,"ìķ¡ìĿ´":7690,"Ġì¤Ħìĸ´":7691,"Ġê¶Įë¦¬ë¥¼":7692,"Ġê¼¼":7693,"Ġì»¨ìĦ¤íĮħ":7694,"ĠìŀĪëĬĶëį°ìļĶ":7695,"ĠìĺĪìĥģëĲľëĭ¤":7696,"Ġëª©ìłģìĿĦ":7697,"Ġë¯¼ì£¼ì£¼ìĿĺ":7698,"ì©į":7699,"Ġë°©íĸ¥ìĿĦ":7700,"Ġëĭ¤ë¥´ëĭ¤":7701,"ĠìľĪëıĦìļ°":7702,"ìĦľìĻĢ":7703,"ĠëĭŃ":7704,"ĠìĪĺìĭŃ":7705,"ìĥģíĻ©":7706,"ĠìłĦëıĦ":7707,"ĠìĹĨê¸°":7708,"ĠìĿĺíķ´ìĦľ":7709,"ìķĪëħķíķĺìĦ¸ìļĶ":7710,"Ġìĭłíĺ¸":7711,"ë¯¼ìĿĺ":7712,"Ġìĸ´ëĳĲ":7713,"Ġë©ľ":7714,"Ġìłģì§Ģ":7715,"ë°ĶëŀĮ":7716,"ë§¤ë§¤":7717,"ĠCl":7718,"Ġì´Īëĵ±íķĻêµĲ":7719,"ĠíĻĺê¸ī":7720,"Ġë¬¸ìłľë¡ľ":7721,"ite":7722,"ĠìŀĦê¸Ī":7723,"Ġ2005":7724,"2014":7725,"ĠEU":7726,"ëĦĲëĵľ":7727,"ĠìĿ´ë¦ĦìĿ´":7728,"ìħĶëĦĲ":7729,"ë¡¯ëį°":7730,"ĠêµĲíĨµìĤ¬ê³ł":7731,"ëĲĺìĹĪìľ¼ë©°":7732,"ĠêµŃíļĮìĿĺìĽĲ":7733,"formation":7734,"âĦĥ":7735,"Ġê°Ģë³į":7736,".,":7737,"ìĮį":7738,"ë¦¬ì¦ĺ":7739,"Ġë³´ë©°":7740,"ĠíķĺìľĦ":7741,"ë©´ìľ¼ë¡ľ":7742,"ì¡°ê°Ģ":7743,"ĠìĿĺíķĺë©´":7744,"ĠìĦ¸ë¯¸ëĤĺ":7745,"Ġë²ķìĿ¸":7746,"Ġì§ĦíĸīíķĺëĬĶ":7747,"Ġê³³ìĿĦ":7748,"ĠíħĲ":7749,"ĠëĤ´ìļ©ìĿĺ":7750,"ĠëłĪëĵľ":7751,"Ġëħ¼ëŀĢìĿ´":7752,"ĠìĿ´ë¦Ħìľ¼ë¡ľ":7753,"Ġì½ĺìĦľíĬ¸":7754,"´ë§Ī":7755,"ther":7756,"ĠìĿ´ìĿµìĿĦ":7757,"Ġì¸¡ë©´ìĹĲìĦľ":7758,"ì·":7759,"Ġ01":7760,"ìŀİ":7761,"Ġìķ¤":7762,"íķ´ìł¸":7763,"ĠìĤ¬ë¡ľ":7764,"Ġê°Ģì§Ī":7765,"ìĥģìĹĲìĦľ":7766,"Ġì§ĢëĬ¥":7767,"ĠìķĦìĺĪ":7768,"Ġì£¼ê±°":7769,"ìĤ°íĻĶ":7770,"ê´Ģìľ¼ë¡ľ":7771,"ĠìľłìķĦ":7772,"íĥĢìļ´":7773,"ĠíĨµìłľ":7774,"ë¬¼ê³¼":7775,"ìŀĳê°Ģ":7776,"Ġê°ķìļ°":7777,"ìķĺì§Ģë§Į":7778,"íĨłìĬ¤":7779,"Ġì¶Ķì¶ľ":7780,"Ġê³¼ëª©":7781,"Ġ98":7782,"Ġë¡ľê³ł":7783,"Ġì¤Ģìļ©":7784,"ĠëĦ¤ìĺ¤":7785,"Ġê²°ê³¼ê°Ģ":7786,"Ġì²«ì§¸":7787,"ĠWindows":7788,"Ġìĺ¤ëĬĺìĿĢ":7789,"Ġì¡´ìŀ¬íķĺëĬĶ":7790,"ìĿ´ìĸ´ìĦľ":7791,"Ġì¹¨ëĮĢ":7792,"ìĤ¬íķŃìĿĦ":7793,"ĠìķĦë§ĪëıĦ":7794,"´ëĲľ":7795,"Ġìľµíķ©":7796,"ë»Ĳ":7797,"ĠëĶĶìĬ¤íĶĮëłĪìĿ´":7798,"(+":7799,"FA":7800,"NA":7801,"ì±":7802,"ëĭ¤ìĿ´ìĬ¤":7803,"ë¡ľê°Ģ":7804,"ìĭľíķľ":7805,"ë°Ń":7806,"ìĸ´ë¦°":7807,"Ġì£¼ìĭł":7808,"ê³µë¬´ìĽĲ":7809,"Ġê³łíĸ¥":7810,"Ġì¡°íļĮ":7811,"Ġë¬¸íĻĶë¥¼":7812,"Ġ49":7813,"Ġê°ķìłľ":7814,"ìłĲê³¼":7815,"ë¹µ":7816,"ĠìĤ°ë¦¼":7817,"ë§ĲìĿĦ":7818,"ìĺ¨ëĿ¼ìĿ¸":7819,"Ġê³³ìľ¼ë¡ľ":7820,"ĠíĨłë§ĪíĨł":7821,"ĠìłĪì°¨ë¥¼":7822,"ĠìĦłíĥĿíķł":7823,"ì¹ľëĭ¤":7824,"ë´īìĤ¬":7825,"Ġìĸ´ëł¤ìĽĢìĿĦ":7826,"ĠìĿ´íķ´íķł":7827,"ĠìĻĢìĿ¸":7828,"Ġìĸ´ëĶĶìĦľ":7829,"ĠìĽ¨ëĶ©":7830,"Ch":7831,"EL":7832,"Ġë¼Ī":7833,"ìĿ´ê²Į":7834,"ìŀĲìłĦê±°":7835,"Ġìĭľìŀ¥ìĿĢ":7836,"ìĹ¬ìŀĲ":7837,"íĮĿ":7838,"ĠíĮĿ":7839,"ë§ĪìĿ¼":7840,"ĠëıĻìĥĿ":7841,"íĳľì¤Ģ":7842,"íĺķìĿĺ":7843,"Ġ65":7844,"ĠíĮĮíĭ°":7845,"Ġìļ´íĸī":7846,"ê´ĳìĹŃìĭľ":7847,"ĠìĭĿìĤ¬ë¥¼":7848,"Ġìĭ¶ìĬµëĭĪëĭ¤":7849,"ì¸µìĿĺ":7850,"Ġëĳ¥":7851,"ĠìĤ¬ê³łê°Ģ":7852,"ĠìĹĶì§ĢëĭĪ":7853,"ĠìĬ¤íİĺìĿ¸":7854,"Ġë·°":7855,"íĦ°íħĮìĿ¸ë¨¼íĬ¸":7856,"ìŀĲìłķ":7857,"ìķĦíĬ¸":7858,"Ġì§ĢëĭĻëĭĪëĭ¤":7859,"Ġìļ´ëªħ":7860,"ĠâĢĭ":7861,"ĠìŀĲì¹ĺ":7862,"ìĨĮìĻĢ":7863,"Ġìĺ¤ëĶĶìĺ¤":7864,"ì²´ëĬĶ":7865,"ĠìĨĮëª¨":7866,"êµĲìĤ¬":7867,"ĠëķĮë¶ĢíĦ°":7868,"ìĹ°ë§¹":7869,"íĹ¬":7870,"ĠëĲĺìĹĪê³ł":7871,"Ġìŀ¥ê´ĢìĿĢ":7872,"Ġì¢ĭê²łëĭ¤":7873,"ĠíķľêµŃìĹĲ":7874,"íİ¸ìĿĦ":7875,"ĠìŀĦìĽĲ":7876,"Ġë¡ľëĵľ":7877,"rev":7878,"ĠêµŃê°ĢìĿĺ":7879,"Ġìµľê·¼ìĹĲëĬĶ":7880,"ĠìĿ¼ë°ĺìłģìĿ¸":7881,"ĠìĭľëĮĢìĿĺ":7882,"ìĻĶìĬµëĭĪëĭ¤":7883,"Ġëª¬ìĬ¤íĦ°":7884,"ĠíĻĶëł¤íķľ":7885,"ìĭľëĭ¤":7886,"Ġìĺ³":7887,"íĬ¸ìĹĲ":7888,"Ġë³´ëĭ¤ëĬĶ":7889,"Ġíı°":7890,"ìŀħìĿĦ":7891,"ìĦ¸ìĹĲ":7892,"ĠìĹĨìĹĪëįĺ":7893,"Ġë§Ĳíķ©ëĭĪëĭ¤":7894,"Ġëħ¸íķĺìļ°":7895,"ĠíĮĮê´´":7896,"íĮĲìĹĲ":7897,"ìľ¨ìĿĢ":7898,"Ġë³µìļ©":7899,"ï¼Ķ":7900,"Ġë¶Ģë¶ĦìĹĲ":7901,"´ë°Ģ":7902,"Ġì¤ĳìĭ¬ìĿĺ":7903,"ĠëıĮìķĦê°Ģ":7904,"ĠìŀĲë¦¬ìĹĲìĦľ":7905,"ìĥĿíĻľìĿĦ":7906,"Ġê°ķìĽĲëıĦ":7907,"ĠìĹĺë¦¬íĬ¸":7908,"ìŀĸìķĦìļĶ":7909,"Ġë©ĺíĨł":7910,"85":7911,"æĪ":7912,"íķ´ì§ĢëĬĶ":7913,"ĠìĿ´ìĬ¹":7914,"ĠìĿ´ìĤ¬íļĮ":7915,"ĠìĿ´ë¥´ëĬĶ":7916,"ĠìĪĺìĹħìĿĦ":7917,"Ġíķĳ":7918,"ìłĦìĿĢ":7919,"ë³´ìŀ¥":7920,"Ġê²½ë§Ī":7921,"ì¹ĺìĿĺ":7922,"ëł¤ìĦľ":7923,"ĠìĦłë°°":7924,"Ġ52":7925,"Ġë¬´ë¦¬":7926,"Ġëĭ¨ë§Ĳ":7927,"Ġì°¨ìĿ´":7928,"Ġëĭ¹ìĤ¬":7929,"Ġìĺ¬ë¦°":7930,"ĠíĿī":7931,"Ġëį°ìĿ´":7932,"Ġsu":7933,"ëłĪìĿ´ìħĺ":7934,"ï¼Ĵ":7935,"Ġë¶Ħìķ¼ìĹĲ":7936,"ĠìĻľëĥĲ":7937,"íķĺìĭľê³ł":7938,"Ġëª©íĳľë¥¼":7939,"Ġìķķë°ķ":7940,"Ġê°ģê°ģìĿĺ":7941,"Ġìĺ·ìĿĦ":7942,"Ġêµ³ìĿ´":7943,"ëĿ¼ìĬ¤íĭ±":7944,"Ġì²łìłĢíŀĪ":7945,"ì¹´ëį°ë¯¸":7946,"SF":7947,"ian":7948,"port":7949,"Ġim":7950,"íķĺìĹĲ":7951,"ë¦¬ìĽĢ":7952,"ìŀĲëĵ¤ê³¼":7953,"ìĤ¬ëĵ¤ìĿ´":7954,"Ġê°Ģë¦¬":7955,"ë§ĮìĿĢ":7956,"ì£¼ì°¨":7957,"ë¹ĦìĿĺ":7958,"íķĻíļĮ":7959,"íĸīìľĦ":7960,"ìĦ¸ìĿ´":7961,"ĠìĹ°ìĺĪ":7962,"ĠìĦ¸ëĮĢ":7963,"Ġìĭ¤ìłģ":7964,"ë¥´íģ¬":7965,"Ġì°¨ë¥¼":7966,"Ġëĭ¹ìŀ¥":7967,"Ġëĭ¹ë¶Ģ":7968,"Ġëª»íķ´":7969,"ĠìłĲìĿ´ëĭ¤":7970,"ĠëĤłìĿ´":7971,"ĠëĬĲê¼":7972,"Ġ2004":7973,"Ġìķ¼êµ¬":7974,"Ġìĭľìŀ¥ìĹĲ":7975,"Ġëķ¡":7976,"ĠìĺĨìĹĲ":7977,"====":7978,"ĠíĬ¸ëłĪìĿ´ëĦĪ":7979,"?\"":7980,"EAR":7981,"âħ":7982,"Ġì¥Ĳ":7983,"ĠìĹ´ëŀĮ":7984,"ĠìĿ´ê¸°":7985,"ëĤĺìĻĢ":7986,"Ġì§Ģì¶ľ":7987,"Ġëĭ¤ëĵ¤":7988,"ìĹ¬ëªħìĿ´":7989,"ëıĻìĿ´":7990,"Ġëª¨ìĥī":7991,"ëĭ¨ìľ¼ë¡ľ":7992,"Ġì¡°ê°ģ":7993,"íĺ¸ëĬĶ":7994,"ĠìĬ¤íĤ¬":7995,"Ġê¹ĢìĪĺ":7996,"ê°ķìĿĺ":7997,"ĠìĿ´ìļ©ìŀĲìĹĲê²Į":7998,"Ġë¯¸êµŃê³¼":7999,"ĠêµĲìľ¡ê³¼":8000,"Ġì¡´ì¤ĳ":8001,"ĠìŀĲëıĻìľ¼ë¡ľ":8002,"Ġëª¸ìĹĲ":8003,"chool":8004,"ĠìķĦëŀĺìĻĢ":8005,"ĠìĿĮìķħìĿĦ":8006,"ä¸Ģ":8007,"äºº":8008,"Ġë©ĶìĿ´ìłĢ":8009,"íĥľìĸĳìŀĲìłķ":8010,")-":8011,"kg":8012,"¼íĦ°":8013,"íķĺë¯Ģë¡ľ":8014,"ëĤŃ":8015,"ìĿ¸ëıĦ":8016,"ĠìĪĺëł¹":8017,"Ġê¸°ìĽĲ":8018,"ĠìĿ¼ë°©":8019,"ê´Ģíķľ":8020,"Ġìľłíĸī":8021,"ĠìĿĺë¢°":8022,"ĠìĦłì¶ľ":8023,"íĴĢìĿ´":8024,"ë¬¼ì§Ī":8025,"ĠìĦ±ìłģ":8026,"ĠìĤ½":8027,"ìĭ¬íķľ":8028,"íĶĦë¥¼":8029,"Ġìŀ¥ê´Ģ":8030,"ĠìĹŃìĤ¬ìĿĺ":8031,"Ġë¦½":8032,"Ġì¶©ëıĮ":8033,"Ġê°ľë°ľìĿĦ":8034,"Ġê²½ìłľìłģ":8035,"Ġë³ĦëıĦë¡ľ":8036,"Ġë§ĽìŀĪëĬĶ":8037,"ëĪĦë¦¬":8038,"ĠìĪĺì¤Ģìľ¼ë¡ľ":8039,"Ġê°ĲëıħìĿĺ":8040,"Ġê°ľëħĲìĿĦ":8041,"Ġëª©ìĨĮë¦¬ë¥¼":8042,"Ġìĺ¤ë¥¸ìª½":8043,"Ġë¦´ê²ĮìŀĦ":8044,"Ġíİ¸ìĿĺìĭľìĦ¤":8045,"Ġì¤įëĭĪëĭ¤":8046,"AT":8047,"SC":8048,"ä½":8049,"åį":8050,"Ġìŀī":8051,"ëıĦíķľ":8052,"ìĬ¤ë§ĪíĬ¸":8053,"Ġê¸°ìĺ¨":8054,"ĠìľĦëĮĢíķľ":8055,"ìķ¼ë§Ĳë¡ľ":8056,"Ġë¶Ģë¥´":8057,"ìĦłìĥĿ":8058,"ĠìĹĨìľ¼ë©´":8059,"ëĭ¹ìĭľ":8060,"ĠëıĻìĽĲ":8061,"ĠìĦ±ìŀ¥ìĿĦ":8062,"ìĸ´ëĿ¼":8063,"Ġë§¤ëĭĪ":8064,"Ġëĭ¨ë°±":8065,"Ġëĭ¹íķ´":8066,"Ġâħ":8067,"ãĢİ":8068,"Ġì²ŃìĨĮ":8069,"ĠML":8070,"Ġì°¾ê³ł":8071,"ish":8072,"ĠKB":8073,"ĠìĿ´ìĸ´ì§ĢëĬĶ":8074,"etw":8075,"ĠíļĮìĽĲìĿĢ":8076,"ëķĮë¬¸ìĹĲ":8077,"ĠWeb":8078,"Ġê¸īìĨį":8079,"ĠìĥģíĥľìĹĲìĦľ":8080,"Ġë¬´ìĹĩìĿ¸ê°Ģ":8081,"ĠìŀĲìľłíķľêµŃëĭ¹":8082,"ĠìĹ´ë¦°ëĭ¤":8083,"´ëł¥":8084,"ì¶ľìŀ¥ìķĪë§Ī":8085,"ĠíĻĶìŀ¥íĴĪ":8086,"ĠïĤ§":8087,"Ġìĩł":8088,"ĠìĿ´ëŀĢ":8089,"63":8090,"82":8091,"oy":8092,"ì¥Ĳ":8093,"ĠìŁģ":8094,"Ġêº":8095,"ìĿ¼ë¶Ģ":8096,"ĠìķĻ":8097,"ĠìĪĺìĭł":8098,"ìķĦì§Ģ":8099,"ì£¼ëħĦìĿĦ":8100,"ĠìĭľìĽĲ":8101,"ĠëĤĺë©´":8102,"ì¡°ëĬĶ":8103,"ëĲĺê±°ëĤĺ":8104,"Ġê°ľìĦ±":8105,"ì²´ê³Ħ":8106,"ëĲľëĭ¤ëĬĶ":8107,"ìĭ¤ë¹Ħë³´íĹĺ":8108,"íĺ¸ìĹĲ":8109,"íĽĦë³´":8110,"Ġê¹Ģì¢ħ":8111,"Ġê¹Ģíĥľ":8112,"íĺķìĿ´":8113,"êµ°ìĿĦ":8114,"Ġëĵľë¦¬":8115,"ĠëĤłì§ľ":8116,"Ġì»¤ëĭ¤ëŀĢ":8117,"ì¹ľêµ¬":8118,"ĠìĿĺë¯¸íķľëĭ¤":8119,"Ġë§ĽìĿĦ":8120,"ĠìĿ¸ë¥ĺìĿĺ":8121,"ĠìŀĲê²©ì¦Ŀ":8122,"æĸ°":8123,"ĠâĹĩ":8124,"Ġì²¨ëĭ¨":8125,"Ġìĺ¬ë¦¬ë¸Į":8126,"ĠíħįìĬ¤íĬ¸":8127,"ax":8128,"ss":8129,"ê³łê°Ŀ":8130,"ëłĢ":8131,"Ġë¶īìĿĢ":8132,"ĠìķĦíĶĦ":8133,"Ġë³´íİ¸":8134,"Ġì£¼ì§Ģ":8135,"ĠìľĦìĹĲìĦľ":8136,"Ġê³µê³ł":8137,"ĠìĹĨìĸ´ìĦľ":8138,"ë¬´ëĬĶ":8139,"íĥĢìĽĮ":8140,"ìĭ¬ìĹĲìĦľ":8141,"Ġê°ĻìķĦ":8142,"íı¬ëĭĪìķĦ":8143,"Ġë¬´ìļ©":8144,"ĠíĬ¹ìĦ±ìĿĦ":8145,"Ġì¶Ķìłģ":8146,"Ġìŀħì£¼":8147,"Ġë¹Ĺ":8148,"ë¹¨":8149,"ë¹¼":8150,"ĠíĶ¼ìķĦ":8151,"Ġì²´ë¦¬":8152,"Ġì§ĦíĸīëĲĺëĬĶ":8153,"ĠìĭĿìľ¼ë¡ľ":8154,"ì°½ìĹħ":8155,"Ġëĭ´ê²¨":8156,"Ġê´Ģê³Ħê°Ģ":8157,"Ġë²łìĿ´ìĬ¤":8158,"ĠëĤĺíĥĢëĤľ":8159,"Ġíĺ¸íħĶìĿĦ":8160,"Ġì»¨íħĲì¸ł":8161,"ĠìĤ´ìķĦê°ĢëĬĶ":8162,"ìĸµìĽĲìľ¼ë¡ľ":8163,"ĠìľłìĤ¬íķľ":8164,"ik":8165,"the":8166,"ĺìĸ´":8167,"ĠìĿ´ëĭ¤":8168,"ĠìĤ¬ìłĦìĹĲ":8169,"Ġê·¸ì¤ĳ":8170,"Ġíķĺê²łëĭ¤":8171,"ê¸ĭ":8172,"Ġë³´ìĿ¼":8173,"ĠëĤĺìĹĲê²Į":8174,"Ġì¤ĳë³µ":8175,"ĠìĥģëĮĢë¡ľ":8176,"ìŀ¬ìĥĿ":8177,"ë§Īë¥¼":8178,"ëł¥ìĹĲ":8179,"Ġíķ´ì§Ģ":8180,"ĠíļĮìĤ¬ë¥¼":8181,"ê±´ì¡°íķľ":8182,"íķĺê¸°ëĬĶ":8183,"ĠìŀħìĿĦ":8184,"ĠíķĦë¦¬íķĢ":8185,"ë¦ĦìĿĦ":8186,"íĮĲìĿ´":8187,"Ġë³¸ìĿ¸ìĿĺ":8188,"ë§ĿìĿĦ":8189,"ĠëĪĪê¸¸ìĿĦ":8190,"ĠíĶĮëŀĺ":8191,"íĮĢìĿ´":8192,"2006":8193,"Ġìĭľìŀ¥ìĹĲìĦľ":8194,"Ġë°ĽìķĦìķ¼":8195,"own":8196,"Ġì¡°ê¸ĪìĶ©":8197,"ì°¸ìĹ¬":8198,"Ġì£¼ìĭĿìĿĺ":8199,"ë³´ëĤĺ":8200,"ĠëĬĲëģ¼ëĬĶ":8201,"Ġì±ĶíĶ¼ìĸ¸":8202,"Ġì«ĵ":8203,"å¯":8204,"å°":8205,"åĪ":8206,"æŃ":8207,"ìĿ¼ìŀĲ":8208,"ìĽ¹":8209,"ĠíķĢ":8210,"ëĮĢì²´":8211,"Ġì§ĢìĭĿìĿĦ":8212,"ê¸Ģë¡ľë²Į":8213,"ĠìľĦê¸°":8214,"ĠìĿ¼ìĸ´ëĤľ":8215,"ìĺ¤ìĹ¼":8216,"íģ´ëĿ¼":8217,"Ġì¡°ëªħ":8218,"Ġìĭłíķľ":8219,"Ġêµ¬ê°Ħ":8220,"ĠìĦ±ëªħ":8221,"Ġë§İê³ł":8222,"ĠìĽĲìĿ¸ìĿ´":8223,"ëĶĶìħĺ":8224,"Ġì¶ľìĦĿ":8225,"ëįĶëĿ¼ê³ł":8226,"ĠëģĦ":8227,"ĠëĵľëĬĶ":8228,"Ġëĭ¤ìĸĳíķĺê²Į":8229,"Ġì¶©ëĤ¨":8230,"ĠëĪĦìłģ":8231,"Ġì±ĦìĽĮ":8232,"ë©Ķëĭ¬":8233,"ĠíıŃìĹ¼":8234,"Ġë§ĽìĿ´":8235,"Ġê¸°ë³¸ìłģìľ¼ë¡ľ":8236,"Ġë¬´ìĹĩìĿ´":8237,"ĠëķĢ":8238,"ĠíıĲìĩĦ":8239,"ĠìķĦë¬´ëıĦ":8240,"Ġìĸ¸ìłľëĵłì§Ģ":8241,"ĠëĦ£ìĸ´":8242,"Ġì§Īë¬¸ìĹĲ":8243,"ĠGoogle":8244,"ë®¬":8245,",,":8246,"89":8247,"İĦ":8248,"Ł¬":8249,"Ġëī":8250,"íķĺë£¨":8251,"ìĭľì½Ķ":8252,"ĠìĪĺë¡Ŀ":8253,"Ġê·¸ëĤł":8254,"Ġê·¸ê±¸":8255,"Ġíķ«":8256,"Ġì§ĢíĽĪ":8257,"Ġë³´ìķĦ":8258,"ìĹħê³Ħ":8259,"Ġìľłë°ľ":8260,"êµĲíĻĺ":8261,"ĠìĹ°íľ´":8262,"ĠìĺģìĽĲ":8263,"ĠìķĦëĭĪìĹĪëĭ¤":8264,"Ġê°Ħíİ¸":8265,"ĠìĨĲíķ´":8266,"ìŀĪê³ł":8267,"ĠìłľíĴĪìĿ´":8268,"Ġë°©ë²ķìĹĲ":8269,"Ġì§Ģê¸ĪìĿĺ":8270,"Ġë²łìĬ¤íĬ¸":8271,"Ġì°¸ìĹ¬íķľ":8272,"ational":8273,"Ġë°©ë¬¸íķ´":8274,"Ġëªĩëªĩ":8275,"ĠíĮĢìĿĦ":8276,"ĠìľĦìĽĲìŀ¥ìĿĢ":8277,"Ġì´īì§Ħ":8278,"æĸ¯":8279,"Ġìĺµìħĺ":8280,"ĠìłĢìŀĳê¶Į":8281,"Ġìľ¼ë¡ľ":8282,"mail":8283,"íķĺìļ°ìĬ¤":8284,"ê³łëĵ±íķĻêµĲ":8285,"ìĦľì¹ĺ":8286,"íķ´ìĻĶëĭ¤":8287,"ìĭľíĸī":8288,"ìĭľíĶ¼":8289,"ëłĢëĭ¤":8290,"Ġê³°":8291,"Ġëĭ¿":8292,"ìłķë³´ë³´íĺ¸":8293,"ĠëĮĢë§Į":8294,"ìĪĺì¤Ģ":8295,"Ġëĵ±ëıĦ":8296,"íķĻìŀĲ":8297,"Ġë¶Ģìĥģ":8298,"Ġë¹Ħìĭ¼":8299,"êµĲë¥¼":8300,"Ġë§Ĳíķĺê³ł":8301,"íİĻ":8302,"ì¤ĳê³Ħ":8303,"Ġê²½ìļ°ìĹĲëıĦ":8304,"Ġë°ĺëł¤":8305,"Ġìĸ´ë¥¸":8306,"ĠíķľêµŃìĿĢ":8307,"Ġì¶ľê°Ħ":8308,"ĠëĳĲíĶ¼":8309,"ë³µìĿĦ":8310,"ĠCon":8311,"Ġìļ´ìļ©":8312,"ëĭ´ëĭ¹":8313,"Ġë¦¬ê·¸":8314,"ìĬ¹ìĿĦ":8315,"íĶĮëĿ¼ìĿ´":8316,"ĠìĦ¸ê³ĦìĿĺ":8317,"Ġë¡ľê·¸":8318,"ree":8319,"ìłķë³´ë¥¼":8320,"Ġíĥľìĸ´ëĤĺ":8321,"ĠìĹ¬ëŁ¬ê°Ģì§Ģ":8322,"ë¸Ķë¡Ŀ":8323,"Ġíı¬íķ¨ëĲĺìĸ´":8324,"ĠëĮĢìĥģìĿ´":8325,"ĠìķĪìłĦíķľ":8326,"ìħ¨ëĭ¤":8327,"ĠìĹŃìĤ¬ìłģ":8328,"Ġê·ľìłķìĿĢ":8329,"Ġì£½ìĿĮ":8330,"Ġë°°ìļ°ëĬĶ":8331,"íķ´ì£¼ìĦ¸ìļĶ":8332,"ãİŀ":8333,"ëľ»íķľ":8334,"ĠXML":8335,"ìłĦë¬¸ê°Ģ":8336,"ĠìĬ¤ìĽ¨ëį´":8337,"ĠìĬ¤íĥĢíĬ¸ìĹħ":8338,"87":8339,"EM":8340,"ml":8341,"ple":8342,"ëİ":8343,"ëĭĽ":8344,"ëıĶ":8345,"Ġëĭ´ë³´":8346,"Ġê¸°ìĨĮ":8347,"íĬĢ":8348,"ĠìłĦì£¼":8349,"ĠìłķíķĺëĬĶ":8350,"Ġë³´ì¦Ŀ":8351,"Ġì£¼ìŀħ":8352,"ìĭłìĦ¤":8353,"ĠìĿ¼ì¹ĺ":8354,"Ġì¡°íĻĶ":8355,"ĠëĤ´ìĿĺ":8356,"íĨµíķ©":8357,"ĠíļĮìŀ¥ìĿ´":8358,"Ġë¬´ì²Ļ":8359,"Ġê°Ĳìĥģ":8360,"Ġëĭ¨ì¶ķ":8361,"ë°Ķì¹´ëĿ¼":8362,"Ġë¬¼ìĿ´":8363,"ĠìĤ°ì±ħ":8364,"ë´¤ëĭ¤":8365,"Ġìĭľê°ĦìĿĢ":8366,"Ġë°ĿíŀĮ":8367,"ìłķë³´íĨµìĭł":8368,"ĠíĶĮëĿ¼ìĬ¤íĭ±":8369,"Ġì°¸ìĹ¬íķĺëĬĶ":8370,"echn":8371,"ĠëĨĵìĿĢ":8372,"Ġê¹¨ëĭ¬":8373,"Ġê°ĲëıħìĿ´":8374,"ĠíĶĦë¡ľìłĿíĬ¸ë¥¼":8375,"Ġìłľì£¼ëıĦ":8376,"Ġìļ°ëł¤ê°Ģ":8377,"Ġê³łìĸĳìĿ´":8378,"600":8379,"Ġel":8380,"ê²¸":8381,"ìĿ¸ì²ľ":8382,"ìĬ¤íĤ¤":8383,"ĠìĪĺì¹ĺ":8384,"Ġìĥĺ":8385,"ëĮĢíĻĶ":8386,"ìķĦëŀĺ":8387,"ìĦ±ìķł":8388,"íĬ¸ëĿ¼":8389,"ĠìĭľìĤ¬":8390,"ĠìĭľëĤ´":8391,"ìĹ¬ìķ¼":8392,"Ġê²½ê³¼":8393,"ì¹ĺê¸°":8394,"Ġìĺ¤íĨł":8395,"ìĭ¤ìĿĺ":8396,"ë¬´íĺĦ":8397,"ĠìĹ°ë§Ĳ":8398,"ĠëĤ´ëĬĶ":8399,"ĠëĲĺëıĮ":8400,"ĠëıĦëįķ":8401,"Ġë¬¼íĴĪ":8402,"ĠCo":8403,"Ġëª©ìĪ":8404,"ĠíĥĢìŀĦ":8405,"ĠìĤ¬ìĭ¤ìĿĢ":8406,"ëĵ¤ê³¼ìĿĺ":8407,"Ġíı¬íķ¨íķ´":8408,"Ġíı¬íķ¨ëĲľ":8409,"out":8410,"Ġíĺ¼ëŀĢ":8411,"ĠìµľìĨĮíķľ":8412,"ĠìµľìĨĮíĻĶ":8413,"âĳ¡":8414,"ĺë¦¬íı¬ëĭĪìķĦ":8415,"ĠëŃĶê°Ģ":8416,"oft":8417,"ĠìĤ¬ë¡ľìŀ¡":8418,"FC":8419,"OT":8420,"Ã©":8421,"ëĤ´ëĮĢ":8422,"ìŀĲë³¸":8423,"ĠëĤ´ë©´":8424,"Ġê·¸ëŀ¬":8425,"ëĤĺìĿĺ":8426,"ì£¼ìĻĢ":8427,"Ġëĭ¤ë¦¬":8428,"ĠëĤĺëī":8429,"ìļ´ìļ©":8430,"ĠìĿĺíļĮ":8431,"ĠìĿĺìĭĿ":8432,"ĠìĹ°ë£Į":8433,"ĠíĬ¹ìľłìĿĺ":8434,"ì¤Ģë¹Ħ":8435,"Ġìŀħì°°":8436,"Ġíıīë²Ķ":8437,"ë¸ĮëĿ¼":8438,"ĠìŀĦíĮ©íĬ¸":8439,"Ġì§Ħíĸīíķľëĭ¤":8440,"ĠìĪľíĻĺ":8441,"Ġ2002":8442,"Ġê¸°ìĪłìĿ´":8443,"ĠíĨłëĮĢë¡ľ":8444,"Ġíĺĳìĥģ":8445,"Ġê·ĢëĨį":8446,"2009":8447,"ĠíĴįê²½":8448,"ĠëĤ¨ë¶ģìłķìĥģíļĮëĭ´":8449,"Ġê²Įìĭľë¬¼":8450,"Ġë¯¼ì£¼ëĭ¹":8451,"Ġë°ĺìĿĳìĿĦ":8452,"Ġë³µìŀ¡íķľ":8453,"Ġê°¤ëŁŃìĭľ":8454,"ìĬ¤íĭ°ë²Į":8455,"\",":8456,".-":8457,"2000":8458,"61":8459,"ee":8460,"ix":8461,"ìĦ°":8462,"ê³łìĨį":8463,"ĠìĿ´íĭĢ":8464,"ĠëĮĢìŀ¥":8465,"ĠëĮĢíıŃ":8466,"íļĮìĤ¬ê°Ģ":8467,"Ġìłķë°Ģ":8468,"Ġëª¨ìľ¼":8469,"ĠìĥĿê¸¸":8470,"Ġë§ĲìĹĲ":8471,"Ġë§Ĳíķľ":8472,"Ġê±°ê¸°ìĹĲ":8473,"Ġ42":8474,"Ġê¹Ģì§Ħ":8475,"Ġê³¼ìłľ":8476,"Ġìĸ´ê¹¨":8477,"ĠìķĦëĭĪëĿ¼ëĬĶ":8478,"Ġê±´ì¡°":8479,"Ġëª©ìłģìĿ´":8480,"Ġì¦Ŀìĥģ":8481,"ĠíĪ¬ìŀĲë¥¼":8482,"Ġcm":8483,"ĠëĦĺì¹ĺëĬĶ":8484,"Ġê²°ê³¼ìĹĲ":8485,"ĠíĹĪê°Ģ":8486,"ĠìĤ¬ìĿ´ìĹĲìĦľ":8487,"ĠëģĿëĤľ":8488,"Ġì±ħìŀĦìĿ´":8489,"ĠíĴįìĨį":8490,"ĠìĿ¼ë¶Ģë¥¼":8491,"Ġê³µëıĻìľ¼ë¡ľ":8492,"Ġêµ¬ì¡°ë¥¼":8493,"ëĮĢíķĻìĽĲ":8494,"ĠíıĲì§Ģ":8495,"!!!":8496,"ì¿łíı°":8497,"ĠìĿ´ë²¤íĬ¸ë¥¼":8498,"Ġë³¸ê²©ìłģìĿ¸":8499,"Ġë¸ĮëĿ¼ìļ°ìłĢ":8500,"rad":8501,"ãĤ":8502,"ì§ĢìĿ¸":8503,"ìĤ¬íļĮìĿĺ":8504,"ìĸ´ì§Ī":8505,"Ġê·¸ìĹĲê²Į":8506,"Ġê°Ģëł¤":8507,"Ġ211":8508,"ĠìķĦëłĪëĤĺ":8509,"ì£¼ê°Ħ":8510,"ìłĦíķľ":8511,"ëĵľìĻĢ":8512,"ëĵľëł¤":8513,"Ġê²½ê³ł":8514,"ê³µìĹ°":8515,"Ġê°ľìŀħ":8516,"Ġìĺ¤ì§Ģ":8517,"ë§ĪìŀĲ":8518,"Ġë§ĮíĻĶ":8519,"ĠìĦ¸ìĿ´ë¸Į":8520,"ĠëĲĺë©´ìĦľ":8521,"íĶĦë§ģ":8522,"Ġìŀ¬ë°°":8523,"Ġê¹Ģì£¼":8524,"íķĺê¸°ë¥¼":8525,"Ġê°Ĳê°ģ":8526,"Ġëĵ¤ìĿĦ":8527,"ì²ĺìĿĮ":8528,"Ġìĺ¬ëł¸ëĭ¤":8529,"Ġëªħì¹Ń":8530,"ĠíĻľìĦ±":8531,"ĠíĨłíĨł":8532,"ĠìĤ¬ìĹħìŀĲ":8533,"ìį¬":8534,"Ġëħ¼ìŁģ":8535,"Ġëĭ´ê³ł":8536,"ìħĶë¦¬":8537,"ĠíĻ©ê¸Ī":8538,"ĠìĤ¼ìĦ±ìłĦ":8539,"ĠìħĶ":8540,"Ġê¹¨ëĭ«":8541,"Ġëª¨ëį¸ìĿĦ":8542,"ì½ĺìĦľíĬ¸":8543,"ì¤¬":8544,"Ġë°ĶëŀĮìĿ´":8545,"Ġë´ĲëıĦ":8546,"Ġë³Ģíĺ¸ìĤ¬":8547,"Ġëıĭë³´":8548,"ìĿ´íķľ":8549,"ĠëĮĢìļ°":8550,"Ġìĭľê³Ħ":8551,"êµ¬ìĦ±":8552,"íĦ°ê°Ģ":8553,"Ġì°Į":8554,"ê³Ħìĺ¬ë¦¼íĶ½":8555,"íŀĺ":8556,"ì²Ńê³łìĭľìłľ":8557,"Ġë§¤ëĭ¬":8558,"Ġíı¬íķŃ":8559,"ĠìĤ¬ìļ©íķ´":8560,"Ġìŀħìŀ¥ìĹĲìĦľ":8561,"Ġì°¨ìĽĲìĹĲìĦľ":8562,"ë¦ĦìĿ´":8563,"ìĽĮìĦľ":8564,"ĠApp":8565,"ë°°ìĨ¡":8566,"ìĺĪë¥¼":8567,"ĠìĿ´ìĥģìĿĦ":8568,"ëĥĪ":8569,"ĠìŀĦìĭł":8570,"ê¸¸ìĿ´":8571,"ĠëıħìĦľ":8572,"Ġì¡±":8573,"ĠëģĿê¹Įì§Ģ":8574,"Ġë³´ê³łìĦľ":8575,"ous":8576,"Ġì¦Ŀê°Ģíķĺê³ł":8577,"Ġì¤Ģë¹Ħë¥¼":8578,"ĠíķĺìĹ¬ê¸Ī":8579,"ĠìĿ¸ëıĦëĦ¤ìĭľìķĦ":8580,"Ġë³´ìľłíķĺê³ł":8581,"ave":8582,"Ġë§ŀì¶¤íĺķ":8583,"Ġê¹ĶëģĶ":8584,"Ġì¤Ģìļ©íķľëĭ¤":8585,"´Ĳ":8586,"Ġê»":8587,"ìĿ´ì£ł":8588,"íķĺê²łëĭ¤ê³ł":8589,"ìĭľë¶ĢíĦ°":8590,"ĠìĿ´ë¥´ê¸°":8591,"Ġê³ģ":8592,"Ġëĭ¤ìĪĺ":8593,"Ġë¶Ģì²ĺ":8594,"Ġê°ľì²Ļ":8595,"Ġê´Ģíķł":8596,"ĠìĨĮìĻ¸":8597,"ĠìĹĨê²Į":8598,"ìķĪìĿĺ":8599,"Ġë§ĮìĦ±":8600,"Ġë°Ķë¥¸":8601,"ìĹĪëĭ¤ëĬĶ":8602,"ĠìłĢì§Ģ":8603,"ĠëĪĮ":8604,"Ġëĭ¬íķĺëĬĶ":8605,"ĠíķĦìļĶë¡ľ":8606,"ĠìĦľë¹ĦìĬ¤ê°Ģ":8607,"Ġpr":8608,"ĠëĮĢíĳľíķĺëĬĶ":8609,"ĠíĸĪëĭ¤ê³ł":8610,"ĠëĤ´ìļ©ìĹĲ":8611,"ĠEx":8612,"âĢ¦âĢ¦":8613,"Ġê¸°ë¡ĿìĿĦ":8614,"Ġìĺ¤ëĬĺìĿĺ":8615,"Ġìĥģíĥľë¡ľ":8616,"ĠìĿ´ê²ĥìĿĦ":8617,"ê¿Ī":8618,"Ġìķ¡ìĦ¸":8619,"ĠSKíħĶëłĪì½¤":8620,"Ġìª½ìľ¼ë¡ľ":8621,"Ġíİ¸ìķĪíķľ":8622,"Ġì§ķìĹŃ":8623,"Ġëª¨ëĭĪíĦ°ë§ģ":8624,"ëĿł":8625,">,":8626,"nn":8627,"ì§ĢìĪĺ":8628,"ë¦¬ëĭ¤":8629,"ë¶Ģë¡ľ":8630,"Ġê¸°íļĮëĬĶ":8631,"ìķĦëª¬":8632,"ì£¼ìĭł":8633,"Ġìĸĩ":8634,"ĠìŀĲê¾¸":8635,"Ġì¶ĺ":8636,"Ġê³µíĻĶ":8637,"Ġê³łìľł":8638,"ĠìĨĮìĪĺ":8639,"Ġìľłë¡ľ":8640,"ĠíĨµë³´":8641,"Ġìĺģìłģ":8642,"ë²ķìĿ´":8643,"ĠìĦ±ëł¹":8644,"Ġìĭ¤ìļ©":8645,"ì¤ĳê³ł":8646,"ert":8647,"Ġê³Ħê¸°ë¡ľ":8648,"ĠíĽĦìĹĲëĬĶ":8649,"Ġë°ĺë°ľ":8650,"ê°Ĳê³¼":8651,"anc":8652,"Ġë³¸ìĿ¸ìĿ´":8653,"Ġê·¸ëŁ¬ë©´ìĦľ":8654,"Ġsp":8655,"Ġë°ĿíŀĪ":8656,"Ġë¯¸êµŃìĿ´":8657,"ĠìķĬëĬĶëĭ¤ëĬĶ":8658,"ĠëĴ¤ë¥¼":8659,"ĠRF":8660,"ìĦ¼íĦ°ìĹĲìĦľ":8661,"ĠOS":8662,"Ġë¯¸ëŀĺìĹĲ":8663,"ä¸Ń":8664,"ĠìŀĬì§Ģ":8665,"Ġê°ĸì¶Ķê³ł":8666,"62":8667,"69":8668,"YEAR":8669,"æķ":8670,"âĢ¢":8671,"Ġê°Ģì¡Įëĭ¤":8672,"Ġë³´ìŀħëĭĪëĭ¤":8673,"ìĨĮê°ľ":8674,"ìĺ¤ìĬ¤":8675,"ĠìĽ°":8676,"Ġì¹¸":8677,"ĠíĨµì¹ĺ":8678,"ìĹŃìĹĲ":8679,"ìĹĲê²ĮëıĦ":8680,"Ġì§Ħë¡ľ":8681,"Ġ47":8682,"ìłĲê²Ģ":8683,"ìĦĿìĿĢ":8684,"ĠìķĦëĭĪíķľ":8685,"Ġìĸ´ëĸ¨":8686,"Ġë§ŀìĿĢ":8687,"Ġì°¾ìĿĢ":8688,"Ġì°½ìŀĳ":8689,"Ġ2020":8690,"íıīíĻĶ":8691,"Ġapp":8692,"Ġìº¡":8693,"íĹĪê°Ģ":8694,"Ġë¶ĻìĹ¬":8695,"Ġï¿½":8696,"Ġê¸°ëĭ¤ëł¤":8697,"que":8698,"Ġì¢Įìļ°":8699,"ĠìķłíĶĮë¦¬ì¼ĢìĿ´ìħĺ":8700,"Ġê¸°ìģ¨":8701,"Ġë®¤ì§Ģì»¬":8702,"'s":8703,"br":8704,"¸Į":8705,"ê³łìļ©":8706,"ìĿ¼ê³¼":8707,"ê°Ģêµ¬":8708,"ê¸°íķľ":8709,"ìĬ¤íĭ±":8710,"ĠìĤ¬ìĹŃìĿĦ":8711,"Ġì§Ģíľĺ":8712,"ìĪĺìĿµ":8713,"ìĻĢìĦľ":8714,"Ġê²½ê³Ħ":8715,"Ġëĵ±ëĵ±":8716,"Ġë¶ĢíĻľ":8717,"ìĺ¤íĶĪ":8718,"êµĲìĿĺ":8719,"ë°©ë¬¸":8720,"ìĭ¬ìĤ¬":8721,"Ġë°ĺì§Ģ":8722,"íĭ°ìĬ¤íĬ¸":8723,"ì¹´ìĿ´":8724,"ìĭľê°ĦìĿ´":8725,"íİ¸ìĿĺ":8726,"ĠìĨĲìĥģ":8727,"Ġì§ĢìĹŃìĤ¬íļĮ":8728,"Ġìłķë³´ê°Ģ":8729,"íĺĳìĿĺíļĮ":8730,"´ë°ľ":8731,"ëģ¼ë¦¬":8732,"ĠëŀŃ":8733,"íķĺìŀĲë©´":8734,"Ġê°Ŀê´Ģ":8735,"Ġìĸ´ì©Ķ":8736,"ëĭĲëĿ¼":8737,"çĶŁ":8738,"Ġê·¸ëŁ¼ìĹĲëıĦ":8739,"SP":8740,"ìĿ´ëłĩê²Į":8741,"Ġë°¸":8742,"ĠìĪĺë¦¬":8743,"ĠìĤ¬íĥĦ":8744,"ìĪĺìŀħ":8745,"Ġë³´ìŀĲ":8746,"ìĨĮë°©":8747,"Ġìĺ¤ëĿ¼":8748,"ìĦłìĿĢ":8749,"ĠìĬ¤íĭ°":8750,"ĠìĤ´ëł¤":8751,"ĠìĽĲìĿĦ":8752,"Ġë§¤ì£¼":8753,"ìłĢíŀĪ":8754,"ĠíķľêµŃìĿ¸":8755,"ĠíĸīìĤ¬ëĬĶ":8756,"Ġì§ĳê¶Į":8757,"ĠìĤ´ì§Ŀ":8758,"ìĥīìĿĺ":8759,"ìķħíķľ":8760,"íĺĳìĿĺ":8761,"ê²¨ì§Ħ":8762,"Ġì²ĺìĿĮìĹĲëĬĶ":8763,"ĠíİĺìĿ´":8764,"ĠìŀĲìľłë¡Ńê²Į":8765,"âĸ¶":8766,"ê·¸ëŀĺìĦľ":8767,"ĠëĤĺëĪĶ":8768,"ìŀ¥ìķłìĿ¸":8769,"Ġë³¸ê²©ìłģìľ¼ë¡ľ":8770,"ĠëŁ°ëĭĿ":8771,"ëŀŃíģ¬":8772,"ĠìĹ´ëł¸ëĭ¤":8773,"ĠëŁŃìħĶë¦¬":8774,"93":8775,"ìĿ´íĽĦ":8776,"ë¡Ģë¡ľ":8777,"íķ´ì§Ģ":8778,"íķ´ì§Ī":8779,"ìĿ¸ì¹ĺ":8780,"ìĬ¤ëłĪ":8781,"Ġ120":8782,"ë¶ĢìĹĲìĦľ":8783,"ĠìłĦëĤ¨":8784,"Ġìĭľë²Ķ":8785,"Ġê²½ì£¼":8786,"Ġë§Īì¹ĺê³ł":8787,"ëĦĺ":8788,"ĠëıĦë§¤":8789,"Ġê°ķíķĺê²Į":8790,"Ġíı¬ëŁ¼":8791,"Ġê¹ĢëıĻ":8792,"Ġë°°ìļ´":8793,"ĠíķĦìŀĲê°Ģ":8794,"Ġë¹Ļ":8795,"Ġë¬¼ìĹĲ":8796,"Ġê±´ë¦½":8797,"ĠëªħíĴĪ":8798,"ë¶ģëıĦ":8799,"Ġ1990":8800,"ĠëĵľëĶĶìĸ´":8801,"ĠìĨĲíķ´ë¥¼":8802,"Ġíļ¡":8803,"ĠëĤĺíĥĢëĤ¬":8804,"ĠìĦłíĥĿíķľ":8805,"Ġê±´ê°ķìĿĦ":8806,"Ġê¸īì¦Ŀ":8807,"Ġìĥģíĥľë¥¼":8808,"ë¡Ńê³ł":8809,"ê¸°ê´ĢìĿĺ":8810,"Ġë¹Ħìļ©ìĿ´":8811,"ĠìľĦìĽĲìŀ¥":8812,"Ġêµ¬ì²´ìłģìľ¼ë¡ľ":8813,"Ġë³´ëĤ¸":8814,"âĹĭ":8815,"Ġìĸ´ì©Įë©´":8816,"nb":8817,"Ġ--":8818,"ê²¹":8819,"ìĬ¤íĶ¼":8820,"ìĬ¤ëĭ·ì»´":8821,"Ġëĭ®":8822,"Ġê·¸ëĤĺë§Ī":8823,"ĠëĮĢíĻĶë¥¼":8824,"ìĽĲìŀ¥":8825,"ëĤĺê°Ģ":8826,"ëĤĺëĿ¼ëĬĶ":8827,"ĠíķĺìĭľëĬĶ":8828,"ì£¼íĸī":8829,"ìļĶì¦ĺ":8830,"ìĪĺìĤ°":8831,"ĠìĿ¼ìłľ":8832,"ìķ¼ë§ĪíĨł":8833,"ìĦ¸ìĿĺ":8834,"ĠìĹĨìĹĪ":8835,"Ġë°ľê¸ī":8836,"Ġê²°ìłķìĿĦ":8837,"Ġë°ĽëĬĶëĭ¤":8838,"Ġíı¬ìĬ¤íĮħ":8839,"Ġë°ĺëĮĢë¡ľ":8840,"hell":8841,"Ġì´Īëŀĺ":8842,"ŀĺëıĦ":8843,"ì¡Įëĭ¤ê³ł":8844,"ĠíĸĪìĿĦ":8845,"Ġìļ©ìłĳ":8846,"Ġì¶ķìĨĮ":8847,"Ġê³¼ìłķìĿ´":8848,"ame":8849,"ĠìĽĮëĤĻ":8850,"Ġìĺ¬ëĿ¼ê°Ģ":8851,"Ġê¸°ëĭ¤ë¦¬ê³ł":8852,"ĠìĪĺìĿµìĿĦ":8853,"ĠìĺģìĹħìĿ´ìĿµ":8854,"Ġëļ«":8855,"ĠìĿ´ëģĮìĸ´":8856,"ĠìłĦìĽĲê³µê¸ī":8857,"íİĺìĿ´ì§Ģë¥¼":8858,"Ġì¹´íħĮê³łë¦¬":8859,"Ġë©ĶíĥĢëį°ìĿ´íĦ°":8860,"BM":8861,"OC":8862,"ìĿ´ëįĺ":8863,"ê¸°ë°ĺ":8864,"ìĬ¤ìĹĲìĦľ":8865,"ĠìĪĺíĹĺ":8866,"ĠìĤ¬ìļ´ëĵľ":8867,"ìłķìĭł":8868,"Ġê°Ģê¹Ŀ":8869,"íķłìĪĺ":8870,"ĠìĿ¸ìĤ¬ë¥¼":8871,"ĠìĨĮë¦¬ê°Ģ":8872,"ĠìĿĺëıĦ":8873,"ĠìĿĺì§Ģë¥¼":8874,"ìĪŃ":8875,"ë¯¸ê°Ģ":8876,"ë¯¸ë¥¼":8877,"Ġë°ľëłĪ":8878,"ë²ķìĿĢ":8879,"ê¹Įì§ĢìĿĺ":8880,"ĠìĽĲëĤ´ëĮĢ":8881,"ê¸īìĹ¬":8882,"Ġê¹ĢíĺĦ":8883,"ĠíĻĺìŀĲìĿĺ":8884,"ìĺĪìĥģ":8885,"Ġë°ĿìĿĢ":8886,"ĠìŀĦìĥģ":8887,"ĠíĪ¬ìŁģ":8888,"Ġâĸ·":8889,"ĠíĬ¸ëŀĺ":8890,"íį¼ëŁ°":8891,"ì±Ħê¶Į":8892,"ased":8893,"ìĤ´ìĿĦ":8894,"ĠìķĬìķĺìĬµëĭĪëĭ¤":8895,"Ġì¼ľ":8896,"ìĻĶëįĺ":8897,"ĠíıĲê¸°":8898,"ëĿ¼ìļ´ëĵľ":8899,"Ġë³´ìľłíķľ":8900,"Ġë¶Ģíĥģëĵľë¦½ëĭĪëĭ¤":8901,"Ġë©°ì¹ł":8902,"ĠìĻľëĥĲíķĺë©´":8903,"az":8904,"å¸":8905,"å¹":8906,"ìĤ¬íķľ":8907,"ìĤ¬ë¦¬":8908,"ĠëĮĢë¥Ļ":8909,"ìķĦíĮĮíĬ¸":8910,"ìĦ±ê³µ":8911,"Ġìĭľê¸°ìĹĲ":8912,"Ġìłķì§Ģ":8913,"ê±´ë³µ":8914,"Ġì£¼ìłľ":8915,"ĠëķĮìĿĺ":8916,"ê¸Īì§Ģ":8917,"ëĭ¨ê³¼":8918,"ĠìĦľì´Ī":8919,"ëĭ¹ìĹĲ":8920,"ë²ķìĿĺ":8921,"Ġì§Ħì£¼":8922,"Ġìŀ¬íĺĦ":8923,"Ġê³Ħìĭł":8924,"Ġëħ¸íĽĦ":8925,"Ġì¶ľìŀħ":8926,"ëħ¸ì¡°":8927,"ê²ĥìĿĦ":8928,"Ġë§ŀì§Ģ":8929,"ĠPl":8930,"Ġê³³ìĿ´ëĭ¤":8931,"Ġíĥľê·¸":8932,"Ġ2003":8933,"ï¼¯":8934,"ĠìĤ¬ìĭ¤ìĿ´ëĭ¤":8935,"Ġë°±ìĦ±":8936,"ëł¸ìĬµëĭĪëĭ¤":8937,"Ġì¦Ŀê°ĢíĸĪëĭ¤":8938,"Ġë§īìĿĦ":8939,"Ġì²łíķĻ":8940,"Ġê°Ģê²©ìĿĢ":8941,"Ġìĸ´ëł¤ìļ¸":8942,"Ġëª¸ìĿ´":8943,"ung":8944,"uss":8945,"ê¼¼":8946,"Ġë§Įëĵłëĭ¤":8947,"ìľ¼ë¡ľìĦľìĿĺ":8948,"ĠíĬ¹ì§ķìĿĦ":8949,"Ġìķ¡ìħĺ":8950,"ĠìĪĺìĪłìĿĦ":8951,"åħĭ":8952,"Ġëħ¸ëŀĺë¥¼":8953,"ĠíĥĢìĿ´íĭĢ":8954,"Ġì§Ģíķĺì²ł":8955,"ìĸ´ëĤ¬ëĭ¤":8956,"ĠëĶĶìŀĲìĿ´ëĦĪ":8957,"ĠíĬ¸ìľĦíĦ°":8958,"ĠMLB":8959,"700":8960,"In":8961,"MA":8962,"af":8963,"âĨĴ":8964,"íķ´ë°°":8965,"ìĿ´ë¯Ģë¡ľ":8966,"ìĦľíĶĮëĿ¼ìĿ´":8967,"ìĭľìĻĢ":8968,"Ġìłľìłķ":8969,"ìĨĮìŀ¬":8970,"ëĲĺê²Į":8971,"Ġê´ĢìłĲìĹĲìĦľ":8972,"ëį°ìĿ¼ë¦¬":8973,"ë§Īì¼ĢíĮħ":8974,"ë°©ìĹĲ":8975,"ĠìĦ±ë¦½":8976,"ì¤ĳìĭ¬":8977,"ì°¨ë¡ľ":8978,"Ġì§Ħìłķ":8979,"ĠìĺĪìĸ¸":8980,"ĠëįĶìļ´":8981,"Ġ55":8982,"Ġëĭ¨ìĸ´":8983,"ĠíĻķìĭł":8984,"ĠìĹŃëŁīìĿĦ":8985,"Ġ75":8986,"ëĤ¨ë¶ģ":8987,"Ġì§ĳê³Ħ":8988,"ĠëĨĴìĿ´ê³ł":8989,"Ġìĭ¬ìŀ¥":8990,"Ġâĸł":8991,"ĠíĥľíĴį":8992,"ĠìĿ´íĽĦìĹĲ":8993,"ound":8994,"Ġê°ĪìĪĺë¡Ŀ":8995,"Ġíķĺë£¨ìĿĺ":8996,"ĠíĥĪíĩ´":8997,"ĠëĬ¥ëł¥ìĿ´":8998,"Ġê¸°ë°ĺìĿĺ":8999,"ìĽłëįĺ":9000,"Ġê²ªê³ł":9001,"ìĸ´ëĤ´ëĬĶ":9002,"PGA":9003,"ĠìĤ´íİ´ë³´ë©´":9004,"Ġãħĩ":9005,"rans":9006,"ĠìķĪíĥĢê¹Į":9007,"SS":9008,"bo":9009,"ª¬":9010,"åĮ":9011,"ìĿ¼ìĹĲëĬĶ":9012,"íķ´ì¡Įëĭ¤":9013,"Ġì§Ŀ":9014,"ĠìĿ´ì£¼":9015,"ë¬´ëĮĢ":9016,"ìĸ´ë¦¬":9017,"ìĥģìłľ":9018,"íĥĲ":9019,"ĠâĢĻ":9020,"ĠìĿ¸íķĺ":9021,"Ġìĺ¤íĶ¼ìĬ¤":9022,"ĠìĹ¬ê²¨":9023,"Ġë§Īë¸Ķ":9024,"íķ©ìĿĺ":9025,"Ġë§ĮìĿ¼":9026,"ĠìĻł":9027,"ìĹŃìĿĺ":9028,"Ġê²½ìļ°ë¥¼":9029,"Ġíķłì§Ģ":9030,"ì´¬ìĺģ":9031,"ìĦ¤ìĿĦ":9032,"Ġì°¨ìĿ´ë¥¼":9033,"Ġìĸ´ìļ°":9034,"ĠíķĺëĤĺìĿ¸":9035,"ãĢĮ":9036,"Ġê°ĦìĹĲ":9037,"ìĭľê°ĦìĿĦ":9038,"ĠëģĪ":9039,"ĠìķĦìĿ´ë¥¼":9040,"Ġì¹ĺìķĦ":9041,"Ġíĳľë©´":9042,"ĠìĦľë¹ĦìĬ¤ëĬĶ":9043,"ìĽĢê³¼":9044,"ĠëĴ¤ë¡ľ":9045,"Ġê·¸ëłĩëĭ¤ê³ł":9046,"ĠHD":9047,"ëĥĲëĬĶ":9048,"Ġâĳ£":9049,"Ġìĥīê¹Ķ":9050,"Ġ...[":9051,"Ġë³´ìĹ¬ì¤Ģëĭ¤":9052,"ìīĲ":9053,"ĠìĹŃìĤ¬ìĻĢ":9054,"ĠíĥĪëª¨":9055,"Ġë³´ëĤ´ëĬĶ":9056,"ĠìĦłë¬¼ìĦ¸íĬ¸":9057,"ĠìķĪìłķìłģìĿ¸":9058,"ĠìĿ¸ìĥĿìĿĺ":9059,"ĠìĿ¸íħĮë¦¬ìĸ´":9060,"Watt":9061,"ä¼":9062,"ìĭľìĬ¤":9063,"ĠìĿ´ìĦ±":9064,"ĠëĵĢ":9065,"ìĦ±íĺĦ":9066,"íĻĶìĿ¸":9067,"ìĪĺìĹħ":9068,"Ġì£¼ìŀ¬":9069,"Ġê²½ê¸°ë¥¼":9070,"ì¡°íĬ¸":9071,"ĠëĶľ":9072,"íĥĢìĿ´":9073,"ĠìĭłìĦł":9074,"ĠìĺĪëĬ¥":9075,"Ġê²°ìĬ¹":9076,"Ġë¶Īë¦¬":9077,"Ġê¹ĢìĿ¼":9078,"ĠíĮĮê¸°":9079,"Ġì¶ľìĤ°":9080,"ë²ĪìĹĲ":9081,"ëŀĢíŀĪ":9082,"ĠíĻĺë¶Ī":9083,"ĠìĹħì¢ħ":9084,"Ġëĵ¤ìĸ´ìĺ¤":9085,"ìĸ´ëĤ¸":9086,"ĠìĭĿë¬¼":9087,"2012":9088,"ĠìºĶ":9089,"ĠëĴ¤ì§ĳ":9090,"Ġê²°ê³¼ëĬĶ":9091,"ĠêµŃê°Ģê°Ģ":9092,"Ġêµ¬ìĦ±ëĲĺìĸ´":9093,"ĠëĮĢíķĻìĽĲ":9094,"Ġë¬´ë£ĮìĦ¤ì¹ĺ":9095,"ìħĶëıĦ":9096,"ĠìĹĦê²©":9097,"ĠìĿ´íķ´ê°Ģ":9098,"ĠëĲĺìĸ´ìķ¼":9099,"Ġê³ĦìĨįíķ´ìĦľ":9100,"ìŀ¡ê³ł":9101,"ose":9102,"Ġì£½ìĿĢ":9103,"ĠìĻľê³¡":9104,"ì°¸ê³ł":9105,"Ġì§ģìĽĲëĵ¤ìĿĢ":9106,"ìĬ¤íĨłë¦¬":9107,"ĠíĮĮìĽĮìĦľíĶĮëĿ¼ìĿ´":9108,"ĠëŁ°ëįĺ":9109,"ìĹĲìĿ´ì¹ĺ":9110,"ìĭľì¼°":9111,"ì¤ĺìķ¼":9112,"ĠRFID":9113,"ĠìłĦìĽĲê³µê¸īìŀ¥ì¹ĺ":9114,"ëĮ":9115,"ìŃ":9116,"Ġ_":9117,"ķìĭľì½Ķ":9118,"ê³½":9119,"ĠìĤ¬ë²ķ":9120,"Ġê°ĢëĤľ":9121,"Ġì§Ģë£¨":9122,"êµ¬ë§¤":9123,"ĠìĿ¼ì¢ħìĿĺ":9124,"ì¡°ìĽĲ":9125,"Ġìĺ¤ë©Ķê°Ģ":9126,"ìľĦê¸°":9127,"Ġë¹ĦìłĦ":9128,"ê±°ë¦¬ëĬĶ":9129,"ê²½ëĤ¨":9130,"ìļ´ìĿ´":9131,"ì¦Ĳ":9132,"ìĸĳìĿ´":9133,"ĠìĬ¤íĤ¤":9134,"ìĹŃìĹĲìĦľ":9135,"Ġìĭ¤ë§Ŀ":9136,"Ġìŀ¬íĻľìļ©":9137,"Ġë§¤ëıĦ":9138,"Ġê³Ħê¸°ê°Ģ":9139,"ë°Ķëĭ¥":9140,"ê°ĲìĹĲ":9141,"ĠSU":9142,"ĠSh":9143,"ĠSp":9144,"ì½ĶìĿ¸ìĿ´":9145,"ĠAir":9146,"ìĥīìĿ´":9147,"ìĥīìĿĦ":9148,"ĠìĨĲê°ĢëĿ½":9149,"Ġê²ĢìĤ¬ë¥¼":9150,"Ġëĸ¡":9151,"Ġì§ĦíĸīëĲľëĭ¤":9152,"ëģĪ":9153,"2013":9154,"ï¼£":9155,"Ġíĺĳëł¥ìĿĦ":9156,"Ġëħ¼ë¦¬":9157,"Ġë¹łì§Ħ":9158,"Ġìĸ»ê³ł":9159,"ĠìĿĢíĩ´":9160,"Ġê¸īìĹ¬":9161,"ĠìĿ´íķ´íķĺê³ł":9162,"¶ĢíĦ°":9163,"Ġë¬´ìĹĩìĿ¸ì§Ģ":9164,"ĠìĪĺì¤ĢìĿĦ":9165,"oth":9166,"ĠìķĬìķĦìĦľ":9167,"ëĶ°ëľ»íķľ":9168,"ipt":9169,"ë°ĶìĿ´ìĺ¤":9170,"ĠìłķìĭĿê³µê¸ī":9171,"ãħ¡ãħ¡ãħ¡ãħ¡":9172,"ĠSMPS":9173,"íĮĮìĽĮìĦ¼íĦ°":9174,"ëįĶëĿ¼ê³łìļĶ":9175,"73":9176,"son":9177,"ãĪľ":9178,"ìİĦ":9179,"ê¸°ë§Į":9180,"ĠìĿ´ì§Ģ":9181,"ë³´ëĿ¼":9182,"ìķĦì£¼":9183,"Ġì£¼ìĦ¸ìļĶ":9184,"ë¹Ħë¡ľ":9185,"Ġê³łìĺ¨":9186,"ìĦłìĹĲìĦľ":9187,"ê°ľìĦł":9188,"íķ©ë³ĳ":9189,"ĠìĦłëĳĲ":9190,"Ġë°ĶëĳĳìĿ´":9191,"ĠëĤ´ë¦°":9192,"Ġê±°ìłĪ":9193,"Ġë¬´ìĦ¤ì¹ĺ":9194,"ê¶ĮëıĦ":9195,"Ġíı¬íĨł":9196,"íĮĮìĿ¸":9197,"íĮĮìĿ´ìĸ´":9198,"Ġë¬¼ê±´ìĿĦ":9199,"íĤ¤ìĬ¤íĥĦ":9200,"ĠíĸīëıĻìĿĦ":9201,"Ġë¡ł":9202,"ĠìłĲìĭ¬":9203,"Ġìĭ¬íķľ":9204,"ĠìĹĲìĬ¤":9205,"íĶĮëŁ¬":9206,"ĠìĤ¬íļĮìĹĲ":9207,"ĠìĦ¸ê³Ħìłģìľ¼ë¡ľ":9208,"Ġë³µêµ¬":9209,"ĠìĭĿë³Ħ":9210,"Ġë¡ľë§¨":9211,"ĠìĪľìľĦ":9212,"Ġê¶Įê³ł":9213,"Ġìºĺë¦¬íı¬ëĭĪìķĦ":9214,"ë¡Ģë¥¼":9215,"ë©ĶìĿ´":9216,"ìĤ¬íļĮë³µì§Ģ":9217,"Ġìĸ´ëł¤ìĽĮ":9218,"Ġìĺ¬íķ´ëĬĶ":9219,"Ġê¸°ì¤ĢìĿĦ":9220,"Ġë©´ìłĳ":9221,"ĠíĬ¹ë³ĦíŀĪ":9222,"Ġì¶Ķì§Ħíķĺê³ł":9223,"ìłķë¶Ģê°Ģ":9224,"ëĶ°ëĿ¼":9225,"ĠìĿ¸ìĥĿìĿĦ":9226,"ë²¤ì²ĺ":9227,"Ġì¼ĢìĿ´ë¸Ķ":9228,"ĠìĦ±ëĬ¥ìĿĦ":9229,"Ġë°ĸìľ¼ë¡ľ":9230,"ĠìķĦìĭľìķĪ":9231,"íĨ¨ë¦Ń":9232,"Ġëķ¡íģĲ":9233,"HD":9234,"con":9235,"ëĭ¤ë§Į":9236,"ì§ĢìķĬ":9237,"ë°ı":9238,"Ġëĭ¦":9239,"Ġê°Ģìĭľ":9240,"Ġìĭľìĥģ":9241,"íĻĶìłĲ":9242,"Ġëĭ¤ìĪĺìĿĺ":9243,"íļĮìĤ¬ìĿĺ":9244,"ìļ°ìĪĺ":9245,"ë¹ĦìĻĢ":9246,"ĠìĿ¼íĻĺ":9247,"ĠìĥĿê¸°ëĬĶ":9248,"ĠìĹ°ê·¹":9249,"ìķĺìĿĦ":9250,"ê±´ìĿ´":9251,"ë§¤ìļ°":9252,"ĠíķĦìŀĲìĿĺ":9253,"Ġì§ģë¬´":9254,"ĠCJ":9255,"Ġë³¸ì§Ī":9256,"ë°°ë¥¼":9257,"ãħľ":9258,"ĠìĤ´ìĿ¸":9259,"Ġê°ľìĿ¸ìłģìľ¼ë¡ľ":9260,"Ġíģ¬ëŀĻ":9261,"ì´Īëĵ±íķĻêµĲ":9262,"Ġë³µê·Ģ":9263,"ĠLED":9264,"Ġì±Ħê¶Į":9265,"ĠíĺĦìŀ¬ëĬĶ":9266,"ĠíĶĦë¡ľê·¸ëŀ¨ìĿ´":9267,"Ġê´Ģë¦¬ìŀĲ":9268,"Ġë³´ìĹ¬ì£¼ê³ł":9269,"Ġíļ¨ê³¼ìłģìľ¼ë¡ľ":9270,"ĠìºĲìĭľ":9271,"Ġë°©ìĨ¡ìĿĦ":9272,"ode":9273,"ĠíĥĦíķµ":9274,"ĠíĦ°íĤ¤":9275,"Ġëħ¸ëł¥íķĺê³ł":9276,"ĠíĹ¤ëĵľ":9277,"ê³¼íķĻê¸°ìĪł":9278,"****":9279,"ĠêµŃë¬´ìľĦìĽĲ":9280,"ëĴ¤":9281,"å±±":9282,"ì·Ħ":9283,"OU":9284,"PU":9285,"ning":9286,"ĠĠ":9287,"Ľ¸":9288,"ìĤ¬ìĿ´ë²Ħ":9289,"ìŀ¥ê´Ģ":9290,"ëĤĺê³ł":9291,"Ġíķ´ë°©":9292,"Ġê²ĥëĵ¤ìĿĦ":9293,"Ġë³´ìĿ¸":9294,"Ġì£¼ìĸ´ì§Ħ":9295,"ìĨĮìĨ¡":9296,"Ġì¤ĳìĿĺ":9297,"ê³µê³µ":9298,"Ġê°ľíİ¸":9299,"Ġê³łìĥĿ":9300,"ĠìľłëıĻ":9301,"ĠìĿĺìĽĲìĿ´":9302,"Ġë§Īì¹ľ":9303,"ĠìĹ°ìķł":9304,"Ġë§Ĳê¹Įì§Ģ":9305,"ì¤ĳìĿ´":9306,"Ġê±°ë¡ł":9307,"Ġê±°ë¦¬ìĹĲ":9308,"Ġ43":9309,"ery":9310,"ìĺĢëĬĶëį°":9311,"ì²ŃìĿ´":9312,"Ġíı¬íĬ¸":9313,"Ġíı¬ê´Ħ":9314,"ĠSW":9315,"ĠìĥĿê°ģë³´ëĭ¤":9316,"Ġë³Ģìĭł":9317,"Ġíĺ¸ìĨĮ":9318,"êµ°ìĹĲ":9319,"Ġíķ¨ê»ĺíķĺëĬĶ":9320,"Ġë©ĶìĿ¼":9321,"Ġì§ĢìĹŃìĿĦ":9322,"Ġë³µìĿĮ":9323,"ìµľê³ł":9324,"ĠìĿ´ë²ĪìĹĲëĬĶ":9325,"ìĹĶì§Ħ":9326,"ĠDB":9327,"ĠíĹĪëĿ½":9328,"ĠìĤ¬ê±´ìĿ´":9329,"Ġê²½ìŁģëł¥":9330,"Ġê³µìĹ°ìĿĦ":9331,"Ġìıĺ":9332,"ĠëĬĲëģ¼ê²Į":9333,"ìģĺê²Į":9334,"Ġëĭ¤ìĿ´ìķĦëª¬":9335,"Ġì²Ļì¶Ķ":9336,"Ġì§ĢëĭĪê³ł":9337,")âĢĿ":9338,"iel":9339,"na":9340,"yl":9341,"´ëĭ¤":9342,"Ġat":9343,"ìĿ¸ê°Ħ":9344,"ë°Į":9345,"Ġìľ¨":9346,"ë§Įëªħ":9347,"Ġíķľë°ĺ":9348,"êµŃë¦½":9349,"Ġë³´ìķĺëĭ¤":9350,"ìļ°ì£¼":9351,"Ġê³µë¶Ģë¥¼":9352,"ê²½ë¶ģ":9353,"ĠìĹ¬ìĦ±ìĿ´":9354,"ĠìĥĿìĥĿ":9355,"ìĹ°ìĿ´":9356,"ìĹ°ìĪĺ":9357,"ìĹ°ê¸Ī":9358,"ë¯¼ìĿ´":9359,"ĠëĲĺëıĦë¡Ŀ":9360,"íĨłë¦¬":9361,"ĠìĦ¤ëĵĿ":9362,"Ġì°¨ê°Ģ":9363,"ìľ¡ìĦ±":9364,"ë¹ħ":9365,"ĠíĿĻ":9366,"ener":9367,"ëª©ìĿ´":9368,"ĠíķĦìļĶíķ©ëĭĪëĭ¤":9369,"Ġìĭľìŀĳíķľëĭ¤":9370,"ĠìĿĮì£¼":9371,"Ġì°½ë¦½":9372,"Ġë°ĿíĺĶ":9373,"ĠíĨłëłĮíĬ¸":9374,"Ġê¶Įëł¥":9375,"ĠíĶĮëĿ¼":9376,"ĠìłĪê°Ĳ":9377,"ë¸ĶëŀĻ":9378,"ëĥĲê³ł":9379,"Ġê¸°ìĸµìĿ´":9380,"Ġê³¼ê±°ìĿĺ":9381,"ìĩł":9382,"Ġìķ±ìĿĦ":9383,"Ġê·¸ë¦¬ìĬ¤ëıĦìĿĺ":9384,"Ġë¦¬ëįĶìĭŃ":9385,"ĠìĻĦìłĦíķľ":9386,"Ġì²¨ë¶Ģ":9387,"Ġë©Īì¶Ķ":9388,"ìĩ¼íķĳëª°":9389,"Ġìĸ´ìļ°ëŁ¬":9390,".âĢĻ":9391,"èĢ":9392,"Ġë°Ł":9393,"Ġê²ĥë³´ëĭ¤":9394,"ìĥģê³µ":9395,"ĠìķĦìļ°":9396,"Ġìĭľì¼ľ":9397,"ĠìĭľìĦłìĿĦ":9398,"ĠìĿ¸ìļ©":9399,"ĠìĿ¼íķĺëĬĶ":9400,"ìķ¼ë§Ī":9401,"ì¡°ì¹ĺ":9402,"Ġê°ľì²´":9403,"ĠìĨĮì¤ĳ":9404,"ĠìĨĮíĺķ":9405,"ìĭ¤íŀĪ":9406,"ì¦ī":9407,"íĨµê³Ħ":9408,"ĠìĦ±ëıĦ":9409,"ink":9410,"ìķĺìĸ´ìļĶ":9411,"ĠìĤ¬ìļ©íķĺì§Ģ":9412,"Ġì°¨ë¡ľ":9413,"ëĶĶë¸Į":9414,"íĥľë¥¼":9415,"ĠíĶ¼ìī¬":9416,"ë°°íĮħ":9417,"Ġê°ĢëĬ¥íķĺë©°":9418,"ìĸ¸ë¡ł":9419,"Ġìłķë³´ëĬĶ":9420,"ĠíķŃìĨĮ":9421,"Ġê°ĸê²Į":9422,"ash":9423,"Ġê¸°ëĮĢëĲľëĭ¤":9424,"ìºĶ":9425,"Ġì¹ľêµ¬ê°Ģ":9426,"Ġì§Ģë°©ìŀĲì¹ĺ":9427,"ìĦľë¹ĦìĬ¤ë¥¼":9428,"Ġìļ°ë¦¬ëĤĺëĿ¼ìĿĺ":9429,"Ġìĸ¼êµ´ìĿĦ":9430,"Ġíķľê¸ĢíĮĲ":9431,"Ġê¹¨ëģĹíķĺê³ł":9432,"ĠíĹ¬ìĬ¤":9433,"Ġë§ĪìĿ´íģ¬ë¡ľìĨĮíĶĦíĬ¸":9434,"91":9435,"AP":9436,"ì¨":9437,"Ġëº":9438,"ì§Ģë¶Ģ":9439,"Ġíķľê³Ħê°Ģ":9440,"Ġìłľíľ´":9441,"ĠìĿ¸íĦ´":9442,"ĠìľĦìĿĺ":9443,"Ġê³µìĿ¸":9444,"Ġê³łìłĦ":9445,"êµĲë¥ĺ":9446,"ìĥĿìĿĺ":9447,"ĠìĿĺë¥ĺ":9448,"ìĹ°ìĿĺ":9449,"Ġë°©íķ´":9450,"íĨµìĿĦ":9451,"Ġìĺģêµ¬":9452,"ĠëıĦëª¨":9453,"ĠìĦ±ì·¨":9454,"ë¥´íĥĢ":9455,"ĠíĺĦìĥģìĿ´":9456,"Ġë§¤ìŀ¥":9457,"Ġìĸ´ë¥´":9458,"ê·¼ë¡ľ":9459,"ĠíĶ¼ë§Ŀ":9460,"Ġë³Ģíĺķ":9461,"Ġì¢ħìĤ¬":9462,"Ġê¸Īê°ķ":9463,"Ġëĵ¤ìĸ´ê°ĢëĬĶ":9464,"Ġë¡ľë§Ī":9465,"Ġê±¸ëł¤":9466,"ĠìĥģíĻ©ìĿ´ëĭ¤":9467,"ĠìĤ¬ëŀĳìĿĺ":9468,"Ġê¸°ë¡Ŀíķľ":9469,"Ġë¬¸íĻĶìŀ¬":9470,"ëıĮìĿ´":9471,"ì§ĢìĹŃìĿĺ":9472,"ĠìķĦë¬´ê²ĥëıĦ":9473,"Ġë§¡ìĿĢ":9474,"Ġíĭ°ì¼ĵ":9475,"ĠëĩĮë¬¼":9476,"Ġì°¨ì§ĢíķĺëĬĶ":9477,"Ġìıł":9478,"ĠìĬ¤íĬ¸ëłĪìĬ¤":9479,"Ġë´Ĳìķ¼":9480,"íķ´ë³¼":9481,"></":9482,"ĠISO":9483,"ĠíĶĦë¡ľê·¸ëŀĺë°į":9484,"Shell":9485,"pen":9486,"è¿":9487,"ìĮĢ":9488,"Ġed":9489,"Ġem":9490,"íķĺëĬĺ":9491,"´ëĤ":9492,"ëĿ¼ìĿĺ":9493,"íĺĶëĭ¤":9494,"Ġë¶ĵ":9495,"Ġê°Ģì§ĢëĬĶ":9496,"ìłĦêµŃ":9497,"íļĮë¡ľ":9498,"ìĹ¬ëŁ¬":9499,"ĠìĿ¼ê´Ģ":9500,"ĠìĿ¼ìłķíķľ":9501,"Ġê³łìĦ±":9502,"ë¶ĦìĿĢ":9503,"ĠìĹ¬ë¶Ģ":9504,"Ġë§ĲëıĦ":9505,"ĠìĦ¸ë¬´":9506,"ĠìĦ¸ëł¨":9507,"âĢĿ(":9508,"ĠëĤ´ë¦¬":9509,"Ġ5000":9510,"ĠíļĮê³Ħ":9511,"Ġë¶Īë§Į":9512,"Ġê³Ħìĭľ":9513,"ĠíķłìķĦë²Ħ":9514,"Ġê¹Ģê²½":9515,"ìĦ¤ê³Ħ":9516,"Ġëĭ¨ê¸°":9517,"ĠìĤ¬ìļ©ìŀĲìĿĺ":9518,"Ġì´Īëĵ±":9519,"ĠìĨįëıĦë¥¼":9520,"Ġschool":9521,"Ġìĭľê°Ħê³¼":9522,"ĠìŀĦëªħ":9523,"ĠíĬ¸ëłĪ":9524,"ĠëĤ´ìļ©ê³¼":9525,"ĠíĹĪëĭĪ":9526,"ë©Ķë¦¬ì¹´":9527,"ĠìĺģíĻĶìĿĺ":9528,"oll":9529,"Ġë§Ľì§ĳ":9530,"ĠìĤ¬íķŃìĿĢ":9531,"Ġê¸´ê¸ī":9532,"Ġì°¸ìĦĿíķ´":9533,"ĠìĦ¬ìľł":9534,"Ġone":9535,"ĠìķĦë¬´ëŀĺëıĦ":9536,"Ġpackage":9537,"ĠëŁ°ëĭĿë§¨":9538,"TO":9539,"ê°¤":9540,"Ġìŀİ":9541,"ìĬĺ":9542,"ìĺ·":9543,"ìłľìĿ¼":9544,"Ġìĭľê¸ī":9545,"Ġìĭľëĭ¬":9546,"ìłĦì§Ģ":9547,"ë¬¸ìłĲ":9548,"ìļ°ë¦¬ê°Ģ":9549,"Ġëª¨ìŀĲ":9550,"ëĲĺê¸°ëıĦ":9551,"Ġë²¼":9552,"ìĦ¸ë¡ľ":9553,"ĠíĮ©":9554,"Ġìľłìļ©":9555,"ĠìĭłìĦłíķľ":9556,"ĠëıĻìĭľ":9557,"ĠìĬ¤ì¼Ģ":9558,"íĴĪìĿ´":9559,"ëłĪë¸Ĳ":9560,"ìĨįìĹĲìĦľ":9561,"Ġëħ¸ëł¥ìĿ´":9562,"Ġëħ¸ë¦¬íĦ°":9563,"íĺĦìĭ¤":9564,"Ġter":9565,"ĠíĻķë¥ł":9566,"arr":9567,"Ġë¦¬ë·°":9568,"ĠìĦľë¹ĦìĬ¤ìĹĲ":9569,"Ġë²Īíĺ¸":9570,"ĠíĻķìĿ¸íķĺê³ł":9571,"Ġëª¨ìĬµìĿĢ":9572,"Ġê°Ģê²©ìĿĦ":9573,"Ġê°Ģì¡±ìĿ´":9574,"Ġì¢ĭìķĦìļĶ":9575,"Ġë§ĲìĶĢìĿ´":9576,"Ġìĭłì²ŃìĿĦ":9577,"ì¤¬ëĭ¤":9578,"ì§ĢëĤľíķ´":9579,"Ġë¶Ģëĭ´ìĿĦ":9580,"Ġê¶ģê·¹":9581,"Ġì°¨ì§ĢíĸĪëĭ¤":9582,"ĠìµľìĨĮíķľìĿĺ":9583,"Ġdev":9584,"Ġì¡°ê±´ìĿĦ":9585,"Ġê³¨ëĵľì½ĶìĿ¸":9586,"Ġì²Ńìķ½ì²ł":9587,"Ġíķ©ë¦¬ìłģìĿ¸":9588,"Ġíķľë§ĪëĶĶ":9589,"ĠìĦ¸ìĿ´ë¸ĮíĮĮìĿ¼":9590,"gl":9591,"Ã³":9592,"ĥĪ":9593,"ê³±":9594,"íķľëį°":9595,"Ġê²ī":9596,"ëĤ©ëĭĪëĭ¤":9597,"ìĿ¸ìĤ¬":9598,"ìľ¼ìĭł":9599,"ìĬ¤íħĶ":9600,"ĠìŀĪê±°ëĤĺ":9601,"Ġê·¸ëĵ¤ìĿĦ":9602,"ë¶Ģëĭ´":9603,"Ġì§Ģë¦¬":9604,"ĠìłĦíĮĮ":9605,"ĠìĭľìĪł":9606,"Ġëĭ¤ì§Ĳ":9607,"ìĽĶíķľ":9608,"Ġê²½ë¡ľ":9609,"ê¹ĥ":9610,"Ġìĥģìĭ¤":9611,"Ġê³łê¸°":9612,"Ġë¹Ħë°Ķ":9613,"Ġë§Īìĭľ":9614,"ìľłê³µ":9615,"ë°©íĸ¥":9616,"ĠíĬľ":9617,"Ġë§İì§Ģ":9618,"ĠíĺĦìŀ¥ìĹĲ":9619,"ìķĺëĭ¤ê³ł":9620,"Ġíı¬ì»¤":9621,"ĠíķĺëĤĺë¥¼":9622,"ĠìĥĿê°ģìĹĲ":9623,"Ġíĺ¸íĶĦ":9624,"ëŀĢëĵľ":9625,"Ġë¦¬ìĦľì¹ĺ":9626,"ĠëĨĴìĿ´ëĬĶ":9627,"ë°ķë¬¼ê´Ģ":9628,"Ġì½Ķìĸ´":9629,"ĠíĥĢìŀħ":9630,"Ġíĥľìĸ´ëĤľ":9631,"Ġdes":9632,"Ġ09":9633,"Ġweb":9634,"Ġë¨¸ë¦¬ë¥¼":9635,"´ë°ĺ":9636,"Ġì¤Ģë¹Ħíķĺê³ł":9637,"Ġëª°ëł¤":9638,"íķ´ëĲ":9639,"íģ´ë¦¬":9640,"ĠìľĦíĹĺìĿ´":9641,"Ġthis":9642,"ĠëģĮê³ł":9643,"Ġê³§ë°Ķë¡ľ":9644,"Ġì¹¼ëŁ¼":9645,"ĠìĪłìĿĦ":9646,"ize":9647,"ĠìĬ¤íİĺìĿ´ìĬ¤":9648,"rome":9649,"ĠìĿ´ë¥´ê¸°ê¹Įì§Ģ":9650,"MS":9651,"ë¡ľìį¨":9652,"ë§ĺ":9653,"ë³ĢìĿ´":9654,"Ġìĺ¹":9655,"ĠìĤ¬ëª¨":9656,"ĠëĮĢìĻ¸":9657,"ëį¥":9658,"Ġì§ĢìĿĮ":9659,"Ġëĭ¤ë¥¼":9660,"ìķ¼êµ¬":9661,"ëŁ¬ëĭĿ":9662,"Ġìĥģìŀ¥":9663,"Ġìĺ¤ë¸Į":9664,"ìľĦìĻĢ":9665,"ĠìĦľêµ¬":9666,"ëĭ¹ìĹĲìĦľ":9667,"ĠêµŃê²½":9668,"ĠìĦ¸ìĥģìĿĺ":9669,"ĠìķĪëħķ":9670,"ë°©ìĿ´":9671,"ĠêµĲìłķ":9672,"ĠëįĶíķ´":9673,"ëĶ±":9674,"Ġ57":9675,"ĠíļĮìŀ¥ìĿĺ":9676,"ì§ģìĹħ":9677,"ĠìĦ¤ë¬¸":9678,"Ġëĵ¤ë©´":9679,"ì§Īëŀľëĵľ":9680,"Ġì°¨ìĦ¸ëĮĢ":9681,"ĠíķĺëĤĺíķĺëĤĺ":9682,"ath":9683,"íĶ¼ë¶Ģ":9684,"ëª©ìľ¼ë¡ľ":9685,"ì¦ĪëĬĶ":9686,"ì¦Īë¥¼":9687,"Ġë²ķì¹Ļ":9688,"ĠìĿĮë£Į":9689,"ĠìĿĮë°ĺ":9690,"ics":9691,"íıīìĿĦ":9692,"ĠëĨįíĺĳ":9693,"ë¨¸ìĭł":9694,"ĠíķĻìĥĿëĵ¤ìĿĢ":9695,"Ġìĸ»ìĸ´":9696,"ĠëĮĢíķĻìĿĺ":9697,"ĠìŀłìĿĦ":9698,"ĠìĿ´ë£¨ìĸ´ì§Ħ":9699,"Ġì£¼ë³ĢìĿĺ":9700,"ĠëĤĺëĿ¼ìĿĺ":9701,"ë¥´ëª¬":9702,"íķ´ë³´íĹĺ":9703,"Ġëĵ£ëĬĶ":9704,"Ġê³¼íķĻê¸°ìĪł":9705,"ĠìĿ´ë£¨ëĬĶ":9706,"ê±´ê°ķë³´íĹĺ":9707,"Ġë®¤ì§ģ":9708,"ìĺµëĭĪëĭ¤":9709,"Ġêº¾":9710,");":9711,".âĸ²":9712,"83":9713,"EA":9714,"ck":9715,"¥¬":9716,"Ġãħłãħł":9717,"ìĿ´ëĵł":9718,"íķĺëĿ¼ê³ł":9719,"ê³łíķľ":9720,"Ġìķĵ":9721,"âĢĶ":9722,"ĠëĮĢìĹ¬":9723,"Ġê°Ģë²¼":9724,"ë©´ìłģ":9725,"Ġìĥģë°ĺê¸°":9726,"ĠìľłìłĦ":9727,"ë§Īê°Ģ":9728,"ĠìĿĺì§Ģ":9729,"ê¸Īê³¼":9730,"ìĹ°íķľ":9731,"ĠìĭłìĦ¤":9732,"ĠëĲĺë©°":9733,"ìŀĳìĿĢ":9734,"íĳľê°Ģ":9735,"ëłĪìĿ´íĬ¸":9736,"ĠìĤ¬ëŀĮëĵ¤ê³¼":9737,"ìĨįìĿĦ":9738,"ĠìłĢìĿĺ":9739,"ĠìķĮê¸°":9740,"Ġìŀ¬ë°Į":9741,"Ġë§¤ì²´":9742,"Ġíı¬ìĬ¤íĬ¸":9743,"Ġê³Ħì¸µ":9744,"Ġ64":9745,"ĠâĨĴ":9746,"Ġë¬¼ëŁ¬":9747,"ĠíĮĮëŀĳ":9748,"ĠìĥĿê°ģíķł":9749,"Ġëĭ¬ìķĦ":9750,"ĠìĿ´ëŁ¬":9751,"ĠìĨįìĹĲìĦľëıĦ":9752,"Ġcan":9753,"ĠíĨ¤":9754,"ìĪľìĭ¤":9755,"ĠìĤ°ìĹħìĿĺ":9756,"ĠëŃĺ":9757,"Ġê³µê°ľíĸĪëĭ¤":9758,"ĠìĽĮíĦ°":9759,"Ġê·ľëª¨ê°Ģ":9760,"ĠìłķìĭłìĿĦ":9761,"ĠìľĦìĽĲìŀ¥ìĿ´":9762,"Ġï½":9763,"Ġê²©ëł¤":9764,"Ġìĭłë¢°ë¥¼":9765,"ĠëĤ©ë¶Ģ":9766,"ë§Įìľ¼ë¡ľëıĦ":9767,"ĠìĬ¤íĨłë¦¬":9768,"ĠëĵľëĿ¼ìĿ´ë¸Į":9769,"Ġë¬´ëį¤":9770,"ë¹Ħë¹Ħì¶Ķ":9771,"go":9772,"ìı":9773,"ìĬĲ":9774,"ê¸°ìĤ¬":9775,"ìłķê·ľ":9776,"ëĤĺìĿ´":9777,"íĥ±":9778,"ë²³":9779,"ìĦ¸ëĬĶ":9780,"ĠìĦľëªħ":9781,"Ġíķ´ìłľ":9782,"Ġë¯¸ë§Į":9783,"ìĸĳìĿĺ":9784,"ĠìĺģìĽħ":9785,"íĤ´":9786,"ëª¨ì§ĳ":9787,"íĨłë¡ł":9788,"ĠìĤ¬ìļ©ìĿĦ":9789,"ë§¤ìĿ¼":9790,"Ġë°°ìļ¸":9791,"Ġëĭ¹ìĿ¼":9792,"íĭ°ìĬ¤":9793,"íķ¨ìľ¼ë¡ľ":9794,"ëįĶë¦¬ìĽĢ":9795,"ìĻ¸ê³¼":9796,"Ġìłľê³µíķĺê¸°":9797,"Ġì½Ķì½ĶíĮĢ":9798,"icro":9799,"ĠìĦľìļ¸ëĮĢ":9800,"ìķ¡ìĿĺ":9801,"Ġì»¤ì§Ģê³ł":9802,"ë¨¸ìĬ¤":9803,"ĠëĬĺê³ł":9804,"Ġêµ°ì£¼":9805,"ĠNext":9806,"ëĨįëĭ¨":9807,"ĠìĿ´ë¦ĦìĿĢ":9808,"Ġê¸°ëĮĢë¥¼":9809,"Ġëª°ëĶĶë¸Į":9810,"ë¨¼ìłĢ":9811,"ĠëĥĪëĭ¤":9812,"ĠíĴĢìĸ´":9813,"ction":9814,"Ġì¿łíı°":9815,"ĠìĿ¼ìĸ´ëĤĺì§Ģ":9816,"Ġê¼¬ê¼¬":9817,"ĠëĳĺëŁ¬ìĭ¼":9818,"Ġë²łìĿ´ì§ķ":9819,"ĠìĺĽëĤł":9820,"IGER":9821,"Ġê¹ľì§Ŀ":9822,"echnolog":9823,"¶Ī":9824,"éĿ":9825,"ìĿ´ìĹĪìĬµëĭĪëĭ¤":9826,"ëĬ¦":9827,"ìŀĩ":9828,"íķĺëįĶëĿ¼ëıĦ":9829,"ìĿĺëıĦ":9830,"ê°ĢìĻĢ":9831,"ìŀĲê³ł":9832,"ìŀĲë¡ľìĦľ":9833,"ĠìłĦíĽĦ":9834,"ëĵľëĭĪ":9835,"Ġì£¼ë¥ĺ":9836,"ĠìľĦì¹ĺë¥¼":9837,"ê³ĦìĤ°":9838,"Ġì¤ĳìĹĲìĦľëıĦ":9839,"Ġíı¼":9840,"Ġë¶ĢëģĦ":9841,"Ġê³łê°ľë¥¼":9842,"ìľĦì¹ĺ":9843,"ìļ´ìłĦ":9844,"ĠìĹĨìķł":9845,"Ġë§ĪëĿ¼":9846,"Ġë§ĪìĬ¤íģ¬":9847,"ĠìĥĿëªħìĿĺ":9848,"ĠìĹ°ë´ī":9849,"ĠíĨµìĥģ":9850,"Ġíķ´ìĥģ":9851,"ëĦĵ":9852,"ĠëıĻë¶ģ":9853,"ìĸĳìĿĦ":9854,"íĴĪì§Ī":9855,"ì¤ĳìĿĺ":9856,"íģ¬ë¡ľ":9857,"Ġê°ķìĿĺë¥¼":9858,"ë°ľìĿĦ":9859,"Ġë¬´ìĸ¸":9860,"ĠíıīíĥĿ":9861,"ĠìļĶìĨĮë¥¼":9862,"ì½Ķëĵľ":9863,"atch":9864,"ìĺĪìĤ°":9865,"ĠMC":9866,"ĠICT":9867,"Ġë¶ģë¶Ģ":9868,"Ġì§Ħíĸīíķł":9869,"ëĬĲëĭĪëĿ¼":9870,"ĠíĬ¸ëŀľ":9871,"ĠíħĶ":9872,"ĠëĦĺê²Į":9873,"ĠíĶĮëĿ¼ìĿ´":9874,"Ġíľł":9875,"ĠíĶĦë¡ľê·¸ëŀ¨ìĹĲ":9876,"ĠíĶĦë¡ľê·¸ëŀ¨ìĿĢ":9877,"Ġmeth":9878,"old":9879,"Ġì¦Ŀê°Ģíķľ":9880,"Ġì²łëıĦ":9881,"ĠìĿĳê¸ī":9882,"Ġíļ¨ê³¼ìłģìĿ¸":9883,"Ġì§Ģë°©ìĦłê±°":9884,"ĠìłĦìŀĲìĥģê±°ëŀĺ":9885,"ëĲĲê³ł":9886,"ĠìĨĶì§ģ":9887,"ĠìłĦëŀµìĿĦ":9888,"ĠëĦ£ê³ł":9889,"ĠìĤ¬ë¡Ģë¥¼":9890,"ãģ¥":9891,"ëĦ¤íĬ¸ìĽĮíģ¬íĨłíģ°":9892,"ĠìĪĺìĪĺë£Į":9893,"Ġë¯¸ìĦ¸ë¨¼ì§Ģ":9894,"Ġê¼¼ê¼¼":9895,"Ġìĸ´ëĳĲìļ´":9896,"72":9897,"vid":9898,"Ġëŀĺ":9899,"ìĿĺê°Ģ":9900,"ë¡ľì§Ģ":9901,"ìĿ¼ëŀľëĵľ":9902,"ìĥ·":9903,"ĠìŀĪê²łì§Ģë§Į":9904,"ê²ĮëıĦ":9905,"Ġê¸°ì¶ľ":9906,"Ġì§Ģìĭľ":9907,"ĠìķĦëģ¼":9908,"ë³´ê°Ģ":9909,"ĠìłķìĽĲ":9910,"ëħĦì§¸":9911,"ĠëĤĺê°ĢëĬĶ":9912,"Ġëª¨ë¥´ê³ł":9913,"Ġê³µìĿĦ":9914,"ìĺģìĿĺ":9915,"ë¯¸ëĬĶ":9916,"ë¯¸ìĦ¸":9917,"Ġê°ķìĹ°":9918,"ĠìķĮë¦¬":9919,"Ġë§¤ìĪĺ":9920,"ëł¨ìĿĺ":9921,"Ġë°°ìłķ":9922,"ĠìĹŃìĤ¬ê°Ģ":9923,"orld":9924,"ëĭ¬ëĿ¼ê³ł":9925,"Ġë³ĢëıĻ":9926,"Ġëª»íĸĪëįĺ":9927,"Ġì´ĪìłĲìĿĦ":9928,"ĠìĨĲíķ´ë°°":9929,"ĠëĪĪìľ¼ë¡ľ":9930,"íĮħìĿĦ":9931,"ĠKore":9932,"ĠëĦ¤ìŀĦ":9933,"Ġëĭ¤ìĿĮìĹĲ":9934,"Ġê°ĸì¶°":9935,"ĠíħĮíģ¬":9936,"ĠìķĪìłĦíķĺê²Į":9937,"Ġì²łíļĮ":9938,"ĠìłĦì²´ë¥¼":9939,"Ġê·¹ìŀ¥":9940,"und":9941,"íķ´ëĤĺ":9942,"ĠìĬ¬ëĿ¼ìĿ´":9943,"ĠëķħìĿĦ":9944,"ĠìłĦíĻĶë²Īíĺ¸":9945,"ëłīìħĺ":9946,"Ġë§¥ëĿ½":9947,"ĠìĮĵìķĦ":9948,"ìĭľíĤ¨ëĭ¤":9949,"ĠìķłëĭĪíĮ¡":9950,"åľ°":9951,"Ġì¹ľìłĪíķĺê³ł":9952,"cript":9953,"ëĭ¤ë³´ëĭĪ":9954,"ê¸°ë¶Ģ":9955,"ĠëĤ«":9956,"Ġê·¸ê±´":9957,"ìŀ¥ìĿ¸":9958,"Ġê°ĢëıĻ":9959,"Ġê²ĥìĿ¸":9960,"ì£¼ìĸ¼":9961,"ëĵľë¦¬ê³ł":9962,"ìĭłìļ©":9963,"ì§Ħê³¼":9964,"ì¡°ìĤ¬ë¥¼":9965,"ì²´ìĿ¸íĬ¸":9966,"ìĭ¤ìĬµ":9967,"ìľłë¡ľ":9968,"Ġìĭłë¶Ħ":9969,"Ġêµ¬ë¡ľ":9970,"Ġíķ´ì£¼ëĬĶ":9971,"Ġë°©ìĤ¬":9972,"ĠëıĻë¶Ģ":9973,"ĠëıĦëĦĲëĵľ":9974,"ĠìĦ±ìĪĻ":9975,"Ġì§ĦëıĻ":9976,"ĠìĺĪìģľ":9977,"Ġ58":9978,"íı¬ë¨¼":9979,"ĠìķĮì§Ģ":9980,"ë¶ĢíĦ°ëĬĶ":9981,"Ġíķłë°°":9982,"ëĵ±ìĿ´":9983,"ĠíĻĶê°Ģ":9984,"Ġë¯¸êµŃìĹĲìĦľ":9985,"ĠìĤ¬íļĮë¥¼":9986,"ëĬĲëĿ¼":9987,"Ġë¯¼ìĽĲ":9988,"ìĪľíĻĺ":9989,"ĠíĮ¨ëŁ¬":9990,"ĠìłĦì²´ìłģìľ¼ë¡ľ":9991,"Ġë°©ë¬¸íķľ":9992,".âĢĿâĢľ":9993,"ĠìĤ´ìķĦëĤ¨":9994,"ìłķë¶ĢìĿĺ":9995,"Ġë°°ìļ°ê³ł":9996,"ĠíĽĦë³´ëĬĶ":9997,"ĠëĤĺëĿ¼ë¥¼":9998,"ĠìķķëıĦ":9999,"ĠíĹ¤ìĸ´":10000,"Ġìŀ¬ë¯¸ìŀĪëĬĶ":10001,"ĠëĬĲëģ¼ê³ł":10002,"íħįìĬ¤":10003,"Ġass":10004,"Ġë¿Įë¦¬":10005,"Ġë°Ķê¿Ģ":10006,"ĠëıķëĬĶ":10007,"Ġìĭ«ìĸ´":10008,"Ġï¿½?":10009,"ì½ĶìĿ¸ìĿ´ëįĶë¦¬ìĽĢ":10010,"KB":10011,"duct":10012,"mart":10013,"©¬":10014,"å¾":10015,"íī":10016,"Ġ!":10017,"ê°ĸ":10018,"ê°ĢìĿĦ":10019,"Ġê³±":10020,"Ġê²ĥë§Į":10021,"Ġíķľê°Ģ":10022,"Ġíķľì¸µ":10023,"íĻĶìŀ¬":10024,"Ġëĭ¤íģĲ":10025,"ĠíĻĢë¡ľ":10026,"ĠìŀĲëĿ¼":10027,"ĠìĿ¼ëıĦ":10028,"Ġë¹ĦìŀĲ":10029,"ì²´ìłľ":10030,"ìĭ¤íĹĺ":10031,"Ġì¡°ì§Ģ":10032,"Ġë°ĶëĭĪ":10033,"Ġë°ĶëĭĲëĿ¼":10034,"Ġêµ¬ë©į":10035,"íĹ¥":10036,"ĠìĦ¸ìļ´":10037,"ë²ķëł¹":10038,"ĠêµĲíļĮìĿĺ":10039,"Ġ46":10040,"ĠíĺĦìŀ¥ìĿĦ":10041,"íı¬ë¥¼":10042,"Ġë§¤íĬ¸":10043,"Ġë§¤ê°ľ":10044,"Ġëħ¸ë¬´íĺĦ":10045,"Ġíķ©ë¥ĺ":10046,"ĠíĻĶìĿ¸":10047,"Ġê°Ħëĭ¤":10048,"Ġ1980":10049,"Ġë¬¸ìłľìĿĺ":10050,"ìĺĪë°©":10051,"ĠíĮĲì§Ģ":10052,"Ġê¸ĪìĨį":10053,"Ġìķŀìŀ¥":10054,"ĠTIGER":10055,"ì¡Įëįĺ":10056,"ëłĪìĿ´ìĬ¤":10057,"ĠëĮĢíĳľê°Ģ":10058,"ĠíĬ¸ëŀĻ":10059,"ï¼ĳ":10060,"Ġê¶Įìŀ¥":10061,"Ġìļ©ìĿ¸":10062,"ê¸Ģë¦¬":10063,"ĠìŀĪìĿĦì§Ģ":10064,"ĠìĿ¸íĦ°íİĺìĿ´ìĬ¤":10065,"Ġë¨¸ìĭł":10066,"ĠìĤ°ìĹħíĺģëªħ":10067,"Ġëª°ìķĦ":10068,"Ġë©´ìĹŃ":10069,"Ġê¸°ê°ĦìĹĲ":10070,"Ġë³ĢíĻĶìĹĲ":10071,"ĠìķĬìķĺì§Ģë§Į":10072,"ĠìķĬìķĺëįĺ":10073,"Ġë¯¸ëŀĺìĿĺ":10074,"Ġë¯¿ìĿĮ":10075,"ìłķë¶ĢëĬĶ":10076,"ĠìĪĻìĨĮ":10077,"ê¸°ê°ĦìĿ´":10078,"ĠíķĺìĹ¬ìķ¼":10079,"ĠëĬ¦ê²Į":10080,"ĠëĮĢì²´ë¡ľ":10081,"TAG":10082,"Ġìľłê¸°ëĨį":10083,"Ġì³Ĳ":10084,"ĠCCTV":10085,"ĉĉ":10086,"ŀĮ":10087,"ê³łìļĶ":10088,"ê°Ģìŀ¥":10089,"ĠìĹ½":10090,"ĠìĿ´ìĬ¬":10091,"ìĥĺ":10092,"ê³¼ìłķìĿĦ":10093,"ĠìĪĺë£Į":10094,"ĠìľĮ":10095,"Ġíķĺë°ĺê¸°":10096,"Ġê°Ģê¸°":10097,"Ġê°Ģì£½":10098,"ìķĦëĬĶ":10099,"Ġíķľì°¸":10100,"ĠìĭľëĤĺ":10101,"Ġë³´ìĦ¸ìļĶ":10102,"Ġì£¼ê°Ģ":10103,"ìļ°ê¸°":10104,"Ġê³µìĽĲ":10105,"Ġ337":10106,"Ġìļ°íİ¸":10107,"Ġê¸ĢìĿ´":10108,"ĠëıĻìĺģ":10109,"ë²ķìľ¼ë¡ľ":10110,"ì°¨ìĹĲ":10111,"íĶĦëĬĶ":10112,"íı¬ìŀ¥":10113,"ĠìĤ¬ìļ©íķĺë©´":10114,"ĠìķĦìĿ´ëĶĶ":10115,"ĠìŀĲìĭłëĵ¤ìĿĺ":10116,"Ġíģ¬ë¡ľ":10117,"Ġë¬´ëłµ":10118,"250":10119,"Ġìłĳëª©":10120,"ĠìłĪìķ½":10121,"Ġdis":10122,"ë¸Ķë¦¿":10123,"ë©ĶìĿ¸":10124,"Ġê·¸ëłĩì§Ģë§Į":10125,"ĠìĿ´íķ´ë¥¼":10126,"ĠìĶ»":10127,"ĠìµľëĮĢìĿĺ":10128,"ĠìĿĮìĭĿìĿĢ":10129,"Ġíľ´ê°Ģ":10130,"ìĭ±íĦ´":10131,"ĠëĤĺëĪĦìĸ´":10132,"ĠìĪĺìļĶê°Ģ":10133,"ëĸ¡":10134,"ë´Ĳìķ¼":10135,"ëıĦìĦľê´Ģ":10136,"ħìĬ¤íħĲ":10137,"ĠìĦľìĦľíŀĪ":10138,"Prev":10139,"TX":10140,"te":10141,"ìĿ´ë¯¸":10142,"ê°ĢëŁī":10143,"Ġê²¹":10144,"ĠìĿ´ìĪĺ":10145,"íķłì§Ģ":10146,"ĠìĿ¸ìĥģìĿĦ":10147,"Ġëĵ±ìĤ°":10148,"Ġì²´ëł¥":10149,"ĠëĤĺìĿ´ê°Ģ":10150,"ê³µìłķ":10151,"ë£°":10152,"ĠìĿĺìĤ¬ë¥¼":10153,"ĠìĥĿê²¼":10154,"ìķĪë³´":10155,"ë¯¸ëĭĪ":10156,"Ġêµ¬ë³Ħ":10157,"íĶĦê°Ģ":10158,"Ġ59":10159,"Ġë§¤ëł¥ìĿĦ":10160,"Ġíı¬íĦ¸":10161,"ĠìĿ´ìļ©ìŀĲëĬĶ":10162,"ìĻ¸êµŃ":10163,"ĠíĻĶíıĲ":10164,"Ġê°Ħì£¼":10165,"ĠíķĦìļĶíķĺëĭ¤ê³ł":10166,"Ġì²ĺëŁ¼":10167,"Ġì²Ńì£¼":10168,"Ġì²ŃìĤ°":10169,"ĠìķĦìĿ´ìĿĺ":10170,"ĠìĭľìŀĳíķĺëĬĶ":10171,"ĠìĨĲìľ¼ë¡ľ":10172,"ĠìĤ¬ìĹħìĹĲ":10173,"Ġíĺĳìķ½":10174,"ĠëĤĺíĥĢëĤ´ëĬĶ":10175,"enter":10176,"ìĦ¼íĦ°ëĬĶ":10177,"ĠìĿ´ë£¬":10178,"ê²Ģì°°":10179,"ĠìķĮëł¤ì£¼":10180,"Ġê³¼ìłķìĹĲ":10181,"ĠìĪĺëıĦê¶Į":10182,"ement":10183,"ĠíĶ¼íķ´ìŀĲ":10184,"Ġëħ¸ëıĻìŀĲ":10185,"ĠëĽ°ìĸ´":10186,"ê°ĢëĬ¥íķľ":10187,"ĠìĿĺê²¬ìĿ´":10188,"Ġì£ĦìĨ¡":10189,"Ġëª©ìĨĮë¦¬":10190,"íķ´ë³´ë©´":10191,"Ġê¸Īìķ¡ìĿĦ":10192,"ëĵ±ë¡Ŀë²Īíĺ¸":10193,"Ġëĺĳê°ĻìĿĢ":10194,"Ġì¶Ķêµ¬íķĺëĬĶ":10195,"ĠUniversal":10196,"5000":10197,"vent":10198,"¦ģ":10199,"¨ëĭ¤":10200,"µì»¤":10201,"ìĿ´ë©´ìĦľ":10202,"Ġê°±ìĭł":10203,"ìĽį":10204,"ĠìĹ¿":10205,"ìĭľê¹Įì§Ģ":10206,"Ġëĭ¥":10207,"ê³¼ëıĦ":10208,"ĠìĪĺëĤ©":10209,"Ġê·¸ìĻĢ":10210,"Ġê°ĢìĨį":10211,"íļĮìĻĢ":10212,"ìĽĶìĹĲëĬĶ":10213,"íĦ°ëĬĶ":10214,"ìĭłê²½":10215,"ĠìĿ¼ëłĪë¸Ĳ":10216,"Ġì¤ĳì§Ģ":10217,"ĠíĮģ":10218,"ìŀ¬ìĿĺ":10219,"ĠìĽħ":10220,"Ġë§Īë¦¬":10221,"íĥĢë¥¼":10222,"Ġë°ľê°Ħ":10223,"ĠìķĪê²½":10224,"ìĹĪìľ¼ë©°":10225,"Ġ53":10226,"Ġ56":10227,"ì²ľíŀĪ":10228,"Ġë¬´ê´Ģ":10229,"Ġë¶ĪêµĲ":10230,"ê±´ìĿĺ":10231,"íĺĦíĻ©":10232,"íķĺê¸°ê°Ģ":10233,"Ġê°ĲìĦ±":10234,"Ġëĭ¨ìľĦ":10235,"ĠíķĺëĬĶì§Ģ":10236,"ĠìĹŃëŁī":10237,"ĠSBS":10238,"ater":10239,"ĠëĨĴìĹ¬":10240,"ìł¸ìķ¼":10241,"ĠìĭĿë¯¼":10242,"ism":10243,"ìĶ¨ë¥¼":10244,"ë°Ľìķĺëĭ¤":10245,"ì²łëıĦ":10246,"ĠìĿ´ìĸ´ì§Ī":10247,"ĠìĬ¹ëĤĻ":10248,"ĠëĬĺìĸ´ëĤľ":10249,"Ġìķ¼ë§ĪíĨł":10250,"Ġìī½ê³ł":10251,"ì´Ŀë¦¬":10252,"Ġíĺ¸íħĶìĹĲìĦľ":10253,"Ġëĭ¹ìĭľìĿĺ":10254,"ë¬´ë£Į":10255,"ìĥĪë¡ľìļ´":10256,"ĠìŀĳíĴĪìĿĢ":10257,"Ġíĺ¼íķ©":10258,"ĠìĿ½ëĬĶ":10259,"ĠëŃī":10260,"ĠìķĦëŀĺìĿĺ":10261,"ëĲĲëĭ¤ê³ł":10262,"ĠìĹ¬ëŁ¬ë¶ĦìĿĺ":10263,"ìĬ¤ì½Ķìĸ´":10264,"ëĨĢìĿ´íĦ°":10265,"Ġë²ĦíĬ¼ìĿĦ":10266,"Ġìį¬ëįĶ":10267,"ë½ķ":10268,"ĠPowerShell":10269,"Ġì¦Ĳê²ģê²Į":10270,"ĠíĶ¼ìķĦëħ¸":10271,"!âĢĿ":10272,"DP":10273,"Ġ00":10274,"Ġall":10275,"ê°Ģë©°":10276,"ĠìĹĳ":10277,"ĠìĹ´ë§¤":10278,"ìĿ¸ëł¥":10279,"ĠìĿ´ëĵ¤ìĿĦ":10280,"ë°ĸ":10281,"ìĽĲëĵ¤ìĿ´":10282,"ĠíķĺìĺĢìĬµëĭĪëĭ¤":10283,"ìĥģìĦł":10284,"Ġì§Ģë¶ķ":10285,"ìĹ¬ëªħìĿĺ":10286,"Ġì£¼íĸī":10287,"ì¹ĺë©°":10288,"ìĨĮìĬ¤":10289,"ê³µìĿĦ":10290,"ê´ĢìłĪ":10291,"Ġê³łëıĦ":10292,"Ġë¹ĦëĮĢ":10293,"Ġì¡°íķŃ":10294,"ĠìĭłìĿ¸":10295,"Ġìĭłìŀħ":10296,"Ġë°©ë¶ģ":10297,"ĠëıĻëĤ¨":10298,"ĠëıĻìĦ±ìķł":10299,"ĠëıĦì¿Ħ":10300,"íĳľëĬĶ":10301,"Ġìŀ¥ìłĲ":10302,"Ġëĵ¤ìĿ´":10303,"ĠíķĦë¦Ħ":10304,"ĠìĪŃ":10305,"ìĻ¸ìĦł":10306,"ê´ĳì£¼":10307,"ĠìĨĲëĭĺ":10308,"Ġëĵ¤ìĸ´ê°Ħ":10309,"Ġíĺķìłľ":10310,"ê²¨ìļ¸":10311,"ê·ľìłķ":10312,"acter":10313,"Ġê·¸ëłĩëĭ¤":10314,"ì¼ĢìĬ¤íĬ¸ëĿ¼":10315,"Ġinformation":10316,"ëĿ¼ìĿ´ë¸Į":10317,"ì·¨ìĹħ":10318,"Ġì¢ĢëįĶ":10319,"ĠëĬĲëĤĢ":10320,"ĠìĦ±ê³µíķľ":10321,"ĠëĶĶìŀĲìĿ¸ìĿĦ":10322,"Ġê³µê°ĦìĿ´":10323,"ĠëıĪìĿ´":10324,"ĠìĤ¬ê³łë¥¼":10325,"ĠíĦ°ì¹ĺ":10326,"Ġëĸ¨ìĸ´ì§ĢëĬĶ":10327,"Ġë¶Ģëĭ´ìĿ´":10328,"ĠìĤ¬ë¡Ģê°Ģ":10329,"Ġíĳ¸ë¥¸":10330,"ĠíĺĪìķ¡":10331,"ally":10332,"ĠëĤ©ìŀħ":10333,"ĠìĻĦë²½íķĺê²Į":10334,"ìĸ´ë²Ħë¦°":10335,"Ġyou":10336,"Ġì¹´ì¹´ìĺ¤íĨ¡":10337,"æĸ¯åħĭ":10338,"Ġíıīë²Ķíķľ":10339,"©¬æĸ¯åħĭ":10340,"BT":10341,"TP":10342,"che":10343,"mer":10344,"åº":10345,"íķľë¯¸":10346,"ëĤ¸ëĭ¤":10347,"ìĺ¹":10348,"ìĹĲìĦľë§Į":10349,"Ġ130":10350,"Ġê¸°ìĥģ":10351,"ìļ©ìľ¼ë¡ľ":10352,"ìļĶë¦¬":10353,"Ġìłľê³ł":10354,"ĠìŀĲìĿĺ":10355,"Ġì£¼ì²´":10356,"ë¹Ħì¦Ī":10357,"ĠìĿ´ëĮĢ":10358,"ìĨĮìĦľ":10359,"Ġê³µìķ½":10360,"Ġë¶Ģìŀĳìļ©":10361,"ĠìĨĮëħĦ":10362,"ĠíĶ½":10363,"Ġë§ĪíĮ¨":10364,"ĠëĺĲìĻĢ":10365,"ì²ľìĽĲ":10366,"Ġë¬´ìĦľ":10367,"Ġìŀ¬ë¬´":10368,"Ġë§¤ê°ģ":10369,"Ġê¹Ģë¯¼":10370,"íĺķìĿĢ":10371,"íĺķìľ¼ë¡ľ":10372,"Ġëħ¸ì¡°":10373,"íĿĳ":10374,"Ġëĭ¬ìĿ´":10375,"ì¶Ķìĸ´":10376,"Ġê°Ħìłĳ":10377,"Ġìĭ¬ìĿĺ":10378,"ĠLa":10379,"ĠëĦĺìĸ´ìĦľ":10380,"ĠíĺĳìĹħ":10381,"ĠíĺĦìŀ¬ê¹Įì§Ģ":10382,"ĠìĿĳíĮĶ":10383,"Ġíķĺë£¨ìĹĲ":10384,"Ġë¹ĦêµĲíķ´":10385,"ĠìłķìĥģìłģìĿ¸":10386,"odel":10387,"ĠëĨĢíĨł":10388,"ìĬĪíį¼":10389,"ãĢı,":10390,"Ġíį¼íı¬ë¨¼":10391,"ife":10392,"ĠíĿ¬ë§ĿìĿĦ":10393,"ë©ĺíĬ¸":10394,"ized":10395,"Ġíģ´ëĿ¼ìĿ´ìĸ¸":10396,"Ġë³´ëĤ¼":10397,"Ġëĵłëĭ¤":10398,"Ġë²¤ì²ĺ":10399,"Ġë¶ķë¶ķ":10400,"íİĢëĵľ":10401,"Ġì±Ļê²¨":10402,"ì¶Ķìļ´ìĦłìĦłíķľ":10403,"EV":10404,"IA":10405,"OL":10406,"ey":10407,"ìĹ£":10408,"ì§Ģê·¼íķľ":10409,"ĠìĿ´íĺ¼":10410,"ìĤ¬íķĻ":10411,"ĠìĤ¬ê¸°":10412,"Ġê·¸ê°Ħ":10413,"ìŀ¥ë¹Ħ":10414,"ëĮĢë¬¸":10415,"Ġíķĺëĭ¤ê°Ģ":10416,"ĠìĭľìłĲ":10417,"êµŃìľ¼ë¡ľ":10418,"ĠìłľëıĦë¥¼":10419,"ìĹ¬ê¸°":10420,"Ġëĵ±ìĿ´ëĭ¤":10421,"ìĨĮíĨµ":10422,"ëŁ¬ìĬ¤íĬ¸":10423,"Ġê³µìĤ°":10424,"Ġê³łë°±":10425,"ĠìĨĮìľĦ":10426,"ìŀ¬ë£Į":10427,"ĠìĿĺíķĻ":10428,"Ġë§Īêµ¬":10429,"ìľłíĨµ":10430,"Ġìĭłì¤ĳ":10431,"Ġíķ´ìķĪ":10432,"Ġë°©ìĸ´":10433,"Ġìĭ¤ë²Ħ":10434,"Ġì§ĦíķĻ":10435,"ĠìĽĲìŀĳ":10436,"Ġë°Ľê¸°":10437,"ĠìĦ¤ë¹Ħ":10438,"Ġë°°ìłľ":10439,"ĠíķĻê³¼":10440,"ĠíķĻë¬¸":10441,"ĠëĳĲê»ĺ":10442,"Ġê°Ħëĭ´":10443,"Ġì²ĺë°©":10444,"ĠíĻĺìĥģ":10445,"ĠíĶĦë¡ľëª¨":10446,"ĠìĸĳëıĦ":10447,"ĠìķĦìĿ´ëĵ¤ìĿĺ":10448,"ĠìķŀëĳĶ":10449,"ĠìĿ´ìĥģíķľ":10450,"Ġì±ħìĿĺ":10451,"Ġì§ĦíĸīíĸĪëĭ¤":10452,"ĠëĤłë¶ĢíĦ°":10453,"ëłĪìĿ´íģ¬":10454,"ĠëĪĦë¦¬":10455,"ï¼İ":10456,"ë¸Ķë¦¬":10457,"Ġë³´ëĥĪëĭ¤":10458,"ild":10459,"ĠìĦ¼ìĦľ":10460,"Ġëĵ±ìŀ¥íķĺëĬĶ":10461,"íŀĮëĭ¤":10462,"ê³Ħìķ½ìĿĦ":10463,"ĠíĺķìĦ±ëĲľ":10464,"Ġë¹ħëį°ìĿ´íĦ°":10465,"Ġìį¬íĬ¸ë¡ľëĭīìĬ¤":10466,"Ġë¶ĢëĵľëŁ½":10467,"ĠìĿ´ë§Ī":10468,"Ġìĺ¤ë¦¬ìĹĶíĬ¸ìłĦìŀĲ":10469,"ë±ħíģ¬":10470,"ìį¬íĬ¸ë¡ľëĭīìĬ¤":10471,"ĠíĻĶìĿ¸ìį¬íĬ¸ë¡ľëĭīìĬ¤":10472,"71":10473,"een":10474,"yric":10475,"ç§":10476,"éĩ":10477,"ë¦¬ìĸ¼":10478,"ìĭľìłĪ":10479,"ëĵ¤ë¡ľë¶ĢíĦ°":10480,"ĠìŀĪê¸°ìĹĲ":10481,"Ġê°Ģë§¹":10482,"ìĦ±êµ¬":10483,"ĠìłĦìĦ¤":10484,"Ġëĭ¤ë¦Ħ":10485,"ĠìŀĲë¥¼":10486,"ĠìŀĲë°Ķ":10487,"ëĵľë¦´":10488,"ë¬¸ìŀ¬ìĿ¸":10489,"ĠìĿ¼ìĤ°":10490,"ì§Ħíķľ":10491,"ìĤ°ëıĦ":10492,"ĠìĥģìĿĺ":10493,"íĸīë³µ":10494,"ĠìĨĮìŀ¥":10495,"ĠìĨĮì§ĳ":10496,"Ġìľłê¶Į":10497,"ëĦī":10498,"ë²ķê³¼":10499,"Ġìĭ¤ë¦¬":10500,"ë¥´íĬ¸":10501,"Ġê±°ëĳĲ":10502,"ëĶĺ":10503,"Ġê°ķìļĶ":10504,"Ġê°ķì¢Į":10505,"Ġëĭ¨íİ¸":10506,"ĠíķľêµŃìĸ´":10507,"ĠíķĦìļĶíķł":10508,"Ġê°ĻìĿĢëį°":10509,"Ġì²Ńì¶ĺ":10510,"Ġë²ķìĿĦ":10511,"Ġë©ĶëĶĶ":10512,"ìĸ¸ìĸ´":10513,"ĠìĤ¬íļĮìĹĲìĦľ":10514,"ĠìłķëıĦëĬĶ":10515,"Ġê´ĳë²Ķ":10516,"Ġë´¤ëĭ¤":10517,"ĠìĬ¹ìĿ¸ìĿĦ":10518,"ount":10519,"ëł¸ëįĺ":10520,"ĠìĥīìĥģìĿĦ":10521,"ĠìĦ¤ì¹ĺëĲľ":10522,"Ġë§¡ìķĦ":10523,"Ġìłľì¡°ìĤ¬":10524,"ëħ¼ìĪł":10525,"ĠëłĪìĿ´ìłĢ":10526,"ĠíĿ¡ìĪĺ":10527,"Ġë°©ì¹¨ìĿ´ëĭ¤":10528,"ĠíĮĮëĿ¼ëĭ¤ìĿ´ìĬ¤":10529,"ĠHTML":10530,"ton":10531,"ģìĬ¤":10532,"Ľë¶Ī":10533,"ĠíĪ":10534,"ì§ĢìŀĲ":10535,"ìĬ¤ëŁ°":10536,"ë©´ìĿĺ":10537,"ìķĦë¦¬":10538,"ĠíķľìĿĺ":10539,"ĠìķĦíĬ¸":10540,"ê¸Ģë¡ľ":10541,"íĻĶíķĺê³ł":10542,"Ġìłķìŀĳ":10543,"Ġìłķê¶Į":10544,"ê³µíĻĶ":10545,"ìŀĦìĹĲëıĦ":10546,"ĠìĥģìŀĦ":10547,"Ġë¶Ģë¥´ëĬĶ":10548,"Ġê´Ģë¦¬ë¥¼":10549,"ĠìľłëĮĢ":10550,"ĠìĹ°ì¤ĳ":10551,"ĠëĤ´ìĻ¸":10552,"Ġìĺģíĺ¼":10553,"Ġ41":10554,"ĠíĺĦíĸī":10555,"ëĤ´ê¸°":10556,"Ġë¬´ë¦":10557,"Ġë§¤ìŀħ":10558,"Ġê°Ĳê¸°":10559,"ĠíĸīìĦ±":10560,"íĿĺ":10561,"Ġì¦Ŀìłķ":10562,"Ġì´Īë¡Ŀ":10563,"ë°ķíķľ":10564,"Ġì¹ĺìľł":10565,"Ġê¸Īë¦¬":10566,"Ġíİ¸ìĦ±":10567,"íİĺëĿ¼":10568,"ĠëĿ¼ëĶĶìĺ¤":10569,"ê¸¸ìĹĲ":10570,"Ġìłķë¶ĢìĻĢ":10571,"ĠGlobal":10572,"ĠëĲľëĭ¤ë©´":10573,"Ġíľ©":10574,"íĮ¨ë¥¼":10575,"Ġì²ĺìĿĮë¶ĢíĦ°":10576,"Ġint":10577,"Ġë¬¸íĻĶìĺĪìĪł":10578,"Ġë³ĦëıĦ":10579,"ì¸¡ìĿĢ":10580,"ëĮĢíķľë¯¼êµŃ":10581,"ìĤ´ìĿ´":10582,"Ġê³¼ìłķìĿĢ":10583,"ĠìłĦì²´ìĿĺ":10584,"Ġìĸ´ëł¤ìĽĢ":10585,"ëı¼ìķ¼":10586,"Ġê°ĢìŀħìĿĦ":10587,"ê°ľìĽĶê°Ħ":10588,"ĠìķĮê³łë¦¬ì¦ĺ":10589,"ĠìķħíĻĶ":10590,"ĠíĴĪëª©":10591,"ĠìłĦíĨµìłģìĿ¸":10592,"ê°ĳëĭĪëĭ¤":10593,"Ġê·¸ë¦¼ìĿĦ":10594,"Ġìĥģëĭ´ìĿĦ":10595,"Ġê³µê³µê¸°ê´Ģ":10596,"Ġëª¨ë¥´ê²ł":10597,"Ġê°ĴìĿĦ":10598,"Ġëĭ¤ë£¨ëĬĶ":10599,"Ġì§ģìŀ¥ìĿ¸":10600,"ĠìµľìłģìĿĺ":10601,"Ġë¶ĢëĵľëŁ¬ìļ´":10602,"ĠíĶĮëŀľì§Ģ":10603,"Ġìĺ¤ëĿ¼íģ´":10604,"IM":10605,"LìĿ¸ì¦Ŀ":10606,"hy":10607,"ħĲ":10608,"ë¥¨":10609,"ìļ´ëĮĢ":10610,"ìĿ¼ìĥģ":10611,"ĠìĿ´ê²¨":10612,"ĠìŀĪì£ł":10613,"ìłģìĿ´ë©°":10614,"ëĮĢíĸī":10615,"ë¶ĢëıĻìĤ°":10616,"ëŁ¿":10617,"Ġê²ĥìĿ¸ëį°":10618,"Ġíķľê²ĮìŀĦ":10619,"Ġëĭ¤ì±Ħ":10620,"ëĭĪê°Ģ":10621,"ìĤ°ìĿĢ":10622,"Ġë¶ĢëŁ¬":10623,"Ġê´Ģíķ´":10624,"Ġê³łìĿĺ":10625,"Ġê³łë§Ī":10626,"Ġë¹Ħë¡ľ":10627,"ĠëķĮë¡ľëĬĶ":10628,"ìĪį":10629,"ĠíĨµì¦Ŀ":10630,"ĠëĤ´ìŀ¥":10631,"ĠìĬ¤íĮĮ":10632,"ì¤ĳê³µìĹħ":10633,"Ġì§Ħìĭ¬ìľ¼ë¡ľ":10634,"Ġê±°ëĮĢ":10635,"ìĨįìĿĺ":10636,"ë°ľíĳľ":10637,"Ġìŀ¬ê°ľ":10638,"ìĦ¤ëªħ":10639,"íĺĦìŀ¥":10640,"Ġì°¨ê¸°":10641,"ĠíķĦìŀĲ":10642,"ë²Ħë¦¬":10643,"ĠìĪ¨ìĸ´":10644,"ĠíĮĮê²¬":10645,"Ġ77":10646,"íĿĶ":10647,"Ġë¦¬ìĬ¤íĬ¸":10648,"Ġê°ģìŀĲìĿĺ":10649,"Ġëģĵ":10650,"ĠíĻĺìŀĲê°Ģ":10651,"ĠìĨįìĿĺ":10652,"ĠTr":10653,"Ġë¯¸êµŃìĿĢ":10654,"Ġì¹´ìļ´":10655,"Ġì¹´ìķ½":10656,"ĠìĪľìĪĺ":10657,"ĠëĦ¤ê°Ģ":10658,"Ġì²ľì²ľíŀĪ":10659,"ì£¼ìĿĺë¥¼":10660,"ĠìĦ¤ëªħìĿĦ":10661,"Ġì°¸ìĹ¬íķ´":10662,"Ġê°Ģê²©ìĹĲ":10663,"Ġê¸°ê°ĦìĿ´":10664,"Ġë¯¿ëĬĶ":10665,"ìĿ´ë²ĪìĹĲ":10666,"íģ´ë¡ľ":10667,"ĠëĮĢíķĺìĹ¬ëĬĶ":10668,"ĠëķħìĹĲ":10669,"ĠìĿ´ëģĦ":10670,"âĳ¢":10671,"ìķŀìľ¼ë¡ľ":10672,"íĢĢ":10673,"ĠìķĦë§Īì¡´":10674,"ĠìłĦíķ´ì¡Įëĭ¤":10675,"ëļĿ":10676,"íĤ¬ë¡ľë¯¸íĦ°ìĿ´":10677,"ĠìĹĲìĸ´ì»¨":10678,"Ġìħĭì§¸":10679,"aìĹĲìĦľ":10680,"hot":10681,"Ġke":10682,"ĠìĪĺê¸ī":10683,"ĠëĮĢìķĪ":10684,"Ġê¸°ë¦Ħ":10685,"Ġíķľìļ°":10686,"íķĺëĬĶì§Ģ":10687,"ĠìŀĲë°ľ":10688,"ëıĻìĺģìĥģ":10689,"ëĭĪíĭ°":10690,"ĠìĿ¸ê¸°ê°Ģ":10691,"Ġì¤ĳëĮĢíķľ":10692,"Ġë¶Ģíķ©":10693,"ìĦ¸ë¬´":10694,"ë¶Ħê°Ħ":10695,"ê²½ìĹĲ":10696,"ĠìĹĨìĹĪìĬµëĭĪëĭ¤":10697,"ĠìĹ¬ìķ¼":10698,"ìĥĿë¬¼":10699,"ĠìĥĿëªħìĿĦ":10700,"Ġë°ĶëĿ¼ëĬĶ":10701,"ê·¸ëıĻìķĪ":10702,"Ġë°ľë³ĳ":10703,"Ġë°©ì¹ĺ":10704,"ĠëıĻì°¸":10705,"ĠìĺģìĽĲíķľ":10706,"ĠëıĦì¶ľ":10707,"ĠëįĶë¸Ķ":10708,"Ġìŀĳê°ĢìĿĺ":10709,"Ġì¶ľë§Ī":10710,"ë£¨ë¯¸":10711,"ì½Ķìĸ´":10712,"Ġê°ĢëĬ¥ìĦ±ëıĦ":10713,"Ġpar":10714,"Ġê¸°ìĪłìĿĺ":10715,"ĠíħħìĬ¤íħĲ":10716,"ĠRes":10717,"Ġì»¤íĶĮ":10718,"ĠíļĮìĽĲìĹĲê²Į":10719,"ì¸µìĹĲ":10720,"ĠëĬĺìĹĪëĭ¤":10721,"Ġìŀ¡ìĿĢ":10722,"Ġë³ĳíĸī":10723,"ê¸´ëĭ¤":10724,"Ġê´Ģìĭ¬ê³¼":10725,"Ġë¶ĦìĦĿìĿĦ":10726,"ĠëĤ®ìķĦ":10727,"Ġê°ľìµľíĸĪëĭ¤":10728,"âĸł":10729,"ĠìĭľíĹĺìĿĦ":10730,"ìļ°ë¦¬ëĤĺëĿ¼":10731,"ĠìĿ´ê³³ìĹĲ":10732,"Ġë¹ĮëĶ©":10733,"ĠìĿ´ë£¨ê³ł":10734,"ĠìĿ¼ìĸ´ëĤĺëĬĶ":10735,"Ġìĸµìłľ":10736,"Ġë°°ê²½ìľ¼ë¡ľ":10737,"ĠíĥĿë°°":10738,"Ġë¹Ħì¤ĳìĿ´":10739,"Ġë©Ķëª¨ë¦¬":10740,"Ġë±Ģ":10741,"Ġëª©ìĪ¨ìĿĦ":10742,"ì¨Į":10743,"AM":10744,"pos":10745,"xx":10746,"Ġ?":10747,"ê°Ģì¹ĺ":10748,"ìķī":10749,"ìĭľë¦¬ì¦Ī":10750,"ĠìĿ´ê±°":10751,"ĠìĿ´ìĺģ":10752,"ë©Ģ":10753,"ìĤ¬ëıĦ":10754,"ĠëĮĢë¦½":10755,"Ġê¸°ìķĦ":10756,"Ġê²ĥìĿ¼":10757,"ìĦ±ê¸ī":10758,"ĠìķĦíĭ°ìĬ¤íĬ¸":10759,"ê¸ĢìĿ´":10760,"ìĹ¬ê°ľ":10761,"Ġì£¼ìĹĪëĭ¤":10762,"Ġëª¨ëŀĺ":10763,"Ġê³µì¡´":10764,"ĠìĨĮëĤĺë¬´":10765,"Ġì¡°ë¦½":10766,"Ġêµ¬ìĦĿ":10767,"Ġë°©ìĿĢ":10768,"Ġê±°ë¦¬ê°Ģ":10769,"Ġìŀ¥ìłĲìĿ´":10770,"Ġë¶ĪíĻķ":10771,"Ġìŀĳê³¡":10772,"Ġâĺħ":10773,"ĠíķĺëĤĺìĶ©":10774,"ê²łëĬĶê°Ģ":10775,"Ġëª©ìĤ¬ëĬĶ":10776,"ĠëªħìĿĦ":10777,"Ġíĺ¸ìĿĳ":10778,"ëĤ¨ëıĦ":10779,"Ġì¢ħëª©":10780,"Ġë¡Ŀ":10781,"ĠíĻĺëĭ¨ê³łê¸°":10782,"Ġëį°ìĬ¤íģ¬":10783,"Ġë°ķì§Ģ":10784,"ĠMan":10785,"ĠìķĦìĿ´ëĵ¤":10786,"Ġê·¸ëŁ¬ëĭĪê¹Į":10787,"Ġì±ħìĿ´":10788,"ĠìĦ¸ê³ĦìĹĲ":10789,"Ġíı¬íķ¨íķĺëĬĶ":10790,"ìĦ¼íĦ°ë¥¼":10791,"Ġëª¨ìĬµìľ¼ë¡ľ":10792,"ëĨįíĺĳ":10793,"Ġì°¸ìĹ¬íķł":10794,"ìĤ¬ìĿ´íĬ¸ì¶Ķì²ľ":10795,"ĠëĤ®ì¶Ķ":10796,"Ġê¸°ê°ĦìĿĦ":10797,"ĠìķĬìķĺê³ł":10798,"Ġíķ´ê²°íķĺê¸°":10799,"´ë§ģ":10800,"ĠíĥĪì¶ľ":10801,"Ġìĸ¸ê¸īíķľ":10802,"Ġê°Ŀìĭ¤":10803,"Ġëª©ìĨĮë¦¬ê°Ģ":10804,"Ġë©Ķìĭľì§Ģ":10805,"Ġë¶Īê°ĢëĬ¥íķľ":10806,"ë°Ģë¦¬ë¯¸íĦ°ë¥¼":10807,"Ġì´Īê³¼íķĺê±°ëĤĺ":10808,"Ġë¶ĢíļĮìŀ¥ìĿĢ":10809,"Ġëĵ¤ìĹ¬ëĭ¤":10810,"Ġeduc":10811,"):":10812,"CD":10813,"NG":10814,"rand":10815,"ê³łê°Ģ":10816,"Ġëĭ´ë°°":10817,"ĠìĤ¬ìŀ¥ìĿĢ":10818,"ë¶Ģê³µê³łìłľ":10819,"Ġê°Ģì¤ĳ":10820,"Ġìłķìłķ":10821,"ëħĦê³¼":10822,"ëĭĪìĸ´":10823,"ìĭłíķľ":10824,"ĠìĿ¸ë¯¼":10825,"ì§Ħíĸī":10826,"ĠìĨĮë§¤":10827,"ĠìľłíķĻ":10828,"Ġìľłìŀħ":10829,"ë§ĪìĿ´":10830,"ë§Īì§Ģë§ī":10831,"Ġë§Īíģ¬":10832,"ĠìĦľë¯¼":10833,"ĠìĹ°ëĮĢ":10834,"ĠìĹ°ê¸Ī":10835,"ĠìĦłíı¬":10836,"ĠìĭłìŀĦ":10837,"ĠìĭłíķĻ":10838,"ë¯¸ëĦĲ":10839,"Ġë¯¸ìķĪ":10840,"ë°©ìĭĿ":10841,"Ġìĭ¤ìĪĺ":10842,"ĠíģĲ":10843,"Ġìĸ´ëĳ":10844,"Ġìŀ¬ëĤľ":10845,"Ġë°Ľìľ¼ë©°":10846,"ĠìŀħìĤ¬":10847,"Ġëĭ¹ëĩ¨":10848,"ì¢ħêµĲ":10849,"Ġíķ¨ìľł":10850,"Ġì§ģë©´":10851,"ĠíĶ¼ë¡ľ":10852,"aracter":10853,"´ë©´ìĦľ":10854,"Ġê°ģê¸°":10855,"ĠìķĦìĿ´ì½ĺ":10856,"ĠìŀĲìĭłìĹĲê²Į":10857,"ìŀĪìĿĦ":10858,"Ġì§ĦíĸīëĲł":10859,"ëĲľëĭ¤ë©´":10860,"ìĿµìĿĦ":10861,"ĠëĮĢíĳľìĿ´ìĤ¬":10862,"ĠìĤ¼ìķĦ":10863,"Ġíĥľë¸Ķë¦¿":10864,"Ġì§ĢìĽĲíķĺê³ł":10865,"ĠíĨłì§Ģ":10866,"ĠìĤ¬ìĹħìĿĢ":10867,"ĠíĮ¨ë°°":10868,"Ġoacute":10869,"ĠíĹĪë¦¬":10870,"ĠìĽĶê¸ī":10871,"ĠìĦłíĥĿìĿĦ":10872,"ĠêµŃë¯¼ìĿ´":10873,"Ġê¸īìĦ±":10874,"Ġë©´ìĹĲìĦľ":10875,"ëľ©":10876,"ĠëĮĢë¶Ģë¶ĦìĿ´":10877,"Ġì§ĢëĤĺì¹ĺê²Į":10878,"Ġë²Īì§¸ë¡ľ":10879,"ìĽĥìĿĮ":10880,"Ġë¹¨ê°Ħ":10881,"Ġê²¨ìļ°":10882,"Ġì°įìĿĢ":10883,"Ġì£¼ëª©ìĿĦ":10884,"Ġê°Ģë¥´ì³Ĳ":10885,"æĸĩ":10886,"ĠëĿ¼ìĿ´íĶĦ":10887,"ĠíĻķìĭ¤íķľ":10888,"ĠâĹı":10889,"ĠìĿ¼ìĥģìĥĿíĻľ":10890,"Ġêº¼ëĤ´":10891,"Ġë§¤ëł¥ìłģìĿ¸":10892,"ĠìķĦìĿ´ëĶĶìĸ´ë¥¼":10893,"ĠêµĲê³¼ìĦľ":10894,"ìĨĮë¹ĦìŀĲ":10895,"Ġëĭ¤íĸīíŀĪ":10896,"Ġì§Ģì²´ìĹĨìĿ´":10897,"Ġë§Īì¹¨ëĤ´":10898,"Ġìĺ¤ë²ĦìĽĮì¹ĺ":10899,"Ġìĸ´ë¥´ìĭł":10900,"ST":10901,"âĺħ":10902,"Ġ----------------":10903,"ìĿ´ìĭĿ":10904,"ëĬ¬":10905,"ê¸°ëıħêµĲ":10906,"ëĤļ":10907,"ìĿ¸íĬ¸ë¥¼":10908,"ĠìĪĺìĹ¬":10909,"ĠìĤ¬ì±Ħ":10910,"Ġì§Ģìĥģ":10911,"ìłľìŀ¬":10912,"ĠìłĦëĭ´":10913,"ĠìĭľìĿĺ":10914,"íļĮìĤ¬ëĬĶ":10915,"ìĬµìĿĦ":10916,"ìļ°ì§Ģ":10917,"ìļ°íİ¸":10918,"Ġê²½ìĥģ":10919,"ĠëĤĺìģĺ":10920,"Ġëª¨ë¥¼":10921,"íĮŁ":10922,"Ġê³µì§ģ":10923,"Ġë¶Ģì§Ģ":10924,"Ġëį©":10925,"ìĦ¸íķľ":10926,"ë¶ĦìŁģ":10927,"Ġë§Īì¼ĵ":10928,"Ġì¡°ìĤ¬ë¥¼":10929,"ë¯¸ìĬ¤":10930,"Ġë°ľíļ¨":10931,"ë°©ì§Ģ":10932,"Ġìĺģê°ĲìĿĦ":10933,"ĠìĦ±ë¶Ħ":10934,"ìĭ¬ê³¼":10935,"Ġê°ķë¦ī":10936,"ĠíĶĦëĿ¼":10937,"Ġëĭ¹ì´Ī":10938,"ĠâĻ":10939,"íķ¨ìĿĢ":10940,"ĠíķľêµŃê³¼":10941,"Ġì¶ľì²ĺ":10942,"Ġì¶ľê·¼":10943,"ĠìĥĿê°ģìĿĢ":10944,"Ġì§ģìłĦ":10945,"íĶ¼íķ´":10946,"Ġíĺ¸ëĤ¨":10947,"ĠAd":10948,"Ġê°ģìŀĲ":10949,"ĠìłĲëıĦ":10950,"ë¸Įëŀľëĵľ":10951,"ĠëĨĴê³ł":10952,"Ġìłľê³µíķľ":10953,"Ġìĺ¨ì²ľ":10954,"Ġê´Ģëł¨ìĿ´":10955,"Ġê·ľìłķìĿĦ":10956,"ĠëıĮìŀħ":10957,"íĺĳëıĻ":10958,"ì°½ìĽĲ":10959,"ë°Ľì¹¨":10960,"ĠíĹĪìľĦ":10961,"ìĹ´ìĿĦ":10962,"ĠìĺģíĻĶëĬĶ":10963,"Ġì²ĺìĿĮì²ĺëŁ¼":10964,"Ġìµľê·¼ìĹĲ":10965,"íķĺìĺĢìľ¼ëĤĺ":10966,"ĠíĻĺê²½ìĹĲ":10967,"ĠìĭľìĬ¤íħľìĿ´":10968,"Ġê·¹ëĭ¨":10969,"ĠìĦ±ê³µìłģìľ¼ë¡ľ":10970,"Ġìħ°":10971,"Ġê²½ìŁģëł¥ìĿĦ":10972,"íķ´ì£¼ê³ł":10973,"ĠìĬµëıĦ":10974,"Ġë°Ķëĭ¤ìĿ´ìķ¼ê¸°":10975,"Ġëª¨ë¥´ê²łëĭ¤":10976,"Ġìŀ¬íĮĲë¶ĢëĬĶ":10977,"ĠìłĦë°ĺìĹĲ":10978,"ĠìłĦë°ĺìłģìĿ¸":10979,"Ġìĺ¤ëŀľë§ĮìĹĲ":10980,"Ġê³¤ëŀĢ":10981,"Ġì²Ńêµ¬íķł":10982,"Ġï¼¼":10983,"Ġìĭ¤ì§ĪìłģìĿ¸":10984,"Ġëĭ¹ë¶ĢíĸĪëĭ¤":10985,"Ġëĭ¨ë°±ì§Ī":10986,"?âĢĻ":10987,"BA":10988,"aw":10989,"éĥ":10990,"Ġê¶":10991,"ĠíĤ¬":10992,"ê°Ģìłķ":10993,"ìĦľë²Ħ":10994,"ë©´ë":10995,"ëł¬íķľ":10996,"ĠìĪĺë¶Ħ":10997,"ĠëĮĢëĭ¤":10998,"Ġëª«":10999,"Ġíķľíķ´":11000,"Ġíķľê³Ħë¥¼":11001,"íļĮê³Ħ":11002,"êµ¬ë¡ľ":11003,"ĠìŀĲìĤ´":11004,"Ġì£¼ìĭľ":11005,"Ġì£¼ìĭĿìĿĦ":11006,"Ġê²½íĸ¥ìĿ´":11007,"ĠìĿ¼ì£¼ìĿ¼":11008,"Ġì¤ĳíķĻêµĲ":11009,"Ġëª¨ëĵľ":11010,"Ġëª¨íĹĺ":11011,"ê³µìŀ¥":11012,"Ġë¹Ħì¹ĺ":11013,"ĠëıĦëĮĢì²´":11014,"Ġìĭ¤ìłķ":11015,"Ġìĭ¤ìĹħ":11016,"Ġìĭ¤ëł¥ìĿĦ":11017,"Ġì§Ħìĭ¤":11018,"ìħĪ":11019,"Ġ54":11020,"ĠìłĢíķĺ":11021,"ĠìĽĲìłĦ":11022,"Ġê³Ħì¢Į":11023,"ĠëĤ¨ìª½":11024,"any":11025,"ê²°ìłľ":11026,"íĻĺëĭ¨ê³łê¸°":11027,"ĠìĿ´ìļ©íķ´ìĦľ":11028,"Ġëª»íķĺê²Į":11029,"alth":11030,"ë¦¼ìĿ´":11031,"ĠìĨĲìī½ê²Į":11032,"Ġíİ¸íķĺê²Į":11033,"Ġper":11034,"Ġê´ĳìĹŃ":11035,"ìľĦìĽĲíļĮìĿĺ":11036,"Ġë°ľìĥĿíĸĪëĭ¤":11037,"Ġë³´ëĿ¼":11038,"ĠìĦ¤ëªħíķĺê³ł":11039,"Ġìĸ»ëĬĶ":11040,"ĠëĸłëĤľ":11041,"ĠëįĶìļ±ìĿ´":11042,"Ġìŀłê¹Ĳ":11043,"Ġë¹Ħë¡¯íķĺìĹ¬":11044,"ĠëĮĢíķľë¯¼êµŃìĿĺ":11045,"Ġstyle":11046,"ì´īì§Ħ":11047,"Ġë°ĶëĿ¼ë³´ëĬĶ":11048,"Ġë°ĶìĿ´ëŁ¬ìĬ¤":11049,"ĠìķĦë²Ħì§ĢìĿĺ":11050,"ĠChrome":11051,"ëŃĩ":11052,"minal":11053,"Ġmethod":11054,"81":11055,"92":11056,"bl":11057,"ier":11058,"pro":11059,"éĻ":11060,"ï»¿":11061,"Ġmm":11062,"ìŀŃ":11063,"ê³łëıĦ":11064,"ê²ģëĭĪëĭ¤":11065,"ë³´ë©°":11066,"ìĸ´ì£¼":11067,"Ġíķĺìĭł":11068,"ì¹«":11069,"ëį±":11070,"ë©´ìĹĲìĦľ":11071,"ë³´ìķĪ":11072,"ëĵľëŁ¬":11073,"Ġë¶ĢìĦľ":11074,"Ġë¶Ģë¶Ģ":11075,"ìĦłìľ¼ë¡ľ":11076,"ìĺģìĿĢ":11077,"Ġë°Ķëĭ·":11078,"Ġíķ´íĤ¹":11079,"Ġë§Ĳíķĺë©´":11080,"ĠëıĻíĻĶ":11081,"Ġì§Ħì§Ģ":11082,"ìĭ¬ìĿĢ":11083,"ëłĪìĿ¸":11084,"ëłĪëĵľ":11085,"Ġìŀ¬ë°ľ":11086,"íĺķíĥľ":11087,"ì§Īë¬¸":11088,"ë²Ħê·¸":11089,"ĠíķĻìĽĲ":11090,"Ġë¬¼ë¦¬ìłģ":11091,"ĠìļĶìķ½":11092,"Ġíķ©ëıĻ":11093,"ë³µíķ©":11094,"ì§ĳìĿ´":11095,"ĠìłĲìĪĺ":11096,"ĠëĨĴê²Į":11097,"Ġë©ĶìĨĮ":11098,"Ġëĵ¤ìĸ´ê°Ķëĭ¤":11099,"Ġê·¼ëĮĢ":11100,"ĠíļŁ":11101,"íĺĳìķ½":11102,"ĠíĨłìļĶìĿ¼":11103,"Ġê°ľë°ľìĹĲ":11104,"elop":11105,"ë²łìĿ´ìĬ¤":11106,"Ġê³łê°ĿìĹĲê²Į":11107,"Ġê¸°ëĮĢíķľëĭ¤":11108,"ĠíĮĲë§¤íķĺëĬĶ":11109,"Ġì¡´ìŀ¬íķľëĭ¤":11110,"Ġê³µëıĻì²´":11111,"Ġë¹ĦêµĲíķł":11112,"ĠìĭľëĮĢê°Ģ":11113,"ë¥´ë¹Ħ":11114,"Ġìķķì¶ķ":11115,"ì»´íĵ¨íĦ°":11116,"Ġì°¨ëŁīìĿĦ":11117,"Ġë°ĶëŀĮìĹĲ":11118,"Ġë°ĶëŀĮì§ģ":11119,"Ġê³łë¯¼ìĿĦ":11120,"ĠìĦłë³´ìĿ¸":11121,"Ġëı¼ì§Ģ":11122,"Ġë§¥ì£¼":11123,"ê³¼ìłķìĹĲìĦľ":11124,"Ġê°ĢëĵĿíķľ":11125,"Ġìĥģê´ĢìĹĨìĿ´":11126,"ĠìĥģìĥĿë°©ìĨ¡":11127,"ĠìĤ½ìŀħ":11128,"PA":11129,"ok":11130,"rap":11131,"ª¼":11132,"æĦ":11133,"ë¥´ë°Ķ":11134,"ë¦¬íĶĮ":11135,"âĢ»":11136,"ê³¼ê±°":11137,"ĠìĪĺì²ľ":11138,"ĠìĪĺìŀĪëĬĶ":11139,"Ġê·¸ëĵ¤":11140,"ìŀ¥íķľ":11141,"ìŀ¥íĮĲ":11142,"Ġê²ĥìĿ¼ê¹Į":11143,"ìķĦëĵ¤":11144,"ë§ĮìĹ¬":11145,"ĠìĭľíĬ¸":11146,"ĠìŀĲì¡´":11147,"Ġë³´ì»¬":11148,"Ġì£¼ê°Ħ":11149,"Ġê²½ëł¥":11150,"ĠìĿ´ëħĲ":11151,"Ġì¤ĳë°ĺ":11152,"ëĲĺëĬĶëį°":11153,"ê±°ë¦¬ê°Ģ":11154,"ìŀ¬ìłķë¶Ģ":11155,"ìĥĿìĿ´":11156,"ê¸Īë¦¬":11157,"Ġìļ°ìĹ°íŀĪ":11158,"ĠìĦłìĪĺê°Ģ":11159,"Ġë°Ķìģľ":11160,"Ġêµ¬ê²½":11161,"Ġë¯¸ìļ©":11162,"Ġë¯¸ìĤ¬ìĿ¼":11163,"ìŀĳìĿĦ":11164,"ìĭ¬ë¦¬":11165,"Ġìŀ¥ìĿĦ":11166,"ì²ŃëħĦ":11167,"Ġìŀ¬ëĭ¨":11168,"Ġíķłê¹Į":11169,"ĠìĤ¬ìļ©íķĺê¸°":11170,"Ġë°°ëĭ¹":11171,"íķ¨ê»ĺ":11172,"ĠíķľêµŃìĿĦ":11173,"ë£¨íĬ¸":11174,"Ġíĺ¸ìĪĺ":11175,"ë°°ëĭ¹":11176,"Ġìķ½ê°ĦìĿĺ":11177,"Ġê¸Īë©Ķëĭ¬":11178,"ĠPH":11179,"ĠìŀĦì§ģìĽĲ":11180,"Ġcol":11181,"ë³ĢíĻĶ":11182,"ëĨĢ":11183,"Ġê·¼ëį°":11184,"Ġìļ©ìĿ´":11185,"Ġê°ľë°ľìŀĲ":11186,"Ġë°±ìĭł":11187,"Ġíı¬íķ¨íķľëĭ¤":11188,"ĠíļĮìĽĲê°Ģìŀħ":11189,"Ġê²ĮìŀĦìĿĺ":11190,"ĠíķĻìĥĿìĿ´":11191,"ĠíĻľëıĻìĹĲ":11192,"ĠìĥīìĥģìĿĢ":11193,"ìľĦìĽĲíļĮê°Ģ":11194,"ĠìľĦì¹ĺíķĺê³ł":11195,"Ġì¦īê°ģ":11196,"ĠëĤĺìĺ¤ì§Ģ":11197,"ĠëķĲ":11198,"ĠìĤ¬ê±´ìĿĺ":11199,"ĠìķĮìķĦìķ¼":11200,"Ġë°©ìĭĿìĿ´":11201,"ĠíĮĢìĿ´":11202,"Ġê¸°ë°ĺìĿĦ":11203,"ĠìĦ¸ìĥģìĹĲìĦľ":11204,"ĠìĿ´ê³³ìĿĢ":11205,"ĠìĻĶìĬµëĭĪëĭ¤":11206,"Ġë¹¼ìķĹ":11207,"äºĭ":11208,"íħįìĬ¤íĬ¸":11209,"Ġì¶ľìĭłìĿĺ":11210,"ĠëĿł":11211,"ĠëĳĺëŁ¬ìĭ¸":11212,"ove":11213,"Ġë¬´ëįĶ":11214,"ìĸ´ëĦ£":11215,"ãĥ»ãĥ»ãĥ»ãĥ»ãĥ»ãĥ»ãĥ»ãĥ»":11216,"Ġì¹ĺìĹ´íķľ":11217,"Ġê°Ģë³įê²Į":11218,"ª©":11219,"ëĭ¤ìĸĳ":11220,"Ġìŀ¦":11221,"ê³łìĹĲ":11222,"Ġê²ģ":11223,"ë²ħ":11224,"ìļĶê¸Ī":11225,"íļĮê´Ģ":11226,"ĠìĿ¸ìłģ":11227,"ĠìľĦì¶ķ":11228,"ĠìĿ¼ìłķìĿĦ":11229,"ìĤ°ìĹĲ":11230,"Ġë¶Ģê°Ģ":11231,"Ġë¹Ħìľł":11232,"ë§Īë¦¬":11233,"ĠìĹĨëįĺ":11234,"ĠëħĢ":11235,"ĠìķĪê³ł":11236,"ĠìķĪëĲĺëĬĶ":11237,"ë°©ìķĪ":11238,"ìĹĲê²ĮìĦľ":11239,"ì°¨ê²Į":11240,"ëĶª":11241,"ina":11242,"ĠìĤ¬ëŀĮìľ¼ë¡ľ":11243,"ì²ŃìĹĲ":11244,"Ġ#ãĢĲ":11245,"Ġëĵ¤ìĿĢ":11246,"ĠíĻķë¦½":11247,"ê°ķëıĻ":11248,"Ġìĺ¬ëŀĲ":11249,"ĠìĥĿê°ģíĸĪëĭ¤":11250,"Ġì§ģìĽĲìĿ´":11251,"ative":11252,"ëŁīìĹĲ":11253,"Ġë³¸ëŀĺ":11254,"Ġì§ĳìľ¼ë¡ľ":11255,"ĠìĤ°íķĺ":11256,"Ġìłľê³µëĲĺëĬĶ":11257,"Ġë°ķìĬ¤":11258,"ĠìĨįìľ¼ë¡ľ":11259,"ions":11260,"Ġê¸°ìĹħìĹĲ":11261,"Ġê¸°ìĹħëĵ¤ìĿ´":11262,"ĠìłľíĴĪìĹĲ":11263,"Ġ08":11264,"Ġmore":11265,"ìĹ¼ìĥī":11266,"Ġì°¸ìĹ¬ë¥¼":11267,"Ġê°Ģì¡±ê³¼":11268,"ĠìĻĢìĻĢ":11269,"Ġìľłì§Ģíķĺê³ł":11270,"Ġë¯¿ìĿĦ":11271,"Ġëĭµëĭµ":11272,"ê·¸ë£¹ìĿĺ":11273,"ĠìĦłìĪĺëĵ¤ìĿ´":11274,"ĠìĿ´ê³³ìĹĲìĦľ":11275,"ï½ı":11276,"Ġë°Ķê¾¸ëĬĶ":11277,"Ġíģ´ëŀĺìĬ¤":11278,"ë°Ģë¦¬ë¯¸íĦ°ë¡ľ":11279,"Ġìĭłìļ©ì¹´ëĵľ":11280,"íı´ë¦¬":11281,"ĠìŀĲìľ¨ì£¼íĸī":11282,"Ġíı´ë¦¬":11283,"Ġê³³ê³³ìĹĲ":11284,"Ġterminal":11285,"ĠíħĶëłĪ":11286,")\"":11287,"101":11288,"GM":11289,"è¡":11290,"ĺ¥":11291,"ĠìķĪëĭ¤":11292,"íķ´ì§Ħëĭ¤":11293,"ìĭľíķĺëĬĶ":11294,"ìŀĲë©´":11295,"ĠìĪĺëĭ¨":11296,"Ġê·¸ë¦ĩ":11297,"ëĮĢë§Į":11298,"Ġíķĺìĭ¤":11299,"Ġíķľê³Ħ":11300,"ĠìķĦíĮĮ":11301,"ìłĦíĺķ":11302,"ëĭĪëĬĶ":11303,"ĠìľĦìķĪ":11304,"Ġì¤ĳëıĦ":11305,"Ġì¤ĳìĹĲëĬĶ":11306,"ëŁ¬ë¥¼":11307,"ìĥĿê°ģ":11308,"ĠìĿĺê²°":11309,"íĺ¸ìĦł":11310,"Ġì¹´ë":11311,"Ġìĭłë¹Ħ":11312,"Ġìĭłì²ľì§Ģ":11313,"ĠêµŃíļĮìĹĲìĦľ":11314,"ëŀĮíļĮ":11315,"íĴĪìłĪ":11316,"Ġì§Ħë¦¬":11317,"ìĺĢì§Ģë§Į":11318,"ëª¨ë¥¼":11319,"ë³¸ì¡°":11320,"ĠíĽĦë°°":11321,"Ġëĭ¨íĸī":11322,"Ġ62":11323,"ë²Ħë¦°":11324,"ê²łìĬµëĭĪê¹Į":11325,"ĠST":11326,"ĠSystem":11327,"ĠìĥĿê°ģíķĺë©´":11328,"Ġ72":11329,"Ġì¦Ŀìĸ¸":11330,"Ġìļ´íķŃ":11331,"alle":11332,"ĠìĹ´ìĹĪëĭ¤":11333,"Ġì§ĳíķĦ":11334,"ĠìłĲìĪĺë¥¼":11335,"Ġìķ½ê´Ģ":11336,"Ġìķ½ê´ĢìĹĲ":11337,"Ġìłľê³µìĿĦ":11338,"Ġìĭ¬íĻĶ":11339,"ĠìķĦìĿ´ëıĮ":11340,"ĠìĤ¬íļĮê°Ģ":11341,"ì»¤ìĬ¤":11342,"Ġì§ĦíĸīëĲĺê³ł":11343,"ĠíĨ±":11344,"ĠíļĮìĤ¬ìĹĲìĦľ":11345,"íĿ¬ëĬĶ":11346,"Ġê¸°ìĹħìĿĦ":11347,"Ġìļ´ìĺģìĿĦ":11348,"Ġê´Ģê³ĦìĹĲ":11349,"ìĿ´ì§ĢìļĶ":11350,"ê²Ģì§Ħ":11351,"Ġêµ¬ìĦ±ìĽĲ":11352,"Ġë¶ģíķľìĿĢ":11353,"ĠíıŃëł¥":11354,"Ġë³´ìĹ¬ì¤Ģ":11355,"Ġìĸ´ëł¤ìĽĢìĿ´":11356,"Ġê°Ģì¡±ìĿĺ":11357,"ê·Ģì´Į":11358,"ê·¸ë£¹ìĿĢ":11359,"ì¿łë²Ħ":11360,"Ġë¹¨ê°ķ":11361,"Ġë¶Ļìĸ´":11362,"ĠìĦłìłķëĲľ":11363,"Ġê²½ì°°ìĿĢ":11364,"Ġë¹Ħì¦ĪëĭĪ":11365,"Ġëĭ¹ìĹ°íķľ":11366,"Ġì½ľëĿ¼":11367,"Ġì¹Ńì°¬":11368,"ĠìĿ´ëªħë°ķ":11369,"strong":11370,"ìĸ´ëĸ¤":11371,"ĠìĻłì§Ģ":11372,"ëį¥ì§Ģê·¼íķľ":11373,"íīģ":11374,"Ġë¹Ħë¡ľìĨĮ":11375,"ĠìĿ´ëģĦëĬĶ":11376,"oT":11377,"âĶ":11378,"ĠëĿ½":11379,"íķı":11380,"Ġê¾":11381,"íķĺëĿ¼ëĬĶ":11382,"ìĿ¸ëĭ¹":11383,"ìĿ¸ëĵ¤ìĿĦ":11384,"ĠìĿ´ìĿĢ":11385,"ë©ľ":11386,"ìĤ¬ê¸°":11387,"ìĤ¬ëł¹":11388,"ê²ĮìļĶ":11389,"ĠìĪĺë¹Ħ":11390,"Ġíķĺëł¤ê³ł":11391,"Ġê¸°ìĤ¬ë¥¼":11392,"ĠìķĦìī½":11393,"íĬ¸ëŁ¼íĶĦ":11394,"ìĽĶë§Ĳ":11395,"Ġì£¼ë°©":11396,"Ġê²½ë§¤":11397,"ì§Ħëĭ¨":11398,"ëŁ¬ìĭľìķĦ":11399,"Ġê³µíķĻ":11400,"Ġìĥģìļ©":11401,"Ġë¶Ģì°©":11402,"Ġê³łìĪĺ":11403,"ìľĦìĿ¸":11404,"ìľĦìĹĲìĦľ":11405,"ê±°ë¦¬ë¥¼":11406,"ë¶Ħê»ĺ":11407,"ĠìľłìłĦìŀĲ":11408,"Ġë§Īëķħ":11409,"ìĹ°ìĿĢ":11410,"ê·¸ë¦°":11411,"Ġë§Ĳíķĺë©°":11412,"ì¤ĳíķĻêµĲ":11413,"ĠìłĢìĻĢ":11414,"Ġë¶ĪíķĦ":11415,"Ġê³Ħê³¡":11416,"Ġìłģëĭ¹":11417,"Ġê¹Ģíķ´":11418,"Ġê¹Ģìļ©":11419,"Ġê¹ĢìĹ°":11420,"Ġì¶Ķì²¨":11421,"ĠíĽĦìĨį":11422,"ë°ĶìĿ´ìĬ¤":11423,"ë¥ĺìĿĺ":11424,"Ġ85":11425,"ality":11426,"Ġìłľê³µíķ´":11427,"ĠìķŀìĦł":11428,"ĠTechnolog":11429,"Ġì§ĢìĹŃìĿĢ":11430,"ome":11431,"ìĶ¨ìĻĢ":11432,"ĠëĮĢíĨµëł¹ìĿĦ":11433,"ĠìĤ¬ìĹħìĿĺ":11434,"ĠëĦ¤ëįľ":11435,"ĠíĮ¨íĤ·":11436,"Ġìļ´ìĺģìĹĲ":11437,"ìĤ¬ìĹħìĹĲ":11438,"ĠêµŃëĤ´ìĹĲìĦľ":11439,"Ġì¡´ê²½":11440,"íĮ¨ìħĺ":11441,"ĠíķĻìĥĿëĵ¤ìĹĲê²Į":11442,"Ġê·¸ê²ĥëıĦ":11443,"Ġë§īê¸°":11444,"´ë°Ľ":11445,"Ġì¤Ģë¹ĦíķĺëĬĶ":11446,"ĠíĻĺê²½ìĹĲìĦľ":11447,"ĠíĦ±":11448,"ĠìĤ¶ìĿ´":11449,"ëĲĲëįĺ":11450,"ĠëĽ°ìĸ´ëĦ":11451,"Ġë§¡ê³ł":11452,"ë¥´ëħ¸":11453,"ê´Ģê³Ħê°Ģ":11454,"ĠìĦłë³´ìĿ¸ëĭ¤":11455,"ĠìĽĢì§ģìĿ´ëĬĶ":11456,"Ġìŀ¬ë¯¸ë¥¼":11457,"ĠíĶ¼ë¶ĢìĹĲ":11458,"Ġíļ¨ìľ¨ìłģìĿ¸":11459,"Ġëĭ¤ëĭĪëĬĶ":11460,"Ġcomm":11461,"Ġì»¤ë®¤ëĭĪì¼ĢìĿ´ìħĺ":11462,"Ġë¶Īê°ĢíĶ¼":11463,"íĪ°":11464,"ĠíķĺëĵľìĽ¨ìĸ´":11465,"Ġíķ¸ëĵľíı°":11466,"ĠìĺģìĽĲíŀĪ":11467,"RE":11468,"cre":11469,"¯Ķ":11470,"¸ìĿĦ":11471,"åĽ":11472,"ìĮ":11473,"ĳ¼":11474,"ĻìĿĢ":11475,"ìĿĺìĭĿ":11476,"ê¸°ì¡´":11477,"íķ´ê²°":11478,"íķ´ìĻ¸":11479,"ìľ¼ìĭ¤":11480,"ìŀĲë£Įë¥¼":11481,"ĠìĪĺë¥¼":11482,"ĠìĪĺëł´":11483,"ĠìĤ¬ìĦľ":11484,"ĠëĮĢìĿĺ":11485,"ĠìĥĲ":11486,"Ġê¸°ë¶ĦìĿ´":11487,"Ġê°ĢìļĶ":11488,"Ġ250":11489,"ĠìłĦê¹Įì§Ģ":11490,"Ġìĭľê³¨":11491,"ìĬµê¸°ê°Ģ":11492,"ĠìŀĲìĺģìĹħ":11493,"Ġë³´ìĭľë©´":11494,"ĠìĿ¸íħĶ":11495,"ì¹ĺë¡ľ":11496,"ĠìĿ¼ëĭ¹":11497,"Ġëª¨íĦ°":11498,"Ġë¶ĢëĶª":11499,"êµĲìĪĺ":11500,"ĠìĹ°ìĪĺ":11501,"ĠìĹ°ëıĻ":11502,"Ġë§ĲìŀħëĭĪëĭ¤":11503,"ĠëĤ´ëĭ¤":11504,"Ġë¶ĦìĿĢ":11505,"Ġê±°ì¹ľ":11506,"íķĺê²ĮëıĦ":11507,"Ġìĸ´ëł":11508,"ĠìłĢë¥¼":11509,"ĠìłĢìĺ¨":11510,"ĠìĽĲë¦¬":11511,"ĠìĽĲë£Į":11512,"ë³¸ëĭ¤":11513,"ĠìŀħìĪł":11514,"Ġë°°ìĽĮ":11515,"ëĶĶìķĦ":11516,"ì½Ķë¥´":11517,"ĠíĶ¼ëĵľ":11518,"ĠCD":11519,"Ġëªħë°±":11520,"Ġíĺ¸ê¸°":11521,"ĠAn":11522,"Ġì§ĳìķĪ":11523,"ĠìłĲìľł":11524,"Ġìĺ¨ê°ĸ":11525,"Ġìĭľìŀĳíķ´":11526,"Ġíģ¬ë¦¬ìĹĲ":11527,"itt":11528,"ìķħìĿĺ":11529,"ĠíĸĪìĸ´ìļĶ":11530,"ĠíĥľëıĦë¥¼":11531,"Ġê¸°ìĪłê³¼":11532,"ĠìĤ¬ìĹħìĿ´":11533,"ĠëĨįë¯¼":11534,"ĠëĨįìĤ°ë¬¼":11535,"roup":11536,"oul":11537,"Ġìĸ»ìĹĪëĭ¤":11538,"Ġëª°ëŀĲ":11539,"Ġì¹ľêµ¬ëĵ¤ê³¼":11540,"ëĺĲëĬĶ":11541,"Ġì¶Ķì²ľíķ©ëĭĪëĭ¤":11542,"Ġë¹Ħìļ©ìĿĢ":11543,"ì½ĺíħĲì¸ł":11544,"ĠìĬ¬ë¡ľ":11545,"íĺĪìķķ":11546,"Ġì§ĢìłķëĲľ":11547,"Ġë¶ĦìľĦê¸°ê°Ģ":11548,"ìķĪìłĦíķľ":11549,"ëĶ°ëĿ¼ìĦľ":11550,"ĠìĺĪìķ½íķĺë©´":11551,"ì¾Įíķľ":11552,"ĠíĶĮëłĪìĿ´ìĸ´":11553,"íĳ¸ëĵľ":11554,"ì¤ĳìķĻì§Ģ":11555,"Ġê³łíĨµìĿĦ":11556,"Ġê´ľì°®ìĿĢ":11557,"ĠëĬĺìĸ´ëĤĺê³ł":11558,"ĠíĿĲë¦ĦìĿĦ":11559,"ĠìĿ´ëĿ¼ê³ł":11560,"ĠìĪĺìĺģìŀ¥":11561,"Ġì¢ģìĿĢ":11562,"ĠíĥĵìĹĲ":11563,"ĠëĤ´ëł¸ëĭ¤":11564,"ê´Ģíķľë²ķë¥ł":11565,"ĠìķĦìĭľìķĪê²ĮìŀĦ":11566,"ĠìĿ¼íĻĺìľ¼ë¡ľ":11567,".<":11568,".â":11569,"MB":11570,"PP":11571,"][":11572,"æ±":11573,"çĦ":11574,"Ġíĵ¨":11575,"ĠìłĬ":11576,"Ġê°ļ":11577,"ê¸°ìĹĲëĬĶ":11578,"ìĤ¬ìĿ´ëĵľ":11579,"ĠìĤ¬ë£Į":11580,"ëħĶ":11581,"ìķĦì§ģ":11582,"Ġíķľëį°":11583,"ĠìķĦíĶĶ":11584,"ì£¼ëıĦ":11585,"ĠìĭľìĹĲ":11586,"íĻĶíķľ":11587,".....":11588,"ë¬¸ìĿĢ":11589,"Ġì°°":11590,"ĠìŀĪëĬĶê°Ģ":11591,"ĠíĮ½":11592,"ìŀ¬ë¡ľ":11593,"ìŀ¬ìłķ":11594,"ĠìľłìĿµ":11595,"ĠìĥĿìķł":11596,"ê¸Īìľ¼ë¡ľ":11597,"ëĭ¨ìľĦ":11598,"ë¬´ê°Ģ":11599,"ĠìĦłíĸī":11600,"ê·¸ëĿ¼":11601,"ëŀĺíĶĦíĬ¸":11602,"ìĿ´ëĿ¼ìĦľ":11603,"Ġ51":11604,"ĠìĽĲìĿĺ":11605,"Ġê°Ĳëĭ¹":11606,"ë¡łìĿĢ":11607,"íĭ°ë¹Ħ":11608,"ĠíĿł":11609,"eng":11610,"Ġì»µ":11611,"êµ°ê³¼":11612,"Ġë§İìĿĢëį°":11613,"Ġê°ľìĿ¸ìłģìĿ¸":11614,"ì´ĪìĹĲ":11615,"ìĬ¤íĥĢìĿ¼":11616,"ĠíĴĢìĿ´":11617,"Ġë¯¸êµŃìĹĲ":11618,"Ġë²ĪëıĦ":11619,"ĠëĤłìķĦ":11620,"íĪ¬íĳľ":11621,"ĠRGB":11622,"Ġbase":11623,"Ġì²«ë²Īì§¸":11624,"ĠìĥīìĨĮ":11625,"Ġë¶ĦìĦĿíķľ":11626,"ĠìľĦì¹ĺìĹĲ":11627,"Ġìłķë§Ĳë¡ľ":11628,"ìº¡":11629,"ĠíķĻêµĲìĹĲìĦľ":11630,"Ġìĥģíĥľëĭ¤":11631,"Ġëī´ì§Īëŀľëĵľ":11632,"ĠíĻĪíİĺìĿ´ì§Ģë¥¼":11633,"Ġì£¼ìŀ¥íķĺëĬĶ":11634,"ĠìĤ¬ìĿ´íĬ¸ë¥¼":11635,"ĠìĿ¸ë¥ĺë¥¼":11636,"ĠìĽ¨ìĬ¬":11637,"Ġì£Ħë¥¼":11638,"ĠëĤĺëĪĦëĬĶ":11639,"ĠìĤ¬ìľłë¡ľ":11640,"ëĨĴìĿĢ":11641,"ype":11642,"Ġëħ¸íĬ¸ë¶ģ":11643,"ĠëĤ¯ìĦł":11644,"Ġ9788":11645,"ĠíĻľìĦ±íĻĶë¥¼":11646,"ĠëĪĮëŁ¬":11647,"ĠëĦ¤ìŀĦëĵľ":11648,"ĠìĭľëĤĺë¦¬ìĺ¤":11649,"CO":11650,"ci":11651,"lo":11652,"me":11653,"ps":11654,"åĬ":11655,"æ³":11656,"ç¾":11657,"ë¤Ħ":11658,"ëĮĦìĬ¤":11659,"ï½ĥ":11660,"íķĺëĲĺ":11661,"ìĦľêµ¬":11662,"ëıĦìĹĲìĦľ":11663,"ë¦¬ìķĪ":11664,"ĠìĿ´ê±¸":11665,"ĠìĿ´ê°ĻìĿ´":11666,"ìĤ¬ì±Ħ":11667,"Ġê·¸ëĵ¤ìĹĲê²Į":11668,"ìłķê¸°":11669,"ĠëĮĢëŁī":11670,"Ġê°ĢìĬ¤":11671,"ìķĦë§Ī":11672,"Ġì§ĢìĿĢ":11673,"Ġíķľì°½":11674,"Ġëĭ¤ë¬¸íĻĶ":11675,"Ġì£¼ìŀ¥ìĿĦ":11676,"Ġì£¼ìŀ¥ìĿ´":11677,"ĠìĿ¼ì¶ľ":11678,"Ġëª¨ë¥´ê²Į":11679,"Ġë¶Ģìĭ¤":11680,"Ġ3000":11681,"ĠìķĬëĭ¤ëĬĶ":11682,"Ġê³łë°ľ":11683,"Ġìľłìļ©íķľ":11684,"êµĲíļĮìĿĺ":11685,"ĠìĹ¬ê¸°ëĬĶ":11686,"ìĪ²":11687,"ĠìĭłíĻĶ":11688,"ĠìĭłìłľíĴĪ":11689,"Ġë°Ķìļ¸":11690,"Ġë°ľìĿĦ":11691,"ĠëıĻíı¬":11692,"ìĭ¬ìĹĲ":11693,"Ġê±°ëĿ¼ê³ł":11694,"íı¬êµ¬":11695,"ĠìĽĲì²ľ":11696,"ĠìĽĲìĿ¸ìĿĦ":11697,"ìĦĿìĿĺ":11698,"Ġê³¼ìĿ¼":11699,"Ġê²ĥìĿ´ì£ł":11700,"ì»·":11701,"ì¼°":11702,"ĠìķĦëĭĪëĿ¼ê³ł":11703,"ë¥ĺê°Ģ":11704,"Ġë¡±":11705,"Ġëį°ëĭ¤":11706,"ĠìĭľìŀĳíķĺìĹ¬":11707,"ê°ĿìĿ´":11708,"Ġìĸ¸ìłł":11709,"Ġì¤Ģê³µ":11710,"ĠìłķëıĦë¥¼":11711,"ĠìķĬëĬĶëĭ¤ë©´":11712,"Ġë²Ħë¦¬ê³ł":11713,"Ġì¤ĳêµŃìĿĢ":11714,"ĠìīĲ":11715,"Ġíĸ¥ìĥģìĿĦ":11716,"ĠìĹĨëĭ¤ë©´":11717,"Ġë¸Įë¦¬":11718,"ê¹ĢëıĻ":11719,"Ġë¨¸ë¦¿":11720,"ĠíİĺìĬ¤íĭ°ë²Į":11721,"ĠìĨĮë¹ĦìŀĲìĿĺ":11722,"ĠëıĮìķĦê°ĢëĬĶ":11723,"Ġê·¹ëĮĢíĻĶ":11724,"Ġë©´ìłľ":11725,"Ġì§Ģë°©ìĿĺ":11726,"Ġë°©ìĭĿìĿĺ":11727,"ĠìŀĲì²´ë¥¼":11728,"Ġíĺķíĥľë¥¼":11729,"ĠìłĦìĭľíļĮ":11730,"Ġëª¨ë¥´ê²łì§Ģë§Į":11731,"ĠìĹ¼ìĥī":11732,"Ġê·¼ê±°ë¡ľ":11733,"ëĨĵìĿĢ":11734,"ĠìļĶìĨĮê°Ģ":11735,"Ġìĥģíĺ¸ìŀĳìļ©":11736,"ê°ĴìĿĦ":11737,"ìĤ¬ìĿ´ì¦Ī":11738,"ĠíĿ¥ë¯¸ë¡ľìļ´":11739,"ä¹ĭ":11740,"ĠìķĪíĥĢê¹Ŀ":11741,"íĽ¼ìĨĲ":11742,"Ġê¸°ìŀĲíļĮê²¬":11743,"ìĸ´ë¦°ìĿ´":11744,"nnews":11745,"ì¤ĳê³łì°¨":11746,"ĠíĬ¸ëŀĺíĶ½":11747,"ë³¸ì¡°ìĭłìĦ¤":11748,"(-":11749,"Bike":11750,"¬ë½ķ":11751,"Ġ{":11752,"ł¥":11753,"ĠìŃ":11754,"ìľĹ":11755,"ìĿ¼ìĭľ":11756,"Ġë§ĳ":11757,"ìĭľì²Ń":11758,"ëĵ¤ê³ł":11759,"ĠìĤ¬ëĤ´":11760,"ìłķë§Ĳ":11761,"ìłģìĿĺ":11762,"Ġíķĺë³´ëĤĺ":11763,"Ġê°Ģê³Ħ":11764,"ĠìłĦêµĲ":11765,"ìłĦê³¼":11766,"êµŃê³¼":11767,"ĠìłķìĦľ":11768,"ìļ°ê°Ģ":11769,"ë¹ĦëĶĶìĺ¤":11770,"ìĨĮìľł":11771,"ĠëĤĺê³ł":11772,"Ġê³µëŀµ":11773,"Ġë¶Ģì±Ħ":11774,"ë¶Ħëĵ¤":11775,"ĠìĿĺê±°":11776,"ĠìĦľë©´":11777,"ìľłìķĦ":11778,"ĠìĭłëıĻ":11779,"Ġë°Ķì¹´ëĿ¼":11780,"Ġë°ľìĿĺ":11781,"ĠìķĪìĭ¬":11782,"ĠìĦ±íıŃëł¥":11783,"ìŀĳíĴĪ":11784,"íĽĦìĹĲ":11785,"Ġë¬´ìĥģ":11786,"ĠìķĮë¦¬ëĬĶ":11787,"ĠíķłìĪĺ":11788,"Ġíķłëĭ¹":11789,"Ġëĭ¨ëĭ¨":11790,"íĮĮëĿ¼":11791,"ĠíĮĮìŀ¥ìĿĦ":11792,"ê²łì§ĢìļĶ":11793,"ĠíĸīìĤ¬ê°Ģ":11794,"´ë³´ë":11795,"ĠAnd":11796,"ì¶ķìĤ°":11797,"Ġìķ½ê´ĢìĿĺ":11798,"Ġë°ķìłķ":11799,"ĠìķĦìĿ´ëĵ¤ìĿĦ":11800,"Ġê·¸ëŁ¬íķĺì§Ģ":11801,"Ġì²´íı¬":11802,"ĠëĶĶìĬ¤íģ¬":11803,"ĠíĸĪëĭ¤ëĬĶ":11804,"ĠìĪľìľ¼ë¡ľ":11805,"Ġìĭ¶ìĸ´ìļĶ":11806,"Ġì¤ĦìĹ¬":11807,"ĠíĨłìļĶ":11808,"ĠKOD":11809,"ĠíķĺëĤĺëĭĺê»ĺìĦľ":11810,"Ġíĺĳì¡°":11811,"ĠíĶĮëŁ¬":11812,"ĠEd":11813,"Ġë§ĪìĿĮìĿĺ":11814,"ëħĲìĿĦ":11815,"Ġìķ¼ê°Ħ":11816,"Ġê°ĪìķĦ":11817,"ì´ĿíļĮ":11818,"Ġë²Įê¸Ī":11819,"ĠìĿ´ëł¥":11820,"Ġ170":11821,"Ġë²ĶìľĦë¥¼":11822,"ĠìĿ¸íĦ°ëĦ·ìĿĦ":11823,"Ġê¿Ģ":11824,"Ġê°ľìĦłìĿĦ":11825,"Ġê²½ìŁģìĿĦ":11826,"Ġë³´íĺ¸ë¥¼":11827,"Ġëĥīìŀ¥":11828,"ëĭ¤ìļ´ë¡ľëĵľ":11829,"Ġê´ĳê³łë¥¼":11830,"ĠëĪĦêµ¬ëıĦ":11831,"ĠíĺĦìĭ¤ìĿĦ":11832,"Ġ1998":11833,"Ġë³´ëĤ´ê³ł":11834,"Ġê¹ĮëĭŃ":11835,"ĠìĭľìĦ¤ìĿĦ":11836,"Ġë¹ĽìĿĦ":11837,"ë§Ľì§ĳ":11838,"Ġê¸įìłķìłģ":11839,"ĠìĿ¼ìľ¼íĤ¤":11840,"ĠëĤļìĭľ":11841,"Ġê·¼ë³¸ìłģìĿ¸":11842,"Ġë¡łì¹Ń":11843,"CM":11844,"pon":11845,"Â®":11846,"ê°Ģìĥģ":11847,"ëĵ£":11848,"ë¦¬ëĭĪ":11849,"ĠìĹ´ëł¤":11850,"ê³¼íĽĦ":11851,"ìĽĲëıĦ":11852,"ìķĦìļ¸ëŁ¬":11853,"ĠìĭľìĽĲíķľ":11854,"ìłĦìľ¼ë¡ľ":11855,"ìłĦë¶ĢíĦ°":11856,"ĠâĢ¢":11857,"Ġìłķëł¬":11858,"êµ¬ìĻĢ":11859,"Ġë³´ê±´ë³µ":11860,"ëĭĪìĿĺ":11861,"ĠìĿ¸ëĶĶ":11862,"ĠìľĦìĥĿ":11863,"ìŀĦëĮĢ":11864,"Ġë¶Ģëĭ¹":11865,"ëªħëł¹":11866,"Ġìĺ¤ê³ł":11867,"Ġê³łì¡¸":11868,"ĠìĨĮì¹´":11869,"ìĹ°ê²°":11870,"ĠìĦłì²ľ":11871,"íĹ¨":11872,"Ġë°ľìĤ¬":11873,"Ġë¬¸ìĦľë¥¼":11874,"Ġë¶Ħíı¬":11875,"ĠêµĲíļĮë¥¼":11876,"ëĶľ":11877,"ì²ľìĹ¬":11878,"ê¶Įê³¼":11879,"Ġìŀ¬ì§ģ":11880,"ĠëĤ¨ë¶Ģ":11881,"Ġ600":11882,"ëĶĶìĬ¤íģ¬":11883,"ì¢ħìĿ´":11884,"íĮĮë¡ľ":11885,"ĠíķĺëĤĺëĭ¤":11886,"ĠíķĺëĤĺëıĦ":11887,"ê²łëĬĲëĥĲ":11888,"ĠSu":11889,"120":11890,"ìłĪì°¨":11891,"ĠíĻĶìĦ±":11892,"Ġê°ľìĿ¸ìłķë³´ë³´íĺ¸":11893,"ĠIt":11894,"ëıħìĦľ":11895,"ĠëĤłìĶ¨ê°Ģ":11896,"Ġìłķë³´ìĿĺ":11897,"Ġì¤ĳêµŃìĿ´":11898,"Ġì¤ĳêµŃê³¼":11899,"Ġê¸°ìĹħìĿĢ":11900,"ĠìĿ´ìĸ´ì¡Įëĭ¤":11901,"ĠëĤĺíĥĢëĤľëĭ¤":11902,"ë¨¸ë¦¬":11903,"Ġwww":11904,"Ġì°¾ìķĦê°Ģ":11905,"ìħĶì¸ł":11906,"Ġë§ĽìŀĪ":11907,"ĠìŀĳíĴĪìĿ´":11908,"ĠëĮĢë¶Ģë¶ĦìĿĢ":11909,"ĠìĿ½ê¸°":11910,"ê±¸ìĿ´":11911,"ĠëĭµìĿĦ":11912,"ĠìŀĲê¸°ìĿĺ":11913,"ê¸°ê°ĦìĹĲ":11914,"ĠëħĦê°Ħ":11915,"ĠìĹ¬ê¸°ìĹĲìĦľ":11916,"ëĲĲìľ¼ë©°":11917,"ãħĭãħĭãħĭãħĭ":11918,"Ġê±°ëŀĺë¥¼":11919,"ĠìłĦë¬¸ê°Ģëĵ¤ìĿĢ":11920,"Ġë°¤ìĹĲ":11921,"Ġìłľìĭľíķľ":11922,"ĠíĹĮìĭł":11923,"ðŁĺ":11924,"ëĸ¼":11925,"Ġë¶ĢíļĮìŀ¥ìĿĺ":11926,"Ġcharacter":11927,"ource":11928,"ĠëĵľëĿ¼ìĿ´ë²Ħ":11929,"ĠëĳĲëł¤ìĽĮ":11930,"ĠìĿ´ë³ĳ":11931,"Ġê¸°ìŀĲíļĮê²¬ìĿĦ":11932,"Ġì§ĢìŀĲì²´":11933,"Ġëĭ¤ìĿ´ìķĦëª¬ëĵľ":11934,"ĠKODEX":11935,"Sh":11936,"VD":11937,"Ĥľ":11938,"ì§Ģìłķ":11939,"ìķ±":11940,"ê³¼ëª©":11941,"ìĸ´ì§Ģê³ł":11942,"íĺĶ":11943,"ĠëĮĢê±°":11944,"ĠíķĺëıĦë¡Ŀ":11945,"Ġì§ĢëĬĶ":11946,"ĠìĭľíĤ¤":11947,"Ġìĭľë®¬":11948,"êµŃìŀ¥":11949,"ĠìłķìĦ±":11950,"ê¹¥":11951,"Ġê´ĢìłĪ":11952,"Ġë¹Ħê·¹":11953,"Ġë¹Ħìĭ¸":11954,"ìĭĿìĹĲìĦľ":11955,"ìĺ¤ë¥¼":11956,"Ġìľłì£Ħ":11957,"Ġìľłíĺ¹":11958,"ë§ĪëĬĶ":11959,"ìĿĮìĹĲ":11960,"ëł¤ìķ¼":11961,"ìĹ°ëĮĢ":11962,"ĠëĦī":11963,"Ġë¶Ħëĵ¤ëıĦ":11964,"Ġê±°ìłľ":11965,"Ġì´Ľë¶Ī":11966,"erg":11967,"ìĺĢìľ¼ë©°":11968,"ĠíĬ¹ì§ĳ":11969,"ì²ĺë¶Ħ":11970,"org":11971,"Ġ700":11972,"ĠìĥĪëĪĦë¦¬":11973,"ĠíĶ¼íķł":11974,"ĠíĶĦë¡ľíĨł":11975,"ìĺĪìĪĺ":11976,"Ġê°ĢëĬ¥íķł":11977,"Ġê·¸ëŁ¬ëĭĪ":11978,"Ġì¹ĺëŁ¬":11979,"ĠìŀĪìĸ´ìĦľëĬĶ":11980,"Ġë©Ķë¥´":11981,"Ġë©ĶíĥĪ":11982,"íħĮìĿ´":11983,"Ġì°¾ìķĺëĭ¤":11984,"ì¡ĮìĿĦ":11985,"Ġì§Ħíĸīíķľ":11986,"Ġì§ĦíĸīëĲĲëĭ¤":11987,"Ġì´Ŀê´Ħ":11988,"ĠìĪľë³µ":11989,"Ġab":11990,"ë°Ľì§Ģ":11991,"ĠìłľíĴĪìľ¼ë¡ľ":11992,"ĠìŀĪìĿĦê¹ĮìļĶ":11993,"ĠëĤĺíĥĢëĤł":11994,"ĠGM":11995,"Ġbut":11996,"íĮĢìĿĦ":11997,"Ġì¶ķë³µ":11998,"Ġê±´ê°ķìĹĲ":11999,"ĠNH":12000,"Ġê¸°ëĬ¥ìĿĢ":12001,"Ġíĺ¸íħĶë¶ĢíĦ°":12002,"ĠOne":12003,"Ġë¶ĦìĦĿíĸĪëĭ¤":12004,"ìĤ¬íļĮëĬĶ":12005,"ĠìŀĲëıĻíĻĶ":12006,"ìľĦìĽĲíļĮë¥¼":12007,"ë§ģìĿĦ":12008,"Ġhas":12009,"ìĤ°ìĹħìĿĺ":12010,"Ġíķ´ê²°íķł":12011,"´ë§Ŀ":12012,"Ġì§ĢëĤĺë©´":12013,"ìļķìĿĦ":12014,"ä¸ī":12015,"ĠìĦĿíĥĦ":12016,"Ġíĺģëªħ":12017,"ĠìĨĶë¡ľ":12018,"ĠíĬ¹ì§ķìĿ´ëĭ¤":12019,"ìĺģíĻĶìłľ":12020,"ĠìłĦëŀµìłģ":12021,"ĠìĦłë³´ìĺĢëĭ¤":12022,"ĠìĿ´ë¤Ħì§Ħ":12023,"Ġìĭ¸ìĽĢ":12024,"ĠìĬµëĵĿ":12025,"ìŀĶì¹ĺ":12026,"Ġë¬»ëĬĶ":12027,"Ġë¶ĢìłķìłģìĿ¸":12028,"Ġë¸ĮëĿ¼ì§Ī":12029,"Ġê²Ģì°°ìĿĢ":12030,"Ġê³ĦìłĪìĹĲ":12031,"Ġì²łìłĢíķľ":12032,"ĠìĤ¬íļĮë³µì§ĢìĤ¬":12033,"ìŀĲê²©ì¦Ŀ":12034,"Ġë¬´ë¦İ":12035,"BD":12036,"¤ĺ":12037,"æµ":12038,"éĢ":12039,"ë¡ľìĽĮ":12040,"ìļ´ë§¤":12041,"´ëª¨":12042,"ëıĦìłĦ":12043,"ìĿ¸ë¯¼":12044,"ĠìĿ´ëĵ¤ìĹĲê²Į":12045,"ìĤ¬ê´Ģ":12046,"ìĤ¬ë¡Ģ":12047,"ĠìĪĺë©´":12048,"ìĻģìĬ¤":12049,"ìķĦë¦Ħ":12050,"ìłľìĿ´":12051,"Ġíķľìª½":12052,"ìļĶìĨĮ":12053,"ìĪĺìłķ":12054,"ë³´ìŀĲ":12055,"Ġê²½íĸ¥":12056,"ĠìĿ¼ìĿ¼":12057,"ĠìĿ¼ëł¨ìĿĺ":12058,"Ġëª¨ìĿĢ":12059,"ëĲĺì§Ģë§Į":12060,"ëĲĺëıĦë¡Ŀ":12061,"Ġìĺ¤ì¼ĢìĬ¤íĬ¸ëĿ¼":12062,"ĠìĹĨìĸ´ìļĶ":12063,"Ġë§Īìĭľê³ł":12064,"ĠëķĮë³´ëĭ¤":12065,"ìķĪëĤ´":12066,"ìĹĪê¸°":12067,"ĠìĦ±ìĤ¬":12068,"ì¤ĳìĹĲìĦľ":12069,"ìħ¨ìĸ´":12070,"íĭĪ":12071,"ĠíļĮìłĦ":12072,"Ġìĸ´ëĶ":12073,"ìķĺëĭ¤ëĬĶ":12074,"Ġìŀ¬íķ´":12075,"ĠíĬ¹ê²Ģ":12076,"ĠíĬ¹ìłķíķľ":12077,"Ġê¹Ģë³ĳ":12078,"ĠíİĮ":12079,"ĠíĽĦìĹĲëıĦ":12080,"Ġê°ĲìĪĺ":12081,"ĠìŀħìĽĲ":12082,"Ġë°°ê°Ģ":12083,"Ġ69":12084,"ĠìĥĿê°ģíķĺì§Ģ":12085,"Ġì°¸ìľ¼ë¡ľ":12086,"Ġì¢ħë¡ľ":12087,"Ġìĭ¬ë¦¬ìłģ":12088,"ìĺ¨ì¹´ì§Ģëħ¸":12089,"Ġê°ĢëĬ¥íķĺê²Į":12090,"ĠíĮĲë¬¸ìłĲ":12091,"ĠëĿ¼ìĿ´íĬ¸":12092,"Ġëĵ¤ìĸ´ìĻĢ":12093,"íķ´ìķ¼ë§Į":12094,"ì¡Įì§Ģë§Į":12095,"ì¡Įëĭ¤ëĬĶ":12096,"Ġë³µìĤ¬":12097,"Ġì´ĿíļĮ":12098,"Ġpre":12099,"ĠìĹ°êµ¬ëĬĶ":12100,"Ġëĭ¤ìĿĮëĤł":12101,"ĠíĮ¨ëĵľ":12102,"ĠíĤ¹":12103,"ë·°íĭ°":12104,"ĠìļĶêµ¬íķł":12105,"Ġë°ľìłĦìĹĲ":12106,"ĠìĦ±ê³µìĿĦ":12107,"íķ´ë¶ĢíĦ°":12108,"Ġì¡°ê¸Īë§Į":12109,"ĠíĿĲë¥´ëĬĶ":12110,"Ġì°¨ëŁīìĿĺ":12111,"åħ¸":12112,"Ġë¬´ëĮĢë¥¼":12113,"ĠìĹ°ëĿ½ì²ĺ":12114,"ĠìŀĲëŀĳíķĺëĬĶ":12115,"Ġë»Ĺ":12116,"Ġëŀľëĵľ":12117,"Ġê³łêµ¬ëł¤":12118,"etwork":12119,".*":12120,"IF":12121,"WS":12122,"ah":12123,"fnnews":12124,"ìĿ´ëıĻ":12125,"ìĬĽ":12126,"ìĭľê¸¸":12127,"ìĸ´ì´Į":12128,"Ġê¸°ë»Ĳ":12129,"ìĥģê¸°":12130,"ë²¡":12131,"ì£¼ì§Ģ":12132,"ëıĻê¸°":12133,"íĦ°ìĿĺ":12134,"Ġì£¼ìĤ¬":12135,"ĠìľĦìķĶ":12136,"íĮ½":12137,"Ġë¶Ģê°ģ":12138,"ê²½ìĿĢ":12139,"ë§ĪìĿĺ":12140,"ĠìĹĨëĬĶëį°":12141,"ê°ľêµŃ":12142,"ìĿĮìĭĿ":12143,"ìľłì¹ĺ":12144,"Ġë°ĶìĿ´ìĸ´":12145,"Ġíķ´ê°Ģ":12146,"Ġë§Ĳìķĺëĭ¤":12147,"Ġë§ĲìķĦìķ¼":12148,"ĠëĤ´ìĿ¼":12149,"ì¶ľìĤ°":12150,"íİĮ":12151,"Ġì§Ħë¦¬ë¥¼":12152,"Ġê±°ìķ¼":12153,"íĽĦìĿĺ":12154,"Ġê°ķíĻĶë¥¼":12155,"ìĨįìľ¼ë¡ľ":12156,"ëª¨ë°ĶìĿ¼":12157,"ìļ¸ìĤ°":12158,"ĠëĤ¨íķľ":12159,"ê°Ĳìľ¼ë¡ľ":12160,"ìłĢëĦĲ":12161,"Ġìĸ´ë¦´":12162,"ì¹´ë¥´íĥĢ":12163,"Ġìĺ¬ë¦¬ëĬĶ":12164,"ĠìĥĿê°ģëıĦ":12165,"ĠíĶ¼ìĭłì²Ń":12166,"ĠCE":12167,"Ġì¦ĿìĥģìĿĦ":12168,"Ġë¦¬ì¡°íĬ¸":12169,"ĠìĤ°ìłķ":12170,"íİ¸ìĿ´":12171,"Ġìĸĳë§Ĳ":12172,"ĠìĨįëıĦê°Ģ":12173,"ĠìķĦìĿ´ìĬ¤":12174,"Ġì½Ķëĵľë¥¼":12175,"Ġ:)":12176,"Ġì¶©ì²Ń":12177,"Ġê±¸ë¦°":12178,"2010":12179,"Ġì¤ĦìĿ´ê¸°":12180,"ĠëĦĺê²¨":12181,"ï¼ī":12182,"ĠíĺĳëıĻ":12183,"ì¹¨ìĹĲ":12184,"Ġê¸¸ìĿĢ":12185,"Ġê¸¸ê²Į":12186,"Ġout":12187,"ìĹ´ìĹĲ":12188,"ë²łë¦¬":12189,"ĠíķĻìĥĿëĵ¤ìĿĦ":12190,"Ġwas":12191,"Ġinter":12192,"Ġê´Ģë¦¬íķĺëĬĶ":12193,"Ġìłģìļ©íķľ":12194,"ë³´íĹĺë£Į":12195,"ĠìķĪìłĦìĿĦ":12196,"Ġë§īëĮĢíķľ":12197,"Ġíĺ¸íħĶìĬ¤ëĭ·ì»´":12198,"Ġë³´ìĹ¬ì¤Ħ":12199,"ĠìĤ¶ìĹĲ":12200,"ĠìĭľìĬ¤íħľìĿĺ":12201,"ë¬¸íĻĶìŀ¬":12202,"ĠêµĲìĪĺê°Ģ":12203,"Ġìĥģíĥľê°Ģ":12204,"Ġìłķì±ħìĹĲ":12205,"Ġë§Īëł¨íķ´":12206,"Ġê³µê°ľëĲľ":12207,"ĠìĽĮìĭ±íĦ´":12208,"ĠíĽĦë³´ê°Ģ":12209,"Ġì§ģìĽĲëĵ¤ìĿ´":12210,"ĠìĹ¬ë¦Ħì²ł":12211,"Ġëĭ´ëĭ¹íķĺëĬĶ":12212,"ëłīìĬ¤":12213,"ĠìŀĥìĿĢ":12214,"Ġë¹ĦíĮĲíĸĪëĭ¤":12215,"ĠëĨĴìķĦì§Ģê³ł":12216,"Ġprocess":12217,"ĠìĿ¸íĦ°ë·°ìĹĲìĦľ":12218,"ĠëģĿëĤĺê³ł":12219,"ĠíķľíĻĶì¦Ŀê¶Į":12220,"ĠìĿ¼ìŀĲë¦¬ë¥¼":12221,"ĠUSB":12222,"ield":12223,"Ġë¦¬ìĦľì¹ĺë³¸ë¶Ģ":12224,"âĢĶâĢĶ":12225,"Ġìĭ¤ë¦¬ì½ĺ":12226,"ìļ´ë§¤ìļ°":12227,"ake":12228,"ht":12229,"soft":12230,"ìĳ":12231,"íĵ":12232,"ìĿ´ê¸°ìĹĲ":12233,"ĠìĿ´ìĭĿ":12234,"ë°ĭ":12235,"ëĿ¼ìļ°":12236,"Ġê·¸ìķ¼ë§Ĳë¡ľ":12237,"Ġê°Ģì§ľ":12238,"Ġì§ĢëĤ´":12239,"ĠìłĦìĦ¸":12240,"ĠìłĦìĹĲëĬĶ":12241,"íĻĶë©´":12242,"ĠìŀĲë¶Ģ":12243,"Ġì£¼ìľĦ":12244,"ĠìĿ¼ëª°":12245,"íĮ¸":12246,"íĸīìĿ´":12247,"Ġê³łìĨĮ":12248,"Ġë¹ĦëĪĦ":12249,"ê²½íĹĺ":12250,"ìĿĮìĿĢ":12251,"Ġë§Įëĵľ":12252,"Ġë§ĮëĤ¬":12253,"Ġìĭłê¸°":12254,"Ġë°Ķê¹¥":12255,"Ġë§ĲëĿ¼":12256,"Ġë¯¸ì¹ľ":12257,"ĠëĤ´ìĭľê²½":12258,"Ġê±°ëĭ¤":12259,"Ġê±°ì¹ĺ":12260,"Ġìŀ¥ë¡ľ":12261,"ĠìĽĲìŀ¥ìĿĢ":12262,"Ġíı¬ì°©":12263,"Ġê¹Ģìĥģ":12264,"íĺĦìĿĢ":12265,"Ġê°ĲìłķìĿĦ":12266,"Ġëĭ¨íĮĮ":12267,"ê°ķìĿĦ":12268,"íĮĮìĿĺ":12269,"ĠìļĶìĿ¸":12270,"Ġì¦Ŀì§Ħ":12271,"ĠAD":12272,"ĠëĨĴìĿ¼":12273,"ĠëĨĴìķĺëĭ¤":12274,"ĠìĨįíķľ":12275,"Ġíģ¬ì§Ģ":12276,"Ġë²ķìĽĲ":12277,"ĠìĿĮë¶ĢìĻĢ":12278,"ital":12279,"Ġíİ¸ìĿ´ëĭ¤":12280,"Ġíİ¸ìŀħ":12281,"Ġë©ĶìĿ´íģ¬":12282,"Ġë¶ģì¸¡":12283,"Ġë³µìĿĮìĿĦ":12284,"Ġì´ĿìĪĺ":12285,"ĠëĤłìĿ¸":12286,"ĠíĺķìĭĿìľ¼ë¡ľ":12287,"ëĳĳ":12288,"Ġê¸°ìĪłë¡ľ":12289,"ĠíĶĮëŁ¬ìĬ¤":12290,"ĠìĿ´ìķ¼ê¸°ëĬĶ":12291,"ĠìĬ¹ë¦¬ë¥¼":12292,"ĠìĦ¤ëªħíķ´":12293,"ĠëģĿìĿ´":12294,"Ġìĵ°ëŁ¬":12295,"Ġì²«ëĤł":12296,"ĠíĻľëıĻìĿ´":12297,"Ġì¶ķìłģ":12298,"Ġê³¨ëª©":12299,"Ġê·ĢíķĺìĿĺ":12300,"Ġìłģìļ©íķł":12301,"Ġìĥīì¡°":12302,"ĠìĿ¸ê°ĦìĿĢ":12303,"Ġë¬¼ë¡łìĿ´ê³ł":12304,"ĠëıĮìķĦìĺ¤":12305,"ĠìĭľìĬ¤íħľìĿĢ":12306,"ĠíĤ¤ìļ°ëĬĶ":12307,"ì§ĢëıĦìĤ¬":12308,"ĠíĿ¬ê·Ģ":12309,"ĠëıĦìĭľìĿĺ":12310,"ĠìŀĲë£ĮìĹĲ":12311,"ĠíĶ¼íķ´ê°Ģ":12312,"Ġëĵ¯íķĺëĭ¤":12313,"Ġìĭ¤ìĭľíķľ":12314,"Ġì£¼ë¯¼ëĵ¤ìĿĺ":12315,"Ġï»¿":12316,"Ġìĭľíĸīëł¹":12317,"ĠìĦ¤ë¦½ëĲľ":12318,"åħ¬":12319,"Ġê²ªëĬĶ":12320,"Ġvar":12321,"Ġíĳ¸ëĵľ":12322,"ards":12323,"Ġì°¸ê³łë¡ľ":12324,"Ġë¬´ëĮĢìĹĲ":12325,"ĠëĤĺíĥĢëĤĺê³ł":12326,"ĠëĴ·ë°Ľì¹¨":12327,"ë°Ģë¦¬ë¯¸íĦ°ìĿ´íķĺ":12328,"ĠìĺµìħĺìĿĦ":12329,"ĠìĨĶë£¨ìħĺìĿĦ":12330,"ĠíĥģìĽĶíķľ":12331,"ĠìķĦìī¬ìļ´":12332,"Â·Â·Â·":12333,"Ġëĭ¤ë£¬":12334,"ĠëĦ¤ìĺ¤ê²½ìłľ":12335,"ĠëĬĲê¼Ī":12336,"nbsp":12337,"Ġëĭ¤ì±Ħë¡ľìļ´":12338,".âĹ":12339,"220":12340,"WM":12341,"put":12342,"ĠëĮĦìĬ¤":12343,"ìĦľìķ¼":12344,"ë¦¬ëĵľ":12345,"ìĭľëĮĢìĿĺ":12346,"ìŀĲë§ĪìŀĲ":12347,"ìĸ´ì§ĢëĬĶ":12348,"ìłķìĽĲ":12349,"ìłķíĻķ":12350,"ìłĦëıĦ":12351,"ìĹħìĹĲ":12352,"Ġì£¼ìĨĮë¥¼":12353,"ĠìĿ¸ìĦ±":12354,"ê³Ħì¸µ":12355,"Ġì¤ĳëıĻ":12356,"Ġì¤ĳëıħ":12357,"ëŁ¬ê°Ģ":12358,"íķĻìĪł":12359,"ìĺ¤íĶĦ":12360,"ìĪ¨":12361,"íĨµìĥģ":12362,"Ġì§Ħê³µ":12363,"Ġë§İìķĦìĦľ":12364,"íĶĦëŀĳ":12365,"ĠíĺĦìĥģìĿĦ":12366,"inst":12367,"Ġê³ĦëŀĢ":12368,"íĺĦìĿ´":12369,"Ġì¢ĭìķĺìĬµëĭĪëĭ¤":12370,"ë¡łìĿ´":12371,"Ġìĸ´ì¨Į":12372,"ëĶĶìĬ¤":12373,"ê²ĥìĿ´ëĭ¤":12374,"alm":12375,"Ġì²Ńíĥģ":12376,"ĠìĹĲì½Ķ":12377,"ëıħë¦½":12378,"ĠìĹ°êµ¬ìĨĮ":12379,"Ġì¤ĳìļĶíķ©ëĭĪëĭ¤":12380,"Ġìµľê³łê¸ī":12381,"ê¸°ìĹħìĿĺ":12382,"Ġê·Ģë¥¼":12383,"ìľµíķ©":12384,"ĠíĻĪëŁ°":12385,"ĠìķĦì§ģê¹Įì§Ģ":12386,"Ġnm":12387,"ê¼½":12388,"Ġëħ¹ìĿĮ":12389,"ĠìĬ¬ë¡¯":12390,"Ġìĸ´ëłµê²Į":12391,"ession":12392,"ìĬ¤ëŁ½ëĭ¤":12393,"ĠìŀĳìĦ±íķľ":12394,"Ġëħ¼ìĿĺê°Ģ":12395,"Ġë¯¼ì¡±ìĿĺ":12396,"Ġë¹Ħìľ¨ìĿ´":12397,"Ġìĸ´ìļ¸ë¦¬ëĬĶ":12398,"clud":12399,"Ġìļ°ìļ¸ì¦Ŀ":12400,"Ġìĥģì²ĺë¥¼":12401,"Ġì²Ńìķ½ì²łíļĮ":12402,"ìľłê³µìŀĲ":12403,"ĠíĬ¸ëŀľìĬ¤":12404,"1000":12405,"eed":12406,"ŃëĭĪëĭ¤":12407,"ê³§":12408,"íķľìĿ¸":12409,"ë§µ":12410,"ĠìĿ´ìľ¤":12411,"ìŀĲëĤĺ":12412,"ĠìĪĺìĭľ":12413,"ĠìĪĺíĻķ":12414,"íĸĩ":12415,"Ġíķ´ë§":12416,"Ġêµ½":12417,"ìķĦíģ¬":12418,"íĬ¸ëłĪìĿ´":12419,"ìĪĺìĤ¬":12420,"ĠâĢ»":12421,"ĠìŀĲê¸°ê°Ģ":12422,"Ġì£¼ëĲľ":12423,"Ġëª¨ëįĺ":12424,"íĸīëıĻ":12425,"Ġìĺ¤ë¥´":12426,"Ġìĺ¤íİĺëĿ¼":12427,"Ġê³łêµĲ":12428,"ĠìĨĮë©¸":12429,"ìļ´ëıĻìĿĦ":12430,"ĠìĹ¬ì§Ģê°Ģ":12431,"ĠìĹ¬ìĿĺëıĦ":12432,"ĠìĹ°ìĥģ":12433,"Ġìĭłê²½ìĿĦ":12434,"ë¯¸íķľ":12435,"Ġë§İìĿĦ":12436,"ĠìĤ¬ëŀĮìĹĲ":12437,"ĠìłĢìĨĮëĵĿ":12438,"ĠìķĮíĮĮ":12439,"Ġë¶Īë§ĮìĿĦ":12440,"Ġìļ°ë¦¬ëĤĺëĿ¼ëĬĶ":12441,"Ġê¹Ģì§Ģ":12442,"Ġê¹Ģê¸°":12443,"ĠìĤ¬ìļ©íķľëĭ¤":12444,"ëĶĶì§ĢíĦ¸":12445,"Ġê²ĥìĿ´ê¸°":12446,"Ġì¶ľìĥĿ":12447,"ì½ĶëĶ©":12448,"ëĭ¬ìķĦ":12449,"ĠCol":12450,"ale":12451,"ì¦ĪìĿĺ":12452,"ĠíķĦìļĶëĬĶ":12453,"ĠìĨįëĪĪìį¹":12454,"Ġê¸Īë°©":12455,"ë³Ģíĺ¸":12456,"Ġë¡ľìĬ¤":12457,"ëĿ½ìĿĦ":12458,"Ġë²ĦìĦ¯":12459,"ĠìĹ°êµ¬ê°ľë°ľ":12460,"ĠëĦ¤ìĿ¼":12461,"ê·łíĺķ":12462,"ĠGS":12463,"Ġê³łê°Ŀëĵ¤ìĹĲê²Į":12464,"Ġë¬¸íĻĶìľłìĤ°":12465,"Ġì±ħìŀĦìĿĢ":12466,"Ġì¹¨ë¬µ":12467,"uth":12468,"íķ´ë§":12469,"Ġë°Ģëł¤":12470,"Ġê²½ìŁģìĿ´":12471,"ĠìķĦëŀĺìĹĲ":12472,"ĠíĸīìĤ¬ìĹĲ":12473,"ull":12474,"Ġìłľì¡°ìĹħì²´":12475,"ìĬ¤ëŁ½ê³ł":12476,"Ġìŀĥê³ł":12477,"ĠíĶĮëŀ«íı¼ìĿĦ":12478,"ìķŀìĹĲ":12479,"Ġê°Ħëĭ¨íŀĪ":12480,"Ġìį¨ìķ¼":12481,"ĠëĬĲê»´ì§ĢëĬĶ":12482,"Ġì²´ê³ĦìłģìĿ¸":12483,"ĠëĮĢì±ħìĿĦ":12484,"Ġì¶ĶìĸµìĿĦ":12485,"ĠìĿµìĪĻíķľ":12486,"Ġformed":12487,"Ġì¤Ħìĸ´ëĵł":12488,"Ġìķ¡ìĦ¸ìĬ¤":12489,"Ġìĸ´ëĸ¨ê¹Į":12490,"ĠìĬ¬ëĿ¼ìĿ´ëĶ©":12491,"yrics":12492,".]":12493,"78":12494,"LA":12495,"MC":12496,"Pro":12497,"ÃŃ":12498,"ĵĴ":12499,"íķĺê°Ģ":12500,"íķĺëĵľ":12501,"ê°Ģëĵ¤ìĿ´":12502,"ìķ¨":12503,"ìľ¼ëĭĪê¹Į":12504,"ĠìĤ¬ìļ°":12505,"ìĸ´ëĬĲ":12506,"Ġ110":12507,"ĠëĮĢê°ľ":12508,"ëĮĢì¤ĳ":12509,"ĠíķĺìĪĺ":12510,"Ġê°ĢíĨ¨ë¦Ń":12511,"ĠìķĦì¹´ëį°ë¯¸":12512,"ìļ°ë©°":12513,"ë¹ĦêµĲ":12514,"íĸĪëĭ¤ë©´":12515,"ì¡°ìłĪ":12516,"Ġê³µìłģ":12517,"ìŀĦìĿ´":12518,"íķĻê¸°":12519,"Ġê³łëĤľ":12520,"ê¹Įì§Ģë§Į":12521,"ë¶Ħë¥ĺ":12522,"Ġìľłìłģ":12523,"Ġìľłëł¥":12524,"ë§ĪìĬ¤íĦ°":12525,"Ġë§ĪìĿ¼":12526,"ĠìĦľë¶Ģ":12527,"Ġë°Ķë¥´":12528,"Ġê¸´ë°Ģ":12529,"Ġë°ľëĿ¼":12530,"Ġë¯¸ì¹ł":12531,"Ġë¯¸ì¹ĺì§Ģ":12532,"ë°©ìĿĺ":12533,"Ġìĭ¤ëł¥":12534,"ì°¨ë³Ħ":12535,"ì°¨ìĿ´ì¦Ī":12536,"Ġê±°ë¦¬ë¥¼":12537,"Ġë©ķìĭľì½Ķ":12538,"ìĸ´ë°":12539,"Ġê²°ìĭ¬":12540,"ì²Ńêµ¬":12541,"Ġê°Ĳì§Ģ":12542,"ì¸Ħ":12543,"ê°ĲëıĦ":12544,"Ġëĭ¹íķľ":12545,"íĭ°ì§Ģ":12546,"ĠíĻķë¥łìĿ´":12547,"Ġíķ©ìĦ±":12548,"Ġíķ©ë²ķ":12549,"ĠëĳĲë£¨":12550,"Ġìĺ¬ë¦¬ê³ł":12551,"Ġëį°ìĹĲ":12552,"Ġëĵľë¬¼":12553,"Ġíģ¬ë¦¼":12554,"Ġìĭ¶ì§Ģ":12555,"Ġì²ľìķĪ":12556,"ëī´ìĸ¼":12557,"Ġë¸ĮëĿ¼ìļ´":12558,"íĮĢìĿĺ":12559,"ĠìĿĺë¯¸íķĺëĬĶ":12560,"Ġ180":12561,"ĠíĻĺê²½ìĿ´":12562,"ĠìĺĪìłķìŀħëĭĪëĭ¤":12563,"ĠìļĶêµ¬ìĹĲ":12564,"ĠìĥģíĥľìĹĲ":12565,"ĠíĥĪëĿ½":12566,"ìĬ¬ëŁ¬":12567,"ĠíĮĢìĿĺ":12568,"ê¼Ń":12569,"Ġê¸°ìĸµìĿĦ":12570,"ĠìĶ¨ê°Ģ":12571,"ĠìĤ¬íķŃìĹĲ":12572,"Ġê°ĳìĥģìĦł":12573,"ĠìļĶì²Ńíķł":12574,"Ġê¾¸ë©°":12575,"ì¿¼íĦ°":12576,"Ġëĵ±ìŀ¥íķľ":12577,"ĠíŀĪíĬ¸":12578,"ĠìĬµê´Ģ":12579,"ê³ĦíļįìĿĦ":12580,"ĠìłĬìĿĢìĿ´":12581,"ĠíĹĮë²ķìŀ¬íĮĲ":12582,"Ġìļ°ìĬ¹ìĿĦ":12583,"Ġusing":12584,"ĠìĹīëį©":12585,"ervice":12586,"Ã³n":12587,"ìłķê·ľì§ģ":12588,"()":12589,"79":12590,"Hz":12591,"PD":12592,"SN":12593,"æĢ":12594,"çŁ":12595,"Ġup":12596,"íķĺë¥¼":12597,"ìĿ¼ìľ¼":12598,"ê¸°ìĹĲìĦľ":12599,"ĠìĿ´íĻĶ":12600,"ëłĲ":12601,"ìķĦëıĻ":12602,"ë§Įëĭ¬ëŁ¬":12603,"ê¸į":12604,"ì£¼êµĲ":12605,"ìĽĶìĺ¤ìłĦ":12606,"Ġì£¼ìĭľê¸°":12607,"Ġê²½ë¥ľ":12608,"ì¡°ìĿ´":12609,"ì¡°ìĻĢ":12610,"Ġê³µìĿµ":12611,"Ġë¶Ģìłģ":12612,"Ġë¶ĢëĮĢ":12613,"Ġê³łìĭľ":12614,"ìľĦíķ´":12615,"Ġë¹Ħíıī":12616,"Ġìľłë§Ŀ":12617,"ĠìĹĨëıĦë¡Ŀ":12618,"Ġë§ĪìĬ¤íĦ°":12619,"Ġë°ĶìľĦ":12620,"Ġë§Ĳë¯¸":12621,"ĠìĦ¸ìĥģìĿ´":12622,"Ġê¹İ":12623,"ĠëĤ´ë¦¬ëĬĶ":12624,"ĠìµľìĪľìĭ¤":12625,"ìĹŃìĿ´":12626,"ĠìĦ±ìłģìĿĦ":12627,"íĽĦêµ°":12628,"íĽĦëį¥ì§Ģê·¼íķľ":12629,"Ġìŀ¥ë¹Ħë¥¼":12630,"Ġê°ķìĤ¬":12631,"ĠìĽĲê²©":12632,"Ġíıīëĵ±":12633,"ëĭ¬ëĿ¼":12634,"ĠìĥĪëģ¼":12635,"Ġì¢ħìłĦ":12636,"arm":12637,"Ġ1970":12638,"ĠìĿ´ìĥģìľ¼ë¡ľ":12639,"Ġë°Ŀê¸°":12640,"íĶĮë¡ľ":12641,"Ġê²Ģì§Ħ":12642,"Ġco":12643,"Ġpage":12644,"Ġë²łë¥¼":12645,"ĠìĦ¤ëªħìĿ´ëĭ¤":12646,"Ġë¹łë¥´ê³ł":12647,"ĠìĤ¬ì§ĦìĿĢ":12648,"ĠìĥĿìĤ°íķĺëĬĶ":12649,"Ġìĺģíĸ¥ìľ¼ë¡ľ":12650,"ìĹ°íķ©íļĮ":12651,"ĠìŀĲìĹ°ìĿĺ":12652,"Ġno":12653,"ayer":12654,"íĴįìĿĦ":12655,"Ġê³łëł¤íķ´":12656,"Ġê°ĳìŀĳ":12657,"ĠìľĦíĹĺíķľ":12658,"ĠìĹ¬ëŁ¬ë¶ĦìĿ´":12659,"ìºĲìĭľ":12660,"ĠìĹ¼ëł¤":12661,"íİľíĮĶ":12662,"ìħĢëŁ¬":12663,"Ġë§ģíģ¬ë¥¼":12664,"Ġì§Ģêµ¬ì´Į":12665,"Ġì§ĢíĤ¤ëĬĶ":12666,"ĠëĬĺìĸ´ëĤĺëĬĶ":12667,"æĹ¥":12668,"74":12669,"Ex":12670,"wit":12671,"¨¹":12672,"æĻ":12673,"ì¥¬":12674,"ĺëĬĶ":12675,"ļê½ĥ":12676,"ëĭ¤ì§Ģ":12677,"ìĦ¹":12678,"íķĺëĵ¯":12679,"ì§ĢìĭĿ":12680,"ì§Ģê±°ëĤĺ":12681,"ëıĦìĤ¬":12682,"ìľ¼ëł¤ê³ł":12683,"ëĵ¤ìĹĲìĦľ":12684,"ĠìŀĪê²łëĭ¤":12685,"ĠìĪĺìĭľë¡ľ":12686,"ìĽĲìĿ¸":12687,"Ġìĸ½":12688,"ëıĻíı¬":12689,"Ġë³´ìľ¡":12690,"ĠìĿ¸ì¦ĿìĿĦ":12691,"ĠìĿ¼ëĮĢ":12692,"ëĲĺìĹĪëįĺ":12693,"íĸīìĿĢ":12694,"ì²´ìłģ":12695,"Ġìľłíķ´":12696,"ê²½ê¸°ëıĦ":12697,"ë¬´ìĹĩ":12698,"ë¬¼ë¥ĺ":12699,"íĨµìĿ´":12700,"ĠìĬ¤íİĻ":12701,"Ġìµľëĭ¤":12702,"Ġìµľìļ°ìĪĺ":12703,"ë²ķìĥģ":12704,"ì¤ĳìĨĮ":12705,"Ġë¶Ħìĭ¤":12706,"ëĬ¥ëł¥ìĿĦ":12707,"ĠìĺĪìĤ°ìĿĦ":12708,"ëĶ§":12709,"ĠìĤ¬ëŀĮëĵ¤ëıĦ":12710,"Ġë¬´íļ¨":12711,"ë³¸ìĿĦ":12712,"Ġë§¤ë²Ī":12713,"Ġìłģê²Į":12714,"Ġëĭ¨ìĨį":12715,"ë§¤ìĪĺ":12716,"Ġë°°íĦ°":12717,"Ġìŀĳê°Ģê°Ģ":12718,"Ġì°¨ìĽĲìĿĺ":12719,"ì¢ħìĿĢ":12720,"ë¦½íĬ¸":12721,"Ġ800":12722,"ëĤ¨ìŀĲ":12723,"Ġë¦¬íı¬":12724,"Ġ1960":12725,"Ġëį°ìĿ´íĬ¸":12726,"Ġìķ½ê´ĢìĿĢ":12727,"Ġìĺ¨ì¹´ì§Ģëħ¸":12728,"Ġì¹ĺíĤ¨":12729,"Ġíİ¸ìĿ´":12730,"Ġìĭľê°Ħë³Ħ":12731,"Ġì²´ìłľ":12732,"Ġì²´ì¤ĳ":12733,"ĠëĿ¼ìĬ¤":12734,"Ġì¤ĦìĿ´ê³ł":12735,"ĠíĺĳíļĮ":12736,"ĠìĿ´íĽĦë¡ľ":12737,"Ġê´Ģê³ĦìŀĲ":12738,"ìĹ´ìĿ´":12739,"Ġíı¬íķ¨íķĺìĹ¬":12740,"Ġë³´ëŀĮ":12741,"êµĲìľ¡ì²Ń":12742,"Ġìĵ°ì§Ģ":12743,"Ġê¸°ë¡Ŀíķĺê³ł":12744,"Ġìĸ»ê²Į":12745,"Ġì¤Ģë¹Ħê°Ģ":12746,"ĠìĤ¶ê³¼":12747,"Ġë°ľíĳľëĲľ":12748,"Ġìĺ¤ëĬĺëıĦ":12749,"Ġë©´ìĦ¸":12750,"Ġíıīê°ĢíĸĪëĭ¤":12751,"ìĿ´ìĸ´ìķ¼":12752,"ëĵ¯íķľ":12753,"Ġnot":12754,"Ġê¸°ì¡´ìĹĲ":12755,"Ġê·ľëª¨ë¡ľ":12756,"ĠëĤĺëĿ¼ê°Ģ":12757,"ĠìĬ¬íĶĶ":12758,"Ġ1997":12759,"Ġìĸ´ëĶĶìĹĲ":12760,"Ġì°¨ì§Ģíķĺê³ł":12761,"Ġë¹Įëł¤":12762,"ìķŀìĦľ":12763,"obile":12764,"Ġì¼ĢìĿ´ìĬ¤":12765,"Ġê·łíĺķìĿĦ":12766,"ĠíĽĪëł¨ìĿĦ":12767,"Ġê±°ì£¼íķĺëĬĶ":12768,"ĠìłľìĿ¼ìķĪìłĦíķľ":12769,"Ġëįĺìł¸":12770,"ëļ±":12771,"Ġìŀ¥ëĤľê°ĲìĿĺ":12772,"ĠìĻĢìĿ´íĮĮìĿ´":12773,"Ġë¶ķê´´":12774,"ĠìľłíĬľë²Ħ":12775,"Ġì¦Ĳê±°ìĽĢìĿĦ":12776,"Ġë¡ľê·¸ìĿ¸":12777,"ĠìĿ´ìĬ¬ëŀĮ":12778,"ë°Ģë¦¬ë¯¸íĦ°ìĿ´íķĺë¡ľëĬĶ":12779,"=+":12780,"SA":12781,"XL":12782,"ied":12783,"les":12784,"nect":12785,"ole":12786,"âĺ":12787,"ë¿":12788,"Ġhe":12789,"ìĿ¸ëĵ¤ìĹĲê²Į":12790,"ëłµ":12791,"ë³¶":12792,"ĠìĤ¬ë¬¼":12793,"ĠëĮĢëª©":12794,"ë¶Ģê³łìĭľìłľ":12795,"Ġê°ĢìĤ°":12796,"íĻĶë¬¸":12797,"Ġìłķíķ´ì§Ħ":12798,"Ġë³´ìĥģìĿĦ":12799,"ìļ°ìĦ±":12800,"ĠìĿ¸ìĬ¤íĥĢê·¸ëŀ¨":12801,"ê³ĦìĹĲìĦľ":12802,"ê³µìĤ¬ëĬĶ":12803,"ì§Ħë£Į":12804,"ìĺ¤ëĭĪ":12805,"Ġìľłëıħ":12806,"Ġë§ĪëĶĶ":12807,"ìķĪìłķ":12808,"ìķĪíĥĢ":12809,"ìĭ¤ê³¼":12810,"ìľłì§Ģ":12811,"ĠìķĪìĤ°":12812,"ĠìķĪìĸĳ":12813,"íģ¬ë¦¼":12814,"Ġìŀ¥ë¡Ģ":12815,"ĠíļĮìĿĺë¥¼":12816,"Ġë¬´ì§Ģ":12817,"Ġíı¬ë¥´":12818,"Ġì¶ĶëĿ½":12819,"Ġê°ĲìĤ¬ìĿĺ":12820,"ĠìĤ¬ìļ©íķ©ëĭĪëĭ¤":12821,"Ġëĭ¹ëĭ¹":12822,"Ġëĭ¹ìĤ¬ìŀĲ":12823,"ê»ĺìĦľëĬĶ":12824,"ê²°êµŃ":12825,"ê²łìĸ´ìļĶ":12826,"Ġëĭ¬íķľëĭ¤":12827,"Ġë¦¬ìĬ¤íģ¬":12828,"Ġëį°ëĬĶ":12829,"ĠìĿ´ëŁ´":12830,"Ġë¬¸ìłľìłĲìĿĦ":12831,"ë°ķê·¼íĺľ":12832,"ìĥīìľ¼ë¡ľ":12833,"ĠìķĦìĿ´ëĬĶ":12834,"ĠìķĦìĿ´ëĵ¤ìĿĢ":12835,"Ġì¹ĺëªħ":12836,"ìŀĪìĸ´":12837,"Ġíİ¸ë¦¬íķľ":12838,"Ġì½ĶëĦĪ":12839,"ë³´ëĭ¤ëıĦ":12840,"ĠLTE":12841,"Ġê±¸ê³ł":12842,"Ġê±¸ë¦´":12843,"Ġìĭ¶ëĭ¤ëĬĶ":12844,"Ġì¤ĳêµŃìĹĲìĦľ":12845,"ĠêµĲìľ¡ìĿĺ":12846,"2019":12847,"Ġì§ĢìĽĲíķł":12848,"Ġì¤ĦìĿ¼":12849,"ìĹĨëĭ¤":12850,"Ġëħ¼ìĿĺë¥¼":12851,"ĠìĿ¼ë³¸íİľíĮĶ":12852,"Ġë§ĪìĿĮìĿĢ":12853,"êµĲìľ¡ìĿĺ":12854,"Ġìŀ¡ì§Ģ":12855,"ĠìŀĪìĹĪìĿĦ":12856,"Ġë¬¸íĻĶê°Ģ":12857,"ĠíĻľìļ©íķĺëĬĶ":12858,"Ġë¶Ħìķ¼ë¥¼":12859,"ĠëıĮìķĦìĻĶëĭ¤":12860,"ĠíķĻêµĲìĹĲ":12861,"Ġê°ĢìŀħìŀĲ":12862,"ĠíĥĦíĥĦ":12863,"Ġìĭ¤ìĭľíķĺê³ł":12864,"ĠëĽ°ìĸ´ëĤĺ":12865,"ocum":12866,"Ġê²¬ìĿ¸":12867,"Ġ1996":12868,"Ġ1999":12869,"Ġìĸĺê¸°ë¥¼":12870,"Ġì¢ĮìłĪ":12871,"ëĪĪìĹĲ":12872,"Ġëľ¨ê²ģ":12873,"ëĲĺìĹĪìĿĦ":12874,"ĠìļĶì¦ĺìĿĢ":12875,"íİľìħĺ":12876,"Ġë¶Īíİ¸íķľ":12877,"Ġì¤ĳê°ĦìĹĲ":12878,"ëĤ®ëĤ®":12879,"Ġë¹ĦíĬ¸ì½ĶìĿ¸":12880,"íķĺìħ¨ìĬµëĭĪëĭ¤":12881,"ĠëıĦìĦľê´Ģ":12882,"ì¾ĮìłģíķľëĶ°ëľ»íķľ":12883,"Ġë»Ķ":12884,"resent":12885,"ency":12886,"Ġìłķì²´ìĦ±ìĿĦ":12887,"Ġê·¼ì²ĺìĹĲ":12888,"Ġê¸īê²©íŀĪ":12889,"Ġì§Ģë°©ìŀĲì¹ĺëĭ¨ì²´":12890,"ìħ¨ìĸ´ìļĶ":12891,"LC":12892,"eat":12893,"por":12894,"tr":12895,"Ġ]":12896,"Ġ}":12897,"Ġìī´":12898,"ĠëĮ":12899,"ë¡ľìĹĲ":12900,"ìĿ¼ëª°":12901,"ê°Ģê²Į":12902,"ë§ĳìĿĢ":12903,"íķ´ìĻĶ":12904,"ìĭľíģ¬":12905,"ĠìĿ´ì¢ħ":12906,"ìĬ¤íİĺ":12907,"ëĿ¼ê°Ģ":12908,"ĠìĤ¬ìķĪ":12909,"ëį§":12910,"Ġê°ĢëĿ¼":12911,"Ġì§Ģì§Ģë¥¼":12912,"ë§Įê°Ħ":12913,"ì£¼ìĤ¬":12914,"ìłĦíĨµ":12915,"íķĺëĬĶë²ķ":12916,"Ġëĭ¤íķ´":12917,"Ġëĭ¤ìĬ¤":12918,"íĦ±":12919,"ĠìĿ¸êµ¬ê°Ģ":12920,"ìĨĮìħľ":12921,"Ġê°ľê´Ģ":12922,"Ġìĺ¤ë©´":12923,"Ġìĺ¤ìĬ¤íĬ¸":12924,"ĠìĨĮìķĦ":12925,"ìŀ¬ê°Ģ":12926,"ĠìĽ¬":12927,"íģ´ëŀĺ":12928,"ìľłíĺķ":12929,"Ġë°ĶìĹĲ":12930,"ĠìĬ¤ì½Ķ":12931,"ĠìĦ±íıŃ":12932,"ì°¨ëŁī":12933,"Ġê°ĻìķĦìĦľ":12934,"íĸĪëĬĶì§Ģ":12935,"ì²ľìĿĺ":12936,"ĠìĽĲìŀĲ":12937,"ĠìĽĲìŀ¥":12938,"ê±´ìĹĲ":12939,"Ġì¶Ķì¸¡":12940,"ê²ĮìŀĦìĤ¬ìĿ´íĬ¸":12941,"ĠìĤ¬ìļ©ìĿ´":12942,"Ġì°¨ìĽĲ":12943,"Ġì¢ĭìķĺëĭ¤":12944,"ìłĢì¶ķìĿĢíĸī":12945,"Ġ68":12946,"ĠíķľêµŃìĺģíĻĶ":12947,"ĠSD":12948,"ëħ¸íĬ¸":12949,"Ġëį°ëł¤":12950,"ĠìĸĳìĿĺ":12951,"ìĺĪìłķ":12952,"ĠìĨįëıĦë¡ľ":12953,"Ġìĭľìŀĳíķł":12954,"Ġê·¸ëŁ¬ëĭ¤":12955,"Ġserver":12956,"ì»¤íĶ¼":12957,"Ġë²ĪìĿĺ":12958,"ĠíĺķìĭĿ":12959,"ìłĳíķľ":12960,"Ġëıħì°½":12961,"Ġì§ĪìĿĺ":12962,"ĠëĮĢíĨµëł¹ìĹĲê²Į":12963,"Ġíŀĺìŀħ":12964,"ĠíĶĮë¡ľ":12965,"roug":12966,"Ġë²łíĥĢ":12967,"Ġë°±ìķħ":12968,"ĠêµŃëĤ´ìĹĲ":12969,"âĢ¦.":12970,"ĠíĶĦë¡ľê·¸ëŀ¨ìľ¼ë¡ľ":12971,"Ġê³łê°ĿìĿĦ":12972,"ĠìŀĪìĹĪëĭ¤ëĬĶ":12973,"Ġìķ¼ìĥĿ":12974,"Ġë¶ģíķľìĹĲ":12975,"Ġê¸°ì¤ĢìĹĲ":12976,"ê³¡ìĿĦ":12977,"ê´Ģë¦¬ìľĦìĽĲíļĮ":12978,"Ġìľłì§ĢíķĺëĬĶ":12979,"íļ¨ìľ¨":12980,"ë§ĮìĽĲìľ¼ë¡ľ":12981,"Ġìłľìŀĳíķľ":12982,"unction":12983,"ĠìĿ½ìĿĦ":12984,"Ġëľ»ìĿ´ëĭ¤":12985,"ĠìĹ°ê²°ëĲľ":12986,"Ġìĭľë¯¼ìĿĺ":12987,"ĠìĦľë¡ľìĿĺ":12988,"Ġìłľì¡°ìĹħ":12989,"Ġ1994":12990,"Ġê²Įìĭľë¬¼ìĿĦ":12991,"Ġì§§ê²Į":12992,"Ġë°ĺìĿĳìĿ´":12993,"ê²½ìĺģìŀĲ":12994,"ĠíĥĳìĬ¹":12995,"ë°¤ë°¤":12996,"ĠìĤ¬ìľłê°Ģ":12997,"Ġë¶ĢíļĮìŀ¥ìĿ´":12998,"Ġwhich":12999,"ĠìĹĲëĦĪì§Ģë¥¼":13000,"ĠìłľìĻ¸íķĺê³łëĬĶ":13001,"ë¹¨ë¦¬":13002,"ĠìĪĺíĹĺìĥĿ":13003,"Ġê°ĢëĤľíķľ":13004,"Ġê°Ģë²¼ìļ´":13005,"ĠëĦīëĦī":13006,"GA":13007,"LE":13008,"jj":13009,"oint":13010,"sion":13011,"£¨":13012,"ĳ¹":13013,"ìķµì»¤":13014,"Ġê°ĵ":13015,"ë§Ļ":13016,"Ġë§Īëĭ¤":13017,"ìĿ¸ëĵ¤":13018,"Ġìĭ¼":13019,"ĠìĿ´ë¦¬":13020,"ĠìĿ´ì§Ħ":13021,"ĠìĿ´ìĪľ":13022,"ĠìĤ¬ëªħ":13023,"ĠìĤ¬ìľ¡":13024,"Ġíķĺìħ¨":13025,"ĠëĵŃëĭĪëĭ¤":13026,"ĠìłĦëıĻ":13027,"ĠìķĦê¹Į":13028,"ìĪĺì§Ģ":13029,"ĠìŀĲìĭĿ":13030,"ĠìŀĲìĻ¸ìĦł":13031,"ĠìŀĲì¹«":13032,"ë¬¸ìľ¼ë¡ľ":13033,"ë¹ĦìĹĲ":13034,"ë¹ĦìłĦ":13035,"Ġê²½ê¸°ê°Ģ":13036,"Ġê³µë¬´":13037,"Ġìĥģëĭ¨":13038,"ĠìĥģíĻĺ":13039,"Ġë¶ĢíĮ¨":13040,"Ġìĺ¤ìĿ¼":13041,"ĠìľłíķĻìĥĿ":13042,"ë§ĪìĿ´íģ¬":13043,"ĠìĹ¬ê°Ŀ":13044,"ìĿĮë£Į":13045,"ìĹ°ê·¹":13046,"ëĭ¹ê³¼":13047,"ĠìĦ¸ìĿ´":13048,"Ġìĺģì£¼":13049,"ìĿ´ëĿ¼ë©´ìĦľ":13050,"ĠëĲĺê²Į":13051,"ĠëıĦìĭ¬":13052,"Ġë¶ĦìĤ°":13053,"ĠëĨĪ":13054,"ìĸ´ëĿ½":13055,"ĠìķĮëłĪ":13056,"ĠëĤ¨ê¸´":13057,"Ġtr":13058,"Ġìŀħë§Ľ":13059,"Ġìŀĳê°ĢëĬĶ":13060,"ë¡łìĿĺ":13061,"Ġ67":13062,"Ġë¬¼ìĸ´ë³´":13063,"ĠíĮĮëĬĶ":13064,"íķŃìłľ":13065,"Ġ82":13066,"Ġëª©ê²©":13067,"ĠìĨĲëª©":13068,"Ġìĭľê°ĦìĿĺ":13069,"ĠIM":13070,"ëŀľì°¨ìĿ´ì¦Ī":13071,"ëĨĪ":13072,"Ġìĸ¸ëįķ":13073,"ĠëĮĢíĳľìłģ":13074,"íıīëĵ±":13075,"Ġìĭ¶ëĭ¤ë©´":13076,"ĠìĹ°êµ¬ìĿĺ":13077,"ĠëĦ¤ìĿ´":13078,"Ġdie":13079,"ĠëĨįë¦¼":13080,"roid":13081,"Ġê°ĸëĬĶëĭ¤":13082,"ĠìĿ´ìĸ´ì§Ģê³ł":13083,"ì¸µìĿ´":13084,"ĠíĶĦë¡ľê·¸ëŀ¨ìĿĺ":13085,"Ġê³łê°ĿìĦ¼íĦ°":13086,"ê²Ģìĥī":13087,"ĠíħĮëŁ¬":13088,"Ġê³¨ëĵł":13089,"Ġê°ĪëĿ¼":13090,"íķĺìĺĢëĬĶëį°":13091,"ĠìĿ¸ê°ĦìĿĦ":13092,"ĠíıŃëĦĵ":13093,"ĠëıĮìķĦìĺ¨":13094,"ĠìĭľìĬ¤íħľìĹĲ":13095,"Ġê¸°ê°ĦìĿĢ":13096,"emb":13097,"Ġì¹ľêµ¬ëĵ¤ìĿ´":13098,"ĠíĳľíĺĦìĿĦ":13099,"Ġì§Ģë°©ìĿĺíļĮ":13100,"ĠìĨĮê°ľíĸĪëĭ¤":13101,"Ġëª¨ëį¸ë¡ľ":13102,"Ġëª¨ëį¸ìĹĲìĦľëĬĶ":13103,"íĭĢë¦°":13104,"ĠìĿ´ë£¨ìĸ´ì§ĢëĬĶ":13105,"Ġìĭľë¯¼ëĵ¤ìĿĺ":13106,"Ġê·ľëª¨ëĬĶ":13107,"Ġì¡°ìĦłì¡±":13108,"Ġì°¸ìĦĿíĸĪëĭ¤":13109,"ĠìľĦíĹĺìĿĦ":13110,"Ġëŀ©":13111,"ë³¸ë¶Ģìŀ¥":13112,"ĠìĨĮìŀ¬ë¡ľ":13113,"Ġëı¼ìļĶ":13114,"ĠìķĦì¹¨ìĹĲ":13115,"Ġë§ĲìĿ´ì£ł":13116,"âĪĻ":13117,"ĠìĺģìĹŃìĹĲìĦľ":13118,"Ġìºłíķĳ":13119,"ĠëĲĲìĬµëĭĪëĭ¤":13120,"ĠìĹĦë§Īê°Ģ":13121,"ĠíĻĶë©´ìĿĦ":13122,"Ġë¹Ħìľ¨ìĿĢ":13123,"ĠíĿ¡ìĹ°":13124,"Ġëĭµë³ĢìĿĦ":13125,"ĠìĬ¤ìľĦì¹ĺ":13126,"åľ¨":13127,"ì±ħìŀĦìŀĲ":13128,"ĠìĿ´ëĿ¼ëĬĶ":13129,"ĠìĿ´ìĻ¸ìĿĺ":13130,"âłĢâłĢâłĢâłĢâłĢâłĢâłĢâłĢ":13131,"Ġíķĳíģ¬":13132,"theBike":13133,"naver":13134,"Ġìķŀìŀ¥ìĦľ":13135,"íĤ¬ë¡ľë¯¸íĦ°ìĿ´ëĤ´ëĬĶ":13136,"Cl":13137,"fig":13138,"lt":13139,"line":13140,"æ²":13141,"ëĺĳ":13142,"ï§":13143,"ìĿ´ì²ĺëŁ¼":13144,"íķĺëĦ¤ìļĶ":13145,"ìĭľìŀ¥ìĿĺ":13146,"ìĭľìŀ¥ìĹĲ":13147,"ìŀĲë¦¬ìĹĲ":13148,"ëĿ¼ë¦¬":13149,"ĠìĪĺìĿĺ":13150,"ĠìĤ¬ëĭ¤ë¦¬":13151,"ìĸ´ìĻĢ":13152,"ĠëĮĢìĤ¬":13153,"ĠëĮĢëĮĢ":13154,"ìĽĲìłĦ":13155,"Ġíķĺìĭľê³ł":13156,"Ġê¸°ì§Ģ":13157,"Ġê°Ģíķ´":13158,"Ġê°ĢëŁī":13159,"ìķĦë¥¼":13160,"íĻĶìŀ¥":13161,"ìĻĢìĿ´":13162,"ëħĦìĿĢ":13163,"ĠìľĦì£¼ë¡ľ":13164,"ê³ĦìĹ´":13165,"Ġì¤ĳê°ľ":13166,"Ġë¶Ģë¥¸ëĭ¤":13167,"ìĦłê³¼":13168,"Ġë¹ĦìĦľ":13169,"Ġë¹Ħë¡Ģ":13170,"ì²´ë¡ľ":13171,"ë¶Ħíķł":13172,"ìĺ¤ìĻĢ":13173,"ìŀ¬íķ´":13174,"Ġì¡°ë¦¬":13175,"ëĦĽ":13176,"Ġë§ĲíĸĪìĬµëĭĪëĭ¤":13177,"ĠëĲĺê¸°ëıĦ":13178,"ĠìĦ±ë³Ħ":13179,"ì°¨ìĿĺ":13180,"Ġìŀ¥ìķħ":13181,"Ġë§¤ìĽĶ":13182,"Ġíı¬ëıĦ":13183,"ë°Ķìļ´ëĵľ":13184,"Ġë°ĺë°ķ":13185,"Ġìŀħêµ¬":13186,"ĠíķľêµŃìĿ´":13187,"ĠíĮĮëŀĢ":13188,"ĠCont":13189,"ì§ĳìĹĲìĦľ":13190,"Ġìłľê³µíķĺìĹ¬":13191,"Ġë§ŀìĦľ":13192,"ĠìŀĲìĭłë§ĮìĿĺ":13193,"Ġëĵľë¡ł":13194,"Ġëĵľë¦´":13195,"Ġíģ¬ê¸°ê°Ģ":13196,"ì¡Įìľ¼ë©°":13197,"Ġë³µìĪĺìĿĺ":13198,"ĠíĨ¡":13199,"Ġì¹ľìłĪíķľ":13200,"ĠìĹ°êµ¬ê°Ģ":13201,"Ġíħľ":13202,"ĠëĤ´ìļ©ìľ¼ë¡ľ":13203,"ï¼ļ":13204,"Ġê°ľë°ľíķĺê³ł":13205,"Ġë¨¹ìľ¼ë©´":13206,"ĠìĽĶê²½":13207,"ëĭµë³Ģ":13208,"ĠêµŃë¯¼ê±´ê°ķë³´íĹĺ":13209,"ĠìĤ°ìĹħíĺģ":13210,"ĠOff":13211,"Ġê³¼ìłķìĿĺ":13212,"Ġë°©ë¬¸ê°Ŀ":13213,"ĠìĨĮë¹ĦìŀĲê°Ģ":13214,"amp":13215,"Ġìĺģíĸ¥ëł¥ìĿĦ":13216,"ĠUI":13217,"Ġê°ľìĿ¸ìłķë³´ëĬĶ":13218,"come":13219,"Ġë§Īëł¨ëĲľ":13220,"ĠìĪĺì¤ĢìĹĲ":13221,"ĠìĹħë¬´ìĹĲ":13222,"ĠìĿ¸ìłķíķĺê³ł":13223,"Ġì§ĢëĤĺì§Ģ":13224,"ĠìķĬìķĦìļĶ":13225,"Ġëĵ¯ìĿ´":13226,"ì¤Į":13227,"ĠìĹĶíĦ°íħĮìĿ¸ë¨¼íĬ¸":13228,"Ġì¶ľìĭľëĲľ":13229,"ĠìŀĲìĦ¸ë¥¼":13230,"Ġê²½ì°°ìĹĲ":13231,"ĠìĦłë³´ìĿ´ëĬĶ":13232,"Ġê°Ģìł¸ëĭ¤":13233,"ĠíĺĲìĿĺë¥¼":13234,"íĻĢìĹĲìĦľ":13235,"íķĻëħĦëıĦ":13236,"ĠìŀĲë³¸ì£¼ìĿĺ":13237,"Ġëĺĳê°ĻìĿ´":13238,"Ġë¶ĪëŁ¬ìĿ¼ìľ¼":13239,"ĠìĭłìĨįíķľ":13240,"ì²´ìľ¡ê´Ģê´ĳ":13241,"ìºłíį¼ìĬ¤":13242,"ë°¸ë¦¬":13243,"Ġëĭ¤ìĿ´ìĸ´íĬ¸":13244,"ĠíĻ©íĺ¼ìĿĺ":13245,"\"(":13246,"(\"":13247,"CS":13248,"KT":13249,"__":13250,"get":13251,"çİ":13252,"èĩ":13253,"ë¿Į":13254,"Ĩĳ":13255,"íķĺê¸´":13256,"ë¥´ëł":13257,"ì§ĢëĤĺ":13258,"ì§ĢìĹĦ":13259,"ê°Ģë©´ìĦľ":13260,"ĠìĿ´íĥľ":13261,"ĠìĤ¬íĽĦ":13262,"ĠëĮĢìŀħ":13263,"Ġêµµ":13264,"Ġíķĺìļ°ìĬ¤":13265,"Ġì§ĢìłĲ":13266,"ĠíķľëĳĲ":13267,"ĠìķĦë¥´":13268,"ĠìķĦíĶĪ":13269,"ĠìĭľëĵľëĭĪ":13270,"êµŃíļĮ":13271,"êµ¬ëĭĪ":13272,"êµ¬ì²Ń":13273,"ĠìŀĲë¬¸":13274,"Ġì£¼íĮĮ":13275,"ë¬¸íĻĶë¥¼":13276,"ì¹ĺë©´":13277,"ê³ĦìĻĢ":13278,"ìŀĦìĬ¤":13279,"Ġìĺ¤ë¡ľì§Ģ":13280,"Ġê³łìŀ¥":13281,"êµĲê³¼":13282,"ĠìĿĺìłķ":13283,"ĠìĥĿê²¼ëĭ¤":13284,"Ġì¡°ë§Įê°Ħ":13285,"Ġìĭłìŀ¥":13286,"ëĦĮ":13287,"ê·¸ëŁ¼":13288,"ĠêµŃìĸ´":13289,"Ġë°©ìĹĲ":13290,"ĠìĦ¸ìļ°ê³ł":13291,"Ġìĺģìŀħ":13292,"ĠìµľìĦłìĿĺ":13293,"ĠëĲĺì°¾":13294,"ĠëıĦì¤ĳ":13295,"ĠëıĦë°ķ":13296,"Ġìĭ¤ì¢ħ":13297,"ĠêµĲíĽĪ":13298,"ëĤ´ìĿĺ":13299,"Ġë©į":13300,"Ġë¬´ê±°ìļ´":13301,"ĠìĽĲíķĺìĭľëĬĶ":13302,"Ġê¹Ģì¹ĺ":13303,"ĠëĤ¨ëĬĶ":13304,"Ġìŀħê¸Ī":13305,"Ġê³¼ëıĦíķľ":13306,"ĠíķĦíĦ°":13307,"ì¢ħìľ¼ë¡ľ":13308,"ĠíĿ©":13309,"ĠìĿ´ìļ©ìĿĦ":13310,"ëħ¸ìĿ¸":13311,"ĠAc":13312,"ĠíĹĺ":13313,"Ġì§ĳëĭĪëĭ¤":13314,"ë°ķë¬¼":13315,"ĠìķĦìĿ´ëĵ¤ìĹĲê²Į":13316,"ëĥī":13317,"Ġì½ĶëĶ©":13318,"ĠII":13319,"íĶĮëĿ¼":13320,"Ġëĵ¤ìĸ´ê°Ī":13321,"Ġë¡ľìļ°":13322,"Ġë¡ľëĺĲ":13323,"ëłĪìĿ´íĦ°":13324,"Ġì¡Į":13325,"Ġì±ĦëıĦìĻĢ":13326,"ìłķë³´ìĿĺ":13327,"ĠíĥľêµŃ":13328,"ĠëĲłê¹Į":13329,"ĠìłĦë¬¸ìłģìĿ¸":13330,"ìĹĶíĦ°íħĮìĿ¸ë¨¼íĬ¸":13331,"ëī´ìļķ":13332,"ĠíĻķìĿ¸íķĺëĬĶ":13333,"ĠHSL":13334,"ì¸µìĿĢ":13335,"Ġinclud":13336,"ĠìĤ¬ì§ĦìĿ´":13337,"ìĭŃëĭĪê¹Į":13338,"Ġê·ĢìĹ¬":13339,"ility":13340,"Ġë¨¸ë¬´":13341,"Ġì²łê°ķ":13342,"ĠìĿĳìĭľ":13343,"ĠíıŃë¡ľ":13344,"Ġê²½íĹĺê³¼":13345,"Ġê¸°ëĮĢíķĺê³ł":13346,"Ġë³´íĹĺê³Ħìķ½":13347,"Ġëª°ëŀĺ":13348,"íķĳíģ¬":13349,"Ġëª¸ìĿĺ":13350,"Ġìľłì§Ģíķł":13351,"ëľ°":13352,"ĠìĦ±ê³µìłģìĿ¸":13353,"Ġë§Īëł¨íĸĪëĭ¤":13354,"ìĿĢíĸīìĿĢ":13355,"Ġë¯¹":13356,"íķ´ëĤ":13357,"Ġë³Ģê²½íķł":13358,"ì¼ĢìĿ´ìħĺìĿĦ":13359,"Ġê²½ê¸°ìĹĲìĦľ":13360,"ĠìĤ¬ìĿ´íĬ¸ìĹĲ":13361,"ĠìĪĺíĸīíķł":13362,"Ġíĸīë³µìĿĦ":13363,"Ġê°ĲìĨĮíķľ":13364,"íĺĪê´Ģ":13365,"Ġê³µìľłíķĺê³ł":13366,"Ġê²½ì°°ìĿ´":13367,"Ġê¸°ëĭ¤ë¦¬ëĬĶ":13368,"Ġê¸°íļįìŀ¬ìłķë¶Ģ":13369,"Ġíŀĺëĵ¤ëĭ¤":13370,"Ġë¹Īê³¤":13371,"ìĹĨëĬĶìĿĺ":13372,"ë©ĺíĦ°ë¦¬":13373,"Ġíļ¨ìľ¨ìłģìľ¼ë¡ľ":13374,"ĠíĥĲìĥī":13375,"Ġì»¬ëłīìħĺ":13376,"Ġíĥľìĸĳëł¥":13377,"Ġë°ĸìĿĺ":13378,"Ġì¡°íķ©ìĽĲ":13379,"Ġì±ĦëĦĲìĿĦ":13380,"Ġë¬ĺìĤ¬":13381,"Ġìĥ¤ìĽĮ":13382,"ĠëªħíĻķíŀĪ":13383,"âĦ¢":13384,"Ġcontact":13385,"Ġë°ĽìķĦëĵ¤ìĹ¬":13386,"ĠëĤĺë¦ĦëĮĢë¡ľ":13387,"Ġpacket":13388,"ĠìºłíİĺìĿ¸":13389,"ĠìĥĮëĵľ":13390,"ĠìĿ´ë£¨ìĸ´ìł¸ìŀĪìĬµëĭĪëĭ¤":13391,"Ġstudy":13392,"íį¼ëŁ°ìĬ¤":13393,"ĠìĬ¤íİĺìĿ´ìĬ¤ìĹĲìĦľëĬĶ":13394,"ëĬ¦ê²Į":13395,"Ġìĥīì¡°ìŀħëĭĪëĭ¤":13396,"DR":13397,"land":13398,"par":13399,"yn":13400,"èģ":13401,"Ġart":13402,"ìĿĺìĿĺ":13403,"ë¦¬ë©´ìĦľ":13404,"ìĿ¸ëĵľ":13405,"ĠìĿ´ìĦľ":13406,"ĠìĿ´ë¥´":13407,"ìĬ¤íĨ¤":13408,"ĠìĺĢ":13409,"ĠìľĹ":13410,"ĠìŀĲìĤ¬":13411,"Ġëĵ±ê¸°":13412,"ê³Ħì¢Į":13413,"ĠìĿ¼ëħĦ":13414,"ĠìĿ¼ê°ģ":13415,"ëªħìĿ´ëĭ¤":13416,"Ġìĺ¤íķ´":13417,"ê±°ì§Ħ":13418,"ìĺ¤ëĶĶ":13419,"ìļ´ìĨ¡":13420,"ĠìĹĨìĹĪê³ł":13421,"íģ´ë§ģ":13422,"íŀĪì§Ģ":13423,"ìĿĮìľ¼ë¡ľ":13424,"Ġë§ĮëĤ¬ëĭ¤":13425,"ĠìĦľìĪł":13426,"ìľłê¸°":13427,"Ġìĭłì¶ķ":13428,"ĠêµŃìĤ°":13429,"ĠìµľìĥģìĿĺ":13430,"ĠíĬ¼":13431,"ì¶ľíĮĲ":13432,"ĠìĦ±íĸ¥":13433,"íģ¬ë¦¬íĬ¸":13434,"ĠìłĢìĹĲê²Į":13435,"ĠìĽĲíĺķ":13436,"Ġíı¬ìĬ¤íĦ°":13437,"Ġíķłê¹ĮìļĶ":13438,"Ġìłģìĸ´":13439,"Ġìłģëĭ¹íķľ":13440,"Ġê¹Ģìŀ¬":13441,"íĺĦìĪĺ":13442,"Ġìŀħìĭľ":13443,"íĮĮê°Ģ":13444,"Ġë¬¼ìĹĪëĭ¤":13445,"ĠìļĶìĸĳ":13446,"ëĳĲë¡ľ":13447,"íĤ¤ë¡ľ":13448,"ì¹´ê³ł":13449,"orn":13450,"ator":13451,"ìĸµìĽĲìĿĺ":13452,"ìĭľê°ĦìĹĲ":13453,"ë§ĿìĿ´":13454,"ë§ĲìĿ´":13455,"Ġë¬¸ìłľìĻĢ":13456,"ĠìĸĳêµŃ":13457,"Ġë§ŀì¶ĺ":13458,"Ġê°ĢëĬ¥ìĦ±":13459,"ĠìĿ´ìĥģìĿĢ":13460,"ĠìŀĦê¸°":13461,"Ġë³µìłľ":13462,"ĠíĥĢìĿ¸ìĿĺ":13463,"íĿ¬ê°Ģ":13464,"Ġì¤ĳêµŃìĹĲ":13465,"ĠìĹ°êµ¬ìĹĲ":13466,"Ġë°ľìĥĿíķĺê³ł":13467,"ë§īìĿĦ":13468,"Ġê¼´":13469,"ë¶Ģë¶Ħìłģìľ¼ë¡ľ":13470,"Ġìŀ¡ëĬĶ":13471,"ĠíĻľìļ©íķĺìĹ¬":13472,"ĠëĤľë°©":13473,"ĠíĽĶ":13474,"Ġê²°ìłķíķĺëĬĶ":13475,"íķ´ëĨĵ":13476,"ëłĮì§Ģ":13477,"ĠíĴĪê³ł":13478,"Ġê³µê°ĦìĹĲ":13479,"ĠíĦ°ëĦĲ":13480,"ê¸°ê°ĦìĿĦ":13481,"Ġê³łëł¤íķĺìĹ¬":13482,"ĠëĥĪ":13483,"ĠìĪĺíĸīíķĺëĬĶ":13484,"ĠìłĦëĭ¬íķĺëĬĶ":13485,"Ġreg":13486,"ĠìĦłìĥĿëĭĺìĿ´":13487,"ĠìľłëŁ½ìĹ°íķ©":13488,"ĠëĵľëŁ¬ëĤĺ":13489,"Ġê¹Įëĭ¤":13490,"Ġë¶Ģëª¨ëĭĺ":13491,"Ġíķ´ëĤ":13492,"ĠëĤ©íĴĪ":13493,"aint":13494,"ĠëĤĺëĪĦê³ł":13495,"Ġê°Ħëĭ¨íķĺê²Į":13496,"~~~":13497,"ĠYou":13498,"ĠëĮĢì¶ľìĿĦ":13499,"Ġíİ¸ìķĪíķ¨":13500,"Ġìŀ¥ë©´ìłĦíĻĺ":13501,"ĠëĿ¼ìĿ´ë¸ĮëŁ¬":13502,"ì§ĦíĿ¥ìĽĲ":13503,"´ëŀľ":13504,"ëĳĺëŁ¬":13505,"play":13506,"Ġìľłì¹ĺìĽĲ":13507,"Ġë¹Ħì¤ĳìĿĦ":13508,"Ġëį®ê¸°":13509,"íĪ¼":13510,"ĠëĪĦêµ°ê°Ģ":13511,"ĠëªħìĺĪíĽ¼ìĨĲ":13512,"earch":13513,"æ°ĳ":13514,"ë°´ëĵľ":13515,"Ġë§¤ëĭĪìłĢ":13516,"Ġê¸īìĨįíŀĪ":13517,".^^":13518,"112":13519,"PI":13520,"ts":13521,"¬´":13522,"Ġes":13523,"íķ¸":13524,"ê°Ģë¦¬":13525,"íķ´ì¤Ģ":13526,"ìĤ¬íŀĪ":13527,"ìĤ¬ëĵ¤ìĿĺ":13528,"ëĿ¼ê¸°":13529,"ëĵ¤ë§Į":13530,"ĠìĤ¬ë¦½":13531,"ìłķìĺ¤ìĿ¼":13532,"Ġê°ĢìłķìĿĺ":13533,"ìĪĺìļĶ":13534,"ìĪĺì¦Ŀ":13535,"ë³´íĨµ":13536,"ĠâĢĿ":13537,"êµ¬ë¦¬":13538,"ëıĻê³Ħìĺ¬ë¦¼íĶ½":13539,"ìĽĶëĭ¬":13540,"ë¬¸ìĭł":13541,"ëĭĪìĻĢ":13542,"ĠìĿ¼ì£¼":13543,"ĠìĿ´ëį":13544,"Ġíı´ëįĶ":13545,"Ġë¶Ģì²ľ":13546,"Ġë¶Ģì´Ŀ":13547,"Ġëį¤":13548,"ë§ĪìĤ¬ì§Ģ":13549,"ĠìĥĿìĿ¼":13550,"ëĭ¨ìĹĲìĦľ":13551,"íĺ¸íĶĦ":13552,"ĠìĹ°ë³Ģ":13553,"ìľłìĪĺ":13554,"ëĦ£":13555,"Ġë°©ìĺģ":13556,"ĠëĤ´ìķ¼":13557,"ì¶ľìĿ¼ëª°":13558,"ĠëıĦëĤ´":13559,"ĠêµĲíļĮê°Ģ":13560,"ĠëįĶë³´ê¸°":13561,"ĠëĶ°ë¥´ëĬĶ":13562,"íı¬ìĬ¤":13563,"Ġìłģìłķ":13564,"ê²©ìĿ´":13565,
[...]
